<s>	0
<pad>	0
</s>	0
<unk>	0
▁.	-3.22295
▁	-3.26621
▁,	-3.35664
;	-3.72989
s	-3.86258
apos	-3.99155
▁&	-4.08383
▁the	-4.27338
▁a	-4.50326
e	-4.50852
▁di	-4.53589
o	-4.64018
▁in	-4.68333
i	-4.78816
▁to	-4.81038
▁of	-4.86739
▁e	-4.91949
▁I	-4.93801
?	-4.95038
a	-5.00594
▁and	-5.05945
re	-5.08583
▁che	-5.0976
▁-	-5.10202
&	-5.12604
t	-5.32298
▁you	-5.34072
▁la	-5.37684
▁un	-5.43541
quot	-5.46763
▁il	-5.5084
▁that	-5.50965
▁per	-5.59
d	-5.6193
▁is	-5.65639
ed	-5.69858
▁è	-5.72278
▁it	-5.75957
ing	-5.83773
▁non	-5.84613
)	-5.85531
(	-5.89073
▁...	-5.90059
!	-5.9029
▁for	-5.97599
:	-5.99202
-	-5.99489
▁E	-6.00251
@	-6.03586
▁una	-6.06583
▁l	-6.09791
m	-6.10311
▁@	-6.1078
▁del	-6.11045
▁we	-6.13155
y	-6.13455
▁con	-6.151
▁on	-6.16632
▁be	-6.17113
▁le	-6.18756
▁this	-6.21751
▁i	-6.23859
▁me	-6.25171
to	-6.25719
no	-6.33427
▁with	-6.34482
te	-6.37394
▁da	-6.41997
▁della	-6.42565
▁si	-6.42871
▁was	-6.42961
▁all	-6.43335
/	-6.43868
▁have	-6.44164
▁sono	-6.45783
▁not	-6.45952
▁are	-6.46246
ly	-6.48255
r	-6.52145
ta	-6.533
ve	-6.54065
▁And	-6.56046
▁ha	-6.57469
.	-6.57562
ti	-6.58467
▁come	-6.58916
▁The	-6.59427
▁A	-6.60636
▁Non	-6.61431
▁can	-6.61661
le	-6.65597
n	-6.67386
▁C	-6.6853
▁so	-6.70694
▁You	-6.71505
▁do	-6.72372
▁al	-6.72991
ll	-6.7424
▁se	-6.75382
▁at	-6.78221
▁ma	-6.79594
▁as	-6.82952
▁or	-6.85912
er	-6.86043
▁my	-6.87415
▁It	-6.87954
▁what	-6.90137
▁by	-6.90828
▁mi	-6.91671
▁dei	-6.91707
▁No	-6.92455
▁your	-6.93222
▁Ma	-6.93247
▁più	-6.93537
▁La	-6.9393
▁from	-6.94265
▁they	-6.95031
▁questo	-6.9584
▁So	-6.9915
▁about	-6.99166
▁dell	-6.99722
▁an	-6.99785
▁lo	-7.00584
▁In	-7.02364
▁he	-7.03376
▁know	-7.03438
▁ho	-7.03542
▁ci	-7.03926
▁o	-7.05286
▁like	-7.05565
▁We	-7.06323
▁nel	-7.06498
▁1	-7.08401
▁delle	-7.09278
mente	-7.10787
▁no	-7.1117
l	-7.11324
▁out	-7.11908
▁but	-7.13435
▁one	-7.13925
al	-7.15098
li	-7.15191
▁just	-7.16231
▁up	-7.16577
va	-7.1718
ci	-7.18908
▁alla	-7.19471
ndo	-7.20177
▁c	-7.20352
▁gli	-7.2274
ro	-7.22791
▁there	-7.2319
▁Il	-7.2406
▁will	-7.24452
▁essere	-7.24934
are	-7.2514
mo	-7.25239
zione	-7.27056
vi	-7.29558
la	-7.29756
▁L	-7.30426
▁don	-7.30598
▁su	-7.31492
▁cosa	-7.32011
▁which	-7.32526
lo	-7.33076
▁us	-7.33211
▁What	-7.37891
▁if	-7.38125
▁our	-7.38703
▁get	-7.39731
ri	-7.39894
▁2	-7.42054
▁here	-7.42068
▁Se	-7.42648
na	-7.42655
▁S	-7.43591
▁has	-7.43826
mi	-7.44588
ni	-7.44684
ra	-7.44927
▁who	-7.45134
▁Si	-7.47006
▁cui	-7.47794
▁ad	-7.47825
▁people	-7.4902
▁But	-7.49046
ne	-7.49269
▁anche	-7.50138
▁He	-7.50629
▁Mi	-7.51197
▁solo	-7.5123
th	-7.51748
▁more	-7.52138
▁time	-7.52882
g	-7.52904
▁right	-7.53341
▁think	-7.53791
▁vi	-7.53974
▁go	-7.5406
▁tra	-7.56258
▁would	-7.5631
▁era	-7.56533
▁were	-7.57259
1	-7.5742
ma	-7.57466
▁qui	-7.58078
▁Oh	-7.58429
▁loro	-7.59325
▁been	-7.5955
▁This	-7.59663
ato	-7.60173
3	-7.60314
▁had	-7.60449
▁them	-7.60615
▁questa	-7.60712
ce	-7.60985
▁ti	-7.61295
▁when	-7.61672
▁fare	-7.62235
▁see	-7.62579
▁their	-7.629
▁molto	-7.63158
▁her	-7.63893
▁&#9	-7.64121
▁want	-7.64612
▁fa	-7.65256
▁Ho	-7.6534
in	-7.66587
▁fatto	-7.674
▁3	-7.67958
▁tutto	-7.68292
▁going	-7.6832
▁nella	-7.68575
▁Per	-7.68786
▁de	-7.6909
▁ri	-7.70116
▁very	-7.70279
▁these	-7.70464
▁Le	-7.70511
▁That	-7.70575
▁hanno	-7.71035
▁his	-7.71948
c	-7.72117
▁tutti	-7.73024
▁sa	-7.73606
u	-7.73674
▁now	-7.73696
▁him	-7.73845
ck	-7.73879
=	-7.73944
si	-7.74171
▁po	-7.74302
▁sta	-7.75236
▁ne	-7.75982
▁quando	-7.7636
me	-7.76441
ation	-7.77015
▁other	-7.77257
▁stato	-7.78021
vo	-7.78224
▁mio	-7.78228
▁some	-7.78524
▁anni	-7.79923
▁she	-7.80337
°	-7.80352
▁how	-7.80674
▁got	-7.8097
ga	-7.81159
▁te	-7.81176
▁sia	-7.82007
▁abbiamo	-7.82403
▁dal	-7.83401
us	-7.83703
st	-7.83756
▁O	-7.84016
w	-7.84169
%	-7.84205
▁d	-7.84402
▁because	-7.84777
▁parte	-7.85375
▁io	-7.85473
▁bene	-7.86165
x	-7.86406
ment	-7.87264
▁4	-7.8778
▁way	-7.88346
▁prima	-7.88827
▁5	-7.88839
▁into	-7.88905
▁need	-7.88983
ca	-7.89237
▁back	-7.89675
▁10	-7.89894
▁quello	-7.90231
ità	-7.91079
▁tu	-7.91412
▁due	-7.91814
▁really	-7.91951
ate	-7.91991
▁B	-7.92263
▁make	-7.92396
▁Come	-7.92544
▁where	-7.92637
▁could	-7.92787
▁perché	-7.92854
nte	-7.92978
rà	-7.92995
▁mia	-7.93066
ng	-7.93267
▁Di	-7.9328
ion	-7.93836
iamo	-7.93891
p	-7.9473
▁Lo	-7.94813
▁over	-7.95148
▁degli	-7.95507
▁work	-7.95899
ssi	-7.96089
▁così	-7.96422
▁good	-7.96622
▁should	-7.9666
▁also	-7.96664
on	-7.96983
tion	-7.97545
▁alle	-7.98132
▁They	-7.98228
▁Ci	-7.9941
▁take	-8.00348
co	-8.00556
ar	-8.00906
▁h	-8.00951
▁then	-8.01428
or	-8.01599
▁Ha	-8.01811
▁chi	-8.01859
▁Sono	-8.01986
b	-8.02214
▁persone	-8.02295
go	-8.02304
▁sul	-8.02587
▁modo	-8.02623
▁than	-8.03024
▁only	-8.03405
▁suo	-8.03714
an	-8.03952
▁Well	-8.03963
▁co	-8.04418
▁Che	-8.04978
ry	-8.05565
▁19	-8.07218
ati	-8.07499
▁two	-8.08048
▁È	-8.09123
▁dove	-8.09159
▁first	-8.09533
▁uno	-8.10346
▁say	-8.10483
▁years	-8.10515
ge	-8.10559
▁km	-8.10593
▁sua	-8.11507
h	-8.11946
▁vita	-8.1239
▁down	-8.12471
▁detto	-8.12485
▁said	-8.12526
en	-8.12631
▁idea	-8.13002
▁mai	-8.13182
▁world	-8.13237
sse	-8.1339
▁T	-8.13671
mp	-8.13863
▁hai	-8.13879
ur	-8.13911
▁tempo	-8.1436
▁noi	-8.14925
▁look	-8.14974
▁something	-8.15139
▁dalla	-8.15153
▁può	-8.15801
▁any	-8.15873
▁nell	-8.16009
▁those	-8.16232
▁ancora	-8.16518
▁Do	-8.16621
▁did	-8.16923
▁new	-8.17307
▁man	-8.17629
▁6	-8.17773
▁If	-8.18044
▁pro	-8.18902
▁Ti	-8.19178
▁am	-8.1923
zioni	-8.19703
tto	-8.19761
tti	-8.19894
▁altro	-8.1995
▁Un	-8.20233
▁European	-8.20552
▁sulla	-8.20758
▁sei	-8.20887
▁ora	-8.211
tà	-8.21384
▁Vi	-8.21587
▁mondo	-8.22138
▁car	-8.22186
ke	-8.2254
tta	-8.22653
▁even	-8.23053
▁D	-8.23179
▁Re	-8.23211
▁There	-8.23571
S	-8.23717
ò	-8.24711
▁much	-8.24722
▁cose	-8.24828
v	-8.25031
▁quanto	-8.2521
▁P	-8.25564
▁20	-8.25718
zza	-8.26414
▁lavoro	-8.26525
da	-8.26566
▁She	-8.27311
▁off	-8.27332
pe	-8.27531
▁pre	-8.27825
▁Now	-8.2792
ale	-8.28032
▁G	-8.29042
▁ogni	-8.29152
▁little	-8.29229
▁qualcosa	-8.29417
▁Con	-8.29444
ff	-8.29898
ers	-8.29926
▁7	-8.29981
tu	-8.30247
ia	-8.30384
▁life	-8.30513
▁12	-8.30617
rsi	-8.30781
▁most	-8.3102
azione	-8.31281
sh	-8.31311
▁far	-8.31319
che	-8.31495
▁things	-8.31578
▁li	-8.31798
▁Questo	-8.31895
um	-8.32075
rmi	-8.32318
▁All	-8.32932
▁F	-8.33011
z	-8.33214
▁thing	-8.33257
▁poi	-8.33589
ano	-8.33735
▁ca	-8.33936
▁sempre	-8.34072
▁Al	-8.34091
nza	-8.34235
▁use	-8.34752
ity	-8.34853
ul	-8.34951
▁ai	-8.35122
▁questi	-8.35161
he	-8.35652
nti	-8.36017
ata	-8.37155
▁ed	-8.37407
▁tell	-8.37743
able	-8.38304
I	-8.38331
rti	-8.38546
▁shall	-8.38626
▁place	-8.38778
*	-8.38918
D	-8.39139
il	-8.39678
k	-8.39727
amente	-8.39915
▁For	-8.40112
▁Yeah	-8.40315
▁didn	-8.407
▁siamo	-8.40761
gi	-8.40925
▁well	-8.41281
▁altri	-8.41342
▁Commission	-8.41378
mento	-8.41514
▁gonna	-8.41551
▁day	-8.41717
ty	-8.4193
sti	-8.4208
▁15	-8.42305
▁How	-8.42325
▁Quindi	-8.4242
▁stata	-8.42733
man	-8.42752
▁quella	-8.4311
▁8	-8.43247
bi	-8.43515
▁help	-8.43582
▁queste	-8.43725
▁volta	-8.44042
▁made	-8.44201
cu	-8.44251
▁Ri	-8.44386
▁To	-8.44439
▁Mr	-8.44441
▁its	-8.44446
ster	-8.4455
▁dopo	-8.44601
f	-8.44647
▁Commissione	-8.44715
A	-8.4485
▁nei	-8.44862
ver	-8.45263
▁11	-8.45916
▁fine	-8.45995
C	-8.46069
ter	-8.46391
▁being	-8.46839
▁actually	-8.46865
▁va	-8.46975
▁must	-8.47532
ali	-8.47872
▁casa	-8.47916
▁tre	-8.48062
▁many	-8.48418
▁ra	-8.48693
▁through	-8.49288
P	-8.4944
▁pi	-8.49566
M	-8.49644
▁Okay	-8.49943
▁kind	-8.49967
▁Article	-8.49971
son	-8.5013
▁sp	-8.50564
lu	-8.50758
chi	-8.50935
▁find	-8.51138
▁aver	-8.51155
▁dall	-8.51343
▁may	-8.51627
▁dire	-8.51717
▁give	-8.5182
▁after	-8.52488
est	-8.52643
#	-8.52666
▁quel	-8.52713
▁every	-8.52962
▁p	-8.5317
▁Sa	-8.53265
▁Be	-8.53299
▁Mo	-8.53491
▁under	-8.53612
▁great	-8.53651
▁year	-8.53763
fi	-8.53971
ssa	-8.54013
▁before	-8.5403
▁lot	-8.54193
▁different	-8.54589
▁senza	-8.54782
ies	-8.54831
pi	-8.54928
▁same	-8.54959
▁let	-8.55121
▁De	-8.5533
U	-8.55398
▁lei	-8.55473
▁never	-8.55639
vano	-8.55737
▁nostro	-8.55889
▁real	-8.55939
▁mean	-8.56149
sta	-8.5638
▁g	-8.56679
E	-8.56744
▁proprio	-8.56752
▁around	-8.5708
ria	-8.57344
nd	-8.5766
▁Fa	-8.5789
▁Chi	-8.57961
ch	-8.58218
▁K	-8.58437
▁n	-8.58474
▁love	-8.58541
▁giorno	-8.58769
▁davvero	-8.58789
amo	-8.58819
▁Cosa	-8.58847
▁why	-8.58847
▁Me	-8.58971
▁30	-8.59008
▁Stati	-8.59069
▁grande	-8.59165
du	-8.5951
▁doing	-8.59845
▁tuo	-8.6032
▁W	-8.60549
▁last	-8.60797
▁still	-8.60872
rci	-8.61003
O	-8.61434
▁18	-8.61439
ent	-8.61759
▁Su	-8.61836
▁put	-8.62004
rlo	-8.62201
▁Da	-8.6228
▁lui	-8.62451
lla	-8.62453
_	-8.62454
▁vedere	-8.62711
▁Grazie	-8.62931
▁N	-8.63791
▁Beh	-8.6385
▁Ba	-8.63928
▁voi	-8.64185
▁Ok	-8.64464
▁ciò	-8.64548
▁piu	-8.64727
▁voglio	-8.64756
▁part	-8.65022
▁fu	-8.65056
ic	-8.65278
▁U	-8.65489
B	-8.6559
▁M	-8.65806
▁Laughte	-8.66054
▁show	-8.66131
▁between	-8.6627
▁end	-8.66272
nce	-8.66705
ness	-8.66752
el	-8.6685
tte	-8.67133
▁state	-8.67236
▁own	-8.6733
T	-8.67556
ste	-8.67709
▁anno	-8.67756
tro	-8.67813
ct	-8.67973
▁Hey	-8.68006
▁long	-8.68174
be	-8.686
ine	-8.68607
▁My	-8.68826
▁nostra	-8.68954
▁Member	-8.68959
2	-8.6904
G	-8.69145
▁vero	-8.70116
▁punto	-8.70773
▁call	-8.70871
▁Li	-8.7099
▁three	-8.71016
▁9	-8.71122
▁tutte	-8.71199
▁quindi	-8.71358
▁Risat	-8.71651
▁Applaus	-8.71703
▁such	-8.71793
▁talk	-8.71901
per	-8.71925
tori	-8.72114
ba	-8.72274
▁bisogno	-8.72469
fa	-8.72517
▁visto	-8.73119
▁bo	-8.73413
▁Ra	-8.73469
▁tua	-8.73575
▁Don	-8.73582
▁thought	-8.73676
▁name	-8.7389
▁does	-8.73975
menti	-8.74118
▁sotto	-8.74327
▁via	-8.74371
▁sistema	-8.74504
▁Bo	-8.75039
▁possono	-8.75062
▁States	-8.75411
▁Why	-8.75557
bo	-8.75601
▁fuori	-8.75682
L	-8.7597
▁Ora	-8.76103
▁tipo	-8.76126
▁Pro	-8.76365
▁caso	-8.76372
▁ba	-8.76584
▁used	-8.76608
▁andare	-8.76774
ando	-8.76813
▁Let	-8.76918
▁porta	-8.76926
▁bu	-8.77248
▁data	-8.77326
▁nelle	-8.77391
ting	-8.77432
▁home	-8.7745
▁13	-8.77666
▁imp	-8.77907
▁Tu	-8.78372
▁nuovo	-8.7839
▁again	-8.78395
▁deve	-8.7845
▁Pa	-8.78482
▁stesso	-8.78495
▁14	-8.78541
tic	-8.78554
▁base	-8.78733
▁Va	-8.78846
tura	-8.78982
▁problema	-8.79111
▁sto	-8.79368
nde	-8.79471
▁better	-8.79759
tor	-8.79964
R	-8.79966
ito	-8.80051
ton	-8.80218
▁found	-8.80306
▁point	-8.80462
▁case	-8.80687
sca	-8.80732
▁human	-8.81081
▁important	-8.81271
gu	-8.813
▁momento	-8.813
▁articolo	-8.81414
con	-8.81634
▁Na	-8.81661
▁oggi	-8.81683
▁believe	-8.81696
ble	-8.8212
▁16	-8.8269
▁Thank	-8.8295
der	-8.8308
♪	-8.83165
▁God	-8.83201
▁altra	-8.83379
▁col	-8.83402
▁cosi	-8.83475
N	-8.83916
▁system	-8.83918
▁Co	-8.83941
▁second	-8.84247
▁Questa	-8.84272
▁Quando	-8.84457
sce	-8.84912
▁europea	-8.84988
▁possiamo	-8.85016
▁ex	-8.85028
▁gente	-8.85596
▁Council	-8.85738
po	-8.85836
▁posso	-8.85923
▁fi	-8.86017
▁17	-8.8608
▁Ro	-8.86087
ling	-8.86167
▁Consiglio	-8.86241
cca	-8.86315
▁When	-8.86432
gli	-8.86687
▁Te	-8.86763
▁course	-8.8693
one	-8.86995
▁uomo	-8.87043
▁membri	-8.87227
▁Perché	-8.87496
▁niente	-8.87512
▁Or	-8.87521
▁might	-8.87646
ente	-8.87787
cco	-8.87836
▁today	-8.87856
F	-8.88334
▁altre	-8.88365
▁qualche	-8.88487
▁Abbiamo	-8.88499
▁fact	-8.88534
▁R	-8.89081
▁information	-8.89085
▁always	-8.89141
fe	-8.89193
▁called	-8.89275
tra	-8.89315
gan	-8.89888
▁too	-8.89908
▁Sta	-8.90185
▁inter	-8.90205
tore	-8.90315
▁feel	-8.91024
▁old	-8.9126
▁came	-8.91336
▁erano	-8.91447
▁Fi	-8.91526
00	-8.9216
dy	-8.92267
▁Una	-8.92521
zi	-8.92596
▁Can	-8.9277
▁Sì	-8.93012
▁Ehi	-8.93034
▁As	-8.9315
▁each	-8.93314
pa	-8.9336
ranno	-8.93479
un	-8.9355
enti	-8.93567
▁away	-8.93631
▁Gli	-8.93637
▁H	-8.93692
▁report	-8.9376
sso	-8.93914
▁New	-8.93971
▁posto	-8.94124
stra	-8.94178
▁ce	-8.94222
▁support	-8.94259
▁Go	-8.94352
am	-8.94354
ld	-8.94421
▁stati	-8.94609
▁Regulation	-8.94715
nk	-8.94794
▁start	-8.94827
▁another	-8.95236
▁Yes	-8.95351
nta	-8.95966
ight	-8.96012
▁night	-8.96136
▁Mar	-8.96203
▁meno	-8.96445
▁storia	-8.96648
▁regolamento	-8.96711
▁Ne	-8.96813
▁fosse	-8.96988
▁V	-8.97173
▁trova	-8.97181
▁Hai	-8.97238
▁25	-8.97429
▁Ecco	-8.9754
▁pe	-8.97596
ir	-8.97671
nda	-8.97674
ner	-8.97697
▁già	-8.9797
▁change	-8.98126
ard	-8.98339
gra	-8.98668
▁Ed	-8.98776
▁auto	-8.99025
▁importante	-8.99069
▁credo	-8.99138
▁order	-8.99293
▁nostri	-8.99498
▁Unione	-8.99518
era	-8.99544
▁sure	-8.99745
▁pa	-8.99798
▁fino	-8.99881
▁together	-8.99942
▁Sei	-9.00011
▁Ta	-9.00016
▁Pi	-9.00101
▁Po	-9.00149
bb	-9.0032
▁test	-9.00665
▁aveva	-9.00886
▁vostr	-9.01012
▁esempio	-9.01104
▁secondo	-9.01228
▁primo	-9.01238
▁necessari	-9.01301
ita	-9.01458
▁Dio	-9.01474
▁set	-9.01558
▁sarebbe	-9.01803
ring	-9.01888
ther	-9.02112
▁big	-9.02136
▁anything	-9.02266
rai	-9.02361
▁water	-9.02456
nu	-9.02577
▁problem	-9.02648
ful	-9.02781
▁fra	-9.03184
ance	-9.0334
▁question	-9.03356
▁meglio	-9.03432
ari	-9.03435
rò	-9.03479
▁qualcuno	-9.03633
ru	-9.03736
▁few	-9.03831
▁numero	-9.04078
▁ever	-9.04149
▁without	-9.04204
▁number	-9.0428
▁million	-9.04596
ous	-9.04618
▁best	-9.04619
nt	-9.04638
vol	-9.04658
▁countries	-9.04664
▁volte	-9.04788
▁Just	-9.04902
▁face	-9.05116
▁paesi	-9.05153
▁Who	-9.05164
▁high	-9.05168
▁accordo	-9.0517
▁Gu	-9.0535
▁50	-9.05361
▁okay	-9.05407
ante	-9.05668
que	-9.05783
▁market	-9.05899
▁sembra	-9.0604
▁forma	-9.06234
▁keep	-9.06248
▁possibile	-9.06309
▁Not	-9.06355
▁line	-9.06414
mmo	-9.06421
▁viene	-9.06429
▁person	-9.06462
▁molti	-9.06543
▁next	-9.06619
▁doesn	-9.06643
▁presente	-9.06677
▁Io	-9.06889
▁dai	-9.06913
▁dati	-9.06958
rvi	-9.06976
▁money	-9.07068
less	-9.07172
sp	-9.07288
▁Community	-9.0729
▁On	-9.07459
ina	-9.07535
▁CE	-9.0755
▁insieme	-9.07613
▁Allora	-9.07719
▁open	-9.07786
▁Nel	-9.07881
op	-9.07899
▁form	-9.08041
▁done	-9.08066
V	-9.08215
▁head	-9.08239
▁successo	-9.08305
▁hand	-9.08345
com	-9.08455
ist	-9.08518
▁dur	-9.08527
ggi	-9.08606
▁Era	-9.08709
▁told	-9.08735
qui	-9.08738
ì	-9.08762
▁parti	-9.09124
ian	-9.09129
▁parlare	-9.09329
▁miei	-9.09337
▁contro	-9.09419
amp	-9.09427
mb	-9.09464
▁understand	-9.09537
▁computer	-9.09642
▁both	-9.09655
H	-9.09665
ture	-9.09796
▁hard	-9.10169
gen	-9.1019
ens	-9.10351
▁allora	-9.10463
▁21	-9.10859
▁fe	-9.10861
▁tratta	-9.10896
▁quale	-9.10955
▁went	-9.10966
▁wanted	-9.10967
land	-9.10972
▁An	-9.11059
▁nome	-9.11347
▁country	-9.11701
▁room	-9.11799
▁Signor	-9.1195
▁house	-9.12393
▁Union	-9.12421
▁J	-9.12421
▁0	-9.12442
ha	-9.12476
▁Where	-9.1249
▁live	-9.12494
▁Car	-9.12497
▁mu	-9.12497
▁100	-9.12548
+	-9.12635
▁EC	-9.12761
▁agli	-9.12829
▁suoi	-9.13102
▁school	-9.1311
ite	-9.13184
▁dice	-9.13291
▁bar	-9.13583
▁mentre	-9.13675
▁area	-9.13837
▁Look	-9.13852
▁everything	-9.14197
▁process	-9.14282
▁negli	-9.14481
▁President	-9.14583
rs	-9.14645
age	-9.14736
5	-9.1521
▁already	-9.15241
pri	-9.15389
▁Hi	-9.15512
▁lavora	-9.15543
▁perche	-9.15765
▁informazioni	-9.15851
▁acqua	-9.1588
▁whole	-9.16048
rono	-9.16062
ction	-9.16148
ated	-9.16406
ant	-9.16565
▁città	-9.16732
▁social	-9.16735
▁left	-9.16764
é	-9.16903
▁looking	-9.17142
▁means	-9.17208
▁ago	-9.17228
▁programma	-9.1728
sco	-9.17433
▁bit	-9.17564
ide	-9.17662
▁tanto	-9.17734
und	-9.17873
▁bi	-9.1789
cchi	-9.17915
▁24	-9.18099
▁working	-9.18101
ary	-9.18182
hi	-9.18234
▁abbia	-9.1845
▁circa	-9.1847
▁ero	-9.18472
▁farlo	-9.18482
▁semplice	-9.18513
▁prodotti	-9.18587
▁specie	-9.1859
▁sorry	-9.18612
▁public	-9.18746
▁ver	-9.188
▁bambini	-9.18843
▁passa	-9.19078
▁job	-9.19155
▁power	-9.19158
▁example	-9.19466
▁matter	-9.19494
▁since	-9.1966
▁avuto	-9.19685
▁alcuni	-9.19876
▁forse	-9.19917
glia	-9.20039
▁Ad	-9.20108
▁ask	-9.20133
▁business	-9.20152
amento	-9.20158
▁sui	-9.20254
▁parla	-9.2027
▁Are	-9.20584
ono	-9.20703
▁file	-9.20715
▁light	-9.2074
▁app	-9.20944
▁potrebbe	-9.21011
Y	-9.21029
ero	-9.21065
▁22	-9.21085
▁care	-9.21172
bu	-9.21187
▁able	-9.21229
▁bad	-9.21239
▁small	-9.2124
wa	-9.21298
▁special	-9.21301
▁Perche	-9.21371
▁within	-9.21375
ica	-9.21402
▁tale	-9.21432
▁create	-9.21587
▁milioni	-9.21598
avere	-9.21617
wi	-9.21674
▁quali	-9.21751
rri	-9.21788
endo	-9.21838
▁nothing	-9.2188
▁sull	-9.21891
ka	-9.21906
▁family	-9.21978
ico	-9.21985
▁offer	-9.22022
▁men	-9.22034
▁livello	-9.22079
▁dalle	-9.2236
▁play	-9.22484
▁troppo	-9.22526
▁particolare	-9.22661
ori	-9.22827
▁week	-9.22913
▁Mu	-9.23023
ene	-9.2304
.1	-9.2307
▁gruppo	-9.23105
▁trying	-9.23304
▁funziona	-9.23389
▁persona	-9.23545
▁Z	-9.23597
▁guy	-9.23666
▁padre	-9.23962
▁design	-9.23997
▁guarda	-9.24065
▁Ka	-9.24091
▁causa	-9.24435
ze	-9.24453
line	-9.24645
▁percent	-9.2471
rla	-9.24807
▁Presidente	-9.24867
▁tutta	-9.24916
▁siano	-9.24939
▁Com	-9.24972
▁male	-9.24989
▁Europe	-9.25
▁enough	-9.25008
▁problemi	-9.25016
▁film	-9.25043
▁San	-9.25097
▁Ver	-9.25151
cor	-9.25581
▁Because	-9.25711
▁stessa	-9.25713
▁clear	-9.25733
▁chiama	-9.25755
▁become	-9.25756
▁fo	-9.25797
▁piace	-9.25814
▁favore	-9.26134
▁Tra	-9.2628
▁One	-9.26336
▁facendo	-9.26343
▁dobbiamo	-9.26504
▁significa	-9.26587
▁quelle	-9.26705
▁paragrafo	-9.26756
K	-9.26769
▁Pre	-9.26912
▁against	-9.26919
▁while	-9.26974
men	-9.27122
cur	-9.27145
▁hear	-9.27169
▁Pe	-9.27208
enza	-9.27261
tica	-9.27283
▁certo	-9.27332
▁Voglio	-9.2743
▁23	-9.2744
▁free	-9.27446
▁four	-9.27487
▁women	-9.2754
▁mind	-9.27587
king	-9.27623
▁won	-9.27757
▁politica	-9.27806
▁port	-9.28032
tri	-9.28069
▁super	-9.28166
▁started	-9.2818
zia	-9.28274
▁ten	-9.28338
▁sulle	-9.2838
▁realtà	-9.28421
▁allow	-9.28502
▁coming	-9.2854
azioni	-9.28567
▁comp	-9.28672
▁torna	-9.28735
tter	-9.28747
▁cambia	-9.28751
▁personal	-9.28793
ho	-9.28827
▁donne	-9.28861
▁ragazzi	-9.28879
▁possa	-9.28918
▁children	-9.29054
▁specific	-9.29112
ph	-9.29135
▁moment	-9.29229
▁sort	-9.29324
▁para	-9.29398
▁relazione	-9.29676
▁stai	-9.29722
tch	-9.29964
remo	-9.29976
▁buon	-9.3004
▁senti	-9.30114
up	-9.30138
port	-9.30178
,	-9.3031
▁ven	-9.30334
▁rec	-9.30375
▁economic	-9.30408
▁verso	-9.30474
--	-9.30491
▁diversi	-9.3055
▁hope	-9.30658
▁leave	-9.30676
bili	-9.30758
▁Parlamento	-9.30833
▁adesso	-9.30852
▁inizia	-9.30945
▁happened	-9.30967
▁mercato	-9.31005
ja	-9.31044
▁sub	-9.31058
ol	-9.31142
▁sviluppo	-9.31165
▁Parliament	-9.31355
ish	-9.31359
tico	-9.31387
▁took	-9.3154
▁avete	-9.31697
▁giorni	-9.31708
▁europeo	-9.31708
gg	-9.32003
ut	-9.32009
▁ricerca	-9.32055
▁domanda	-9.32062
▁stay	-9.32076
▁present	-9.32087
▁talking	-9.32179
▁possible	-9.32283
▁else	-9.32325
ally	-9.32366
▁video	-9.32441
▁turn	-9.32476
▁sco	-9.32518
▁media	-9.32538
ché	-9.32595
getting	-9.32607
▁regard	-9.32713
ence	-9.32784
▁Bene	-9.32813
▁vuoi	-9.3284
gna	-9.32872
▁normal	-9.33058
ndi	-9.33061
▁dello	-9.33119
fo	-9.33264
▁days	-9.33288
cy	-9.33452
nto	-9.33592
iche	-9.33696
ron	-9.33714
▁paese	-9.33862
lt	-9.3388
▁stop	-9.33889
▁ris	-9.34042
▁prendere	-9.34091
rio	-9.34147
ber	-9.3416
▁famiglia	-9.34166
▁grandi	-9.34233
▁period	-9.34403
▁devo	-9.3496
▁please	-9.35075
ccia	-9.35106
▁color	-9.35111
▁attività	-9.35123
▁Ga	-9.35132
▁try	-9.35239
dio	-9.35314
▁control	-9.35338
▁vuole	-9.3561
sapere	-9.36026
▁crea	-9.36076
▁comune	-9.36177
▁dato	-9.36263
tru	-9.36346
▁element	-9.3636
▁future	-9.36385
▁products	-9.36446
▁side	-9.36528
▁plan	-9.36657
▁having	-9.36723
cent	-9.36735
▁bring	-9.36791
▁lascia	-9.37009
▁story	-9.37163
▁maggior	-9.37341
▁succede	-9.37348
▁At	-9.37469
▁corpo	-9.37507
▁war	-9.37588
▁sicurezza	-9.376
ten	-9.37657
▁making	-9.37675
▁sai	-9.37812
▁someone	-9.37928
▁trovare	-9.38164
▁amico	-9.38186
▁food	-9.38426
eri	-9.38427
▁poter	-9.38471
▁senso	-9.38479
mer	-9.38493
▁Your	-9.38538
unt	-9.38584
▁State	-9.38654
▁madre	-9.38684
bile	-9.38872
▁move	-9.38875
za	-9.38946
▁40	-9.39066
▁appena	-9.3911
gia	-9.39112
qua	-9.39143
▁stanno	-9.39251
▁wrong	-9.39295
▁Fin	-9.3936
▁Bi	-9.39385
▁EU	-9.39627
▁experience	-9.39655
▁puoi	-9.39665
den	-9.39686
ward	-9.39711
▁b	-9.39865
su	-9.39995
▁These	-9.40137
▁Sto	-9.40177
nne	-9.40208
tions	-9.40271
fer	-9.40314
▁cos	-9.4049
▁deal	-9.40511
▁past	-9.40584
▁maybe	-9.40607
▁guys	-9.40734
ese	-9.40742
▁Here	-9.40923
▁X	-9.41005
W	-9.41015
▁post	-9.41024
nostre	-9.41074
▁00	-9.41096
▁nuova	-9.41145
rebbe	-9.41162
▁Ru	-9.41247
▁Then	-9.41319
▁friend	-9.4132
ER	-9.41493
▁body	-9.4152
▁law	-9.41584
vers	-9.41588
▁serve	-9.41666
mic	-9.41667
ugh	-9.41778
bra	-9.41943
▁Qual	-9.4204
▁remember	-9.4212
lin	-9.42138
▁reason	-9.42157
ude	-9.42246
▁level	-9.42256
iti	-9.42409
cal	-9.4264
ario	-9.42791
▁importa	-9.42821
▁saw	-9.42825
▁particular	-9.42831
▁rispetto	-9.42833
anti	-9.42837
▁prove	-9.42844
ps	-9.4295
▁durante	-9.4296
▁Ki	-9.43055
▁fl	-9.43077
mma	-9.43417
ach	-9.43545
▁Europa	-9.43553
ning	-9.43651
▁ragione	-9.43731
▁health	-9.43893
▁grazie	-9.43925
▁Good	-9.43997
lic	-9.44303
▁signor	-9.44396
ak	-9.4447
▁brain	-9.44489
cro	-9.44512
▁general	-9.44622
▁stiamo	-9.44668
ler	-9.44674
▁grado	-9.44744
▁until	-9.4478
cce	-9.44781
▁anti	-9.44852
rro	-9.44858
ud	-9.45346
▁Forse	-9.45399
▁conto	-9.45415
▁Did	-9.45461
▁five	-9.45601
erà	-9.45615
▁quelli	-9.45693
▁final	-9.45748
▁Fe	-9.45857
▁Ju	-9.45885
▁large	-9.45892
0	-9.45893
gio	-9.45968
▁penso	-9.45983
▁seen	-9.46238
▁umani	-9.46418
▁com	-9.46564
▁yet	-9.4661
▁capire	-9.46625
▁Dr	-9.46727
▁quasi	-9.46746
▁società	-9.46758
▁arriva	-9.46762
▁view	-9.46767
▁following	-9.46767
▁mano	-9.46927
▁uomini	-9.46937
▁Africa	-9.46953
tiva	-9.46984
▁cell	-9.47043
side	-9.47054
▁close	-9.47094
gono	-9.47277
▁controllo	-9.47296
▁31	-9.4737
dro	-9.47411
▁heart	-9.47575
▁rest	-9.47608
▁America	-9.47641
▁piano	-9.4789
▁Col	-9.47955
▁less	-9.4799
▁periodo	-9.48001
▁Ar	-9.48035
▁run	-9.48044
▁interno	-9.4809
▁Jo	-9.48173
▁2007	-9.48337
▁mother	-9.48444
▁development	-9.48479
pol	-9.48822
stro	-9.48892
▁later	-9.48995
▁son	-9.49039
▁motiv	-9.49066
▁san	-9.49085
▁riguarda	-9.4914
glio	-9.49145
▁aspetta	-9.49231
▁migliore	-9.49335
▁strada	-9.49517
▁scelt	-9.49649
▁fall	-9.49666
fu	-9.49682
ism	-9.49703
▁soldi	-9.49761
▁prova	-9.49769
▁speak	-9.4978
▁attraverso	-9.49805
▁using	-9.4991
ions	-9.50205
bri	-9.50244
▁Pens	-9.50291
▁invec	-9.50332
▁vista	-9.50399
▁Cha	-9.50434
▁force	-9.50604
col	-9.50636
▁building	-9.50734
▁Get	-9.50775
▁once	-9.50862
ade	-9.50915
osì	-9.51117
▁national	-9.51118
ub	-9.51138
▁vostro	-9.51164
ki	-9.51226
▁taken	-9.51242
rie	-9.51295
▁oltre	-9.51326
▁qualsiasi	-9.51352
▁progetto	-9.51378
▁abbastanza	-9.51405
min	-9.51411
glie	-9.51461
▁city	-9.51533
▁faccia	-9.51632
▁Dove	-9.51674
pre	-9.51694
nia	-9.51765
▁Man	-9.5179
▁pay	-9.51799
nder	-9.51937
▁testa	-9.51983
▁dispiace	-9.52215
cra	-9.52463
▁answer	-9.52515
▁av	-9.52561
zio	-9.52637
▁presenta	-9.52642
▁group	-9.52696
ura	-9.5273
▁Ah	-9.5274
▁least	-9.5285
▁Stato	-9.52945
▁mesi	-9.53021
▁Anche	-9.53124
▁trovato	-9.53157
.2	-9.53222
е	-9.53222
by	-9.53234
▁27	-9.5329
▁Cas	-9.53398
▁lì	-9.53439
▁decisione	-9.53446
▁qua	-9.53613
.5	-9.53656
▁Am	-9.53676
▁fanno	-9.53684
▁quest	-9.53721
ino	-9.53751
▁account	-9.53799
▁York	-9.53856
unque	-9.53981
▁2006	-9.54176
▁giusto	-9.54278
▁thinking	-9.54308
▁energy	-9.5435
▁months	-9.54374
▁foto	-9.54508
avevo	-9.54539
ft	-9.54679
▁lungo	-9.54686
▁Ciao	-9.5472
▁dead	-9.54812
gno	-9.54865
▁father	-9.54904
▁settore	-9.54909
▁donna	-9.54926
▁OK	-9.54959
▁game	-9.54961
tur	-9.5497
▁government	-9.55147
▁taking	-9.55165
▁Cos	-9.55191
ger	-9.55319
devono	-9.55337
▁Qui	-9.55443
▁young	-9.55448
▁common	-9.55545
▁dentro	-9.5558
▁Sai	-9.55679
▁Comunità	-9.55692
▁molte	-9.55752
ap	-9.55771
bor	-9.55834
cle	-9.55881
cer	-9.55933
▁procedure	-9.55941
▁pensare	-9.55958
à	-9.561
▁Internet	-9.56113
▁space	-9.56143
▁watch	-9.56224
▁avrebbe	-9.56244
▁air	-9.56294
▁aiuta	-9.56356
▁import	-9.56384
▁single	-9.56405
stri	-9.56459
nessuno	-9.56658
mini	-9.56675
▁stabili	-9.56707
▁John	-9.56754
▁Ja	-9.56948
▁pal	-9.56991
ug	-9.57044
▁figlio	-9.57073
▁devi	-9.5709
▁certain	-9.5716
ghe	-9.57183
ggio	-9.57294
des	-9.5731
udi	-9.57319
▁gas	-9.57371
bre	-9.574
nze	-9.5758
ana	-9.57598
▁futuro	-9.57674
▁wasn	-9.57679
▁terra	-9.57711
▁situazione	-9.57721
▁2004	-9.57858
▁pretty	-9.57873
▁dovrebbe	-9.57977
▁cause	-9.58001
ors	-9.5802
.4	-9.5807
▁28	-9.58093
▁26	-9.58131
▁dollari	-9.58156
j	-9.58183
▁vol	-9.58187
▁type	-9.58223
▁saying	-9.58351
lan	-9.58634
▁policy	-9.58654
rn	-9.58665
▁f	-9.58735
♫	-9.58765
▁civil	-9.58847
▁direttiva	-9.58873
mina	-9.58877
▁Poi	-9.59098
▁difficile	-9.59113
▁half	-9.5918
▁preso	-9.59279
sione	-9.59331
▁ben	-9.59332
▁nulla	-9.59347
ismo	-9.59422
▁2008	-9.5949
▁continua	-9.59496
cia	-9.59535
rne	-9.59564
▁sicuro	-9.59581
▁team	-9.59623
je	-9.59724
▁times	-9.59741
▁heard	-9.59806
▁cerca	-9.59811
▁applica	-9.59835
sol	-9.59865
.20	-9.5991
▁cost	-9.59941
way	-9.60051
zzi	-9.60162
▁girl	-9.60181
.3	-9.60264
rica	-9.60272
ual	-9.60273
▁2009	-9.60278
▁2005	-9.60293
▁provide	-9.604
▁dovuto	-9.60631
▁local	-9.60816
▁condizioni	-9.6093
▁Maybe	-9.60947
tain	-9.61008
▁technology	-9.61018
▁effetti	-9.61049
▁amici	-9.611
▁Right	-9.61106
▁sue	-9.61257
▁macchina	-9.61285
▁standard	-9.61295
▁third	-9.61315
▁Articolo	-9.61433
▁isn	-9.61507
▁luogo	-9.61523
tten	-9.61539
rge	-9.61691
▁alcune	-9.61747
▁research	-9.61821
▁cannot	-9.61838
▁United	-9.61867
▁prende	-9.61881
▁energia	-9.6197
izzazione	-9.62004
we	-9.62041
▁ru	-9.62086
▁visit	-9.622
ley	-9.62296
tante	-9.6234
▁true	-9.62376
▁siete	-9.62377
▁given	-9.62416
▁giu	-9.62422
▁happen	-9.62479
cl	-9.62536
▁sense	-9.62544
cio	-9.62587
cri	-9.6265
▁probably	-9.62689
▁date	-9.6275
▁pan	-9.6279
RE	-9.628
▁Lei	-9.62835
vrei	-9.6288
form	-9.62927
▁pur	-9.62936
▁Credo	-9.62995
▁du	-9.63001
AR	-9.63027
val	-9.63034
▁Bar	-9.63053
▁read	-9.63074
▁individual	-9.63092
RI	-9.63107
▁global	-9.63175
▁met	-9.63299
▁knew	-9.63354
▁kids	-9.63424
▁2010	-9.63489
nes	-9.63532
▁Post	-9.63577
etto	-9.6358
▁rappresenta	-9.63673
▁woman	-9.63731
▁aiuto	-9.6382
▁company	-9.63839
ating	-9.63847
▁legal	-9.63885
ac	-9.63927
▁Uh	-9.6401
ran	-9.64042
▁act	-9.64045
▁action	-9.6413
len	-9.64138
▁gia	-9.64193
ving	-9.6421
▁list	-9.64226
▁sì	-9.64313
▁measures	-9.6444
▁full	-9.64445
▁myself	-9.64511
ans	-9.64541
▁aff	-9.64561
vamo	-9.64577
▁quattro	-9.64664
▁29	-9.64717
ny	-9.64719
sentito	-9.64754
▁veramente	-9.64776
▁II	-9.64776
pu	-9.64824
▁Fu	-9.64826
rra	-9.64834
▁figure	-9.6488
dica	-9.64912
▁pen	-9.64993
vin	-9.65122
▁2000	-9.65153
▁indica	-9.65224
dra	-9.65256
▁natural	-9.65412
▁servizi	-9.65429
▁picture	-9.65435
▁uh	-9.65473
tato	-9.6553
▁processo	-9.65534
ability	-9.65538
▁guida	-9.65807
▁euro	-9.66112
▁ricorda	-9.66211
au	-9.66245
ries	-9.66301
▁scuola	-9.66343
▁project	-9.66394
ical	-9.66544
▁Cor	-9.66569
▁Bu	-9.66686
▁risk	-9.66796
▁situation	-9.66811
zzo	-9.66832
,000	-9.67011
▁mani	-9.67027
lar	-9.67083
▁Devo	-9.67149
▁yourself	-9.672
▁total	-9.67224
sto	-9.67344
ava	-9.67407
▁interest	-9.67429
▁trans	-9.67437
▁fai	-9.6744
nc	-9.67451
▁walk	-9.67457
▁onorevol	-9.67461
ppo	-9.67478
▁chiede	-9.67717
▁Dobbiamo	-9.67718
▁American	-9.67741
mbi	-9.67793
▁leg	-9.67865
▁propost	-9.67908
▁red	-9.68031
▁Please	-9.68035
▁entra	-9.68106
▁mezzo	-9.68106
mmi	-9.68289
▁micro	-9.68366
▁stuff	-9.68386
etti	-9.68494
▁diverse	-9.68497
▁questione	-9.68538
▁cercando	-9.68562
▁spesso	-9.68768
nato	-9.68881
▁Ve	-9.68887
▁luce	-9.68916
▁Lu	-9.68933
▁living	-9.68959
▁dare	-9.69097
nna	-9.69162
ello	-9.69162
▁Du	-9.69179
▁wait	-9.69188
▁whether	-9.69249
gue	-9.69281
▁kill	-9.69334
▁book	-9.69343
▁makes	-9.69351
▁vede	-9.69356
▁add	-9.69436
▁record	-9.6945
▁camp	-9.6961
▁Ven	-9.69624
tivo	-9.69633
▁meet	-9.69643
▁asked	-9.69781
▁diventa	-9.6979
▁permette	-9.69796
▁Cap	-9.69798
▁step	-9.70059
▁bra	-9.70063
▁Directive	-9.70087
▁fini	-9.7013
▁possibilità	-9.7013
▁vengono	-9.70131
▁notte	-9.70266
▁political	-9.70276
▁potete	-9.70285
▁Of	-9.70387
ice	-9.70454
▁consider	-9.70634
▁piccolo	-9.70672
а	-9.70702
▁hours	-9.7073
▁settimana	-9.7077
▁http	-9.70835
▁inizio	-9.70905
▁morte	-9.70976
rle	-9.71016
▁model	-9.71102
▁mette	-9.71178
▁stare	-9.71195
▁tecnologia	-9.71195
▁storie	-9.71205
▁letto	-9.71239
▁parole	-9.71262
▁friends	-9.71322
▁dimension	-9.71334
▁access	-9.7136
▁opinion	-9.71556
▁paga	-9.71625
let	-9.71629
▁material	-9.71656
▁limit	-9.71698
▁pass	-9.71749
▁sopra	-9.71768
▁nice	-9.71803
zion	-9.71846
etta	-9.71883
▁says	-9.71973
▁Hu	-9.71998
▁sola	-9.72024
▁beautiful	-9.72083
▁check	-9.72112
▁With	-9.72187
lf	-9.72247
▁issue	-9.72316
lly	-9.72357
▁governo	-9.72494
ista	-9.72602
▁listen	-9.72813
▁minuti	-9.72848
▁dec	-9.72894
▁fantastic	-9.72913
▁including	-9.7298
▁diritto	-9.73016
▁product	-9.73036
▁modifica	-9.73188
▁hell	-9.7319
▁lives	-9.73191
ties	-9.73219
▁forza	-9.7324
▁financial	-9.73247
▁THE	-9.7329
▁sent	-9.73478
nch	-9.73568
▁misure	-9.73583
▁studio	-9.73593
osa	-9.73713
gni	-9.73778
▁gran	-9.73779
▁inside	-9.73792
▁2011	-9.73792
▁death	-9.73823
▁occhi	-9.73907
▁word	-9.73914
▁spazio	-9.73922
▁cinque	-9.73952
ssimo	-9.73962
▁class	-9.73968
▁ultima	-9.74077
▁facciamo	-9.74179
▁casi	-9.74214
▁May	-9.74274
elle	-9.74295
▁baby	-9.74342
stin	-9.74386
▁legge	-9.74403
▁based	-9.74403
ping	-9.74544
▁Sha	-9.74545
feri	-9.74561
ral	-9.74567
▁problems	-9.74625
▁Certo	-9.74632
▁therefore	-9.74697
▁six	-9.74856
▁60	-9.74869
▁spa	-9.74962
ok	-9.75028
▁ball	-9.75108
for	-9.7516
▁stava	-9.75174
▁cervello	-9.75206
▁campo	-9.75246
▁morning	-9.75247
rk	-9.75276
▁figli	-9.75295
▁passato	-9.75425
▁osserva	-9.75486
▁corso	-9.75516
▁Quello	-9.75549
▁entire	-9.75552
▁art	-9.75585
о	-9.75643
gin	-9.75661
▁pag	-9.75817
gh	-9.75837
▁diritti	-9.75859
▁contra	-9.75913
▁blood	-9.76006
▁contain	-9.76036
▁Je	-9.76057
▁2003	-9.76074
▁field	-9.76111
▁indi	-9.76266
▁phone	-9.7633
▁continue	-9.76338
▁minutes	-9.76342
▁decision	-9.76359
ef	-9.76429
▁bambino	-9.76475
▁produzione	-9.76544
almente	-9.76559
.6	-9.76738
▁Gra	-9.76806
▁allo	-9.7681
bit	-9.76843
dent	-9.76853
▁short	-9.76857
mu	-9.76882
4	-9.77015
TI	-9.77049
▁pubblico	-9.77099
.7	-9.771
dici	-9.77107
cci	-9.77161
▁yeah	-9.77169
▁pensato	-9.77169
ord	-9.77189
▁cut	-9.77194
▁Dopo	-9.77197
▁poco	-9.77215
▁rende	-9.77222
▁include	-9.77259
▁opera	-9.77297
▁arm	-9.77311
▁genere	-9.7734
▁available	-9.77343
▁Ge	-9.77398
▁main	-9.77573
▁application	-9.77583
▁almost	-9.77587
lia	-9.77627
▁generale	-9.77651
▁seconda	-9.77667
pos	-9.777
ung	-9.77709
▁autorità	-9.77735
oni	-9.77763
▁top	-9.77798
mon	-9.7781
ME	-9.77822
ship	-9.77865
▁almeno	-9.7787
▁spend	-9.77932
▁centro	-9.77941
oli	-9.77967
▁buona	-9.77989
idi	-9.77994
ah	-9.78045
▁programme	-9.78079
schi	-9.78209
▁realizza	-9.78226
TO	-9.78278
elli	-9.78316
▁amount	-9.78361
vent	-9.78403
vel	-9.78452
▁age	-9.78488
▁en	-9.78538
▁guerra	-9.7857
▁By	-9.78572
▁mostra	-9.78596
▁wish	-9.78596
▁thank	-9.78612
nger	-9.78621
▁quei	-9.78635
▁faccio	-9.78685
▁fire	-9.78746
▁Posso	-9.78777
sk	-9.78817
▁nessun	-9.78819
▁continu	-9.78824
▁misura	-9.78892
▁machine	-9.78923
▁crede	-9.78993
▁Tutto	-9.79068
▁sera	-9.7912
▁ragazzo	-9.79135
▁Uniti	-9.79182
▁Part	-9.79192
▁80	-9.79227
ko	-9.79233
▁share	-9.79235
▁respect	-9.7924
▁risposta	-9.7928
erò	-9.79307
▁Y	-9.79382
▁necessary	-9.79455
▁unica	-9.79553
▁qualità	-9.79604
▁determina	-9.79665
▁cap	-9.79675
▁prodotto	-9.79713
▁studi	-9.79781
put	-9.79786
▁subject	-9.79848
▁music	-9.79854
▁cura	-9.79877
▁proposal	-9.79883
▁ultimo	-9.79883
▁cuore	-9.79884
▁invit	-9.79902
scono	-9.79931
rin	-9.79987
▁break	-9.79991
▁position	-9.80021
▁subit	-9.80189
▁tali	-9.80413
▁unico	-9.80494
▁giro	-9.80506
▁90	-9.80528
▁stupid	-9.80528
ric	-9.80538
abili	-9.80593
▁avanti	-9.80654
▁dov	-9.80949
▁sociale	-9.80977
▁acc	-9.81062
▁term	-9.81243
▁stra	-9.81285
▁services	-9.81303
rli	-9.81309
▁struttura	-9.81395
▁ambiente	-9.81401
▁rep	-9.81429
▁sh	-9.81489
▁words	-9.8151
▁star	-9.81571
▁central	-9.81591
chiesto	-9.81691
rew	-9.81704
lie	-9.81809
dge	-9.81865
▁ok	-9.81872
▁needs	-9.81874
▁hotel	-9.81955
▁child	-9.82053
▁happy	-9.8216
bbi	-9.82175
▁Sal	-9.82186
han	-9.82205
fr	-9.82269
▁cha	-9.82283
▁modern	-9.82295
▁goes	-9.82354
▁amore	-9.82431
die	-9.82482
▁result	-9.82633
van	-9.82763
▁capito	-9.82774
▁compar	-9.82789
▁www	-9.8282
eremo	-9.82971
▁pensa	-9.83031
▁robot	-9.83034
▁soon	-9.83041
▁tri	-9.83046
▁App	-9.83066
▁Second	-9.83095
ized	-9.83124
▁though	-9.8314
▁rot	-9.83145
▁ecco	-9.83202
▁fun	-9.83231
▁conditions	-9.83379
ney	-9.83432
AN	-9.83451
▁uso	-9.83455
▁ascolta	-9.83486
zo	-9.83506
▁Tutti	-9.83563
▁Mon	-9.83596
▁ore	-9.83632
ever	-9.83657
end	-9.83731
▁regola	-9.83809
zz	-9.83852
▁study	-9.83893
▁known	-9.84066
tern	-9.84068
▁language	-9.84079
ola	-9.84096
▁Our	-9.84103
▁often	-9.84147
.8	-9.84165
▁valore	-9.84193
LE	-9.84218
pro	-9.84239
nic	-9.8435
▁vari	-9.84353
▁bio	-9.84354
▁discussion	-9.84424
▁allegat	-9.84444
▁pratica	-9.84565
dia	-9.84606
▁2012	-9.84612
▁Ce	-9.84613
cing	-9.8463
▁comunità	-9.84658
▁compres	-9.84708
▁termine	-9.84734
▁land	-9.84783
▁cazzo	-9.8479
AL	-9.84908
▁2001	-9.84937
wn	-9.85003
▁cre	-9.85147
▁El	-9.85207
pla	-9.85228
▁scientific	-9.85354
▁front	-9.85358
▁meeting	-9.85401
▁alto	-9.85455
и	-9.85465
▁international	-9.85467
▁capo	-9.8547
▁exactly	-9.85499
▁paura	-9.85524
▁gave	-9.85524
▁value	-9.85608
ative	-9.85671
▁materia	-9.85728
▁compless	-9.85758
▁vorrei	-9.85884
▁Committee	-9.85922
dri	-9.85934
▁image	-9.86039
▁piece	-9.86103
▁stessi	-9.86188
▁Sp	-9.8619
▁service	-9.86217
ccio	-9.86221
▁rules	-9.86315
▁door	-9.86409
▁simple	-9.86687
▁enter	-9.86703
▁posizione	-9.86764
▁wouldn	-9.86789
▁alone	-9.86826
▁along	-9.86851
▁disse	-9.86853
▁agent	-9.86872
▁nuove	-9.86875
the	-9.86945
▁prepara	-9.86962
▁serie	-9.87063
tan	-9.87082
ghi	-9.87202
▁guess	-9.87225
▁Bra	-9.87236
▁document	-9.87382
▁sir	-9.87421
history	-9.87434
▁capacità	-9.87547
TA	-9.87549
vest	-9.87552
▁couple	-9.87645
▁drink	-9.87646
ora	-9.8772
▁Ni	-9.8772
▁vicino	-9.87754
▁seguito	-9.87848
▁animali	-9.87879
▁India	-9.87938
▁aid	-9.8803
▁network	-9.88032
▁signore	-9.8805
▁esperienza	-9.88076
fil	-9.88123
▁learn	-9.88183
SE	-9.88217
▁sap	-9.88238
▁ragazza	-9.88264
▁gone	-9.88343
ione	-9.88374
hu	-9.88463
▁nuovi	-9.88576
across	-9.88708
è	-9.88748
▁sound	-9.88808
▁table	-9.88825
▁partner	-9.8889
▁pick	-9.88927
▁gioco	-9.8893
▁Ben	-9.88957
▁agreement	-9.88958
▁Annex	-9.88969
▁pubblica	-9.88973
▁reg	-9.89043
▁stand	-9.89073
▁production	-9.89173
ep	-9.89189
▁hold	-9.89279
▁buy	-9.89318
20	-9.89413
aggio	-9.89469
▁mamma	-9.8952
▁provided	-9.89629
▁2002	-9.8966
▁conta	-9.89768
▁vediamo	-9.89787
▁attenzione	-9.89872
tare	-9.89887
cha	-9.89939
rry	-9.89964
▁couldn	-9.89967
▁applicazione	-9.90011
▁key	-9.90033
por	-9.90098
▁intera	-9.90124
▁lost	-9.90228
▁follow	-9.90232
▁mor	-9.90272
ssero	-9.90282
▁fin	-9.90317
▁plant	-9.90344
▁dagli	-9.90354
rate	-9.90431
▁safe	-9.90485
▁parola	-9.90509
▁sign	-9.90567
▁linea	-9.90683
▁servizio	-9.90689
EN	-9.90705
everyone	-9.90708
▁invest	-9.90711
car	-9.90721
▁Fo	-9.90757
▁remain	-9.90783
▁GU	-9.90848
ker	-9.90849
ect	-9.90863
▁natura	-9.90946
▁Lui	-9.90994
X	-9.9109
gne	-9.91158
▁2013	-9.91262
ggia	-9.9129
rc	-9.91305
ities	-9.91384
ani	-9.91406
▁outside	-9.91434
▁near	-9.91462
▁accordance	-9.91543
▁resto	-9.91544
▁Ke	-9.91555
IT	-9.91667
▁pain	-9.91671
▁text	-9.91717
▁forte	-9.91732
▁Decision	-9.91785
▁leader	-9.91787
sen	-9.91791
▁hands	-9.91849
part	-9.91851
▁rapport	-9.91875
▁easy	-9.9191
▁esiste	-9.91996
▁anyone	-9.92075
mba	-9.92076
▁doctor	-9.92107
ctor	-9.92129
ppi	-9.92181
▁Dov	-9.922
▁occupa	-9.92261
rch	-9.92298
bol	-9.92302
set	-9.92366
▁potere	-9.92383
▁chiamato	-9.92398
rb	-9.92498
▁send	-9.925
▁vot	-9.92521
▁Questi	-9.92595
▁office	-9.92596
▁principi	-9.92755
▁capital	-9.92758
piccola	-9.92759
50	-9.92777
▁accetta	-9.92867
▁accesso	-9.92873
▁invent	-9.92909
▁Gi	-9.9293
▁win	-9.92971
▁concern	-9.92983
í	-9.93121
int	-9.93169
▁sarann	-9.93178
▁conosce	-9.93179
▁camera	-9.93247
▁Solo	-9.93255
▁CEE	-9.9335
▁security	-9.93366
▁either	-9.93464
▁strong	-9.93505
▁pare	-9.93512
came	-9.93574
led	-9.93603
▁piuttosto	-9.93694
▁progetti	-9.93776
ioni	-9.93831
Z	-9.939
▁lead	-9.93904
▁mie	-9.93908
▁interesting	-9.9391
ncy	-9.93928
▁vivere	-9.93939
art	-9.93991
▁ocean	-9.93993
▁content	-9.94008
▁professional	-9.94134
▁scar	-9.94135
pp	-9.94173
▁bella	-9.94212
▁boy	-9.94247
▁vedo	-9.94253
▁solution	-9.94271
▁After	-9.94311
▁Wa	-9.9453
▁Andiamo	-9.94611
potuto	-9.94632
▁ready	-9.94653
▁return	-9.94691
▁venire	-9.94694
▁wife	-9.94726
▁moglie	-9.9477
▁quick	-9.94802
▁libera	-9.95038
▁chance	-9.95162
LI	-9.95206
mission	-9.95214
▁pazienti	-9.95223
▁ultimi	-9.95223
▁perfect	-9.95235
▁EEC	-9.95304
ES	-9.9542
▁membro	-9.95432
▁sw	-9.95509
▁Par	-9.95548
▁His	-9.95564
▁sensi	-9.9567
ified	-9.95694
▁works	-9.95763
▁ecc	-9.95798
▁industrial	-9.95804
▁vive	-9.95814
▁risultati	-9.95826
▁killed	-9.95874
ath	-9.95921
▁environment	-9.95963
tivi	-9.9607
▁See	-9.96157
stead	-9.96182
▁CA	-9.96277
▁drive	-9.96309
▁build	-9.96317
▁Sc	-9.96329
▁software	-9.96397
▁Some	-9.96498
▁protect	-9.9652
▁Jack	-9.96595
gge	-9.96606
ifica	-9.96613
▁70	-9.96681
tanto	-9.96702
▁1999	-9.96721
▁indietro	-9.96819
▁nature	-9.96867
▁Av	-9.96986
▁trov	-9.97105
▁feeling	-9.97112
▁transport	-9.97128
▁Vuo	-9.97156
yl	-9.97161
▁education	-9.97212
▁rip	-9.97233
▁rischio	-9.97252
▁hit	-9.97264
▁kid	-9.97403
▁trade	-9.97464
▁sci	-9.97469
eranno	-9.97472
▁punti	-9.97476
▁increase	-9.97478
▁quality	-9.97612
▁puo	-9.97657
lk	-9.97705
▁original	-9.97733
usare	-9.97772
▁é	-9.97856
▁self	-9.97866
▁further	-9.97889
▁town	-9.97908
▁brother	-9.97933
ido	-9.97934
▁deep	-9.97989
▁difficult	-9.98021
▁pul	-9.98118
▁planet	-9.98208
▁mettere	-9.98231
▁fissa	-9.98357
▁sara	-9.98544
▁isola	-9.98577
▁bank	-9.98649
▁seem	-9.98727
▁entro	-9.98741
▁tuoi	-9.9877
▁accept	-9.98789
▁2015	-9.98798
imento	-9.98865
▁disease	-9.98915
▁singol	-9.98939
▁billion	-9.98941
▁portato	-9.98958
▁quell	-9.9903
▁eat	-9.99258
▁Us	-9.99275
▁completament	-9.99327
▁Pu	-9.99378
▁request	-9.99392
▁areas	-9.99591
ize	-9.99603
.9	-9.99613
▁eyes	-9.99623
▁artist	-9.99671
▁polizia	-9.99702
ile	-9.99731
▁sappiam	-9.99752
sia	-9.9985
ization	-9.99855
▁prego	-9.99881
07	-9.99916
▁sex	-9.99967
over	-9.99974
▁cultural	-9.99977
▁servi	-10.0016
ON	-10.0025
▁sistemi	-10.0027
lock	-10.0028
▁messo	-10.0033
cche	-10.0036
▁unit	-10.0037
▁Siam	-10.0039
▁spiega	-10.004
ini	-10.0042
▁fund	-10.0044
▁low	-10.0047
▁budget	-10.0048
▁qual	-10.0051
▁Sembra	-10.0056
▁party	-10.0056
vor	-10.0058
▁TV	-10.0067
sha	-10.0071
OR	-10.0072
▁comunque	-10.0079
▁sentire	-10.0087
▁lettera	-10.0092
▁conclusion	-10.0097
ple	-10.0099
▁OJ	-10.01
▁Sam	-10.0107
bbe	-10.0108
$	-10.011
net	-10.011
▁sleep	-10.0114
▁tax	-10.0115
▁choice	-10.0119
▁looks	-10.0125
▁Har	-10.0127
▁behind	-10.0132
▁centur	-10.0132
▁operation	-10.0133
▁alta	-10.0143
▁Signore	-10.0144
▁purpose	-10.0145
▁motor	-10.0148
▁itself	-10.0154
ED	-10.0161
▁detail	-10.0163
▁truth	-10.0164
▁Guarda	-10.0164
▁mar	-10.0166
▁sector	-10.0167
▁Pri	-10.0172
▁domande	-10.0172
▁iniziato	-10.0174
▁explain	-10.0181
•	-10.0185
rice	-10.0186
▁arrest	-10.0191
08	-10.0193
▁fight	-10.0194
ST	-10.02
▁multi	-10.0203
▁questions	-10.0214
▁community	-10.0217
▁decided	-10.0223
▁Tre	-10.023
graf	-10.0239
▁online	-10.0246
▁cover	-10.0248
▁Cal	-10.0258
▁morto	-10.026
▁reach	-10.0265
99	-10.0269
▁black	-10.0287
▁ensure	-10.0289
▁early	-10.0289
avolo	-10.0293
uc	-10.03
▁above	-10.0302
▁bello	-10.0303
▁soli	-10.0307
▁longer	-10.0315
▁happens	-10.0315
▁poteva	-10.0318
▁voleva	-10.0319
▁brought	-10.032
▁forest	-10.0324
▁Cam	-10.0326
▁avevano	-10.0326
▁represent	-10.0328
temi	-10.033
▁culture	-10.0336
▁referred	-10.0343
▁ferma	-10.0344
▁nemmeno	-10.0347
▁Have	-10.0348
stitution	-10.035
quite	-10.0358
▁carbon	-10.0358
▁soltanto	-10.0361
▁guard	-10.0362
▁aumenta	-10.0365
mme	-10.0371
dor	-10.0372
▁discover	-10.0372
▁facile	-10.0379
▁costi	-10.0379
▁yes	-10.0379
row	-10.0382
▁pace	-10.0387
ffer	-10.0391
pic	-10.0392
dis	-10.0393
abile	-10.0394
▁cento	-10.0395
▁breve	-10.0398
▁consult	-10.0399
▁parlato	-10.0416
lato	-10.0417
▁basis	-10.0439
▁adult	-10.0441
▁propria	-10.0442
ren	-10.0446
ood	-10.0448
▁Like	-10.0448
visione	-10.0458
▁program	-10.0462
▁cat	-10.0475
voc	-10.0482
▁libro	-10.0486
▁Stai	-10.0489
mate	-10.049
▁site	-10.049
▁However	-10.0496
▁price	-10.0497
▁Ex	-10.0503
▁terms	-10.0506
▁address	-10.0507
ham	-10.0508
▁ground	-10.0511
т	-10.0515
▁paper	-10.0521
▁Comp	-10.0529
▁lie	-10.0538
▁rimane	-10.054
▁bel	-10.054
ial	-10.0545
▁link	-10.055
▁themselves	-10.0553
ute	-10.0554
▁difference	-10.0557
▁sole	-10.0559
uri	-10.0567
jo	-10.0574
▁Aspetta	-10.0576
▁patients	-10.0583
rdi	-10.0593
▁grow	-10.0599
▁Senti	-10.06
ow	-10.0603
▁dream	-10.0613
▁General	-10.0613
uto	-10.0614
▁others	-10.0617
▁trust	-10.0623
▁assist	-10.0642
▁entramb	-10.0643
▁scoperto	-10.0647
▁200	-10.0648
▁salute	-10.0656
▁paio	-10.0662
▁soprattutto	-10.0664
▁clean	-10.0669
▁size	-10.068
▁scritto	-10.0685
cho	-10.0686
chiamo	-10.0687
▁companies	-10.0687
▁peggio	-10.069
▁Spe	-10.0697
▁UE	-10.07
▁immagine	-10.0701
▁speed	-10.0703
▁fre	-10.0705
▁salva	-10.0706
str	-10.0707
▁industry	-10.072
▁inoltre	-10.072
dita	-10.0721
▁Vorrei	-10.0725
▁needed	-10.0727
▁nuclear	-10.073
▁treatment	-10.0743
▁progress	-10.0746
▁maggiore	-10.075
▁mese	-10.0757
▁cittadini	-10.076
▁statistic	-10.0761
▁personale	-10.0762
▁write	-10.0767
▁Prima	-10.0769
our	-10.0772
▁EUR	-10.0783
▁news	-10.0783
atore	-10.0784
▁focus	-10.0786
ged	-10.0791
▁concerned	-10.0797
▁among	-10.0802
▁mg	-10.0806
▁creat	-10.0807
▁mal	-10.0808
▁completely	-10.0809
▁Th	-10.0813
pia	-10.0819
▁science	-10.082
ip	-10.082
▁haven	-10.0824
▁temperature	-10.0824
▁June	-10.0825
▁migliori	-10.083
▁competent	-10.0831
▁Euro	-10.0838
▁probabilmente	-10.0839
ace	-10.0842
▁systems	-10.0846
▁relationship	-10.0848
zze	-10.0853
ida	-10.0853
▁risorse	-10.0857
gro	-10.086
▁TED	-10.0866
▁message	-10.0871
▁né	-10.0873
ure	-10.0874
▁parl	-10.0875
▁obiettivo	-10.0876
tiche	-10.0879
gato	-10.0881
▁apply	-10.0885
▁pure	-10.089
nica	-10.089
▁ju	-10.0894
▁arte	-10.09
▁35	-10.09
olo	-10.0906
▁month	-10.0916
▁treat	-10.0919
▁capi	-10.0923
time	-10.0925
▁function	-10.0926
tici	-10.0927
nal	-10.093
par	-10.0946
nn	-10.0949
▁riusci	-10.0957
.19	-10.0957
ign	-10.0961
▁effective	-10.0963
▁intorno	-10.0968
▁diventare	-10.0969
mbo	-10.0969
▁code	-10.0972
▁trasforma	-10.098
fy	-10.0981
fin	-10.0984
▁fatta	-10.0986
▁DI	-10.0987
▁radio	-10.0988
gon	-10.0989
▁Bri	-10.099
▁expect	-10.1011
▁importanti	-10.1017
sapevo	-10.1018
▁Mor	-10.1031
▁sangue	-10.1038
▁rete	-10.1039
▁sala	-10.1044
▁riguardo	-10.1045
▁nazionale	-10.1045
▁Take	-10.1064
▁considera	-10.1068
▁crescita	-10.1069
▁fuck	-10.1069
▁France	-10.108
▁Wait	-10.1081
▁andato	-10.1081
▁zona	-10.1082
▁wh	-10.1082
с	-10.1084
▁sito	-10.1086
ex	-10.1088
▁Gia	-10.1107
▁secol	-10.1109
▁society	-10.1118
▁travel	-10.1119
▁dietro	-10.1123
▁From	-10.1123
arsi	-10.1123
▁somebody	-10.1126
▁scor	-10.1126
▁veloci	-10.1128
▁band	-10.1135
▁verifica	-10.114
▁approach	-10.1142
▁everybody	-10.1153
▁regional	-10.1155
▁miss	-10.1155
▁tal	-10.1155
▁ship	-10.1157
▁Possiam	-10.1158
▁dose	-10.1158
▁diverso	-10.1159
▁ottenere	-10.1162
▁interessante	-10.117
ges	-10.1174
▁hi	-10.1176
▁alcun	-10.118
ped	-10.1181
▁Treaty	-10.1182
▁signora	-10.1186
▁relative	-10.1186
▁South	-10.1194
▁presto	-10.1208
▁organizza	-10.1211
▁fonda	-10.1211
▁giovani	-10.1211
▁amend	-10.1222
▁Will	-10.1223
colo	-10.1223
▁agree	-10.1223
▁rights	-10.123
▁concentra	-10.1235
▁built	-10.1236
▁intens	-10.1243
tevi	-10.1256
▁fucking	-10.1261
▁World	-10.1265
▁road	-10.1266
▁economica	-10.1275
▁poor	-10.1275
▁fortuna	-10.1276
▁basta	-10.1286
▁produce	-10.1291
▁Inter	-10.1292
uta	-10.13
▁pesca	-10.1301
▁police	-10.1302
▁modi	-10.1304
▁structure	-10.1305
trice	-10.1306
▁shit	-10.1308
▁zone	-10.1311
▁tardi	-10.1311
▁dicendo	-10.1312
▁St	-10.1312
▁population	-10.1315
▁private	-10.1319
▁web	-10.132
▁fronte	-10.1325
▁rate	-10.1327
▁amazing	-10.133
▁source	-10.133
▁salt	-10.1334
▁modello	-10.134
▁Qua	-10.1343
RO	-10.1344
▁pun	-10.1345
▁touch	-10.1367
▁principle	-10.137
can	-10.1378
SI	-10.1378
▁Even	-10.1381
▁Hanno	-10.1385
▁peace	-10.1387
▁assicura	-10.1387
▁piedi	-10.1392
▁protection	-10.1395
▁Tom	-10.1403
▁First	-10.1405
▁scale	-10.1409
▁wo	-10.1409
▁serious	-10.1413
lor	-10.1414
▁stanza	-10.1422
tene	-10.1423
▁Ogni	-10.1426
▁vogliamo	-10.143
mar	-10.1431
grad	-10.1442
▁Her	-10.1447
▁wind	-10.1449
▁late	-10.145
▁programmi	-10.1453
day	-10.1456
▁trattato	-10.1459
▁imagine	-10.1466
tar	-10.1466
atori	-10.1467
▁sale	-10.147
▁Earth	-10.1471
▁miliardi	-10.1488
▁major	-10.1489
▁nazionali	-10.1491
▁2014	-10.1493
▁informazione	-10.1498
▁ordine	-10.1499
cious	-10.1503
▁comes	-10.1506
ili	-10.1513
del	-10.1516
▁DNA	-10.1519
▁felice	-10.1522
istic	-10.1525
▁deciso	-10.1527
cket	-10.1529
▁hundred	-10.1532
▁privat	-10.1533
65	-10.1534
▁December	-10.1537
▁sometimes	-10.1537
▁parlando	-10.1538
serv	-10.1538
▁sede	-10.154
▁credi	-10.1545
RA	-10.1549
▁aria	-10.155
▁piccoli	-10.1557
▁dollars	-10.1559
▁Sorry	-10.1559
▁sento	-10.1559
and	-10.156
▁train	-10.156
rato	-10.1561
▁benefit	-10.1563
▁internazionale	-10.1568
▁Gen	-10.1578
▁effect	-10.1583
▁relativa	-10.1586
ffic	-10.1591
▁street	-10.1593
▁card	-10.1593
▁authorities	-10.1593
▁aiuti	-10.1596
isti	-10.1596
▁posti	-10.1602
▁pensi	-10.161
▁sapete	-10.1619
gua	-10.1621
▁esse	-10.1622
▁War	-10.1622
sure	-10.1625
uti	-10.1628
▁supposed	-10.163
gr	-10.1632
ING	-10.1635
MA	-10.1639
▁avesse	-10.1644
▁Frank	-10.1656
▁measure	-10.1657
▁pot	-10.1666
▁trattamento	-10.1666
▁bomb	-10.167
▁imprese	-10.167
▁Cu	-10.1675
▁manca	-10.1675
dono	-10.1676
▁sacco	-10.1676
▁voce	-10.1677
▁daughter	-10.1681
▁mine	-10.1683
▁Stan	-10.1688
▁component	-10.1691
▁Paul	-10.1701
▁manda	-10.1702
AS	-10.1707
▁sicura	-10.1709
▁activities	-10.1712
▁spin	-10.1717
▁dico	-10.1718
▁oil	-10.172
▁animals	-10.1735
▁David	-10.1738
▁azienda	-10.1743
rgi	-10.1749
▁soluzione	-10.1751
▁Molt	-10.1759
30	-10.1765
▁forward	-10.1767
▁ordina	-10.1782
log	-10.1784
▁success	-10.1789
▁minute	-10.1789
▁esattamente	-10.179
▁entrare	-10.179
▁fast	-10.1791
bin	-10.18
tal	-10.1803
fra	-10.1805
mber	-10.1808
▁conven	-10.1809
▁giugno	-10.1817
▁seems	-10.1817
▁negozi	-10.1818
▁fatti	-10.182
sis	-10.1823
▁tend	-10.1827
nni	-10.1827
▁appear	-10.1831
disposizioni	-10.1832
▁vote	-10.1836
tari	-10.1836
▁digital	-10.1838
▁ambito	-10.1844
▁Shi	-10.1847
▁settimane	-10.1858
▁aspetto	-10.1858
pra	-10.1859
cell	-10.186
р	-10.1863
▁eh	-10.1868
burg	-10.1871
▁Dan	-10.1877
▁decide	-10.1885
nie	-10.1885
▁contact	-10.1887
▁seven	-10.189
▁appropriate	-10.1893
▁organism	-10.1894
▁whatever	-10.1894
▁attention	-10.1895
▁deliver	-10.1897
▁ways	-10.1902
▁quadro	-10.1902
AT	-10.1906
▁white	-10.1912
▁creato	-10.1916
rr	-10.1924
▁OF	-10.1927
▁Mrs	-10.1927
▁mon	-10.1927
▁role	-10.1931
of	-10.1932
▁Oggi	-10.1933
▁umano	-10.1934
▁challenge	-10.1938
▁shot	-10.1938
▁gross	-10.1941
▁Israel	-10.1943
▁dovremmo	-10.1947
▁geni	-10.1952
▁IN	-10.1956
▁agricol	-10.1957
▁uscire	-10.1958
ù	-10.1971
▁Inoltre	-10.1974
▁dog	-10.1978
▁Devi	-10.1982
▁Dal	-10.1997
▁dimostra	-10.2002
▁comment	-10.2004
▁Uno	-10.2009
▁là	-10.2013
▁Niente	-10.2014
▁wonder	-10.2015
▁interesse	-10.2017
▁page	-10.2018
▁dad	-10.2021
▁secret	-10.2022
▁cool	-10.2023
▁attack	-10.2024
▁strumenti	-10.2028
▁according	-10.203
volevo	-10.2033
▁preoccupa	-10.2035
97	-10.2038
▁tried	-10.2038
▁musica	-10.2043
volta	-10.2046
CH	-10.2051
▁prezzo	-10.2054
▁ban	-10.2068
▁object	-10.2071
odo	-10.2072
▁emission	-10.2072
▁tempi	-10.2075
▁wall	-10.208
▁Au	-10.208
▁dicembre	-10.2092
▁32	-10.2094
▁neanche	-10.2103
rca	-10.2104
▁charge	-10.2104
▁eventual	-10.2105
▁Noi	-10.2112
rdo	-10.2119
▁corre	-10.2127
ane	-10.2128
▁Bre	-10.2132
▁genitori	-10.2132
giving	-10.2135
▁verità	-10.2136
▁sea	-10.2136
▁rich	-10.2141
▁rileva	-10.2141
▁exist	-10.215
tel	-10.2151
qu	-10.2157
98	-10.2166
▁People	-10.2168
▁box	-10.2169
▁mom	-10.217
wer	-10.2174
▁gestione	-10.2174
▁lavori	-10.2179
ants	-10.2181
tazione	-10.2185
▁Adesso	-10.219
▁Bro	-10.2196
▁comincia	-10.2198
▁racconta	-10.2201
▁paragraph	-10.2201
▁pochi	-10.2203
kin	-10.2209
▁cru	-10.2209
▁DE	-10.2211
▁accade	-10.2219
▁commissione	-10.2219
▁happening	-10.2221
rico	-10.2221
á	-10.2222
▁Camp	-10.2227
▁fratello	-10.2228
▁interessat	-10.223
▁consent	-10.2237
▁limita	-10.224
▁save	-10.2246
▁affect	-10.2254
press	-10.2258
gt	-10.2259
▁beginning	-10.2261
▁cop	-10.2263
▁Sch	-10.2265
▁felt	-10.2269
ette	-10.2277
▁ruolo	-10.2278
▁spar	-10.2278
▁hour	-10.2284
cker	-10.2285
▁opportunità	-10.2285
▁takes	-10.2288
▁termini	-10.2311
▁arrivat	-10.2316
▁towards	-10.2319
▁finito	-10.2323
▁tipi	-10.2325
▁moral	-10.2327
▁especially	-10.2332
▁costo	-10.2333
▁idee	-10.2334
▁training	-10.2336
ned	-10.2342
NA	-10.2344
▁pari	-10.2352
▁figlia	-10.2355
▁Wi	-10.2358
▁changed	-10.2365
▁vedete	-10.2379
▁popolazione	-10.2385
▁worry	-10.2388
▁incontra	-10.2391
▁Lord	-10.24
▁Fl	-10.2402
▁complete	-10.2403
▁associa	-10.2404
▁industria	-10.241
10	-10.242
.000	-10.2422
▁Ste	-10.2423
▁riuscit	-10.2423
▁comuni	-10.2434
MI	-10.2439
▁ucciso	-10.2443
47	-10.2448
▁visita	-10.2448
J	-10.2449
figura	-10.2449
▁wide	-10.2449
where	-10.2454
▁Mal	-10.2454
pl	-10.2454
▁hurt	-10.2454
▁China	-10.2459
▁virus	-10.246
▁comporta	-10.2463
nny	-10.2464
▁varie	-10.2464
▁bilancio	-10.2466
PE	-10.2467
▁muove	-10.2469
▁procedura	-10.2471
izzato	-10.2474
▁letter	-10.2479
▁cambiamento	-10.2483
▁tomorrow	-10.2488
isce	-10.2489
▁cross	-10.2495
rac	-10.2497
ngle	-10.2504
▁totale	-10.2504
▁several	-10.2505
▁45	-10.2508
▁perso	-10.2508
▁inclus	-10.251
▁cio	-10.2512
▁partecipa	-10.2512
▁fossi	-10.2514
▁fear	-10.2518
▁valori	-10.2526
▁crear	-10.2526
▁pull	-10.2526
▁superfici	-10.2528
▁Italian	-10.253
rina	-10.2531
▁gruppi	-10.2533
ppure	-10.2534
▁finish	-10.2534
cher	-10.2535
▁parents	-10.2537
▁Hello	-10.2538
▁Queste	-10.254
▁export	-10.2542
▁Wow	-10.2552
▁relat	-10.2552
▁Gar	-10.2553
▁Miss	-10.2555
▁notice	-10.2555
▁davanti	-10.2555
▁gene	-10.2556
▁primi	-10.256
▁crazy	-10.2561
▁current	-10.2562
▁gun	-10.2563
▁wanna	-10.2567
stan	-10.2569
▁resources	-10.2575
▁voice	-10.2578
▁superiore	-10.2578
▁similar	-10.2578
▁por	-10.2578
▁stage	-10.2582
▁results	-10.2584
▁richiesta	-10.2585
tz	-10.2585
▁ourselves	-10.2589
▁press	-10.2598
▁pat	-10.2602
▁establish	-10.2602
6	-10.2604
▁spec	-10.2604
pt	-10.2607
▁potre	-10.2608
▁draw	-10.2608
▁2016	-10.2608
gger	-10.2612
▁debate	-10.2618
▁involved	-10.2619
▁oggetto	-10.2623
iva	-10.2624
▁ciascun	-10.2629
▁interessa	-10.2633
▁March	-10.2635
▁riesco	-10.2641
poli	-10.2644
▁arriv	-10.2646
▁convince	-10.2646
▁opportunity	-10.2648
▁disponibili	-10.2652
▁Italia	-10.2656
ists	-10.2677
▁running	-10.2682
▁fondo	-10.2683
▁registra	-10.269
▁studenti	-10.2693
▁differenza	-10.2695
▁colon	-10.2695
▁practice	-10.2703
▁rapid	-10.2707
▁lasciato	-10.2707
▁telling	-10.2709
fond	-10.2713
▁Dai	-10.2725
▁prevent	-10.2727
rap	-10.2728
domani	-10.2729
shi	-10.2736
ena	-10.2746
▁particularly	-10.275
▁issues	-10.2752
▁wants	-10.2753
▁equi	-10.2757
pen	-10.2758
▁stia	-10.2758
IS	-10.2759
viaggio	-10.2761
▁suggest	-10.2766
44	-10.2768
▁tonight	-10.2773
▁sport	-10.2776
▁worth	-10.278
55	-10.2784
▁sociali	-10.2787
resti	-10.2787
▁andata	-10.2788
▁familiar	-10.2789
ssu	-10.28
▁destinat	-10.2806
▁prop	-10.2811
▁lotta	-10.2824
▁method	-10.2824
▁insegna	-10.2826
▁clo	-10.2827
prezzi	-10.2829
ious	-10.2833
▁require	-10.2834
▁33	-10.2836
▁aiutare	-10.2837
▁rap	-10.2837
duce	-10.284
▁economia	-10.2841
▁promise	-10.2842
nata	-10.2842
▁eye	-10.2852
▁conclude	-10.2853
▁event	-10.2855
▁risultato	-10.2858
▁Terra	-10.2864
▁Ko	-10.2866
▁passo	-10.2869
▁premi	-10.287
▁globale	-10.2876
▁mental	-10.2877
mal	-10.2878
izzare	-10.2879
don	-10.288
▁enjoy	-10.2882
▁protezione	-10.2882
▁riferimento	-10.2883
▁costruire	-10.2885
▁critic	-10.289
▁annual	-10.289
els	-10.2892
▁monitor	-10.2892
ase	-10.2893
▁god	-10.2896
simply	-10.2899
▁fly	-10.29
▁andiamo	-10.29
▁collabora	-10.2903
▁arrivare	-10.2904
▁Val	-10.2906
▁terzo	-10.2911
л	-10.2917
▁reduce	-10.292
▁Thanks	-10.2922
mark	-10.2923
▁ufficio	-10.2927
▁US	-10.293
cola	-10.2931
▁fair	-10.2931
▁center	-10.2932
▁classe	-10.2933
▁resi	-10.2934
▁raise	-10.2934
▁adopted	-10.2935
▁Mer	-10.2936
SA	-10.2938
77	-10.2938
▁sin	-10.294
her	-10.296
▁povert	-10.2963
▁tradi	-10.2965
viamo	-10.2966
▁cancer	-10.297
▁track	-10.2971
▁spent	-10.2978
▁cooperation	-10.2978
uttavia	-10.298
▁effetto	-10.2988
▁moving	-10.2988
ologi	-10.2991
▁Tell	-10.2994
▁April	-10.2996
▁immagini	-10.2999
▁stress	-10.3002
▁gotta	-10.3008
▁Pla	-10.3009
▁dark	-10.3012
▁cooperazione	-10.3015
▁pianeta	-10.3015
▁incident	-10.3017
▁quanti	-10.3017
▁Sco	-10.3023
LA	-10.3027
▁approv	-10.3034
▁messaggio	-10.3036
▁implement	-10.3037
▁huge	-10.3041
▁Bill	-10.3042
▁Italy	-10.3043
▁genetic	-10.3044
▁movement	-10.3044
▁valid	-10.305
▁growth	-10.3054
▁affari	-10.3055
▁stampa	-10.3062
▁CO	-10.3065
late	-10.3066
gate	-10.3066
▁tro	-10.3067
NO	-10.307
▁members	-10.3071
gar	-10.3077
▁positive	-10.3082
▁begin	-10.3083
60	-10.309
▁born	-10.3092
▁trasporto	-10.3094
oè	-10.3097
▁formazione	-10.3098
▁rimast	-10.3102
▁count	-10.3105
IA	-10.3106
▁girls	-10.3115
titut	-10.3116
▁def	-10.3122
produc	-10.3128
▁extra	-10.3143
▁ottim	-10.3145
68	-10.3147
▁management	-10.3151
49	-10.3151
▁Scusa	-10.3153
▁essential	-10.3154
▁vai	-10.3155
▁intero	-10.3155
cercare	-10.3158
▁regime	-10.3158
af	-10.3158
▁nonché	-10.316
▁murder	-10.3166
▁performance	-10.3167
▁join	-10.3171
bl	-10.3175
cchia	-10.3177
▁avessi	-10.3178
pin	-10.3186
▁contract	-10.3187
▁assume	-10.3187
▁hospital	-10.319
▁gets	-10.3191
▁device	-10.3194
lica	-10.3208
▁Nessuno	-10.3209
▁stesse	-10.3212
▁compit	-10.3214
▁piacere	-10.3217
PA	-10.3217
vision	-10.3222
▁Peter	-10.3222
yn	-10.3223
▁Michael	-10.3226
▁safety	-10.323
rgli	-10.3231
▁potrebbero	-10.3231
met	-10.3235
▁individu	-10.3236
▁adottat	-10.3238
▁turned	-10.324
▁01	-10.3243
▁inform	-10.3244
▁January	-10.325
▁par	-10.3256
▁cib	-10.3263
▁500	-10.3266
▁rid	-10.3267
▁evidence	-10.3268
▁migliaia	-10.3268
▁stavo	-10.3269
▁impact	-10.3275
▁Luc	-10.3279
mine	-10.3283
▁criminal	-10.3287
▁afferma	-10.3287
▁flu	-10.3288
▁Any	-10.3288
▁changes	-10.3291
▁however	-10.3294
ppa	-10.3314
bar	-10.3318
▁scu	-10.3319
▁Grand	-10.332
▁perchè	-10.3322
▁animal	-10.3323
TE	-10.3332
▁simile	-10.3336
▁ved	-10.3338
mica	-10.334
▁Um	-10.3342
▁volut	-10.3343
bell	-10.3349
▁husband	-10.3366
▁metri	-10.3366
▁qualunqu	-10.3377
▁House	-10.3379
▁vera	-10.3389
▁disco	-10.3389
DA	-10.3389
▁complex	-10.339
94	-10.3392
▁Google	-10.3396
bro	-10.3398
▁carta	-10.3399
▁Ero	-10.3405
ced	-10.3405
ky	-10.3423
▁identifica	-10.3428
▁memor	-10.3434
▁reale	-10.344
▁lose	-10.3442
▁formula	-10.3446
gram	-10.345
▁000	-10.3452
▁slow	-10.3452
▁Give	-10.3457
IN	-10.3458
▁compr	-10.346
▁calm	-10.3461
▁età	-10.3461
▁himself	-10.347
16	-10.3476
▁immediate	-10.3476
rma	-10.3479
▁technical	-10.3483
▁colpa	-10.3483
▁sun	-10.3487
▁various	-10.3491
matic	-10.3493
▁carri	-10.3494
▁direttamente	-10.3495
▁green	-10.3495
▁intelligent	-10.3507
aria	-10.3509
▁Alla	-10.3512
▁learned	-10.3512
▁Del	-10.3515
▁bed	-10.3516
▁organization	-10.3517
▁ulterior	-10.352
telefono	-10.352
▁wear	-10.3524
▁scopo	-10.353
▁carry	-10.3532
▁potential	-10.3532
8	-10.3534
▁Nella	-10.3535
▁objective	-10.3539
bat	-10.3543
▁student	-10.3544
▁arma	-10.3548
▁welcome	-10.3557
▁Puoi	-10.3558
в	-10.3563
▁enorme	-10.3563
▁cultura	-10.3568
▁UN	-10.3569
▁resist	-10.3571
▁bus	-10.3573
▁path	-10.3573
▁ovviamente	-10.3582
▁richiede	-10.3589
▁venuto	-10.3596
▁aspetti	-10.3598
▁partire	-10.3601
▁democratic	-10.3601
tina	-10.3607
▁comm	-10.3607
▁garantire	-10.3614
▁Alcun	-10.3615
ji	-10.3622
▁ride	-10.3624
▁July	-10.3626
▁relazioni	-10.3626
▁mangia	-10.3627
▁express	-10.3629
▁conserva	-10.3632
▁Russia	-10.3639
▁provisions	-10.3643
▁nessuna	-10.3649
▁scr	-10.365
ju	-10.3653
▁radi	-10.3661
sch	-10.368
▁fate	-10.368
▁trouble	-10.3683
▁reti	-10.3685
▁foot	-10.3685
▁region	-10.3686
leg	-10.3689
▁cri	-10.3691
▁venga	-10.3697
▁minor	-10.3704
▁diventat	-10.3708
▁fish	-10.3708
▁roba	-10.3713
VE	-10.3717
▁principale	-10.3718
▁middle	-10.3724
▁costs	-10.3724
▁students	-10.3727
▁solve	-10.3727
▁cases	-10.3729
06	-10.3729
▁Joe	-10.3738
ek	-10.3739
▁observ	-10.3746
▁Ph	-10.3751
▁October	-10.3752
▁waiting	-10.376
▁institutions	-10.3762
zon	-10.3765
voli	-10.3767
ella	-10.3768
▁politiche	-10.3773
▁credit	-10.3775
▁seeing	-10.3776
▁tree	-10.378
▁combat	-10.3782
load	-10.3788
rus	-10.3789
▁Court	-10.3791
▁bri	-10.3795
▁valuta	-10.38
▁vehicle	-10.3803
▁Lascia	-10.3806
gent	-10.3809
▁gioca	-10.3811
78	-10.3824
▁umana	-10.383
▁improve	-10.3832
▁comprende	-10.3836
87	-10.3836
76	-10.3838
▁More	-10.3843
▁profit	-10.3847
▁medicine	-10.3848
▁sister	-10.3849
▁mass	-10.3852
ttori	-10.3853
▁English	-10.3855
▁medico	-10.3855
▁average	-10.3856
▁controlla	-10.3863
▁estate	-10.3865
▁George	-10.3868
▁French	-10.3868
▁eight	-10.3874
ban	-10.3878
▁colleghi	-10.39
▁basso	-10.39
▁depend	-10.3902
▁basic	-10.3903
▁solito	-10.3903
▁dicono	-10.3904
▁points	-10.3908
▁ones	-10.3909
▁Great	-10.3913
ification	-10.3914
▁asking	-10.3915
▁gravi	-10.3917
▁version	-10.3921
utile	-10.3924
▁volume	-10.3932
test	-10.3935
▁photo	-10.3937
▁giusta	-10.3937
▁complet	-10.3941
▁presidente	-10.3943
▁mandato	-10.3953
▁discuss	-10.3957
▁fail	-10.3957
nco	-10.3959
▁scusa	-10.3962
▁Vol	-10.3963
▁mille	-10.3966
nut	-10.3972
▁crisi	-10.3976
pet	-10.3976
▁plastic	-10.3979
▁related	-10.3991
▁rischi	-10.3993
SO	-10.3993
pha	-10.3996
▁Bas	-10.3996
▁Jesus	-10.3997
54	-10.3998
▁ragazze	-10.4004
▁thousands	-10.4008
▁vale	-10.401
ctive	-10.4016
▁Christ	-10.402
72	-10.4021
▁piccole	-10.4023
▁recent	-10.4025
▁ob	-10.4026
nazione	-10.4029
▁Republic	-10.403
▁recente	-10.4031
▁suit	-10.4032
▁norme	-10.4034
▁fan	-10.4036
▁experiment	-10.4043
▁raccolt	-10.4043
▁flow	-10.4047
88	-10.4052
▁held	-10.4056
€	-10.4056
▁Star	-10.406
aging	-10.4065
▁potrem	-10.4068
▁tesoro	-10.4069
▁character	-10.4075
▁hot	-10.4081
▁floor	-10.4089
▁magic	-10.4094
▁vecchio	-10.4094
▁fotograf	-10.4099
strumento	-10.4102
▁argoment	-10.4102
▁urban	-10.4102
▁gara	-10.4102
▁define	-10.4105
▁Time	-10.4111
▁lingua	-10.4114
▁block	-10.4117
marito	-10.4121
▁range	-10.4123
▁perhaps	-10.4125
▁govern	-10.4126
BI	-10.4127
▁quantità	-10.4128
▁effort	-10.4135
▁dovrebbero	-10.4135
▁Vieni	-10.4136
▁oppure	-10.4136
SC	-10.4137
▁metal	-10.4137
▁wonderful	-10.4143
▁chiaro	-10.4149
▁citizens	-10.4156
bul	-10.4156
▁shape	-10.4157
ncia	-10.4159
▁prison	-10.4162
▁aziende	-10.4168
▁rispost	-10.4169
▁aware	-10.4169
▁comunica	-10.4171
▁obiettivi	-10.4175
▁fit	-10.4176
▁prefer	-10.4178
▁projects	-10.4182
▁morire	-10.4189
▁fix	-10.4199
out	-10.4201
▁accident	-10.4201
carico	-10.4201
▁Q	-10.4202
▁groups	-10.4203
CA	-10.4204
ppe	-10.4204
▁playing	-10.4205
▁passion	-10.4209
vanno	-10.4211
▁perdere	-10.4214
upon	-10.4216
▁organizzazione	-10.4218
▁Park	-10.4221
46	-10.4223
▁squadra	-10.4223
▁mondiale	-10.4228
▁automatic	-10.4229
avo	-10.423
nz	-10.4231
▁Ya	-10.4238
▁Tri	-10.4241
▁regole	-10.4241
ology	-10.4242
▁mare	-10.4244
▁anymore	-10.4248
▁Pres	-10.4252
▁religion	-10.4255
▁meaning	-10.4263
▁demand	-10.4268
▁libertà	-10.4268
▁official	-10.4269
▁search	-10.4269
▁bag	-10.4284
▁fat	-10.4287
▁knowledge	-10.4288
▁huh	-10.4288
▁bla	-10.4291
▁rendere	-10.4292
▁Nell	-10.4295
▁aumento	-10.4295
▁dici	-10.4296
▁segue	-10.4301
nate	-10.4307
▁reality	-10.431
▁gennaio	-10.4315
IC	-10.4318
▁coordina	-10.432
▁afraid	-10.4322
▁scorso	-10.4325
▁05	-10.4325
▁andando	-10.4327
▁responsibilit	-10.4328
▁court	-10.4329
▁manage	-10.433
▁cielo	-10.4331
▁anima	-10.4342
▁Fra	-10.435
▁chiedere	-10.4355
lam	-10.4362
▁serio	-10.4362
▁elimin	-10.4367
CI	-10.4367
▁rock	-10.4368
▁poll	-10.4377
▁Every	-10.4378
▁Poli	-10.4386
responsabilità	-10.4386
58	-10.439
▁collega	-10.439
▁affrontare	-10.4394
▁guarantee	-10.4396
▁hair	-10.4402
▁West	-10.4405
▁confront	-10.4405
▁coin	-10.4405
▁Spa	-10.4406
▁requirements	-10.441
▁consum	-10.4412
▁diversa	-10.4415
▁peso	-10.4415
▁300	-10.4415
▁physical	-10.4415
▁scala	-10.4421
▁bro	-10.4422
▁teacher	-10.4422
▁bellissim	-10.4423
▁considered	-10.4434
▁naturale	-10.4444
▁mol	-10.4445
▁mess	-10.4446
▁Two	-10.4451
▁prevede	-10.4457
▁raggiungere	-10.4459
▁sitting	-10.4469
▁95	-10.447
▁parts	-10.4472
cli	-10.4473
▁quant	-10.4476
▁influenza	-10.4478
▁blue	-10.4478
▁economico	-10.4479
▁testo	-10.4482
ciò	-10.4482
tting	-10.4493
▁fals	-10.4494
▁prossimo	-10.4497
▁rub	-10.4498
spira	-10.4498
▁politici	-10.4501
vado	-10.4503
▁commercial	-10.4504
к	-10.4505
▁efficient	-10.4505
rati	-10.4509
79	-10.4511
▁waste	-10.4511
▁capisco	-10.4523
▁opportun	-10.4526
DLL	-10.4539
▁scienza	-10.4541
▁required	-10.4541
▁thanks	-10.4543
▁cast	-10.4546
▁instrument	-10.4553
▁surprise	-10.456
▁impatt	-10.4563
▁scoprire	-10.4564
▁straordinari	-10.4567
▁paid	-10.4569
sino	-10.457
▁movie	-10.4574
▁reference	-10.4575
▁36	-10.4576
▁mission	-10.4577
▁1998	-10.4585
▁Repubblica	-10.4588
▁Qualcun	-10.4589
▁azioni	-10.459
▁equal	-10.4592
▁forget	-10.4593
▁denaro	-10.4595
▁aim	-10.4604
▁benefici	-10.4605
▁COM	-10.4608
▁economy	-10.4608
▁cellule	-10.4608
▁clinic	-10.4609
▁Due	-10.461
▁impar	-10.4611
ware	-10.4611
▁finanziari	-10.4615
▁September	-10.4615
▁task	-10.4617
▁tira	-10.462
▁impieg	-10.4625
▁comunicazione	-10.4629
▁ricevuto	-10.463
▁aren	-10.4631
▁store	-10.4632
▁intra	-10.4632
▁investment	-10.4636
▁shoot	-10.4636
LO	-10.4643
▁sostegno	-10.4643
▁analisi	-10.4643
▁luglio	-10.4643
ula	-10.4646
▁elabora	-10.465
▁Other	-10.4653
telo	-10.4653
▁starting	-10.4654
▁comand	-10.4655
▁gira	-10.466
▁regione	-10.4662
м	-10.4678
▁separa	-10.4678
▁04	-10.4678
uch	-10.4681
▁hate	-10.4685
cino	-10.4688
▁relation	-10.4692
▁essenzial	-10.4692
▁chiave	-10.4693
▁presso	-10.4698
disc	-10.4701
▁assolutament	-10.4705
▁norma	-10.471
▁riesc	-10.4712
▁sinistra	-10.4713
▁fill	-10.4714
▁Mark	-10.4716
▁grave	-10.4718
▁sud	-10.4719
▁settembre	-10.472
▁locale	-10.4725
body	-10.4727
▁meraviglios	-10.4727
▁target	-10.4727
▁zero	-10.4731
▁ottobre	-10.4734
▁Nothing	-10.4734
vremmo	-10.4735
▁visual	-10.4736
▁Port	-10.4739
66	-10.4739
LL	-10.4741
▁mail	-10.4742
▁criteri	-10.4746
▁Cina	-10.4747
▁option	-10.4748
▁college	-10.4748
56	-10.4751
▁trasferi	-10.4753
▁fase	-10.4753
▁sposa	-10.4756
▁Imp	-10.4761
▁surface	-10.4762
▁designed	-10.4762
▁faceva	-10.4763
▁Listen	-10.4763
▁Za	-10.4765
cc	-10.4766
mmer	-10.4768
▁transfer	-10.4778
▁powerful	-10.478
▁pericolos	-10.4783
cato	-10.4786
▁credere	-10.4786
▁impegna	-10.4789
▁section	-10.4791
▁locali	-10.4793
▁costruit	-10.4793
▁75	-10.4793
bsolutely	-10.4794
▁mark	-10.4795
▁Roma	-10.4796
▁pelle	-10.4797
▁34	-10.4798
▁tocca	-10.48
▁Mc	-10.4801
▁funzione	-10.4803
▁Bur	-10.4804
▁smart	-10.4805
▁internet	-10.4807
▁registr	-10.4808
74	-10.481
▁merito	-10.4813
fla	-10.4819
bel	-10.4819
▁basically	-10.4819
▁disturb	-10.4826
▁throw	-10.4826
rian	-10.4828
▁trip	-10.4829
▁Which	-10.4833
▁regulation	-10.4833
▁drop	-10.4833
▁integr	-10.4835
▁infatti	-10.484
▁Stra	-10.484
▁effects	-10.4847
▁valutazione	-10.4847
84	-10.4848
NI	-10.485
▁ricordo	-10.4854
▁occasione	-10.4858
har	-10.4863
▁environmental	-10.4863
▁blu	-10.4864
▁medio	-10.4864
▁Mari	-10.4865
▁deposit	-10.487
▁realize	-10.4871
▁acquis	-10.4873
▁communication	-10.4875
▁iniziativ	-10.4877
▁sposta	-10.4877
▁conoscenza	-10.4884
▁sit	-10.4895
▁Would	-10.4897
▁describe	-10.4897
▁speciale	-10.4897
▁medical	-10.4898
▁kg	-10.4899
▁risolvere	-10.4899
▁Stop	-10.4899
▁direct	-10.4902
▁volete	-10.4904
▁concerning	-10.4905
89	-10.4909
▁applie	-10.491
lay	-10.4922
▁response	-10.4925
▁informa	-10.4938
fica	-10.4942
▁prior	-10.4944
▁probabil	-10.4948
▁ieri	-10.4949
▁Group	-10.4949
▁Davver	-10.4954
pped	-10.4957
▁feed	-10.4961
▁proprie	-10.4972
▁Dad	-10.4976
▁dieci	-10.4979
▁Steve	-10.4988
▁incredibile	-10.499
▁Avete	-10.4991
▁Voi	-10.4994
0,000	-10.4996
59	-10.4996
▁alive	-10.4997
▁connection	-10.4999
▁station	-10.4999
mettere	-10.5004
▁destra	-10.5004
▁weight	-10.5005
evole	-10.5007
▁chiamat	-10.5007
▁developed	-10.5014
57	-10.5018
▁responsible	-10.5019
▁marzo	-10.5019
▁Cro	-10.5021
▁Stiamo	-10.5024
▁liquid	-10.5026
04	-10.5031
▁inferior	-10.5034
▁Chris	-10.5035
coming	-10.5038
▁burn	-10.5039
▁Sun	-10.5039
▁tenere	-10.5039
▁giovane	-10.504
▁avven	-10.5041
▁propri	-10.5045
ised	-10.5046
▁utili	-10.5047
▁giustizia	-10.5047
▁commerci	-10.5049
▁events	-10.5052
tuttavia	-10.5054
▁staff	-10.5055
▁Ten	-10.5055
▁Mm	-10.5058
▁victim	-10.5062
▁aperto	-10.5065
stone	-10.5066
bur	-10.5072
vv	-10.5072
▁rat	-10.5076
▁Germany	-10.508
▁piena	-10.5081
▁National	-10.5084
▁Gal	-10.509
▁interpret	-10.5092
▁completa	-10.5092
▁ran	-10.5098
▁Hotel	-10.5099
dine	-10.51
▁board	-10.5102
▁maggio	-10.5104
▁pressure	-10.5106
▁locat	-10.5111
▁oh	-10.5111
▁compos	-10.5121
nzo	-10.5122
40	-10.5123
▁tanti	-10.5127
▁Agreement	-10.5127
▁confus	-10.5127
mes	-10.5128
▁avver	-10.5128
▁carte	-10.513
▁higher	-10.513
flu	-10.5132
▁oggetti	-10.5133
meter	-10.5136
▁learning	-10.5139
▁soddisfa	-10.5141
▁cucina	-10.5142
▁essa	-10.516
▁caratter	-10.5187
▁BAR	-10.5192
▁claim	-10.5193
▁Nessun	-10.5206
64	-10.5208
▁pie	-10.5214
▁strano	-10.5226
▁titolo	-10.5229
▁apartment	-10.523
bilità	-10.5231
▁reasons	-10.5234
▁directly	-10.5239
▁fondi	-10.5244
volto	-10.5249
ball	-10.525
▁wine	-10.5252
▁competitiv	-10.5252
▁RE	-10.5253
▁dipende	-10.5256
arci	-10.5261
▁atto	-10.5264
▁imparat	-10.5264
stica	-10.5266
▁frequent	-10.5267
▁progressi	-10.5271
▁attuale	-10.5274
▁club	-10.5275
▁concret	-10.5275
▁utilizza	-10.5275
▁III	-10.528
ibile	-10.528
▁village	-10.5282
▁diretto	-10.5283
▁speranz	-10.5285
▁strange	-10.5286
▁achieve	-10.5287
nzia	-10.5292
▁member	-10.5294
▁factor	-10.5301
▁materiale	-10.5304
▁LA	-10.5306
OL	-10.5311
▁divent	-10.5316
▁Sape	-10.5319
▁Temperatur	-10.5319
▁Lin	-10.5325
▁Those	-10.5326
▁mobili	-10.5332
▁breath	-10.5334
ommunities	-10.5334
guard	-10.534
▁choose	-10.5341
▁livelli	-10.5342
▁istruzione	-10.5344
▁Commissario	-10.5349
▁Aveva	-10.5349
▁dettagli	-10.5354
▁mangiare	-10.5355
67	-10.5356
▁sesso	-10.5356
▁Minister	-10.5356
▁skin	-10.5363
▁necessità	-10.5364
▁voglia	-10.5364
▁provare	-10.5365
▁prossima	-10.5366
mun	-10.5366
▁maniera	-10.5367
▁considerando	-10.5386
▁dottore	-10.5397
▁North	-10.5402
▁Art	-10.5403
CO	-10.5405
▁imparar	-10.541
malattia	-10.541
▁giudic	-10.541
▁favor	-10.5411
▁engineer	-10.5414
▁movimento	-10.5416
▁Wh	-10.5416
▁Tro	-10.542
▁37	-10.5427
▁refer	-10.5427
well	-10.5427
▁decisioni	-10.5429
▁resta	-10.5434
▁VI	-10.5437
▁divertente	-10.5439
▁gradi	-10.5441
▁fundamental	-10.5446
▁migliorare	-10.5447
▁taglia	-10.5449
ET	-10.5453
▁risoluzion	-10.5454
▁produttor	-10.5454
▁City	-10.5454
▁inizi	-10.5456
▁mistake	-10.5461
ui	-10.5462
▁codice	-10.5465
▁correct	-10.547
▁vision	-10.547
▁emerge	-10.5476
86	-10.5477
▁payment	-10.5479
▁Air	-10.548
▁Entr	-10.5495
▁pm	-10.5497
▁shows	-10.5504
▁azione	-10.5505
▁Commissioner	-10.551
▁fuoco	-10.5514
▁previst	-10.5519
▁Does	-10.5525
▁window	-10.553
lon	-10.5534
▁ski	-10.5536
▁patient	-10.554
▁beh	-10.554
rebbero	-10.5542
▁vite	-10.5542
blo	-10.5546
▁active	-10.5547
▁Sud	-10.5548
▁indicate	-10.5549
CE	-10.5553
01	-10.5554
dina	-10.5563
work	-10.5563
▁integrat	-10.5563
ically	-10.5567
▁vigore	-10.5568
▁generat	-10.5568
zie	-10.5569
▁ahead	-10.557
correre	-10.5571
▁kept	-10.5575
▁balance	-10.5576
interested	-10.5578
lina	-10.5581
▁push	-10.5593
▁Pensavo	-10.5594
fort	-10.5595
▁prepar	-10.5596
▁separate	-10.5597
▁ufficiale	-10.56
▁segn	-10.5608
▁sette	-10.561
▁workers	-10.5612
▁Pass	-10.5614
▁James	-10.5614
▁Quanto	-10.5615
▁Pal	-10.5616
MO	-10.5616
▁Giu	-10.5619
▁established	-10.5621
▁feet	-10.5624
▁develop	-10.5631
▁wrot	-10.5637
▁levels	-10.5641
▁relativ	-10.5641
hy	-10.5641
▁colpi	-10.5642
EL	-10.5644
▁dedica	-10.5648
▁freedom	-10.5652
▁laid	-10.5654
▁situat	-10.5657
contatto	-10.5657
▁adeguat	-10.5659
dice	-10.5664
▁cominciato	-10.5673
▁vivo	-10.5675
▁November	-10.5675
▁principali	-10.5681
▁married	-10.5683
▁colore	-10.5683
▁seguent	-10.5683
isation	-10.5687
▁pieno	-10.5688
▁International	-10.569
▁sforz	-10.569
lder	-10.5695
▁giornata	-10.5698
▁resolution	-10.5698
▁print	-10.57
▁Mary	-10.57
▁border	-10.5706
▁nutri	-10.5714
▁attimo	-10.5715
▁um	-10.5715
▁Mike	-10.5716
▁acid	-10.5724
terra	-10.5724
▁inglese	-10.5729
▁poli	-10.574
▁exchange	-10.5744
▁avoid	-10.5744
▁massimo	-10.5755
▁Asia	-10.5755
▁map	-10.5757
62	-10.5766
▁materiali	-10.5768
▁genera	-10.5771
▁catch	-10.5772
000	-10.5773
▁traffic	-10.5783
▁pattern	-10.5784
▁tour	-10.5786
▁match	-10.5794
▁firm	-10.5798
▁dura	-10.5798
▁evitare	-10.5799
▁porto	-10.5801
▁East	-10.5801
▁host	-10.5802
org	-10.5803
▁offre	-10.5805
▁gentlemen	-10.5807
▁Ascolta	-10.5807
▁attiva	-10.5812
tata	-10.5821
▁riconosce	-10.5822
low	-10.5823
▁turns	-10.5825
▁disposizione	-10.5831
▁sell	-10.5835
▁batteri	-10.5838
▁PC	-10.5842
▁farm	-10.5843
▁writing	-10.5846
▁Germania	-10.5849
▁perform	-10.5849
zu	-10.5849
▁essi	-10.585
▁pubblici	-10.5859
▁tecnologie	-10.5861
▁lontano	-10.5862
▁lasciare	-10.5862
▁goal	-10.5866
▁sali	-10.5868
▁worse	-10.5869
▁intervento	-10.5873
▁cities	-10.5875
▁relevant	-10.5877
▁certainly	-10.588
▁39	-10.5886
▁generation	-10.589
▁gall	-10.5893
▁activity	-10.5893
▁collect	-10.5893
▁Bal	-10.5894
▁presenza	-10.5895
69	-10.5896
▁dichiara	-10.5901
cular	-10.5903
▁screen	-10.5909
house	-10.5923
II	-10.5929
▁Vai	-10.5932
▁framework	-10.594
▁install	-10.5944
▁elettric	-10.5945
д	-10.5948
▁sorpres	-10.5948
zionale	-10.595
▁Since	-10.5956
▁sold	-10.5956
▁caccia	-10.5957
▁rural	-10.5959
▁rule	-10.596
ucci	-10.596
▁USA	-10.5963
▁vaccin	-10.5965
▁festa	-10.5967
▁nor	-10.5969
▁CON	-10.597
▁capac	-10.5975
▁riun	-10.5975
▁pensav	-10.5976
▁Potrebbe	-10.5982
▁pronto	-10.5982
▁permanent	-10.5982
▁Bob	-10.5986
▁expert	-10.5988
▁anch	-10.5991
▁bal	-10.5994
▁utilizzat	-10.5994
▁cresce	-10.5997
▁lavorato	-10.5997
▁dovrest	-10.6001
▁sick	-10.6003
▁02	-10.6005
▁Bank	-10.6005
▁glass	-10.6012
▁affin	-10.6015
▁careful	-10.6017
▁addition	-10.6018
▁errore	-10.6019
▁song	-10.602
▁Most	-10.6021
▁beyon	-10.6021
▁Bell	-10.6023
▁brutt	-10.6023
▁Reg	-10.6023
rial	-10.6026
▁proposito	-10.6028
▁conosco	-10.603
▁incontro	-10.6038
▁accor	-10.6043
▁growing	-10.6046
▁lancia	-10.6048
hold	-10.6048
▁sanitari	-10.6052
▁climate	-10.6053
▁danno	-10.6054
75	-10.6054
▁numeri	-10.606
▁received	-10.6061
н	-10.6066
▁round	-10.6069
▁ferm	-10.6073
▁tener	-10.6073
vita	-10.6075
▁scritt	-10.6076
▁clienti	-10.6076
▁numbers	-10.6082
gari	-10.6084
▁Sure	-10.6087
▁lower	-10.609
▁recently	-10.6095
▁scientist	-10.61
▁tramite	-10.61
▁unità	-10.6104
TH	-10.6109
▁prime	-10.611
▁Francia	-10.6119
▁blow	-10.612
▁mix	-10.6121
▁scan	-10.6122
▁fully	-10.6124
▁sfida	-10.6124
q	-10.6125
valu	-10.6126
▁infin	-10.6129
▁Salve	-10.6132
▁famiglie	-10.6132
▁website	-10.6132
▁occup	-10.6133
moni	-10.6134
82	-10.6139
▁improvvis	-10.614
▁facil	-10.6143
▁sbagliato	-10.6145
▁crime	-10.615
▁scegliere	-10.6157
ku	-10.6158
NE	-10.6163
▁universe	-10.6164
▁cammina	-10.6164
▁simili	-10.6165
adi	-10.6167
▁occasion	-10.6168
▁banca	-10.6169
▁previous	-10.6172
▁Sir	-10.6173
▁solar	-10.6173
nanzi	-10.6175
▁lista	-10.6176
▁Music	-10.619
▁photograph	-10.6191
▁attend	-10.6192
▁pezzo	-10.6192
▁sbaglia	-10.6194
▁testimon	-10.6197
▁sé	-10.6198
▁DELL	-10.6202
▁sorella	-10.6206
▁facilit	-10.6211
▁potesse	-10.6214
▁85	-10.6219
▁Nord	-10.6219
▁centinai	-10.6221
FI	-10.6221
▁email	-10.6222
▁38	-10.6225
▁09	-10.6229
bal	-10.623
▁Regno	-10.623
▁Mio	-10.6233
▁eccezion	-10.6238
▁06	-10.6242
▁scene	-10.6246
▁crisis	-10.6248
▁morti	-10.6251
▁tele	-10.6254
▁competition	-10.6262
▁03	-10.6266
mette	-10.6268
▁mountain	-10.627
nell	-10.6271
▁authority	-10.6271
▁Alex	-10.6275
▁permesso	-10.6275
▁assassin	-10.6278
▁precedente	-10.6279
fossero	-10.6284
fl	-10.6285
▁leaving	-10.6287
▁lunga	-10.6287
▁territorio	-10.629
▁stick	-10.6294
▁ricordi	-10.6295
▁mantener	-10.6297
▁van	-10.63
▁dance	-10.6301
fici	-10.6302
▁totally	-10.6304
▁Torn	-10.6304
17	-10.6306
▁dovrei	-10.6312
▁cold	-10.6313
▁nord	-10.6319
▁domestic	-10.632
▁Jane	-10.6328
room	-10.6328
▁Ann	-10.6328
▁direzione	-10.6329
▁tasso	-10.6331
▁ideal	-10.6332
▁Dunque	-10.6336
▁modal	-10.6339
TER	-10.6339
05	-10.6346
▁decisions	-10.6348
▁fiducia	-10.6352
▁ospedale	-10.6361
▁weapon	-10.6361
script	-10.6362
▁laboratorio	-10.6363
▁straight	-10.6364
▁context	-10.6369
▁Far	-10.6371
▁sweet	-10.6377
▁92	-10.6377
▁giocare	-10.6382
▁metodo	-10.6384
▁Ken	-10.6385
▁potrest	-10.6388
▁cancro	-10.6388
▁proprietà	-10.6388
tano	-10.6388
▁universit	-10.6393
▁mono	-10.6394
▁Dur	-10.6396
▁cancell	-10.64
▁settori	-10.6401
▁macchine	-10.6402
▁approcci	-10.6402
▁rivela	-10.6403
▁Hav	-10.641
▁Ricord	-10.641
▁origine	-10.6415
▁illegal	-10.642
▁1996	-10.6421
▁esperiment	-10.6427
comp	-10.6438
▁pension	-10.644
▁bear	-10.6452
▁bagno	-10.6454
▁Trans	-10.6454
▁harm	-10.6456
gel	-10.6459
▁perfetta	-10.646
09	-10.6461
▁Den	-10.6463
▁Tru	-10.6465
▁supply	-10.6468
▁seat	-10.6474
▁libero	-10.6477
▁King	-10.6479
▁immediata	-10.6485
▁recuper	-10.6485
7	-10.6488
▁tema	-10.6492
▁creazione	-10.6497
▁europei	-10.6497
▁implementation	-10.6499
▁warm	-10.65
▁pressione	-10.6503
▁condition	-10.6507
▁carica	-10.6508
▁spese	-10.6509
responsabile	-10.651
▁dimentica	-10.651
▁Ac	-10.6512
AC	-10.6518
▁96	-10.6518
▁Carl	-10.6522
▁mattina	-10.6523
NC	-10.6526
dition	-10.6534
▁conferma	-10.6536
▁Corte	-10.6538
olence	-10.6539
pit	-10.654
▁finger	-10.6543
egui	-10.6544
14	-10.655
▁developing	-10.6551
▁advance	-10.6552
▁idiot	-10.6557
▁insegnant	-10.6558
▁Excuse	-10.6561
▁double	-10.6561
▁dichiarazion	-10.6561
VI	-10.6565
▁concett	-10.6567
▁hang	-10.6569
▁destroy	-10.6569
gal	-10.657
▁mm	-10.657
▁Quel	-10.6572
▁profil	-10.6573
▁Sul	-10.6575
▁grand	-10.6575
▁Pat	-10.6578
▁calcol	-10.6585
▁behavior	-10.6586
▁giuridic	-10.6586
▁abbiano	-10.6588
▁Cat	-10.6589
stasera	-10.6592
▁preferit	-10.6592
▁europee	-10.6594
▁rath	-10.6596
▁1997	-10.6599
▁Potre	-10.6602
▁Max	-10.6602
giù	-10.6603
▁Ray	-10.6609
▁rispetta	-10.6611
▁roll	-10.6617
▁University	-10.6622
▁origin	-10.6623
berg	-10.6624
sugli	-10.6627
pper	-10.6632
▁internal	-10.6632
▁park	-10.6634
у	-10.6637
▁novembre	-10.6637
▁armi	-10.664
▁pop	-10.6651
▁Austria	-10.6654
vrebbero	-10.6658
▁shown	-10.6659
EC	-10.6661
ssima	-10.6662
▁anyway	-10.6662
▁professor	-10.6662
▁impresa	-10.6662
▁review	-10.6664
▁dinner	-10.6664
▁Win	-10.6664
▁anybody	-10.6666
▁Ab	-10.6666
▁Forza	-10.6671
erai	-10.6672
▁segui	-10.668
▁riserva	-10.668
▁damage	-10.668
▁concept	-10.6682
▁sudden	-10.6689
▁quota	-10.669
▁Martin	-10.6691
▁sounds	-10.6692
▁versione	-10.6693
▁amended	-10.6695
▁Spero	-10.6696
▁consumer	-10.6697
▁impression	-10.67
▁Gran	-10.6702
▁Nei	-10.6703
▁paziente	-10.6705
▁calcul	-10.6705
▁engage	-10.6705
▁Mia	-10.6707
▁ringrazi	-10.671
▁dangerous	-10.6714
▁Gio	-10.6717
cina	-10.6717
nesi	-10.6726
▁terre	-10.673
▁recognize	-10.673
▁successful	-10.6732
▁degree	-10.6739
▁intende	-10.674
▁German	-10.674
▁Fai	-10.6741
▁contesto	-10.6747
▁politico	-10.6752
▁eventi	-10.6753
▁leggere	-10.6755
▁fabbrica	-10.6756
▁belong	-10.6757
▁succedendo	-10.6758
▁dress	-10.676
▁sviluppat	-10.6763
▁bodies	-10.6765
magari	-10.6766
▁rive	-10.6772
▁Maria	-10.6774
▁African	-10.6777
nico	-10.6779
▁mostr	-10.6782
▁spread	-10.6784
▁Charlie	-10.6791
▁stock	-10.6794
▁cena	-10.6796
usato	-10.6796
erebbe	-10.6796
▁aggiunge	-10.6799
▁immigra	-10.6799
▁famos	-10.6805
▁below	-10.6806
▁mouth	-10.6808
▁48	-10.6808
▁dottor	-10.6811
▁transform	-10.6818
▁values	-10.682
▁reading	-10.6823
▁island	-10.6825
▁customer	-10.683
▁covered	-10.683
▁impegno	-10.6834
Quella	-10.6837
izz	-10.684
▁difficoltà	-10.6842
▁fondamentale	-10.6842
▁bottom	-10.6842
tizio	-10.6844
▁Central	-10.6851
▁verde	-10.6852
▁decade	-10.6854
pot	-10.6857
▁prices	-10.6858
▁spot	-10.6862
▁geo	-10.6863
▁possibili	-10.6864
▁talked	-10.6868
▁Mom	-10.6871
▁Free	-10.6877
▁tranquill	-10.6877
▁likely	-10.6883
▁Tel	-10.6884
▁Green	-10.6887
▁Cristo	-10.6887
▁error	-10.6894
▁military	-10.6895
▁mercati	-10.6895
▁ECU	-10.6904
▁fur	-10.6911
▁gesti	-10.6912
▁maintain	-10.6914
▁dolore	-10.6914
▁usando	-10.6916
▁disegn	-10.6919
py	-10.6919
▁lavoratori	-10.6926
80	-10.6927
▁gay	-10.6928
▁impedi	-10.6931
IL	-10.6932
▁knows	-10.6944
▁legislation	-10.6947
▁Australia	-10.6947
▁compassion	-10.6947
▁status	-10.6948
▁loved	-10.695
▁president	-10.695
▁autonom	-10.6951
25	-10.6954
aught	-10.6955
▁scrivere	-10.6958
▁edificio	-10.6962
▁pensate	-10.6964
▁pensando	-10.6965
▁lasci	-10.6965
▁Red	-10.6965
▁solid	-10.6966
▁drug	-10.6968
▁usually	-10.6973
▁vice	-10.6974
▁abus	-10.6979
▁avevamo	-10.6979
▁immagina	-10.6982
▁proposte	-10.6982
▁1990	-10.6985
▁presenti	-10.699
▁Iraq	-10.6991
▁massa	-10.6991
▁fornire	-10.6991
▁assistenza	-10.6993
pel	-10.6993
▁moved	-10.6993
git	-10.6997
▁increasing	-10.7
▁perde	-10.7001
▁muta	-10.7005
▁shut	-10.7006
▁Potete	-10.7017
▁ridurre	-10.7025
▁energetic	-10.7026
▁pagina	-10.7029
▁grat	-10.7031
▁carrier	-10.7034
▁vast	-10.7037
▁gentil	-10.704
▁obblig	-10.7042
▁direction	-10.7043
▁papa	-10.7045
▁coinvolt	-10.7049
▁gust	-10.7051
▁strategia	-10.7053
▁esame	-10.7053
▁regioni	-10.7055
▁conseguenz	-10.7057
▁internazionali	-10.7061
▁costa	-10.7063
▁91	-10.7064
▁oppos	-10.7066
▁sapeva	-10.7068
▁1995	-10.7072
▁Super	-10.7076
▁desidera	-10.7079
▁matrimonio	-10.7082
▁faith	-10.7086
▁except	-10.7088
▁nation	-10.7089
▁bird	-10.7093
▁reso	-10.7099
▁heat	-10.7101
pping	-10.7104
rp	-10.7109
▁diverti	-10.7109
▁Basta	-10.711
▁foreign	-10.7115
▁libri	-10.7116
▁written	-10.7124
▁prof	-10.7125
ado	-10.7129
▁beat	-10.713
▁grass	-10.7134
▁boys	-10.7137
▁holding	-10.7138
▁arrive	-10.7139
▁lab	-10.714
▁violent	-10.7141
ux	-10.7142
mond	-10.7147
uff	-10.7157
▁divide	-10.7158
▁equivalent	-10.7159
▁conversation	-10.7159
▁favour	-10.7159
board	-10.7164
▁significant	-10.717
▁Belgi	-10.7173
▁books	-10.7174
▁meant	-10.7176
▁lavorando	-10.7177
▁maximum	-10.7177
▁Volevo	-10.7177
19	-10.7179
UR	-10.718
▁Kar	-10.7183
▁suona	-10.7184
02	-10.7184
▁parties	-10.7188
remmo	-10.7191
▁punta	-10.7193
▁lived	-10.7195
▁Mamma	-10.7195
▁pack	-10.7197
▁demo	-10.7202
▁published	-10.7203
▁mentioned	-10.7203
▁aprile	-10.7205
▁television	-10.7212
▁fede	-10.7218
▁studies	-10.7219
▁Nu	-10.7219
▁rispondere	-10.722
▁cercato	-10.7222
▁alza	-10.7222
▁terzi	-10.7223
▁Fuck	-10.7232
▁svilupp	-10.7233
DI	-10.7243
▁voler	-10.7244
▁42	-10.7246
▁debba	-10.725
▁Was	-10.7251
▁aereo	-10.7253
tate	-10.7258
▁initiative	-10.7258
ND	-10.7259
ken	-10.726
▁annunci	-10.7262
▁imper	-10.7265
▁cambi	-10.7266
▁diceva	-10.7267
▁Allah	-10.7268
▁Social	-10.7268
nici	-10.727
▁Min	-10.7272
▁currently	-10.7274
▁morta	-10.7276
▁istituzioni	-10.7278
coli	-10.728
▁minuto	-10.7286
▁basat	-10.7289
light	-10.7292
▁putting	-10.7299
▁wood	-10.7302
▁43	-10.7304
▁forme	-10.7305
▁capacity	-10.7306
▁statement	-10.7306
▁Over	-10.731
▁fisica	-10.7313
▁--	-10.7316
▁location	-10.7317
▁alternative	-10.732
▁modul	-10.7322
▁virtual	-10.7322
▁remind	-10.7322
▁Cri	-10.7323
▁Office	-10.7323
▁pilot	-10.7328
pher	-10.7331
mbra	-10.7346
segnato	-10.7348
▁feature	-10.7349
▁pray	-10.735
letto	-10.7353
▁substance	-10.7358
▁confronti	-10.7359
▁ladie	-10.736
▁esser	-10.7361
▁malattie	-10.7367
▁Prendi	-10.7369
▁effettuat	-10.7371
▁Today	-10.7371
▁condott	-10.7372
▁trial	-10.7372
▁maschi	-10.7372
realized	-10.7373
▁otto	-10.7373
metri	-10.7373
▁capisc	-10.7375
▁organ	-10.7377
▁session	-10.7382
15	-10.7382
▁finding	-10.7391
cate	-10.7392
▁comunitario	-10.7394
▁Washington	-10.7394
▁article	-10.7395
▁classic	-10.74
▁aspect	-10.7404
▁150	-10.7404
uit	-10.7405
▁London	-10.7413
▁protein	-10.7415
▁uffici	-10.7422
▁organisation	-10.7431
▁Robert	-10.7432
18	-10.7433
ator	-10.7435
▁prendo	-10.7439
▁explor	-10.744
▁Nick	-10.7445
▁Fri	-10.7448
▁centre	-10.745
bon	-10.7451
▁Henry	-10.7459
SU	-10.7459
▁innovation	-10.7466
▁February	-10.7468
▁doubt	-10.7468
aratteristiche	-10.7468
▁1992	-10.747
SS	-10.7473
OS	-10.7476
▁efficace	-10.7477
▁missing	-10.7478
▁Sw	-10.7478
SP	-10.748
▁cresciut	-10.7486
▁margin	-10.7489
ception	-10.7489
▁client	-10.7491
▁spirit	-10.7495
▁Rome	-10.7497
graphic	-10.75
▁veloce	-10.7506
▁teach	-10.7507
▁Deve	-10.7509
▁adatta	-10.7509
▁understanding	-10.751
▁applicabil	-10.751
▁cambiamenti	-10.7512
▁proper	-10.7513
▁minaccia	-10.7514
▁operativ	-10.7515
▁miles	-10.7515
▁fece	-10.7515
0.000	-10.7517
mper	-10.7521
▁attuazione	-10.7523
▁1994	-10.7528
▁recommend	-10.7528
▁series	-10.7529
ably	-10.753
▁costruzione	-10.7534
▁rise	-10.7542
▁tumor	-10.7545
▁Got	-10.7547
ö	-10.7551
▁Stu	-10.7553
▁ritrov	-10.7554
▁comportamento	-10.7555
credible	-10.7558
▁consigli	-10.7558
▁intenzione	-10.7562
▁employment	-10.7563
▁Fil	-10.7566
▁fuel	-10.7569
▁Richard	-10.757
▁continent	-10.757
▁ugual	-10.757
▁standing	-10.7574
▁Yo	-10.7576
▁universo	-10.7579
▁documenti	-10.7585
▁summer	-10.7588
operazioni	-10.7589
▁utilizzare	-10.759
▁avvicina	-10.7594
▁rates	-10.7598
▁uscit	-10.7599
lian	-10.76
▁equipment	-10.7607
ologia	-10.7608
signed	-10.761
▁agricultural	-10.7617
uscita	-10.7622
▁notizia	-10.7627
▁farmi	-10.763
▁Pra	-10.7632
▁alter	-10.7634
▁ignora	-10.7636
▁obtain	-10.7636
▁ripar	-10.7642
▁Put	-10.7653
▁competenz	-10.7653
▁select	-10.7654
▁bocca	-10.7656
▁Papa	-10.7656
emia	-10.7658
▁dà	-10.7663
▁illustra	-10.7664
chu	-10.7664
▁Fond	-10.7664
▁seguente	-10.7665
▁Could	-10.7673
▁vederl	-10.7678
▁reform	-10.768
▁conflict	-10.7682
▁riduzione	-10.7682
▁tedesc	-10.7683
▁reflect	-10.7688
▁relativi	-10.7689
▁nave	-10.769
▁analizz	-10.7693
▁capitale	-10.7694
▁Bel	-10.7696
▁Gro	-10.77
▁indicato	-10.7706
▁funny	-10.7706
▁modelli	-10.771
▁svolge	-10.7711
▁tools	-10.7711
bito	-10.7714
dom	-10.7716
▁creativ	-10.7716
DE	-10.7721
▁rom	-10.7723
96	-10.7725
mmy	-10.7725
▁indeed	-10.7731
▁calling	-10.7733
▁uccidere	-10.7741
▁esamina	-10.7743
▁Arab	-10.7745
▁violenza	-10.7748
▁vento	-10.7757
▁families	-10.7758
sten	-10.7761
▁Univers	-10.7765
▁protest	-10.7765
▁famous	-10.7768
▁Web	-10.7769
AG	-10.7773
▁finita	-10.7776
▁throughout	-10.778
▁400	-10.7782
▁spoke	-10.7785
▁Chinese	-10.7787
▁remove	-10.7791
▁boat	-10.7792
▁vedi	-10.7795
▁occupazione	-10.7796
03	-10.7798
▁temperatura	-10.7806
▁August	-10.7806
▁nine	-10.7811
▁Proprio	-10.7815
▁launch	-10.7816
▁biolog	-10.7819
▁Str	-10.7819
▁cellular	-10.7824
▁titol	-10.7826
portare	-10.783
▁terrorist	-10.7837
▁produced	-10.7839
▁High	-10.784
▁questioni	-10.7843
▁Wil	-10.7844
▁weird	-10.7846
▁Abb	-10.7846
▁Control	-10.7846
▁finire	-10.7847
sarebbero	-10.7853
▁esclus	-10.7853
▁drugs	-10.7853
▁contribution	-10.7855
▁pig	-10.7856
▁dump	-10.7856
▁scena	-10.7857
▁organizzazioni	-10.7859
▁Count	-10.786
▁somewhere	-10.786
▁setting	-10.7861
▁Continu	-10.7863
▁creature	-10.7868
▁rivoluzion	-10.7872
▁organi	-10.7874
extremely	-10.7874
▁esso	-10.7876
▁Cop	-10.7877
▁etc	-10.7878
▁mode	-10.788
▁comitato	-10.7882
▁accelera	-10.7882
▁esportazion	-10.7882
▁sedi	-10.7886
▁specifica	-10.7888
▁chiedo	-10.7888
▁hey	-10.7889
▁Arriv	-10.7891
▁album	-10.7893
▁istituzion	-10.7899
erei	-10.7901
▁behalf	-10.7901
▁bisogna	-10.7911
▁earth	-10.7912
scriv	-10.7914
▁corte	-10.7915
▁viaggia	-10.7916
abilità	-10.7919
▁semplici	-10.7921
▁directive	-10.7925
sarei	-10.7926
▁suppli	-10.793
▁parent	-10.7937
▁importance	-10.7941
▁finale	-10.7945
▁preserv	-10.7946
▁quart	-10.7947
12	-10.7948
▁1.3	-10.7949
▁articoli	-10.795
MS	-10.7956
▁included	-10.7963
tempo	-10.7965
▁Quell	-10.7965
verything	-10.7969
▁missione	-10.7979
▁Big	-10.7986
provato	-10.7987
▁respond	-10.7988
▁cliente	-10.7993
▁traditional	-10.7994
▁sufficient	-10.7994
▁ricon	-10.7995
▁added	-10.7997
▁additional	-10.7997
▁doveva	-10.8001
▁connect	-10.8003
pir	-10.8007
ggiu	-10.8007
▁California	-10.8008
▁distanza	-10.8008
▁pezzi	-10.8012
▁vuol	-10.8014
▁weak	-10.8014
▁accordi	-10.8026
▁enable	-10.8027
▁immaginare	-10.8027
▁esplora	-10.8027
▁ovunque	-10.8027
▁veniva	-10.8028
▁leggi	-10.8035
▁colla	-10.8035
▁universal	-10.8037
sanno	-10.804
▁loss	-10.8041
▁river	-10.8042
▁carne	-10.8044
▁player	-10.8045
▁classifica	-10.805
▁accura	-10.8051
▁stopp	-10.8055
▁item	-10.8056
▁animale	-10.8064
▁93	-10.8066
▁comunitari	-10.8072
▁presta	-10.8073
▁command	-10.8077
▁contrario	-10.8079
▁farti	-10.8084
▁gold	-10.8086
▁dibattit	-10.8086
▁honest	-10.8087
cambiato	-10.809
▁impossibile	-10.8096
▁speriment	-10.8096
▁campagna	-10.8102
▁disponibile	-10.8106
nam	-10.8107
vranno	-10.8111
▁Credi	-10.8114
ü	-10.8115
▁particolarmente	-10.8115
▁forze	-10.8122
▁talent	-10.8124
▁appartamento	-10.8125
▁tecnica	-10.8125
▁apprezz	-10.8127
▁driv	-10.8128
▁Sara	-10.8128
▁risulta	-10.8129
▁ispira	-10.8129
▁Siete	-10.8131
▁spiace	-10.8135
▁organiz	-10.8138
▁verrà	-10.8145
▁conoscere	-10.8154
▁church	-10.8155
▁Christian	-10.8157
▁pet	-10.8166
▁occhio	-10.8166
▁funzioni	-10.8172
▁fruit	-10.8175
▁Sho	-10.8181
▁naturalmente	-10.8181
▁popolo	-10.8185
▁guadagn	-10.8191
▁strategy	-10.8194
nonostante	-10.8205
▁teoria	-10.8205
▁tenta	-10.8208
▁presentato	-10.8209
▁venne	-10.821
▁Afghanistan	-10.8214
▁conflitt	-10.8214
▁vecchi	-10.8222
▁restaurant	-10.8224
▁epoca	-10.8224
ndosi	-10.8233
▁discrimina	-10.8234
▁bianco	-10.8234
▁Paesi	-10.8235
▁Adam	-10.8235
▁walking	-10.8237
34	-10.824
▁costitui	-10.8243
▁ref	-10.8244
,3	-10.8245
melo	-10.8248
▁annu	-10.8251
▁YOU	-10.8254
▁notizie	-10.8254
▁interessi	-10.8254
▁montagn	-10.826
▁cavall	-10.8265
▁signal	-10.8266
▁seguire	-10.8273
▁memoria	-10.8274
▁consiglio	-10.8279
▁passi	-10.8283
▁effettiva	-10.8284
▁coraggio	-10.8286
▁estremamente	-10.8287
▁designer	-10.8292
▁technologies	-10.8294
▁stile	-10.8295
▁guest	-10.8295
▁operator	-10.8301
▁raccomand	-10.8304
▁Facebook	-10.8304
▁colleague	-10.8304
▁Mont	-10.8304
▁ragioni	-10.8304
▁Actual	-10.8305
▁sottolinea	-10.8305
ille	-10.8308
▁receive	-10.8308
post	-10.8309
▁Iran	-10.8314
11	-10.8318
▁bru	-10.8326
sser	-10.8334
▁neuro	-10.8336
hr	-10.8339
▁journey	-10.8344
▁HIV	-10.8344
▁ridott	-10.835
PO	-10.8351
▁Unito	-10.8358
▁quiet	-10.8358
▁copy	-10.8359
▁increased	-10.8369
▁soul	-10.8373
▁Van	-10.8377
zar	-10.8379
▁Lavor	-10.838
▁blog	-10.8382
▁producer	-10.8382
▁francese	-10.8385
▁offerta	-10.8388
▁Mentr	-10.8391
mila	-10.8392
▁attraversa	-10.8395
▁precedenti	-10.8396
▁representative	-10.8396
espite	-10.8399
▁basa	-10.8399
▁portata	-10.8404
▁esercizio	-10.8405
▁considerazione	-10.8406
rino	-10.8408
mmett	-10.8415
▁favorite	-10.8417
read	-10.8417
▁vecchia	-10.8424
ZION	-10.8424
▁spero	-10.8429
RT	-10.8431
rich	-10.8435
▁Altri	-10.8435
▁federal	-10.8437
▁Keep	-10.8438
▁radical	-10.8438
▁thousand	-10.8439
▁AND	-10.8442
▁coffee	-10.8445
▁legger	-10.8446
▁evening	-10.8447
▁fara	-10.8451
▁implica	-10.8451
erete	-10.8454
AM	-10.8455
▁blocca	-10.8456
▁Number	-10.8456
UT	-10.846
VA	-10.8462
ological	-10.8463
▁threat	-10.8465
▁Dice	-10.8466
▁changing	-10.8466
▁vada	-10.8467
▁Arm	-10.8473
▁Bla	-10.8475
▁witness	-10.8476
▁regular	-10.8476
▁finché	-10.8478
▁ormai	-10.8479
▁smette	-10.848
▁predict	-10.8487
▁Zo	-10.8488
▁race	-10.8489
▁guardate	-10.849
▁custom	-10.8491
▁febbraio	-10.8496
▁giochi	-10.8501
vy	-10.8501
▁nomi	-10.8506
▁negative	-10.8507
▁unique	-10.8509
▁fell	-10.8514
▁Gesù	-10.8517
▁definizion	-10.8517
▁vuot	-10.8518
▁sosten	-10.8523
▁scambi	-10.8526
▁Church	-10.8527
▁occorre	-10.8527
▁desire	-10.8528
▁beach	-10.8531
fic	-10.8533
▁elettronic	-10.8534
izing	-10.8535
▁Ku	-10.8537
▁fresh	-10.8543
▁gift	-10.8548
▁uniform	-10.8549
▁Pop	-10.8553
▁income	-10.8555
▁Spain	-10.8555
▁fium	-10.8557
▁democrazia	-10.8558
▁rafforza	-10.8558
▁sacrific	-10.8558
▁1993	-10.856
▁driver	-10.8565
▁investimenti	-10.8568
▁mappa	-10.8571
▁Daniel	-10.8579
▁costrui	-10.8582
▁indirizzo	-10.8589
▁Numero	-10.8589
▁riceve	-10.8598
▁sufficiente	-10.8604
tutto	-10.8604
▁fila	-10.8606
▁lady	-10.8606
▁fri	-10.8611
▁joint	-10.8612
▁earlier	-10.862
▁Pur	-10.8621
place	-10.8623
▁laugh	-10.8629
▁perfetto	-10.863
▁esseri	-10.8631
▁miglior	-10.8635
▁regions	-10.8635
▁scopert	-10.8638
▁Data	-10.8643
▁naviga	-10.8643
craft	-10.8643
bility	-10.8644
▁luck	-10.8645
,4	-10.8646
▁master	-10.8648
▁shop	-10.8648
▁cure	-10.865
▁tariff	-10.8651
▁Avevo	-10.8651
▁chiaramente	-10.8655
▁Hold	-10.866
▁adapt	-10.8662
▁massima	-10.8665
▁insist	-10.8667
,1	-10.8669
▁mezzi	-10.8669
coppia	-10.8669
▁sullo	-10.867
esimo	-10.8671
▁sfrutt	-10.8672
▁Street	-10.8672
▁uccell	-10.8672
mble	-10.8674
▁presa	-10.868
▁handle	-10.8687
▁convert	-10.8687
▁jump	-10.8692
▁legislativ	-10.8693
▁discute	-10.8693
▁finanziario	-10.8693
▁Nice	-10.8695
▁Cosi	-10.8696
▁rain	-10.8709
▁citta	-10.871
▁copert	-10.8716
▁wire	-10.8716
▁diploma	-10.8724
▁expected	-10.8724
▁Pensa	-10.8727
▁pensiamo	-10.8728
▁Canada	-10.8734
▁interroga	-10.8734
▁Charles	-10.8735
▁chair	-10.8739
▁damn	-10.874
▁contenuto	-10.8741
▁impossible	-10.8745
▁vicini	-10.8746
▁sovra	-10.8747
messo	-10.8751
▁chemical	-10.8752
▁advantage	-10.8755
▁analysis	-10.8755
▁consequence	-10.8755
▁guide	-10.8756
▁democracy	-10.8766
▁cook	-10.8771
▁arrivo	-10.8775
▁artificial	-10.8776
▁Ministr	-10.8778
▁proposed	-10.8788
MENT	-10.8788
trici	-10.8791
▁previsto	-10.8795
▁evoluzione	-10.8797
▁limited	-10.8798
▁comprar	-10.8798
▁Madam	-10.8799
▁sky	-10.8803
Q	-10.8806
▁fogli	-10.8807
▁desert	-10.8809
▁strade	-10.881
▁sogno	-10.8813
▁fida	-10.8814
▁promot	-10.8814
▁although	-10.8834
▁principal	-10.8836
▁shouldn	-10.8839
tanti	-10.8843
▁differenz	-10.8843
▁seek	-10.8844
▁north	-10.8845
▁viola	-10.8845
▁soluzion	-10.8849
▁blind	-10.885
▁volo	-10.8852
▁faremo	-10.8853
▁sing	-10.8857
pond	-10.8858
izzati	-10.8861
▁confess	-10.8862
▁venuta	-10.8863
prigione	-10.8871
▁Last	-10.8877
ografia	-10.8879
▁Day	-10.888
▁nascost	-10.8882
▁dolce	-10.8882
rum	-10.8884
ificazione	-10.8887
▁Mac	-10.8893
▁guardando	-10.8893
▁decidere	-10.89
molta	-10.89
▁tool	-10.8903
▁discorso	-10.8903
▁HA	-10.8905
▁revolution	-10.8907
▁innovazione	-10.891
▁duty	-10.8912
▁esecuzione	-10.8914
▁physic	-10.8915
▁irre	-10.8916
▁Franc	-10.8916
▁sample	-10.8925
▁election	-10.8925
▁tutela	-10.8925
▁conseguenze	-10.8931
▁scende	-10.8936
▁Sarebbe	-10.8939
▁conduct	-10.8939
▁granted	-10.8945
▁bravo	-10.8949
▁career	-10.8954
90	-10.8955
▁esigenz	-10.8957
▁evident	-10.8957
▁horse	-10.8958
entrata	-10.8963
▁policies	-10.8967
▁property	-10.897
▁prender	-10.8975
▁quartier	-10.8979
▁Wherea	-10.8979
▁intend	-10.8979
▁weren	-10.898
▁calci	-10.8982
▁opzion	-10.8984
▁connected	-10.8984
▁attempt	-10.8989
▁highly	-10.8989
▁utilizzato	-10.8991
▁existing	-10.8993
▁unless	-10.8995
▁identit	-10.8997
llow	-10.8997
▁attacc	-10.8999
▁bambina	-10.8999
▁sugar	-10.9002
▁Pol	-10.9002
▁fondamentali	-10.901
▁condizione	-10.901
▁William	-10.9011
▁Open	-10.9011
▁terrorism	-10.9016
ett	-10.902
▁smell	-10.9021
▁incentiv	-10.9021
▁pian	-10.9025
▁investigation	-10.9029
▁traffico	-10.9032
▁Durante	-10.9033
▁Make	-10.9034
ritish	-10.9036
▁Santa	-10.904
▁scusi	-10.9042
▁pena	-10.9043
win	-10.9043
▁spiritual	-10.9043
▁Angel	-10.9044
▁attract	-10.9045
▁pensiero	-10.9045
▁Tor	-10.9048
▁sostanze	-10.905
▁commitment	-10.9055
▁appreciate	-10.9064
▁quotidian	-10.9064
▁utenti	-10.9065
▁accad	-10.9074
▁relax	-10.9075
▁Father	-10.9076
▁flight	-10.9082
vremo	-10.9086
▁bitch	-10.9087
▁Video	-10.9093
▁shift	-10.9097
GO	-10.9104
▁Dar	-10.9105
▁bigger	-10.9106
я	-10.9107
▁glad	-10.9108
▁closed	-10.9111
▁nasconde	-10.9111
▁Think	-10.9118
▁deriva	-10.912
▁Più	-10.9121
▁fornito	-10.9122
▁Tutte	-10.9122
▁anywhere	-10.9124
~	-10.9129
▁Ragazz	-10.913
nsomma	-10.913
▁gain	-10.9135
▁coopera	-10.9137
▁Economic	-10.914
▁season	-10.9145
▁merci	-10.9146
▁Phil	-10.9147
▁conference	-10.9151
▁farà	-10.9157
▁cry	-10.9158
pati	-10.9171
▁terrible	-10.9173
▁adjust	-10.9173
▁spaventa	-10.9173
stream	-10.9173
▁imposta	-10.9173
▁effettua	-10.918
▁produrre	-10.9185
▁rumor	-10.9185
▁luoghi	-10.9195
▁acque	-10.9195
▁literal	-10.9197
head	-10.9197
▁Really	-10.9197
▁medicinal	-10.9198
▁neuron	-10.9204
ä	-10.9206
▁capelli	-10.9208
▁assegn	-10.9208
▁semi	-10.9208
▁dorm	-10.9209
IO	-10.9212
ford	-10.9213
▁operazione	-10.9216
▁Pen	-10.9216
▁affront	-10.9218
▁fretta	-10.9223
45	-10.9224
phy	-10.9225
▁innocent	-10.9229
▁Three	-10.9229
▁tenuto	-10.923
▁adopt	-10.9234
zer	-10.9235
▁actual	-10.9237
▁giardin	-10.9239
▁piacerebbe	-10.9239
▁obviously	-10.9239
▁motivi	-10.9245
gotten	-10.9246
Giusto	-10.9247
▁41	-10.9249
▁elenco	-10.925
▁farmaci	-10.925
▁suono	-10.9251
nfatti	-10.9252
▁sensibil	-10.9254
▁diretti	-10.9259
▁incredibil	-10.926
▁symbol	-10.9263
▁disappear	-10.9269
▁avrest	-10.927
▁innova	-10.9275
▁detect	-10.9279
▁importazione	-10.9279
▁reli	-10.9288
▁scuol	-10.9292
▁theory	-10.9301
▁attacca	-10.9303
▁judge	-10.9306
izzata	-10.9315
▁Liber	-10.9315
▁conformità	-10.9316
▁profonda	-10.9317
▁wave	-10.9318
▁comunitaria	-10.9327
▁Già	-10.9329
▁engine	-10.933
▁navi	-10.9335
▁raccont	-10.9338
▁miser	-10.934
▁Join	-10.934
▁Perchè	-10.9341
▁audience	-10.9349
▁percorso	-10.9349
▁complicat	-10.935
stall	-10.9366
AB	-10.9367
▁sensazione	-10.9367
▁Island	-10.937
▁involve	-10.937
▁execut	-10.9372
▁Senza	-10.9372
▁settle	-10.9372
▁Fund	-10.9374
▁vivono	-10.9375
▁accusa	-10.9382
▁combina	-10.9382
▁compagni	-10.9383
▁Comitato	-10.9383
▁possess	-10.9383
▁vieni	-10.9386
pass	-10.9386
▁owner	-10.9389
▁anzian	-10.9392
▁speech	-10.9394
▁indossa	-10.9394
▁sappia	-10.9394
▁daily	-10.9394
▁White	-10.9396
▁counter	-10.9405
▁concert	-10.9406
▁utilizzo	-10.9406
▁marketing	-10.9406
▁iron	-10.9406
▁definitiv	-10.9413
▁square	-10.9417
▁minimo	-10.9418
▁vet	-10.942
▁contenut	-10.9421
▁finalmente	-10.9421
▁wild	-10.9422
▁abita	-10.9422
AD	-10.9426
▁certi	-10.9426
▁perspective	-10.9428
▁consumatori	-10.9428
▁possibility	-10.9431
▁potenz	-10.9432
▁fishing	-10.9435
▁atmosfer	-10.9439
▁influence	-10.9439
▁brand	-10.944
▁Può	-10.9446
▁Jeff	-10.9447
▁Windows	-10.9461
▁pericolo	-10.9463
gion	-10.9467
▁Rob	-10.9467
▁provoca	-10.947
▁crescere	-10.9472
▁barrier	-10.9474
▁Paris	-10.9477
▁Jim	-10.948
▁Scott	-10.9482
▁strategic	-10.9484
▁tecniche	-10.9484
▁merda	-10.9485
▁former	-10.9486
▁fattori	-10.9486
contiene	-10.9489
▁vantaggio	-10.9491
▁Kingdom	-10.9495
▁uccide	-10.9496
▁poveri	-10.9497
▁constant	-10.9497
▁felici	-10.9504
gramma	-10.9506
edizione	-10.9516
▁amica	-10.9517
▁fame	-10.9518
▁tavolo	-10.9522
▁followed	-10.9524
▁sviluppar	-10.9525
▁controlli	-10.9531
▁prepared	-10.9537
graph	-10.9538
▁ritir	-10.9539
▁birth	-10.954
▁scheme	-10.9541
▁associated	-10.9541
▁Trov	-10.9543
▁documento	-10.9546
▁eravam	-10.9549
▁modificato	-10.955
▁survive	-10.9552
▁mobile	-10.9553
▁risponde	-10.9555
▁Bon	-10.9556
▁qualcun	-10.9557
▁certa	-10.9564
▁rapidamente	-10.9568
▁aprire	-10.9569
▁riuscire	-10.957
▁strutture	-10.9574
▁costante	-10.9576
▁vendita	-10.9577
▁milk	-10.9579
29	-10.9583
▁creation	-10.9584
▁suffer	-10.9585
ID	-10.9586
▁migliora	-10.9588
wise	-10.9593
▁scrive	-10.9594
▁electric	-10.9595
nissimo	-10.9597
▁exercise	-10.9597
BC	-10.9598
▁autori	-10.9605
▁infrastruttur	-10.9609
▁università	-10.961
▁meat	-10.9614
▁avev	-10.9614
terza	-10.9614
▁convint	-10.9615
▁pool	-10.9615
▁spari	-10.9616
▁rapporteur	-10.962
AP	-10.9621
▁broken	-10.9621
▁bastard	-10.9622
▁firma	-10.9622
▁Government	-10.9623
▁Molti	-10.9625
▁director	-10.9626
▁fixed	-10.9633
▁mancanz	-10.9636
▁female	-10.9643
▁south	-10.9644
MP	-10.9644
▁governi	-10.9647
▁piani	-10.9647
▁carin	-10.9648
▁shock	-10.9655
rov	-10.9661
▁territori	-10.9661
▁retro	-10.9666
▁scatt	-10.9671
▁capita	-10.9675
▁rein	-10.9677
▁concorrenza	-10.9677
▁easily	-10.9678
▁popular	-10.9678
▁sexual	-10.9679
▁scared	-10.9681
▁consumo	-10.9681
▁operatori	-10.9684
▁Eh	-10.9685
▁aperta	-10.9687
nother	-10.9688
▁encourage	-10.9689
▁congratul	-10.9689
▁cord	-10.9693
ridge	-10.9693
▁bough	-10.9697
▁prese	-10.9698
▁americani	-10.9699
▁contributo	-10.9701
▁legislazion	-10.9701
▁silenzio	-10.9701
▁Roman	-10.9704
▁restare	-10.9704
▁coral	-10.9705
▁Pan	-10.9706
▁justice	-10.9707
▁bone	-10.9712
▁Porta	-10.9712
▁hum	-10.9714
▁Parla	-10.9715
▁string	-10.9719
▁Under	-10.9721
▁Mel	-10.9723
▁esterno	-10.9725
,6	-10.9728
▁Say	-10.9734
▁limiti	-10.9735
esistenza	-10.9738
▁condividere	-10.9738
▁Aiut	-10.9739
▁apparten	-10.9747
▁failure	-10.9748
▁authoris	-10.9755
▁prestit	-10.9755
ATO	-10.9758
▁meccanism	-10.9758
.10	-10.9762
▁ognuno	-10.9763
▁venti	-10.9769
▁rinnov	-10.977
▁Spagna	-10.9771
▁attivi	-10.9774
▁collaborazion	-10.9776
▁lettere	-10.9779
position	-10.9779
▁dubbio	-10.9782
▁servono	-10.9782
▁honey	-10.9786
▁repeat	-10.9788
▁intendo	-10.9788
▁mention	-10.9791
▁release	-10.9792
▁pagamento	-10.9793
▁reduction	-10.9793
▁spera	-10.9795
▁Char	-10.9798
▁Up	-10.9799
ulation	-10.9802
▁tornato	-10.9805
▁segreto	-10.9805
▁click	-10.9806
▁interview	-10.9806
▁nero	-10.9812
▁1991	-10.9816
▁broke	-10.9819
▁mari	-10.9827
▁chiamare	-10.9827
▁sveglia	-10.9831
▁Ross	-10.9832
▁cominciare	-10.9836
▁riporta	-10.9839
▁Out	-10.9842
ular	-10.9846
▁Thu	-10.9847
▁killer	-10.985
▁analog	-10.9851
▁avvis	-10.9853
▁tessut	-10.9854
▁Sk	-10.9857
▁categorie	-10.986
▁fiscal	-10.9864
▁accompagna	-10.9865
▁construction	-10.9867
▁saving	-10.9868
dipendenti	-10.9869
PI	-10.987
▁corner	-10.987
lone	-10.9877
▁licenz	-10.9878
media	-10.9878
▁trick	-10.9882
▁dry	-10.9883
ville	-10.9886
▁Call	-10.9887
▁approvat	-10.9897
▁abitanti	-10.9901
▁truly	-10.9901
parere	-10.9902
▁traccia	-10.9904
▁messa	-10.9905
▁espression	-10.991
▁produttiv	-10.991
▁reaction	-10.9911
24	-10.9913
▁monet	-10.9914
▁Bor	-10.9916
▁Buon	-10.9918
▁minister	-10.9922
lig	-10.9924
▁investigat	-10.9925
▁respira	-10.9926
▁medicina	-10.9926
▁ml	-10.9927
▁exceed	-10.9934
▁Jess	-10.9934
▁distance	-10.9935
▁dispost	-10.9939
▁Black	-10.9939
▁Convention	-10.9946
▁finanziaria	-10.9946
▁operating	-10.9951
▁normativ	-10.9952
▁manager	-10.9953
▁Something	-10.9957
▁prossimi	-10.9957
▁entry	-10.9959
22	-10.996
▁Jenn	-10.9966
lucky	-10.9966
▁velocemente	-10.9968
PR	-10.9968
▁taste	-10.9969
▁creative	-10.9969
▁Invec	-10.9969
▁petrolio	-10.9969
▁vessel	-10.9969
▁potente	-10.9973
▁commerciale	-10.9974
▁risparmi	-10.9975
▁climatic	-10.9976
Ã	-10.9981
▁Ancora	-10.9981
▁autorizzat	-10.9982
troppo	-10.9986
▁vittime	-10.9987
▁commerciali	-10.9987
▁boss	-10.9988
▁infrastructure	-10.9993
▁campaign	-10.9993
▁fault	-10.9994
▁trend	-10.9995
▁kick	-10.9996
▁protett	-10.9998
▁attualmente	-10.9999
▁tiny	-11.0003
nali	-11.0003
▁precise	-11.0005
losing	-11.0007
spetti	-11.0012
▁compete	-11.0014
▁Negli	-11.0016
▁yesterday	-11.0017
▁worried	-11.0017
▁farmer	-11.0025
▁provision	-11.0027
▁generazione	-11.0027
▁lawyer	-11.0029
▁Work	-11.0029
▁rosso	-11.0031
▁droga	-11.0033
▁uccider	-11.0038
26	-11.0041
▁pesce	-11.0041
▁ampia	-11.0044
▁dormire	-11.0046
▁debole	-11.0053
▁Act	-11.0053
▁neutr	-11.0055
▁credito	-11.0056
▁proud	-11.0066
▁linguaggi	-11.0068
▁Stavo	-11.0071
▁grant	-11.0071
▁Bud	-11.0077
▁stelle	-11.0077
▁resident	-11.0078
▁initial	-11.0085
▁committee	-11.0088
pple	-11.0089
▁salvare	-11.0091
▁Dec	-11.0095
▁incoraggia	-11.01
▁garden	-11.01
▁promote	-11.0101
,7	-11.0103
cata	-11.0107
▁opening	-11.011
▁partecipazion	-11.0115
▁cattura	-11.0117
▁farci	-11.0118
▁display	-11.0119
▁Medic	-11.0119
bou	-11.012
▁difesa	-11.0124
▁raggi	-11.0129
▁occhiata	-11.0133
▁BE	-11.0136
▁useful	-11.0142
▁scopri	-11.0143
▁notevol	-11.0146
▁draft	-11.0149
▁increment	-11.0149
▁potevo	-11.0149
▁tratti	-11.0152
logia	-11.0156
▁Tony	-11.0157
▁psico	-11.0158
▁potenziale	-11.016
▁Special	-11.0161
▁Opera	-11.0162
▁1989	-11.0166
▁formal	-11.017
▁fonte	-11.017
▁Ferm	-11.017
▁requisiti	-11.0173
vu	-11.0175
▁metodi	-11.0177
▁contrast	-11.0179
▁spirito	-11.0184
▁Mediterrane	-11.0185
▁obligation	-11.0185
▁typical	-11.0185
▁maggioranz	-11.0186
▁dear	-11.0186
▁register	-11.0197
▁collection	-11.0197
▁Date	-11.0198
gging	-11.0198
▁assessment	-11.0199
▁1980	-11.0201
▁deserve	-11.021
32	-11.0211
vic	-11.0212
▁conosciut	-11.0218
▁Buona	-11.0219
▁guardia	-11.0225
▁vicina	-11.023
CC	-11.0232
▁organic	-11.0236
▁consiste	-11.0237
potrà	-11.0238
veryone	-11.0241
▁scienziati	-11.0244
▁struggl	-11.0245
▁accoglie	-11.0245
▁Louis	-11.0246
▁dollar	-11.0249
farò	-11.0252
▁passed	-11.0252
▁avvocato	-11.0258
▁independent	-11.0258
▁crucial	-11.0258
▁Never	-11.0258
▁cloud	-11.0259
▁notifica	-11.026
▁incontr	-11.0264
▁ottenuto	-11.0269
▁officer	-11.0269
▁attorno	-11.027
▁trattati	-11.0278
▁contribute	-11.0282
▁esperti	-11.0282
▁indagin	-11.0282
▁pistola	-11.0294
▁Natural	-11.0295
▁sostenere	-11.0295
cene	-11.0296
▁furon	-11.0298
▁intelligence	-11.0306
▁rappresentant	-11.031
28	-11.0313
▁fornisc	-11.0322
▁consist	-11.0326
▁conformemente	-11.0331
▁femmin	-11.0331
▁lesson	-11.0333
▁stagion	-11.0338
logica	-11.034
▁riferi	-11.0342
▁bigge	-11.0342
▁circuit	-11.0343
▁minimum	-11.0343
▁Natale	-11.0344
▁presence	-11.0345
▁Turn	-11.0346
tuck	-11.0353
▁piante	-11.0355
▁piaccio	-11.0356
▁Monte	-11.0356
▁grid	-11.0359
▁mostrato	-11.0362
▁poet	-11.0366
NG	-11.0369
70	-11.0374
▁wheel	-11.0393
nazioni	-11.0394
▁assistance	-11.0396
▁injur	-11.0396
▁critical	-11.0397
▁restrict	-11.0397
▁triste	-11.04
▁caused	-11.04
▁exception	-11.0409
▁Regolament	-11.0417
▁hydro	-11.0424
▁giornali	-11.0439
▁fiori	-11.044
▁esercita	-11.0442
▁prendi	-11.0443
▁Law	-11.0444
▁conversazion	-11.0444
▁opt	-11.0445
▁manual	-11.0446
greatest	-11.0446
▁genom	-11.0446
cambio	-11.0447
▁Wal	-11.0448
▁apparent	-11.0455
▁weather	-11.0456
▁scambio	-11.0459
▁Bull	-11.0466
▁lunch	-11.0467
▁Tale	-11.0469
▁afford	-11.0469
▁thus	-11.0472
▁Thomas	-11.0479
▁worst	-11.0479
▁Agent	-11.0482
▁Before	-11.0492
▁style	-11.0492
▁spazi	-11.0494
▁quantitativ	-11.0499
▁Probabilmente	-11.0504
terreno	-11.0505
▁appoggi	-11.0509
▁proteggere	-11.0509
▁finestra	-11.0509
▁Danny	-11.051
95	-11.0515
▁employee	-11.0518
▁specifiche	-11.0519
compagnia	-11.0542
▁veicol	-11.0551
▁Guardate	-11.0553
▁ritorno	-11.0554
▁Chiesa	-11.0555
▁glu	-11.0557
▁intended	-11.0559
▁Facciamo	-11.0567
▁volontari	-11.0567
▁urge	-11.057
▁kiss	-11.0571
▁consegna	-11.0578
unc	-11.0581
▁bunch	-11.0586
▁successivo	-11.0587
▁rilasci	-11.0589
▁evolve	-11.0593
TS	-11.0596
▁planning	-11.0597
▁ripres	-11.0597
▁Vado	-11.0598
▁coast	-11.0604
▁spinge	-11.0611
▁replaced	-11.0613
▁villaggio	-11.0617
▁illumina	-11.0617
▁chiesa	-11.0618
48	-11.0621
▁bathroom	-11.063
▁ancient	-11.063
▁Indian	-11.0632
▁parliamo	-11.064
▁poliziott	-11.0643
▁sustainable	-11.0645
▁tentativ	-11.0646
▁cup	-11.0649
▁responsabili	-11.0649
▁gather	-11.0657
▁Life	-11.0658
▁commun	-11.0658
BA	-11.0663
▁distribut	-11.0664
▁contratto	-11.0665
▁gambe	-11.067
▁presentazione	-11.0676
SH	-11.0678
▁sostanza	-11.0681
▁Many	-11.0686
▁fianc	-11.0688
▁transit	-11.0688
▁FOR	-11.0691
▁successiv	-11.0692
▁Para	-11.0694
▁significato	-11.0695
▁mortal	-11.0696
▁tab	-11.0696
▁operate	-11.0698
errori	-11.0699
▁Hy	-11.0702
▁Londra	-11.0706
▁older	-11.0707
▁colpo	-11.0712
centrale	-11.0722
▁mediant	-11.0722
guin	-11.0725
35	-11.0727
▁route	-11.0733
▁defend	-11.0734
bellezza	-11.0737
▁fighting	-11.0739
▁easier	-11.0745
▁Help	-11.0745
▁riunione	-11.0745
▁Sappia	-11.0749
▁percentual	-11.075
▁Temp	-11.0751
▁satellite	-11.0757
▁tecnologic	-11.0757
▁identità	-11.0758
▁quarter	-11.0759
▁sentiment	-11.0762
▁Service	-11.077
▁ostacol	-11.0771
▁announce	-11.0771
▁Sub	-11.0777
▁terribile	-11.0782
▁Islam	-11.0783
▁esercito	-11.0783
▁finanziamento	-11.0783
▁Crede	-11.0784
▁bordo	-11.0787
▁spos	-11.0794
▁sembrava	-11.0796
▁kitchen	-11.0796
▁afternoon	-11.0796
▁reject	-11.0796
▁cash	-11.0797
▁biologic	-11.08
▁progettat	-11.0809
▁segnale	-11.0814
▁certamente	-11.0818
▁franc	-11.082
▁practical	-11.0822
▁territory	-11.0822
▁caldo	-11.0822
▁milione	-11.0822
▁debt	-11.0824
39	-11.0831
▁ingredient	-11.0834
▁omicidio	-11.0834
37	-11.0839
▁desiderio	-11.0847
▁administration	-11.0847
▁precisa	-11.0848
▁pretend	-11.0849
27	-11.0851
▁Anna	-11.0857
▁PRO	-11.0857
▁Region	-11.0858
▁electronic	-11.086
▁combattere	-11.0861
▁truck	-11.0862
▁definition	-11.0862
▁appropriat	-11.0864
▁Vedi	-11.0865
▁cittadin	-11.0866
▁culo	-11.0867
▁aiut	-11.0887
▁provid	-11.0889
▁attenta	-11.089
▁assembl	-11.0892
▁argument	-11.0899
▁abbandon	-11.09
▁passaggio	-11.0906
▁Russian	-11.0912
▁Spirit	-11.0912
▁Metti	-11.0924
razza	-11.0927
mont	-11.093
▁kidd	-11.0937
▁department	-11.0938
▁DO	-11.094
▁assum	-11.0945
▁soggetti	-11.0946
▁Paese	-11.0946
raggiunto	-11.0948
▁verita	-11.0948
papà	-11.0951
▁Director	-11.0951
▁apertura	-11.0952
▁magnifi	-11.0953
vrete	-11.0958
▁taught	-11.0967
TT	-11.0969
▁distrutt	-11.0972
▁pubblicato	-11.0976
▁Back	-11.0977
▁tonnellate	-11.0978
▁Chicago	-11.0978
▁forever	-11.0981
rag	-11.0988
▁vittim	-11.0992
▁Auto	-11.0997
▁Nazion	-11.1001
ltrimenti	-11.1002
▁frontier	-11.1007
shes	-11.1008
▁alimentare	-11.1008
▁complain	-11.1017
▁potessi	-11.1017
▁seriously	-11.1018
▁adatt	-11.102
uk	-11.102
▁Sarah	-11.1021
▁pronti	-11.1021
▁painting	-11.1022
▁consumption	-11.103
▁ovvero	-11.103
▁Christmas	-11.103
▁proceed	-11.103
turn	-11.1031
▁chiuso	-11.1031
▁flat	-11.1031
▁agricoltura	-11.1034
FO	-11.1036
▁musical	-11.1037
▁fisher	-11.1038
▁invitat	-11.1039
hood	-11.1039
▁Immagin	-11.1039
incontrato	-11.1042
▁gestire	-11.1043
▁chilometri	-11.1043
CT	-11.1044
▁esserci	-11.1046
▁rent	-11.1049
▁majorit	-11.105
▁closer	-11.1052
▁successiva	-11.1057
wood	-11.1059
mitted	-11.1059
▁controllar	-11.1065
▁busy	-11.107
▁circonda	-11.1071
▁rifiuti	-11.1071
▁segnala	-11.1074
▁confirm	-11.1083
▁privacy	-11.1083
▁beauty	-11.1083
▁religios	-11.1083
▁estimate	-11.1083
▁honor	-11.109
▁Human	-11.1092
▁urgent	-11.1092
▁cerchi	-11.1095
netto	-11.11
▁braccio	-11.1112
▁escape	-11.1112
▁liberal	-11.1115
▁Cooper	-11.1119
.11	-11.1119
▁penal	-11.1119
▁excellent	-11.1123
▁terapia	-11.1123
▁esisto	-11.1125
▁ingegneri	-11.1132
▁originari	-11.1133
▁troviamo	-11.1134
▁positivo	-11.1136
▁Harry	-11.1143
▁narra	-11.1146
▁consegu	-11.1148
adesione	-11.1148
▁correspond	-11.1149
▁solleva	-11.1149
▁killing	-11.1151
▁presi	-11.1155
▁depression	-11.1156
▁saput	-11.116
▁communicate	-11.1163
▁romantic	-11.1163
▁shared	-11.1165
▁diciamo	-11.117
▁matematica	-11.1172
ologist	-11.1175
▁cinema	-11.1178
▁introduce	-11.1183
▁corretta	-11.1183
▁pranzo	-11.1189
▁puttana	-11.119
▁instance	-11.119
▁ambientale	-11.1192
cept	-11.1192
FE	-11.1193
▁motion	-11.1194
▁Op	-11.1194
▁strength	-11.1195
▁politic	-11.1201
▁sostitui	-11.1202
▁decenni	-11.1203
▁Finally	-11.1208
▁marriage	-11.1216
▁trasmett	-11.1228
leading	-11.1228
▁comfort	-11.1233
▁termina	-11.1234
▁label	-11.1235
▁funzionament	-11.124
б	-11.1243
▁bottle	-11.1245
ttle	-11.1249
▁broad	-11.1253
▁mechanism	-11.1256
▁undertaking	-11.1256
▁seleziona	-11.1256
▁package	-11.1258
▁psych	-11.1265
conosciuto	-11.1266
ь	-11.127
▁richieste	-11.127
▁Buongiorno	-11.127
▁submitted	-11.1271
▁scont	-11.1272
▁Dottor	-11.1273
omunque	-11.1274
▁distribuzion	-11.1283
▁ACP	-11.1284
▁According	-11.1294
з	-11.1297
▁Sometime	-11.1298
▁Matt	-11.1301
▁comfortabl	-11.1308
▁Ovviamente	-11.131
▁replace	-11.1318
affatto	-11.1322
▁extraordinar	-11.1324
pan	-11.1328
▁priorità	-11.1331
▁pomeriggi	-11.1338
▁wedding	-11.1338
▁drag	-11.1342
▁inserit	-11.1342
▁nascit	-11.1351
▁prosper	-11.1352
▁pietr	-11.1353
▁salut	-11.1359
▁debito	-11.1359
▁protegge	-11.136
▁slight	-11.1363
▁amministrativ	-11.1365
Cause	-11.1366
▁Quest	-11.1367
▁adora	-11.1368
▁sentence	-11.1369
▁medium	-11.1369
▁evil	-11.1369
▁1988	-11.1371
▁alien	-11.1372
RS	-11.1374
▁Men	-11.1375
▁technique	-11.1378
▁batte	-11.1382
▁considerato	-11.1384
▁suffering	-11.1386
▁riconosciut	-11.1389
▁Bruxelles	-11.1392
▁rovina	-11.1393
▁riforma	-11.1393
▁hide	-11.1401
▁combination	-11.1402
▁Mexic	-11.1406
▁banche	-11.1413
▁skills	-11.142
▁collegat	-11.1421
▁electricity	-11.1422
▁Therefor	-11.1426
phone	-11.1432
temporary	-11.1434
▁sembr	-11.1436
▁aggiunt	-11.1438
▁ricerche	-11.1447
▁250	-11.1447
▁canzone	-11.1447
▁While	-11.1448
▁virt	-11.145
continuare	-11.1451
▁perdon	-11.1451
▁1.2	-11.1452
GE	-11.1455
▁Jimmy	-11.1461
▁advice	-11.1461
▁chiari	-11.1461
▁studiare	-11.1462
▁brucia	-11.1463
▁ricevere	-11.1465
▁luci	-11.1466
▁soldier	-11.1467
▁Spanish	-11.1474
▁autorizzazione	-11.1474
▁volontà	-11.1474
▁ossia	-11.1477
▁chain	-11.1479
▁consens	-11.148
▁definitely	-11.148
▁renew	-11.1488
▁rispettiv	-11.1488
▁sostenibile	-11.1488
▁Captain	-11.1491
▁weekend	-11.1492
▁otherwise	-11.1493
▁twice	-11.1502
▁trasporti	-11.1502
▁molecol	-11.1502
▁messaggi	-11.1503
▁centri	-11.1507
▁educa	-11.1508
▁emendamenti	-11.1509
▁anzi	-11.1509
hill	-11.151
▁collegament	-11.1512
▁Fred	-11.1514
▁pianta	-11.1517
▁campione	-11.1518
▁tapp	-11.1528
▁freddo	-11.1529
▁parcheggi	-11.153
▁Esatto	-11.153
▁riempi	-11.153
▁opportunities	-11.153
▁sight	-11.1532
kh	-11.1541
▁dispositivo	-11.1543
▁phase	-11.1545
field	-11.1553
▁Show	-11.1557
▁finanz	-11.1557
▁scopr	-11.1561
▁pronta	-11.1569
▁excited	-11.1571
▁suspect	-11.1571
▁Vedete	-11.1571
▁ultimate	-11.1575
▁Rose	-11.1578
▁flag	-11.1584
▁applicab	-11.1584
▁Development	-11.1585
▁600	-11.1586
▁released	-11.1587
▁rifiuta	-11.1594
▁Gri	-11.1595
▁insurance	-11.1599
▁external	-11.1599
▁conferenza	-11.1601
▁voci	-11.1603
▁airport	-11.1604
ngue	-11.1606
▁plate	-11.1609
▁agire	-11.1612
▁background	-11.1613
▁promuovere	-11.1613
▁Should	-11.1613
▁disorder	-11.1613
▁angolo	-11.1613
▁ciclo	-11.1614
▁drawing	-11.1615
▁slide	-11.1615
▁Exp	-11.1617
▁agenda	-11.1619
▁primari	-11.1622
▁esperienz	-11.1625
▁Brussels	-11.1627
▁distrugge	-11.1627
▁african	-11.1627
▁merita	-11.1635
▁dign	-11.1637
MB	-11.164
▁artistic	-11.164
▁switch	-11.1641
▁alberi	-11.1642
▁distribution	-11.1646
veicoli	-11.1647
▁corrente	-11.165
▁intes	-11.1652
▁emotion	-11.1654
▁wealth	-11.1656
▁spalle	-11.1656
fen	-11.1656
▁legno	-11.1659
▁ringraziar	-11.1661
▁tradition	-11.1666
▁pensano	-11.1666
▁wake	-11.167
▁zucchero	-11.1683
▁reveal	-11.1683
▁esempi	-11.1684
▁Villa	-11.1691
85	-11.1695
▁audit	-11.1697
▁avanzat	-11.1697
ritardo	-11.1698
▁americano	-11.17
,8	-11.1705
view	-11.1705
▁indipendente	-11.1711
▁exciting	-11.1711
▁finance	-11.1716
capable	-11.1716
▁determine	-11.1717
▁Victor	-11.1721
▁underst	-11.1723
▁religious	-11.1725
▁Banca	-11.1725
▁About	-11.1726
▁Brian	-11.1726
▁Report	-11.1729
▁faster	-11.173
RU	-11.1732
▁perciò	-11.1732
▁possibly	-11.1739
▁holiday	-11.1739
▁saperlo	-11.1739
▁Unite	-11.1743
▁dirige	-11.1744
▁Wall	-11.1746
rup	-11.1752
▁spiaggia	-11.1753
▁impianti	-11.1754
dialogo	-11.1755
▁root	-11.1755
▁schedule	-11.1768
▁condanna	-11.1768
▁cinese	-11.1768
▁albero	-11.1768
▁arrabbiat	-11.1772
36	-11.1777
9	-11.1779
▁Journal	-11.1782
▁riprende	-11.1782
▁Angeles	-11.1785
▁vendut	-11.1785
▁agosto	-11.179
associazione	-11.1793
▁anticipa	-11.1796
▁onore	-11.1797
▁clima	-11.1799
▁opere	-11.1801
▁trasporta	-11.1804
▁basi	-11.1805
▁grade	-11.1806
▁promess	-11.1807
▁extend	-11.1811
▁ticket	-11.1811
▁Yu	-11.1818
rab	-11.1823
▁Tar	-11.1831
▁incorporat	-11.1839
▁complicated	-11.184
▁steel	-11.184
▁ottima	-11.1844
▁corrisponde	-11.1848
▁fertil	-11.1854
▁proprietari	-11.1854
ENT	-11.1859
▁farsi	-11.1862
ifying	-11.1866
▁identify	-11.1867
▁accanto	-11.1868
▁prospettiva	-11.1876
▁Cho	-11.1878
▁identic	-11.1879
▁rientra	-11.1879
▁istituisc	-11.1882
▁leadership	-11.1884
▁deriv	-11.1886
▁button	-11.1887
▁dimostrato	-11.1891
▁earn	-11.1894
ы	-11.1896
▁soggiorno	-11.1896
reached	-11.1899
▁Cerca	-11.19
▁strengthen	-11.1904
▁monetari	-11.1908
▁quegl	-11.1908
vacanza	-11.1911
▁lying	-11.1915
▁server	-11.1917
▁corsi	-11.1918
▁determined	-11.1919
▁Saint	-11.1923
▁declin	-11.1924
▁atmosphere	-11.1925
▁School	-11.1925
▁Berlin	-11.1926
▁reserve	-11.1926
▁inspire	-11.1927
EM	-11.1928
▁disciplina	-11.1939
▁pleasure	-11.1939
▁Tesoro	-11.1939
▁achieved	-11.1952
▁adottare	-11.1954
▁scompars	-11.1954
▁telefoni	-11.1954
▁approval	-11.1958
▁Nobody	-11.1959
▁Nuov	-11.1968
▁circumstances	-11.1968
▁giur	-11.1972
▁Read	-11.1974
▁agenzi	-11.1979
incredibly	-11.1982
town	-11.1985
▁lingue	-11.1986
▁controllat	-11.1986
▁Ireland	-11.1986
cula	-11.1991
▁chip	-11.1996
▁Egypt	-11.1997
▁length	-11.1997
▁characteristic	-11.1998
EX	-11.1998
▁copia	-11.2002
▁dovut	-11.2005
▁Rest	-11.2008
▁fool	-11.201
▁obvious	-11.2011
▁ECB	-11.2011
▁Congress	-11.2012
▁fratelli	-11.2012
▁bill	-11.2013
▁Mother	-11.2014
▁Four	-11.2018
▁ferro	-11.2021
▁gang	-11.2021
▁recover	-11.2023
▁guar	-11.2025
▁ghiaccio	-11.2026
▁teaching	-11.2028
▁importazioni	-11.2033
▁personaggi	-11.2033
▁occur	-11.2033
▁circostanz	-11.2046
▁title	-11.2046
▁rivist	-11.2047
▁reddito	-11.2055
▁fashion	-11.2055
▁Total	-11.2055
front	-11.2057
▁contest	-11.2068
▁tender	-11.2069
▁expensive	-11.207
TION	-11.207
▁author	-11.2079
▁Lasciate	-11.208
▁difficili	-11.2084
▁Everybody	-11.2085
▁inviat	-11.2092
▁amministrazione	-11.2099
▁overall	-11.2101
▁scarica	-11.2105
▁Health	-11.2107
hir	-11.2109
▁danger	-11.211
partita	-11.211
▁edifici	-11.2118
▁noise	-11.2121
book	-11.2122
▁introduced	-11.2123
38	-11.2126
▁acquista	-11.2127
▁System	-11.2128
▁Ryan	-11.2129
▁Brazil	-11.2129
▁splendid	-11.2143
▁chirurg	-11.2143
▁vestiti	-11.2143
alcuna	-11.2158
▁association	-11.2161
▁Trattat	-11.2164
▁tac	-11.2166
▁luna	-11.2171
▁browser	-11.2173
▁cycle	-11.2173
card	-11.2179
▁fatte	-11.218
▁confine	-11.2184
▁particolari	-11.2187
▁tunnel	-11.2187
▁Jan	-11.2189
▁lift	-11.2189
▁Finland	-11.2195
▁Gold	-11.2195
▁larger	-11.2199
▁secure	-11.2202
▁shoes	-11.2202
▁assolut	-11.2204
▁severe	-11.2206
42	-11.2211
▁Primo	-11.2212
▁Remember	-11.2217
▁ristorante	-11.2217
▁cereal	-11.2229
haps	-11.2231
▁Cazzo	-11.2232
▁muro	-11.2234
▁Padre	-11.2234
back	-11.2238
▁trauma	-11.2238
▁improvement	-11.2241
iamoci	-11.2243
▁Twitter	-11.2247
▁1985	-11.225
▁cellula	-11.2251
greed	-11.2252
▁crack	-11.2252
▁minima	-11.2253
▁sensor	-11.2254
▁Alic	-11.226
▁Jean	-11.226
▁schermo	-11.2262
▁augur	-11.2263
▁durat	-11.2265
▁impress	-11.227
water	-11.2271
▁appuntamento	-11.2277
FF	-11.2283
▁angel	-11.2286
▁Romania	-11.2286
▁expression	-11.2287
▁odio	-11.2288
▁provenienti	-11.2291
▁heavy	-11.2291
▁battle	-11.2293
▁adozione	-11.2295
▁riflett	-11.2297
ARE	-11.2299
▁terror	-11.23
mettiamo	-11.2303
▁Official	-11.2306
▁certificate	-11.2306
▁Vediamo	-11.2309
▁elevato	-11.2321
▁elettro	-11.2326
▁sindac	-11.2327
▁deroga	-11.2337
▁zoo	-11.234
▁newspaper	-11.2351
▁schifo	-11.2351
▁joke	-11.2353
▁efficiency	-11.2366
▁enterprise	-11.2366
▁Japan	-11.2366
▁detective	-11.2366
▁Wind	-11.2367
▁miglioramento	-11.2371
▁Tali	-11.2373
▁orientament	-11.2381
scatola	-11.2382
▁farmaco	-11.2383
▁joy	-11.2384
▁orecchi	-11.2388
▁colpito	-11.2389
▁batter	-11.2392
▁sostenut	-11.2392
▁stomac	-11.2394
▁recita	-11.2396
▁economie	-11.2396
▁participate	-11.2396
▁scherza	-11.2396
▁ospiti	-11.2396
▁superiori	-11.2397
▁descrive	-11.2397
▁football	-11.2397
▁emergency	-11.2397
▁vint	-11.2399
▁tail	-11.2411
▁collettiv	-11.2412
▁esclusiva	-11.2412
▁1986	-11.2418
▁DEL	-11.2421
▁militare	-11.2427
▁Parigi	-11.2427
▁ospita	-11.2427
▁Studi	-11.2428
▁doganal	-11.2431
▁scorsa	-11.2431
▁stima	-11.2437
▁prevision	-11.2441
▁Lisbon	-11.2442
OP	-11.2442
▁sheet	-11.245
dium	-11.245
▁evolution	-11.2452
conosciamo	-11.2452
▁tipic	-11.2455
▁parecchi	-11.2456
mattina	-11.2456
▁altezza	-11.2457
▁bridge	-11.246
▁sottopost	-11.2461
▁apolog	-11.2462
▁1984	-11.2464
lthough	-11.2466
▁negotiations	-11.2473
▁guai	-11.2475
▁Scusate	-11.2476
▁Shut	-11.2476
patic	-11.2478
▁editor	-11.2482
▁Also	-11.2482
GA	-11.2486
▁Govern	-11.2487
▁Greece	-11.2487
▁beneficiar	-11.2488
▁Class	-11.2491
▁riten	-11.2494
HIS	-11.2494
▁channel	-11.2503
▁peccato	-11.2503
▁costrett	-11.2513
▁expenditure	-11.2518
▁excuse	-11.2518
▁battut	-11.2518
▁identifi	-11.2519
▁categoria	-11.2521
▁Public	-11.2533
▁crash	-11.2537
▁intermedi	-11.2537
▁clinical	-11.2538
▁logic	-11.2545
▁preoccupazion	-11.2546
▁concession	-11.2549
▁hypo	-11.2549
▁brief	-11.255
▁steal	-11.2554
▁audio	-11.2555
▁rendi	-11.2557
▁tired	-11.256
▁grab	-11.2561
▁reciproc	-11.2564
NS	-11.2565
▁Western	-11.2565
▁belle	-11.2576
▁EUROPE	-11.2579
▁cristian	-11.2579
▁extent	-11.2579
▁compensat	-11.2588
▁clothes	-11.2595
▁pair	-11.2595
▁sguard	-11.2596
▁chiamiamo	-11.2596
▁attach	-11.2608
▁giustifica	-11.261
▁spagnol	-11.261
vissuto	-11.2611
▁orbit	-11.2618
{	-11.2625
▁exclud	-11.2625
▁giornalist	-11.2629
▁iscritt	-11.2631
raggio	-11.2635
▁segreta	-11.2641
▁threaten	-11.2642
▁Quanti	-11.2644
▁Dovrest	-11.265
▁spettacolo	-11.2657
▁Down	-11.2659
▁desk	-11.2663
▁tension	-11.2664
▁bassa	-11.2665
▁sparato	-11.2669
▁sustain	-11.267
â	-11.2672
▁Chuck	-11.2672
▁intention	-11.2673
▁somehow	-11.2687
▁Greek	-11.2687
prov	-11.2689
▁Rick	-11.2691
▁intervention	-11.2702
PL	-11.2703
}	-11.2703
▁Middle	-11.2707
▁golf	-11.2715
▁atom	-11.2715
izzate	-11.2716
▁Giappone	-11.2719
▁efficienz	-11.2719
▁Simon	-11.2719
▁specified	-11.272
▁fellow	-11.2721
▁Avanti	-11.2722
▁abitua	-11.2726
▁Vuol	-11.2735
▁raggiunge	-11.2745
▁entit	-11.2748
▁descritt	-11.275
▁purchase	-11.275
▁custod	-11.275
▁disgust	-11.275
▁investimento	-11.2752
▁protocollo	-11.2755
▁Someone	-11.2756
down	-11.2762
▁riportat	-11.2764
▁sharing	-11.2766
▁comod	-11.2767
,9	-11.2771
▁march	-11.2778
▁innovative	-11.2781
▁currenc	-11.2781
▁frase	-11.2788
▁scarpe	-11.2797
▁coscienza	-11.2797
▁modifiche	-11.2797
▁surgery	-11.2797
▁Tieni	-11.2799
ivity	-11.2803
▁spetta	-11.2807
▁affida	-11.2807
▁stranier	-11.2813
▁labour	-11.2814
▁sicuri	-11.2814
▁existence	-11.2815
appello	-11.282
nette	-11.2826
▁ambient	-11.2826
▁rubat	-11.2827
▁AIDS	-11.2828
▁birthday	-11.2829
▁update	-11.2839
▁Pensate	-11.2839
▁demonstrate	-11.2844
▁neighborhood	-11.2844
▁Bern	-11.2849
▁emergenz	-11.2851
▁consistent	-11.2854
▁vorrebbe	-11.2856
▁profondo	-11.286
▁borsa	-11.286
93	-11.2868
PS	-11.2875
▁industrie	-11.2876
▁Grecia	-11.2876
▁ultra	-11.2877
gru	-11.288
▁dimenticato	-11.288
▁controvers	-11.2885
▁layer	-11.2886
92	-11.2888
▁preoccupat	-11.2888
▁hmm	-11.2893
▁Sapev	-11.2894
▁transition	-11.2898
▁Oddi	-11.2902
▁UK	-11.2905
▁Protocol	-11.2907
▁database	-11.2907
▁Infine	-11.2908
▁preparation	-11.2908
▁outcome	-11.2908
▁pound	-11.2912
▁BCE	-11.2916
▁Jake	-11.2922
▁frequenz	-11.2923
AZIONE	-11.2925
▁acquire	-11.2939
▁administrative	-11.2939
▁Francisco	-11.2939
▁pregnant	-11.2939
▁manifesta	-11.294
▁chiedendo	-11.294
▁patent	-11.2942
▁cardiac	-11.2944
▁potenzial	-11.2945
▁tropp	-11.2947
RC	-11.2948
▁enormous	-11.2955
▁girlfriend	-11.2955
▁obbligatori	-11.2956
▁apert	-11.2959
▁Justice	-11.2961
▁profondi	-11.2963
▁valle	-11.2967
▁numerosi	-11.2968
▁Korea	-11.2969
▁Potrest	-11.297
▁react	-11.2971
▁password	-11.2987
▁orgoglio	-11.2987
▁multiple	-11.2989
▁historical	-11.3001
▁ritiene	-11.3003
▁delibera	-11.3004
▁forgive	-11.3004
▁fonti	-11.3006
▁alimentari	-11.3007
▁delicat	-11.3014
▁Josh	-11.3015
▁tast	-11.3017
▁imprenditor	-11.3019
▁strategie	-11.3019
▁facilities	-11.3024
▁popolare	-11.3035
▁gradual	-11.3035
▁Oltre	-11.3035
▁comprato	-11.3046
▁odia	-11.3051
▁pursuan	-11.3052
▁frega	-11.3054
▁allocat	-11.3055
▁1987	-11.3059
\	-11.3068
▁pubbliche	-11.3068
▁EUROPEAN	-11.3068
▁Sunday	-11.3068
▁definire	-11.307
▁variety	-11.3074
ography	-11.308
▁attesa	-11.3084
▁refuse	-11.3087
▁compiut	-11.3087
▁rilasciat	-11.3088
▁philosoph	-11.31
▁circle	-11.31
▁collective	-11.31
▁rese	-11.3101
▁pesci	-11.3102
▁regret	-11.3103
▁visitatori	-11.3107
▁Smith	-11.3116
▁jail	-11.3117
▁utente	-11.3117
▁integrazione	-11.3122
▁massive	-11.3133
▁random	-11.3133
▁fier	-11.3134
▁Anyway	-11.3134
danni	-11.3136
▁procura	-11.3137
▁nominat	-11.3139
▁Ron	-11.3139
▁parallel	-11.3149
▁alternativ	-11.3152
saur	-11.316
▁capitolo	-11.3161
▁gamma	-11.3166
▁Prince	-11.3171
▁favorevol	-11.3176
chiesta	-11.3183
criteria	-11.3186
CHE	-11.3195
▁screw	-11.3198
▁casual	-11.3198
▁interessanti	-11.3204
▁establishment	-11.3209
▁humanity	-11.3211
▁landscape	-11.3214
▁apprendimento	-11.3214
▁sostituit	-11.3215
▁coordinate	-11.3219
fal	-11.322
▁accadut	-11.3221
tress	-11.3227
▁negotiat	-11.3229
ddirittura	-11.323
▁empty	-11.3231
▁angry	-11.3232
▁Fammi	-11.324
▁categor	-11.3248
▁muscol	-11.3252
▁Research	-11.3263
▁condiziona	-11.3263
▁economiche	-11.3265
▁relatore	-11.3265
▁Kevin	-11.3266
▁visiv	-11.3269
▁compil	-11.3269
▁transaction	-11.328
posizione	-11.3287
▁pagine	-11.3289
▁parco	-11.329
pongono	-11.3291
▁riconosciment	-11.3296
▁doppio	-11.3297
▁resistenza	-11.3299
▁raccogliere	-11.3301
rug	-11.3301
▁Talk	-11.3302
▁signorin	-11.3306
▁pubblicazion	-11.3312
▁Chapter	-11.3313
▁storage	-11.3313
▁precision	-11.3313
▁Doctor	-11.3325
▁Affair	-11.3329
▁sessuale	-11.3329
▁Next	-11.3329
chiedono	-11.3331
▁addoss	-11.3336
▁remote	-11.3337
▁situazion	-11.3338
▁knock	-11.3346
▁Damn	-11.3346
▁vertical	-11.3347
▁Michel	-11.3352
▁River	-11.3355
▁marry	-11.3355
▁precipit	-11.3362
▁priority	-11.3368
ó	-11.3374
ч	-11.3379
▁Agenzia	-11.3379
▁nervos	-11.3379
▁bright	-11.3379
▁estension	-11.338
▁smile	-11.3381
то	-11.3381
▁ambientali	-11.3382
▁preced	-11.339
▁sostanzial	-11.3396
▁Institute	-11.3396
OW	-11.3402
▁Dammi	-11.3405
▁flessibil	-11.3412
▁examine	-11.3412
▁etichetta	-11.3412
▁Scar	-11.3416
▁pensava	-11.3417
▁interventi	-11.3423
fortunately	-11.3427
▁expand	-11.3429
▁accumula	-11.3429
▁seduta	-11.343
▁Dimmi	-11.3431
▁pianifica	-11.3441
▁Irland	-11.3441
▁suppose	-11.3443
▁qualificat	-11.3447
▁crimine	-11.3447
▁ampio	-11.3447
▁plus	-11.3448
.12	-11.3451
▁finche	-11.3457
uf	-11.3457
▁emotional	-11.346
▁candidate	-11.3463
▁dialogue	-11.3463
▁roof	-11.3464
▁trasformazione	-11.347
▁Fatto	-11.3471
▁capitano	-11.3473
▁approximate	-11.3479
▁succeed	-11.348
▁partnership	-11.3499
▁wound	-11.35
▁Tommy	-11.35
▁volev	-11.3502
▁Que	-11.3503
▁acciai	-11.3503
▁Pakistan	-11.3513
▁Turkey	-11.3513
▁refugee	-11.3513
▁vulnerabil	-11.3513
▁fidanzat	-11.3514
▁battaglia	-11.353
▁caffè	-11.353
▁esprimere	-11.353
▁1983	-11.353
▁sfide	-11.353
▁Turchi	-11.353
▁informatic	-11.3533
▁pazzo	-11.3537
CK	-11.354
▁efficacia	-11.3547
▁occidentale	-11.3547
▁emozioni	-11.3548
lancio	-11.3561
▁barca	-11.3562
▁England	-11.3564
▁Walter	-11.3567
▁professionist	-11.3579
▁Mess	-11.3581
▁prestazioni	-11.3586
▁Head	-11.3588
▁moon	-11.359
▁propose	-11.3596
▁extension	-11.3598
▁Agency	-11.3598
saremo	-11.3607
▁proof	-11.3608
▁architett	-11.3614
▁stabilisc	-11.3614
▁neighbor	-11.3615
▁climb	-11.3617
▁alloggi	-11.3623
▁correlat	-11.3623
▁meters	-11.3626
▁mineral	-11.3628
▁cookie	-11.3629
▁strana	-11.3631
▁schiav	-11.3635
▁intelligenza	-11.3649
▁heaven	-11.3649
▁Again	-11.3649
▁Club	-11.3649
▁frame	-11.365
▁committed	-11.365
▁matur	-11.3653
▁occurr	-11.3658
▁Gil	-11.3661
▁aeroporto	-11.3666
▁Boston	-11.3667
▁Common	-11.3671
▁nasce	-11.3673
▁preoccuparti	-11.3673
DR	-11.3682
▁judgment	-11.3683
▁tecnico	-11.3683
▁garanzia	-11.3684
▁fossil	-11.3687
▁Plan	-11.3692
▁ampli	-11.3692
▁Baby	-11.3694
▁interven	-11.3696
▁monta	-11.3697
ATION	-11.37
▁utilizzando	-11.37
▁breakfast	-11.3701
▁dinosaur	-11.3701
▁Hmm	-11.3701
▁conosci	-11.3708
▁negoziati	-11.3711
print	-11.3712
▁fisico	-11.3718
▁odd	-11.3722
▁riferisc	-11.3726
ñ	-11.3735
▁concord	-11.3737
▁Def	-11.3745
▁passenger	-11.3752
▁architecture	-11.3753
▁espost	-11.3757
▁admit	-11.3769
▁museum	-11.377
▁dinamic	-11.3771
▁opposite	-11.3772
▁demon	-11.3776
segnare	-11.3784
▁denuncia	-11.3787
▁financing	-11.3787
▁platform	-11.3787
▁vetro	-11.3789
▁esistenti	-11.3797
▁autobu	-11.3799
▁strip	-11.3799
▁apparecchi	-11.3803
▁construct	-11.3804
▁allontana	-11.3804
▁corsa	-11.3806
▁enormi	-11.3807
voted	-11.3811
TU	-11.3812
▁accessibil	-11.3819
▁sintomi	-11.3822
▁Qualcos	-11.3822
▁delay	-11.3827
▁pru	-11.3835
▁consentire	-11.3836
▁Consider	-11.384
▁architettura	-11.384
▁gioia	-11.3842
▁employ	-11.3848
▁originat	-11.3853
▁Global	-11.3857
▁happiness	-11.3857
▁mouse	-11.3857
▁ruin	-11.3861
▁psycholog	-11.3863
▁educazione	-11.3865
▁800	-11.3866
▁risolv	-11.3872
▁ingresso	-11.3874
▁crowd	-11.3874
▁tradizionale	-11.3875
▁appunt	-11.3883
▁Pronto	-11.3886
▁passegger	-11.3892
visibile	-11.3895
struzione	-11.3904
▁fenomeno	-11.3909
▁participation	-11.3909
▁benessere	-11.391
▁ripete	-11.3913
▁ricors	-11.3916
▁chosen	-11.3919
▁ritengo	-11.3919
▁tissue	-11.3927
▁smoke	-11.3928
▁profession	-11.3934
▁Merc	-11.3937
▁plasma	-11.3944
▁Servizi	-11.3944
▁publish	-11.3946
▁qualcos	-11.3946
▁Atlantic	-11.395
▁malat	-11.396
▁Bulgaria	-11.3962
▁muscle	-11.3962
▁militari	-11.3962
▁percepit	-11.398
chiusa	-11.3985
▁bike	-11.399
▁connessione	-11.3997
▁Still	-11.3999
▁richiesto	-11.4002
▁Welcome	-11.4015
▁Without	-11.4017
▁Leave	-11.402
▁Crea	-11.4024
▁italiano	-11.4033
▁Center	-11.4033
.12.20	-11.4033
▁declare	-11.4035
▁telecamer	-11.4051
ONE	-11.4051
▁catena	-11.4053
ifiche	-11.4056
▁aiutarl	-11.4057
▁compromess	-11.4062
▁infection	-11.4066
▁magazine	-11.4068
▁shirt	-11.4068
▁Nigeria	-11.4068
▁palco	-11.4072
▁replica	-11.4073
▁colour	-11.4075
▁commission	-11.4082
▁mattin	-11.4082
▁registrazion	-11.4084
▁introdott	-11.4086
▁Pacific	-11.4086
▁stabilità	-11.4096
▁drunk	-11.4104
▁ordini	-11.4105
▁copri	-11.4112
▁tanta	-11.4116
▁exclusive	-11.4122
▁alcohol	-11.4122
▁ultime	-11.4122
wan	-11.4124
▁Johnny	-11.4126
▁capture	-11.4129
▁download	-11.413
▁sorveglianza	-11.414
▁garantisc	-11.4141
▁adolescent	-11.4158
▁rilassa	-11.4158
▁stretta	-11.4158
▁vigila	-11.4158
▁disaster	-11.4158
▁tribu	-11.4159
▁rigid	-11.416
▁immuni	-11.4161
▁terminal	-11.4161
▁Immaginate	-11.4163
▁concentrazion	-11.4165
▁Capisco	-11.4176
▁tassi	-11.4178
▁assess	-11.4178
▁visitor	-11.4183
▁Media	-11.4188
▁celebrate	-11.4194
ο	-11.4194
▁arrangements	-11.4194
▁arrange	-11.4194
▁depress	-11.4199
▁tight	-11.4199
▁recommendation	-11.4203
▁fibre	-11.4204
▁diagnostic	-11.4212
▁therapy	-11.4213
▁blame	-11.4214
▁cominci	-11.4216
▁compatibil	-11.4231
▁assenza	-11.4233
▁controlled	-11.4235
▁east	-11.4242
▁extreme	-11.4245
▁necessit	-11.4248
▁Ferr	-11.4248
▁Disc	-11.4249
▁Watch	-11.4252
parità	-11.4254
▁combinazion	-11.4255
▁survey	-11.4267
▁affair	-11.4267
▁Year	-11.4267
▁poesi	-11.4276
▁Latin	-11.4277
▁Portugal	-11.4285
▁boyfriend	-11.4285
▁piattaform	-11.4285
▁magnetic	-11.4286
▁Ooh	-11.4286
▁Albert	-11.4286
▁comput	-11.4289
▁trasferimento	-11.4291
▁salve	-11.4304
▁GPS	-11.4306
▁felicità	-11.4307
▁attuali	-11.431
▁impose	-11.4319
▁polvere	-11.4321
▁repair	-11.4321
▁kn	-11.4322
saved	-11.4322
▁infinite	-11.4324
▁consideration	-11.4326
▁contenent	-11.4326
▁segnali	-11.4328
▁corn	-11.4329
▁dispera	-11.433
▁immers	-11.4336
▁Vostr	-11.4336
▁Blue	-11.434
▁shopping	-11.4341
▁copie	-11.4349
▁Presidenz	-11.4358
▁prezios	-11.4359
▁bedroom	-11.4359
▁marchio	-11.4359
bilmente	-11.4364
▁acquisit	-11.4367
▁Philip	-11.4369
▁cerebral	-11.4376
▁corrupt	-11.4376
▁appeal	-11.4378
▁circolazione	-11.4379
▁exact	-11.438
ION	-11.4382
▁manufacturer	-11.4389
▁architect	-11.4394
▁Authorit	-11.4395
▁Leonard	-11.4395
▁esterni	-11.4396
▁stella	-11.4397
▁sopport	-11.44
▁elettricità	-11.4403
▁emendament	-11.4404
avviene	-11.4405
▁expos	-11.4405
▁chiami	-11.4413
MAN	-11.4413
▁Texas	-11.4413
▁desidero	-11.4413
▁Japanese	-11.4414
rself	-11.4415
▁cattivo	-11.4416
▁compromise	-11.4432
▁nervous	-11.4432
▁umane	-11.4437
▁birra	-11.4438
▁Vogliamo	-11.445
▁diagnosi	-11.445
▁proportion	-11.445
▁nurse	-11.445
▁interaction	-11.4451
▁ridicol	-11.4452
▁spring	-11.4455
agriculture	-11.4469
▁Professor	-11.4469
▁paesaggi	-11.4469
▁Centro	-11.4469
▁refund	-11.4471
ón	-11.4474
▁compleann	-11.4487
▁bacteria	-11.4487
▁costituit	-11.4488
▁calendar	-11.4488
▁schema	-11.449
▁accent	-11.4505
▁Amsterdam	-11.4506
▁appartamenti	-11.4506
▁biglietto	-11.4506
▁archivi	-11.4506
babies	-11.4506
lves	-11.4508
IES	-11.4526
▁minimi	-11.4532
▁ecologic	-11.4533
▁sporc	-11.4535
▁appari	-11.4537
▁sopravvivere	-11.454
▁description	-11.4543
▁Palestin	-11.4543
▁Friday	-11.4544
▁bread	-11.4545
▁integration	-11.4545
▁prevale	-11.4551
▁marine	-11.4553
▁Test	-11.4554
movimenti	-11.4562
▁belief	-11.4562
▁difende	-11.4563
▁circol	-11.4566
▁processes	-11.4567
▁storico	-11.4568
▁avrai	-11.4571
stanze	-11.4573
▁ratio	-11.4578
▁provincia	-11.4581
▁decrease	-11.4581
▁procediment	-11.4581
▁preghier	-11.4581
▁estremi	-11.4581
▁dedicated	-11.4581
▁sciocc	-11.4581
▁regalo	-11.4582
▁Product	-11.4583
rising	-11.4585
▁HAS	-11.4592
▁osservazioni	-11.4596
▁studiat	-11.4597
▁trasparenza	-11.46
▁Inghil	-11.46
▁licence	-11.46
fortunatamente	-11.46
▁trucc	-11.4604
LT	-11.4615
▁contribuire	-11.4618
▁disastro	-11.4619
flowers	-11.462
▁sorprendente	-11.4622
▁Julie	-11.4627
▁densit	-11.4628
▁withdraw	-11.4639
▁biological	-11.4643
logico	-11.4643
▁freak	-11.4644
▁percentage	-11.4648
▁imbarazz	-11.4656
▁pratiche	-11.4656
▁Nations	-11.4671
▁1981	-11.4675
▁funeral	-11.4677
▁fusion	-11.4678
▁laurea	-11.4682
▁umil	-11.4683
▁torner	-11.4686
▁confidence	-11.4694
▁filosofi	-11.4694
▁soggetto	-11.4694
▁Rachel	-11.4694
▁Huh	-11.4696
▁Little	-11.4697
▁Kong	-11.4706
▁contributi	-11.471
▁scav	-11.471
▁vegetable	-11.4713
▁incendi	-11.4714
▁ricchezz	-11.4714
▁Roger	-11.4723
▁impianto	-11.4732
▁scolastic	-11.4732
▁infect	-11.4734
▁branch	-11.4737
▁ministro	-11.4752
▁Follow	-11.4752
▁urla	-11.4753
▁pessim	-11.4753
▁gap	-11.4757
▁1982	-11.4759
▁tragic	-11.4768
▁ovvio	-11.477
▁advertis	-11.477
▁parliament	-11.477
▁segreti	-11.477
VO	-11.4774
▁duties	-11.4775
▁piede	-11.4779
▁corretto	-11.4781
▁swear	-11.479
▁concentration	-11.4794
▁Power	-11.4794
toxic	-11.4804
▁cosiddett	-11.4809
▁1970	-11.4814
▁parlarne	-11.4816
nstru	-11.4816
▁attribui	-11.4825
▁Security	-11.4828
▁province	-11.4828
▁Brasile	-11.4828
▁gender	-11.483
▁strike	-11.483
▁cabin	-11.4831
▁altrettant	-11.4831
▁decisa	-11.4832
▁chart	-11.4836
▁applicant	-11.4836
▁assicur	-11.4837
ATE	-11.4839
▁affascinant	-11.4841
▁sbagli	-11.4842
▁invern	-11.4842
▁immens	-11.4847
▁abandon	-11.4847
▁partecipanti	-11.4855
▁bilanci	-11.4866
▁reward	-11.4866
▁Netherlands	-11.4867
▁illusion	-11.4868
▁promozione	-11.4886
▁Board	-11.4886
▁materie	-11.4886
▁ignore	-11.4887
▁supplementar	-11.4889
▁affidabil	-11.4896
▁McC	-11.4899
▁Voleva	-11.49
▁danneggia	-11.4905
▁encounter	-11.4925
▁stronza	-11.4925
▁fluid	-11.4928
TRA	-11.4932
▁selection	-11.4935
▁chiara	-11.4938
PH	-11.494
▁restitui	-11.4944
▁prosegui	-11.4944
▁malaria	-11.4947
▁costituisce	-11.4947
▁Nik	-11.4956
▁tourist	-11.496
▁Pian	-11.4961
▁Occorre	-11.4964
▁district	-11.4964
▁Prepar	-11.497
▁adoption	-11.4972
▁installation	-11.4974
▁economist	-11.4983
▁structural	-11.4983
▁Gazzett	-11.4983
▁toilet	-11.4985
▁hungr	-11.4986
▁accett	-11.4987
▁Kenya	-11.4987
▁migrat	-11.4992
▁ritm	-11.5
▁insulin	-11.5003
▁Information	-11.5003
nergy	-11.5004
▁scenario	-11.5005
ddle	-11.5007
▁soldati	-11.5011
▁accuse	-11.5012
▁giant	-11.5014
▁buddy	-11.5022
▁habitat	-11.5026
▁destination	-11.5026
▁modera	-11.503
▁planne	-11.5041
▁attrezzatur	-11.5042
▁instruction	-11.5042
▁rinuncia	-11.5042
▁hidden	-11.5042
▁Sweden	-11.5042
▁denominat	-11.5042
▁confini	-11.5051
▁Water	-11.5056
▁Detective	-11.5062
▁espresso	-11.5062
▁procedere	-11.5062
▁chicken	-11.5062
▁desideri	-11.5063
▁interact	-11.5068
▁trasmess	-11.5069
angelo	-11.5071
▁Food	-11.5075
▁evidenzia	-11.5079
▁legittim	-11.5081
▁parzial	-11.5082
▁sportiv	-11.5083
taluni	-11.5083
▁Muslim	-11.5101
▁rivolge	-11.5101
▁avendo	-11.5102
▁Secretar	-11.5121
▁copertura	-11.5122
▁conversion	-11.5123
▁americana	-11.5123
▁rob	-11.5126
▁vinci	-11.513
▁tank	-11.5134
cavolo	-11.5139
▁Queen	-11.514
▁enhance	-11.5141
▁yellow	-11.5141
▁usarl	-11.5141
▁generos	-11.5142
▁ottenut	-11.5142
▁assiem	-11.5143
▁realizzazion	-11.5159
▁intervista	-11.5161
secutiv	-11.5161
▁letteral	-11.5165
▁atteggiament	-11.5181
▁molecule	-11.5181
▁compliance	-11.5181
▁proporzion	-11.5182
▁split	-11.5185
▁antibiotic	-11.5201
▁trasmissione	-11.5221
▁evaluation	-11.5221
▁Emily	-11.5223
▁Brown	-11.5223
▁votazion	-11.5224
▁injection	-11.5241
▁potranno	-11.5246
▁spezz	-11.5256
▁Bisogna	-11.5261
▁combustibil	-11.5261
▁comprensione	-11.5261
▁pronuncia	-11.5261
▁passiv	-11.5262
но	-11.5262
▁slave	-11.5264
▁propone	-11.5267
▁piaciut	-11.5281
▁sofferenz	-11.5281
▁piazza	-11.5282
▁submit	-11.5282
▁paviment	-11.5283
▁circo	-11.5297
▁breast	-11.5301
▁evolut	-11.5304
▁cutting	-11.5311
▁specialist	-11.5312
▁sconosciut	-11.5314
tendenza	-11.5316
▁pregiudizi	-11.5321
▁Women	-11.5321
▁corpi	-11.5322
▁moda	-11.5322
▁esposizione	-11.5323
▁forgot	-11.5332
▁winter	-11.5336
▁Smettila	-11.5341
▁Vietnam	-11.5341
▁dispositivi	-11.5341
▁constitute	-11.5342
▁pertinent	-11.5342
▁seduto	-11.5342
▁kit	-11.5344
AF	-11.5344
▁Carolin	-11.535
chè	-11.5351
▁manifest	-11.5356
▁uova	-11.5362
▁trovere	-11.5362
aggrega	-11.5363
nipote	-11.5364
▁dotat	-11.5374
destino	-11.5377
▁Conference	-11.5382
▁Papà	-11.5382
▁diffusion	-11.5382
▁enemy	-11.5382
▁autentic	-11.5382
▁stimul	-11.5382
▁slip	-11.5383
▁selezione	-11.5383
▁affitt	-11.5393
É	-11.5402
▁consolidat	-11.5402
▁aspettativ	-11.5405
glob	-11.5409
▁vantaggi	-11.541
▁candidati	-11.5423
▁preliminar	-11.5423
▁impegni	-11.5423
▁Centre	-11.5424
▁agency	-11.5426
▁braccia	-11.5429
▁aggressiv	-11.5443
▁Convenzion	-11.5443
▁cognitiv	-11.5443
▁Greg	-11.5447
▁croll	-11.546
ESS	-11.5463
▁introduzione	-11.5464
▁deficit	-11.5464
campioni	-11.5465
▁shame	-11.5466
▁highlight	-11.5466
▁raccogli	-11.5479
american	-11.5482
▁Apr	-11.5483
п	-11.5484
▁Harvard	-11.5484
▁episodi	-11.5484
▁GDP	-11.5484
▁combined	-11.5484
▁grafico	-11.5484
Qu	-11.5492
cattiva	-11.5493
▁tenendo	-11.5497
▁nucle	-11.5502
▁abbandonat	-11.5504
▁entrepreneur	-11.5505
▁soddisfatt	-11.5507
▁preferisc	-11.5512
▁pubblicità	-11.5512
▁progettazion	-11.5525
▁Walk	-11.5526
▁Cuba	-11.5529
▁flusso	-11.553
▁contemporanea	-11.5546
▁restituzion	-11.5546
Claire	-11.5547
▁obblighi	-11.5549
▁caffe	-11.5549
▁interior	-11.555
▁approvazione	-11.5555
▁explanation	-11.5567
▁moltissim	-11.5568
▁curve	-11.5573
▁COMMISSIONE	-11.5576
▁regulat	-11.5587
▁snow	-11.5588
▁ought	-11.5589
▁flash	-11.5595
▁fornitur	-11.5597
▁apport	-11.5606
▁Jordan	-11.5608
▁veterinari	-11.5608
▁positiva	-11.5608
▁Valley	-11.5611
▁introduction	-11.5611
▁manufacture	-11.5615
▁tantissim	-11.5628
▁automobili	-11.5629
▁festival	-11.5629
▁domenica	-11.5629
▁vacation	-11.5629
▁monument	-11.5629
▁respective	-11.563
▁gamba	-11.563
▁decid	-11.5632
▁catalog	-11.5634
▁vincol	-11.5635
▁continuous	-11.5636
▁dettagliat	-11.5637
selling	-11.5643
▁Saturday	-11.565
▁attitude	-11.565
▁orientale	-11.565
▁bullet	-11.565
▁priest	-11.5651
istruzioni	-11.5653
▁Soviet	-11.5653
mostrano	-11.5658
▁rallenta	-11.5671
▁unlike	-11.5672
▁assurd	-11.5672
▁Unfortunately	-11.5674
▁corrispondent	-11.5678
▁declaration	-11.5692
▁equipaggi	-11.5692
▁ingiust	-11.5692
▁Clark	-11.5693
▁prendiamo	-11.5695
▁exhibition	-11.5699
parking	-11.5701
▁COMMISSION	-11.5704
▁Significa	-11.5713
▁dispone	-11.5713
▁significativo	-11.5719
▁absolute	-11.5724
▁avvenut	-11.5733
▁Barcelona	-11.5734
▁participant	-11.5734
▁astronom	-11.5734
▁pesante	-11.5734
caduta	-11.5736
▁panic	-11.5737
ccedere	-11.574
▁gesto	-11.5751
▁Association	-11.5755
▁attribut	-11.5755
▁ossigen	-11.5755
▁binding	-11.5755
▁Science	-11.5755
▁entri	-11.5758
▁receiv	-11.5763
▁particelle	-11.5776
▁awful	-11.5777
▁riusciv	-11.5784
▁ammazz	-11.5785
▁protocol	-11.5791
▁recognition	-11.5797
▁tradizionali	-11.5797
▁eccessiv	-11.5798
▁ipotes	-11.5798
▁coat	-11.5798
▁simbolo	-11.5799
▁pensieri	-11.5802
▁ingann	-11.5806
▁Yet	-11.5806
▁marcia	-11.581
▁Assemblea	-11.5819
▁Imagine	-11.5819
▁calda	-11.5821
recovery	-11.5828
chlor	-11.5829
▁revenue	-11.584
▁surprising	-11.584
▁GMT	-11.584
▁Third	-11.584
remarkable	-11.584
▁presum	-11.5844
played	-11.5851
▁svegli	-11.5861
▁Indonesia	-11.5861
▁lascer	-11.5863
pausa	-11.5872
▁Syria	-11.5875
oodbye	-11.5883
▁transparenc	-11.5883
▁Museum	-11.5883
▁mirror	-11.5883
▁camion	-11.5883
▁kilo	-11.5885
▁eliminar	-11.5894
▁risat	-11.5895
▁richiama	-11.5904
▁Ottimo	-11.5904
▁venuti	-11.5908
▁distrett	-11.5908
▁ruota	-11.5909
▁distinct	-11.5917
▁Code	-11.5919
▁extract	-11.5923
You	-11.5923
®	-11.5926
▁ritual	-11.5927
▁Design	-11.593
▁PIL	-11.5934
▁plent	-11.5934
▁disappoint	-11.5939
й	-11.5947
▁privilegi	-11.5947
▁allarm	-11.5947
▁Daddy	-11.5951
▁ideolog	-11.596
▁equipp	-11.596
▁preoccup	-11.5961
LY	-11.5963
▁Svezia	-11.5969
▁assunto	-11.5969
▁decorat	-11.5973
▁Punto	-11.5973
▁assicurazion	-11.5983
▁bicchier	-11.599
▁verbal	-11.5996
▁initiat	-11.5996
hydr	-11.5999
aggiunto	-11.601
▁Project	-11.6012
▁Obama	-11.6012
▁scappar	-11.6012
▁Presidenc	-11.6012
▁trascors	-11.6012
▁riscaldamento	-11.6013
▁rompe	-11.6022
▁commess	-11.6032
▁Switzerland	-11.6034
▁technological	-11.6034
▁turistic	-11.6035
▁dropped	-11.6035
▁scontat	-11.6036
▁cerchiamo	-11.6037
bringing	-11.605
▁Financial	-11.6055
▁disoccupazione	-11.6055
▁galax	-11.6055
▁hyper	-11.6056
▁pump	-11.6057
▁trovarl	-11.6058
IST	-11.6061
▁violazion	-11.6063
▁supplement	-11.6074
▁prigionier	-11.6077
▁volunteer	-11.6077
▁rescue	-11.6077
▁Messico	-11.6078
▁Girl	-11.6082
▁wage	-11.6085
▁emotiv	-11.6092
▁giappones	-11.6099
▁principe	-11.6099
▁Anderson	-11.6099
▁riveder	-11.6103
▁sorprende	-11.6117
▁PRESENTE	-11.6121
▁Reference	-11.6121
▁fedel	-11.6121
▁frutta	-11.6121
▁Pubblic	-11.6121
▁destinazione	-11.6121
▁lunghezza	-11.6123
▁concede	-11.6128
▁designat	-11.6139
ж	-11.6143
▁ADOPT	-11.6143
▁ADOTTAT	-11.6143
▁spontane	-11.6143
▁metterl	-11.6143
▁fragil	-11.6146
▁segment	-11.6149
dependence	-11.6159
▁citizen	-11.616
▁Onc	-11.6163
▁courage	-11.6165
на	-11.6166
piscina	-11.6168
▁awesome	-11.6187
▁manufacturing	-11.6187
▁substantial	-11.6187
▁telefonat	-11.6187
▁honour	-11.6187
▁Morning	-11.6191
▁Earl	-11.6192
▁vergogna	-11.6209
▁quantit	-11.621
▁armonizza	-11.621
employed	-11.6213
▁seminar	-11.6214
▁journalist	-11.6215
keeping	-11.6223
▁commit	-11.6224
▁squad	-11.6224
abba	-11.623
▁prohibit	-11.6231
▁recognise	-11.6231
▁Federal	-11.6231
▁dipartiment	-11.6233
▁arco	-11.6255
▁naso	-11.6262
▁contabil	-11.6265
possibilita	-11.627
▁Giovanni	-11.6275
▁Portogallo	-11.6275
▁algorithm	-11.6275
▁profound	-11.6275
▁sequence	-11.6275
▁Clear	-11.6277
▁trigger	-11.6278
▁minime	-11.6284
giorno	-11.6286
▁olive	-11.6288
▁Environment	-11.6298
▁benvenut	-11.6298
▁dominat	-11.6298
▁Nathan	-11.6298
▁Mondial	-11.6298
▁thick	-11.6301
▁Bert	-11.6317
▁Joseph	-11.632
▁algoritm	-11.632
▁feedback	-11.632
▁miliard	-11.6335
▁dipint	-11.6342
▁patrimoni	-11.6342
▁bianchi	-11.6342
▁galassi	-11.6342
▁exposure	-11.6343
▁estende	-11.6343
▁permetto	-11.6344
▁avviat	-11.6345
▁translate	-11.6346
▁distant	-11.6351
▁frequenc	-11.6365
▁SEE	-11.6377
tabella	-11.6382
▁oxygen	-11.6387
▁DVD	-11.6387
▁guidelines	-11.6387
▁scream	-11.6387
▁nuota	-11.6388
▁dominant	-11.6389
▁Attent	-11.6389
▁ritenut	-11.6393
▁knee	-11.6393
▁trascin	-11.6398
nstead	-11.6398
▁inserire	-11.64
▁calcolat	-11.6401
▁ricercator	-11.6405
▁Foundation	-11.641
▁brilliant	-11.641
▁tavola	-11.641
▁Royal	-11.641
▁filter	-11.641
▁properties	-11.6411
▁lampad	-11.6414
▁dritt	-11.6426
▁finanziat	-11.6426
▁tecnici	-11.6432
▁gratis	-11.6437
▁mostrarv	-11.6447
nemico	-11.6448
▁surveillance	-11.6455
aspettare	-11.6456
▁Department	-11.6478
▁shark	-11.6478
▁strict	-11.6478
▁alimenti	-11.6483
▁frustrat	-11.65
▁definito	-11.65
▁imita	-11.6505
▁plot	-11.6508
elected	-11.6512
ç	-11.6523
▁Svizzera	-11.6523
▁detenut	-11.6523
▁museo	-11.6523
▁mutual	-11.6523
▁intenzion	-11.6525
▁renderl	-11.6527
▁maintenance	-11.6546
▁ridiculous	-11.6546
▁swimming	-11.6546
▁Brun	-11.6553
▁umid	-11.6554
▁laboratori	-11.6563
▁subsequent	-11.6569
▁embarrass	-11.6569
▁puzzle	-11.6569
▁Autorità	-11.6569
▁Hungar	-11.657
▁specializzat	-11.6582
▁congela	-11.6587
▁Kosovo	-11.6592
▁provvediment	-11.6592
▁Egitto	-11.6592
▁Ufficio	-11.6615
▁orribile	-11.6615
▁rendono	-11.6615
▁divorce	-11.6617
▁prevenzione	-11.6638
▁valuable	-11.6638
▁insult	-11.6643
▁superar	-11.6644
▁subsid	-11.6647
compens	-11.6648
▁esami	-11.6651
▁spedizion	-11.6652
▁accommodation	-11.6661
▁posizioni	-11.6661
▁Madrid	-11.6661
▁piatto	-11.6662
▁teeth	-11.6664
ssembly	-11.6676
sicura	-11.6676
▁consciousness	-11.6684
▁license	-11.6684
▁borrow	-11.6684
▁variazion	-11.6696
▁scappat	-11.6707
laughter	-11.6709
ttività	-11.6712
▁boom	-11.6719
▁Agricultur	-11.673
▁Benvenut	-11.673
▁Business	-11.673
▁contempla	-11.673
▁Until	-11.6731
▁vedert	-11.6732
▁societi	-11.6734
▁Import	-11.6735
▁crop	-11.6739
conservazione	-11.6746
▁Luxembourg	-11.6754
▁framment	-11.6758
poniamo	-11.6761
▁Einstein	-11.6777
▁resolve	-11.6778
▁lentamente	-11.6778
▁accolt	-11.6779
▁attacchi	-11.6781
rabbia	-11.6795
▁routine	-11.6801
▁bianca	-11.6801
▁Grupp	-11.6801
▁monetary	-11.6803
▁visibl	-11.6805
▁sostenibili	-11.6813
▁prevenir	-11.6824
evertheless	-11.6827
▁rifiut	-11.683
▁diabete	-11.6848
▁blocco	-11.6848
▁alarm	-11.6852
▁libert	-11.6853
▁Giorn	-11.6858
▁Patric	-11.6859
dirty	-11.6865
▁istituit	-11.6871
▁vendite	-11.6871
▁conquista	-11.6871
▁cadere	-11.6872
▁Somebody	-11.6873
▁Road	-11.6875
▁strapp	-11.6877
▁Comuni	-11.6877
becca	-11.6889
erusalem	-11.6895
▁unemployment	-11.6895
▁silence	-11.6896
▁variabil	-11.6902
▁Furtherm	-11.6918
▁giornale	-11.6918
▁imagination	-11.6918
▁NASA	-11.6919
▁congiunt	-11.6919
▁curious	-11.6919
▁sfugg	-11.6919
▁femminile	-11.692
▁pursue	-11.692
▁brutal	-11.6923
▁visibili	-11.6938
▁plug	-11.694
▁telephone	-11.6943
▁Amendment	-11.6966
▁stronzo	-11.6966
▁piacevole	-11.6966
▁vittoria	-11.6966
▁insert	-11.6967
protected	-11.6973
▁instant	-11.6985
▁discipline	-11.699
▁intellectual	-11.699
▁simultane	-11.699
▁sospetta	-11.699
▁rimbors	-11.699
▁depth	-11.699
factory	-11.7006
▁ALLEGAT	-11.7014
▁Elizabeth	-11.7014
▁tribunale	-11.7014
▁ferroviari	-11.7014
▁hiding	-11.7014
▁Access	-11.7015
▁curva	-11.7021
▁certificato	-11.7038
▁suggerisc	-11.7038
▁definisc	-11.7038
connect	-11.7039
▁Cav	-11.7044
ICE	-11.7047
▁Arthur	-11.7062
▁column	-11.7062
regolamentazione	-11.7062
▁albergo	-11.7062
▁vomit	-11.7063
anculo	-11.707
▁eseguit	-11.7087
▁compliment	-11.7087
▁autism	-11.7091
▁sentenz	-11.711
▁Know	-11.7112
▁simboli	-11.7112
▁britannic	-11.7112
▁Ocean	-11.7112
▁cadaver	-11.7116
▁venisse	-11.7129
somministrazione	-11.7134
▁Catholic	-11.7134
μ	-11.7134
▁divorzi	-11.7137
▁ammira	-11.7138
▁sweat	-11.7138
horn	-11.7149
▁distort	-11.7152
▁Bosnia	-11.7159
▁collapse	-11.7159
▁seduti	-11.7159
palazzo	-11.716
ни	-11.716
composto	-11.7166
fallimento	-11.7174
▁piangere	-11.7183
comunicazioni	-11.7185
▁enlargement	-11.7207
▁metropolitan	-11.7207
▁Company	-11.7207
▁decisiv	-11.7207
▁nascon	-11.7213
▁composizion	-11.7222
▁condivide	-11.7225
army	-11.7225
▁entusiasm	-11.7232
▁biglietti	-11.7232
▁asteroid	-11.7232
entrato	-11.7241
▁marittim	-11.7257
▁inferno	-11.7258
▁resource	-11.7267
▁exhaust	-11.7281
▁bottiglia	-11.7281
▁penetra	-11.7281
▁scandal	-11.7281
▁cassett	-11.7285
▁autist	-11.7289
▁geometr	-11.729
▁absence	-11.7305
▁pollution	-11.7305
▁survival	-11.7305
▁improving	-11.7305
▁sospes	-11.7306
▁possed	-11.7309
▁contingent	-11.7311
medicinali	-11.7314
▁invecchia	-11.7318
worth	-11.732
What	-11.732
▁interpretazion	-11.7329
▁colpisc	-11.733
▁assomiglia	-11.7355
▁pharmac	-11.7355
▁luminos	-11.7355
▁invalid	-11.7357
immagino	-11.738
▁Anything	-11.738
▁conoscenz	-11.7393
▁simulat	-11.7403
▁consapevolezz	-11.7405
▁lettur	-11.7425
▁appassiona	-11.743
▁biciclett	-11.743
▁Registra	-11.743
▁sabbia	-11.743
▁legame	-11.743
▁certificati	-11.7431
▁distint	-11.7433
what	-11.745
▁Tuesday	-11.7455
▁default	-11.7455
▁negativo	-11.7455
▁concepi	-11.7455
▁salvo	-11.7455
▁inquinamento	-11.748
▁privilege	-11.748
html	-11.748
▁interface	-11.748
▁stretch	-11.748
▁sopravvivenz	-11.7488
▁esperto	-11.7505
▁teatro	-11.7505
▁alimentazion	-11.7507
▁humid	-11.7508
▁descrizione	-11.753
▁festeggia	-11.753
▁refrigera	-11.753
▁prosecu	-11.753
▁grateful	-11.753
▁italiana	-11.753
▁abbassa	-11.753
▁menzionat	-11.753
▁chose	-11.7542
confirmed	-11.7549
▁liberi	-11.7553
▁sceglie	-11.7553
ú	-11.7555
▁basket	-11.7555
▁sostien	-11.7559
cultura	-11.7563
▁lunghi	-11.7581
▁suicide	-11.7581
▁esclud	-11.7581
▁fabric	-11.7581
stairs	-11.7581
▁pianet	-11.7585
▁prenderl	-11.7596
▁ANNEX	-11.7606
▁authentic	-11.7606
▁neighbour	-11.7606
▁subparagraph	-11.7606
▁Guerra	-11.7606
▁EEA	-11.7609
▁portarl	-11.7626
▁ISBN	-11.7631
▁adequate	-11.7631
▁bilateral	-11.7631
▁magazzin	-11.7631
▁Darwin	-11.7632
▁childhood	-11.7632
▁predator	-11.7635
▁Voc	-11.7652
▁Florida	-11.7657
▁arbitr	-11.7657
▁riserve	-11.7657
▁innamorat	-11.7658
▁Personal	-11.7661
PORT	-11.7662
▁auspic	-11.7668
▁installazion	-11.7673
▁Hollywood	-11.7682
▁emphasis	-11.7682
▁inspection	-11.7682
▁charm	-11.7684
▁coltell	-11.7689
quality	-11.7705
▁Slovenia	-11.7708
▁agencies	-11.7708
▁genuine	-11.7708
▁iPhone	-11.7708
▁unknown	-11.7708
▁Happy	-11.7708
▁ministri	-11.7708
▁convenient	-11.771
▁medesim	-11.7718
▁YouTube	-11.7734
▁destruction	-11.7734
▁narrow	-11.7734
▁worldwide	-11.7734
▁cammino	-11.7734
▁prize	-11.7735
▁Domani	-11.7735
ntitled	-11.7751
▁chapter	-11.776
▁suddett	-11.7761
▁soffia	-11.7761
▁riflettere	-11.7777
giocatori	-11.7779
▁divenne	-11.7782
▁housing	-11.7787
▁risultan	-11.7792
▁admir	-11.7796
▁Except	-11.7804
▁abitudin	-11.7811
▁pacchetto	-11.7811
▁ricicla	-11.7811
▁gratuito	-11.7811
▁schiena	-11.7811
▁folle	-11.7815
▁spiegazion	-11.7833
extended	-11.7836
▁concluso	-11.7837
▁examination	-11.7837
▁sopravvissut	-11.7837
▁burden	-11.7837
▁redditi	-11.7837
▁abbatt	-11.7843
▁percezion	-11.7844
▁Technolog	-11.7863
▁ricostrui	-11.7863
▁Programme	-11.7863
▁horrible	-11.7863
▁intervenire	-11.7864
▁alimenta	-11.7875
sentivo	-11.7883
▁empower	-11.7889
▁shadow	-11.7889
▁obsess	-11.7889
▁bonus	-11.789
▁chiavi	-11.7891
▁considerabl	-11.7896
▁authoriz	-11.7901
▁Management	-11.7916
▁positivi	-11.7916
▁Cinque	-11.7916
▁vampir	-11.7916
▁kilometer	-11.7916
▁torture	-11.7919
▁float	-11.7932
▁alberghi	-11.7942
▁ensuring	-11.7942
▁fottut	-11.7942
▁interrupt	-11.7942
▁illness	-11.7943
▁votat	-11.7945
▁Command	-11.7947
riguardanti	-11.7949
1,2	-11.7952
▁preventiv	-11.7957
▁incub	-11.7957
▁summar	-11.796
ristrutturazione	-11.7968
▁ospedali	-11.7968
▁sponsor	-11.7968
▁Eastern	-11.7968
▁Swiss	-11.7968
▁REGOLAMENT	-11.7994
▁tremendous	-11.7994
▁smooth	-11.7995
▁corruzion	-11.7995
▁ginocchi	-11.7995
▁costume	-11.7995
▁elevati	-11.8003
▁confezion	-11.8009
▁Alzheimer	-11.8021
▁prejudice	-11.8021
▁elevata	-11.8021
▁lontana	-11.8021
▁hurry	-11.8021
▁seriamente	-11.8021
▁prospettiv	-11.8032
riforme	-11.8033
▁fifth	-11.8047
▁applaus	-11.8048
▁defense	-11.8048
▁Gabriel	-11.8048
▁elencat	-11.8048
immaginazione	-11.8049
▁ammess	-11.8051
▁lunghe	-11.8072
▁bisogni	-11.8074
▁monkey	-11.8074
▁Amazon	-11.8074
▁farcela	-11.8074
▁cerco	-11.8076
▁Sophi	-11.8081
▁surf	-11.8083
rglielo	-11.8083
while	-11.8094
▁pioggi	-11.8095
▁televisiv	-11.8101
▁wisdom	-11.8101
▁infanzia	-11.8101
▁preciso	-11.8101
▁cugin	-11.8103
▁garantit	-11.8103
▁Ladies	-11.8103
▁Dovev	-11.8106
▁finanziamenti	-11.8127
▁residence	-11.8127
▁Conferenz	-11.8128
▁accende	-11.8128
mpagne	-11.8146
пр	-11.8155
▁solament	-11.8157
▁fermat	-11.8163
fficulties	-11.8175
▁Danimarca	-11.8181
▁REGULATION	-11.8181
▁colpevole	-11.8181
▁inevitabil	-11.8181
▁prince	-11.8182
▁Perfett	-11.8184
▁litiga	-11.8187
▁clip	-11.8193
▁musulman	-11.8208
▁provvisori	-11.8208
▁assorbi	-11.8208
▁solidariet	-11.8208
▁additiv	-11.8211
▁manifestazion	-11.8214
▁eligib	-11.8219
mystery	-11.8228
▁stupend	-11.8235
▁microscopi	-11.8235
▁rational	-11.8238
▁chiamer	-11.8258
▁accomplish	-11.8262
▁Taylor	-11.8262
▁suspend	-11.8262
▁posiziona	-11.8262
▁Though	-11.8262
▁francesi	-11.8263
▁uccisi	-11.8271
▁appalt	-11.828
▁charit	-11.8284
▁comparison	-11.829
▁applicazion	-11.8294
▁matematic	-11.8297
dimension	-11.8312
▁Manhattan	-11.8317
▁trasparent	-11.8317
▁povero	-11.8319
▁esterna	-11.8331
▁sessuali	-11.8344
▁compagno	-11.8344
▁compound	-11.8344
▁ceiling	-11.8344
dovremo	-11.8355
▁esplosion	-11.8371
▁scherzo	-11.8371
▁Georgia	-11.8371
▁Capitano	-11.8371
▁Irish	-11.8374
▁dannat	-11.8383
▁Argentina	-11.8399
▁COMMUNIT	-11.8399
▁appartien	-11.8399
ewpoint	-11.8399
▁Amanda	-11.8399
▁soccors	-11.84
system	-11.8403
▁interfere	-11.8403
▁Probably	-11.8426
▁1973	-11.8426
▁anticipo	-11.8426
▁eseguire	-11.8426
▁ospite	-11.8426
▁broadcast	-11.8426
▁translation	-11.8427
▁desperate	-11.8454
▁jealous	-11.8454
▁legitima	-11.8454
bandiera	-11.8456
▁muoio	-11.8457
▁sottil	-11.8476
▁protagonist	-11.8482
▁devastat	-11.8482
▁decise	-11.8483
▁orientat	-11.8483
▁chiusur	-11.8484
ा	-11.8763
≥	-11.926
š	-11.9381
α	-11.9472
ا	-12.0203
क	-12.0336
·	-12.0436
ю	-12.0538
č	-12.071
ô	-12.0779
ш	-12.0955
х	-12.1135
र	-12.1171
Ð	-12.1244
̈	-12.1503
ã	-12.1654
े	-12.1885
ν	-12.2488
À	-12.2911
¡	-12.2954
्	-12.3129
ê	-12.3218
ι	-12.3443
स	-12.3814
¶	-12.3909
±	-12.4005
©	-12.42
×	-12.42
ل	-12.4249
■	-12.4349
ă	-12.4652
ø	-12.4704
ि	-12.4704
Â	-12.486
ʼ	-12.4966
Β	-12.5072
ц	-12.5126
ρ	-12.5126
^	-12.568
λ	-12.568
ž	-12.5795
ф	-12.5853
ë	-12.5853
′	-12.5853
î	-12.5911
Ö	-12.5969
≤	-12.5969
न	-12.6147
ं	-12.6267
В	-12.6328
ï	-12.6389
Ñ	-12.6512
ć	-12.6512
С	-12.6762
†	-12.689
ह	-12.702
О	-12.7151
щ	-12.7151
£	-12.7284
ā	-12.7351
त	-12.7351
ी	-12.7418
П	-12.7555
η	-12.7624
Á	-12.7624
å	-12.7693
Н	-12.7905
य	-12.7905
م	-12.7905
ð	-12.7976
э	-12.8048
τ	-12.8267
⁄	-12.8491
ي	-12.8567
ō	-12.8875
ς	-12.8875
ł	-12.9034
ो	-12.9357
ß	-12.9523
æ	-12.9523
。	-12.9608
−	-12.9692
Ø	-13.0039
ε	-13.0039
К	-13.0127
§	-13.0216
ن	-13.0216
π	-13.0397
Τ	-13.0489
म	-13.0489
प	-13.0582
σ	-13.0675
و	-13.077
ё	-13.1058
Д	-13.1255
Č	-13.1255
È	-13.1378
ع	-13.1456
Í	-13.1456
И	-13.1558
Т	-13.1558
χ	-13.1558
ر	-13.1661
व	-13.1661
υ	-13.1977
Ε	-13.2085
М	-13.2085
Е	-13.2303
А	-13.2414
ल	-13.2527
ъ	-13.3108
Б	-13.3108
ά	-13.3474
›	-13.3599
د	-13.3599
ý	-13.3726
Π	-13.3726
¿	-13.3984
ज	-13.4384
Α	-13.4521
Ѐ	-13.4521
ت	-13.466
Ì	-13.48
β	-13.5235
ş	-13.5385
ै	-13.5385
κ	-13.5385
द	-13.5536
ه	-13.569
ě	-13.5846
Å	-13.6005
ū	-13.6005
Ó	-13.6166
Ü	-13.6166
Γ	-13.6166
З	-13.6497
ة	-13.6497
□	-13.6497
ύ	-13.6666
Р	-13.6839
Κ	-13.6839
¬	-13.7014
û	-13.7014
Ρ	-13.7014
Я	-13.7014
δ	-13.7193
ब	-13.7193
θ	-13.7193
ف	-13.7193
ق	-13.7375
ř	-13.7748
ί	-13.7748
ń	-13.7748
→	-13.7748
↓	-13.7748
γ	-13.7941
‐	-13.8137
Ç	-13.8337
ī	-13.8541
ए	-13.8541
►	-13.8541
ό	-13.8749
Î	-13.8962
ى	-13.8962
أ	-13.8962
¤	-13.9179
ė	-13.9179
Ч	-13.9179
ु	-13.9402
ग	-13.9629
श	-13.9629
ω	-13.9861
õ	-13.9861
ή	-13.9861
Ò	-14.0343
¢	-14.0343
Ι	-14.0343
ę	-14.0343
س	-14.0593
У	-14.085
Г	-14.1383
Ž	-14.1383
Λ	-14.1383
φ	-14.1661
ح	-14.1947
ू	-14.2241
▼	-14.2241
̧	-14.2544
औ	-14.2544
थ	-14.2544
Ä	-14.2544
Ê	-14.2544
Л	-14.2856
þ	-14.2856
ą	-14.2856
ख	-14.3179
Э	-14.3179
ش	-14.3512
च	-14.3512
ż	-14.3857
ś	-14.3857
।	-14.3857
ट	-14.4214
़	-14.4214
έ	-14.4214
Ï	-14.4585
ħ	-14.4585
ţ	-14.4585
Σ	-14.4585
ष	-14.4585
ē	-14.4969
ő	-14.4969
Δ	-14.4969
Х	-14.4969
œ	-14.5369
Ф	-14.5369
ů	-14.5369
─	-14.5369
♦	-14.5369
Η	-14.5369
ك	-14.5369
Μ	-14.5786
ğ	-14.6221
ı	-14.6221
आ	-14.6221
↑	-14.6221
ج	-14.6675
ζ	-14.6675
Ν	-14.7151
ण	-14.7151
ध	-14.7151
♬	-14.7151
Þ	-14.7651
ص	-14.7651
Ú	-14.7651
ų	-14.7651
↔	-14.7651
Ù	-14.8178
ÿ	-14.8178
ड	-14.8178
Ô	-14.8178
Ł	-14.8733
Χ	-14.8733
ط	-14.8733
ー	-14.9321
ċ	-14.9322
خ	-14.9947
の	-14.9947
đ	-14.9947
ň	-15.0613
ذ	-15.0613
Ο	-15.0613
Υ	-15.1327
中	-15.1327
Ζ	-15.2097
Æ	-15.2097
Ë	-15.2097
的	-15.2097
ƒ	-15.293
南	-15.293
ξ	-15.293
Õ	-15.3839
Ă	-15.3839
●	-15.3839
ʿ	-15.3839
ј	-15.4839
ン	-15.4839
イ	-15.4839
̊	-15.4839
फ	-15.4839
‒	-15.4839
ス	-15.4839
址	-15.4839
旧	-15.4839
ث	-15.4839
ア	-15.595
Ю	-15.595
¦	-15.595
̄	-15.595
छ	-15.595
อ	-15.595
国	-15.595
你	-15.5951
を	-15.72
ト	-15.72
İ	-15.72
ה	-15.72
ώ	-15.72
ร	-15.72
‹	-15.72
し	-15.72
Ć	-15.72
Ő	-15.72
Ț	-15.72
า	-15.72
な	-15.72
子	-15.8629
物	-15.8629
¥	-15.8629
÷	-15.8629
ľ	-15.8629
ņ	-15.8629
ء	-15.8629
ँ	-15.8629
ढ	-15.8629
―	-15.8629
、	-15.8629
い	-15.8629
・	-15.8629
院	-15.8629
غ	-15.8629
Ń	-16.0295
ŕ	-16.0295
ź	-16.0295
Ί	-16.0295
ר	-16.0295
ई	-16.0295
ओ	-16.0295
‰	-16.0295
∞	-16.0295
❚	-16.0295
シ	-16.0295
ラ	-16.0295
租	-16.0295
行	-16.0295
ϊ	-16.0296
か	-16.0296
民	-16.0296
家	-16.0296
と	-16.2295
Щ	-16.2295
Ж	-16.2295
ď	-16.2295
כ	-16.2295
ौ	-16.2295
ġ	-16.2295
́	-16.2295
Ό	-16.2295
Ω	-16.2295
َ	-16.2295
ย	-16.2295
こ	-16.2295
ァ	-16.2295
パ	-16.2295
场	-16.2295
山	-16.2295
軍	-16.2295
魂	-16.2295
ד	-16.2296
料	-16.2296
て	-16.2296
に	-16.2296
易	-16.2296
将	-16.2296
分	-16.2296
定	-16.2296
ル	-16.4795
た	-16.4795
ב	-16.4795
ļ	-16.4795
ť	-16.4795
ŷ	-16.4795
ǿ	-16.4795
Ș	-16.4795
Ш	-16.4795
ѕ	-16.4795
י	-16.4795
؟	-16.4795
ّ	-16.4795
่	-16.4795
‡	-16.4795
←	-16.4795
≠	-16.4795
⋅	-16.4795
═	-16.4795
◄	-16.4795
★	-16.4795
➔	-16.4795
〔	-16.4795
〕	-16.4795
る	-16.4795
グ	-16.4795
平	-16.4795
店	-16.4795
心	-16.4795
曲	-16.4795
理	-16.4795
站	-16.4795
羅	-16.4795
語	-16.4795
购	-16.4795
饭	-16.4795
𐐯	-16.4795
Û	-16.4796
マ	-16.4796
ؤ	-16.4796
は	-16.4796
ま	-16.4796
广	-16.4796
戦	-16.4796
立	-16.4796
么	-16.4796
取	-16.4796
想	-16.4796
售	-16.4796
出	-16.4797
使	-16.8129
房	-16.8129
餐	-16.8129
ķ	-16.8129
食	-16.8129
유	-16.8129
Ý	-16.8129
ə	-16.8129
झ	-16.8129
ḥ	-16.8129
三	-16.8129
和	-16.8129
Ř	-16.8129
ˆ	-16.8129
̃	-16.8129
Ψ	-16.8129
Й	-16.8129
Ы	-16.8129
і	-16.8129
ת	-16.8129
ท	-16.8129
ἱ	-16.8129
∆	-16.8129
∗	-16.8129
√	-16.8129
ら	-16.8129
フ	-16.8129
リ	-16.8129
元	-16.8129
堂	-16.8129
年	-16.8129
空	-16.8129
耶	-16.8129
银	-16.8129
馆	-16.8129
ל	-16.8129
ψ	-16.8129
大	-16.8129
天	-16.8129
明	-16.8129
あ	-16.8129
是	-16.8129
が	-16.8129
产	-16.8129
何	-16.8129
军	-16.8129
多	-16.8129
律	-16.8129
作	-16.8129
前	-16.813
变	-16.813
部	-16.813
地	-17.3129
す	-17.3129
カ	-17.3129
ド	-17.3129
ム	-17.3129
养	-17.3129
西	-17.3129
ᑐ	-17.3129
ᑦ	-17.3129
ᒪ	-17.3129
ᓂ	-17.3129
ᖃ	-17.3129
デ	-17.3129
保	-17.3129
来	-17.3129
蒼	-17.3129
ズ	-17.3129
ミ	-17.3129
レ	-17.3129
公	-17.3129
持	-17.3129
更	-17.3129
潮	-17.3129
ऊ	-17.3129
ṭ	-17.3129
ĕ	-17.3129
Ě	-17.3129
ģ	-17.3129
į	-17.3129
Ľ	-17.3129
ŧ	-17.3129
ŭ	-17.3129
ơ	-17.3129
ȧ	-17.3129
Ά	-17.3129
ΐ	-17.3129
Ь	-17.3129
ա	-17.3129
ե	-17.3129
մ	-17.3129
ն	-17.3129
،	-17.3129
ئ	-17.3129
ض	-17.3129
ٍ	-17.3129
ْ	-17.3129
پ	-17.3129
घ	-17.3129
ञ	-17.3129
া	-17.3129
ฬ	-17.3129
ั	-17.3129
ี	-17.3129
፣	-17.3129
ᐊ	-17.3129
ᖅ	-17.3129
ṇ	-17.3129
ṣ	-17.3129
ắ	-17.3129
ἶ	-17.3129
ὶ	-17.3129
∈	-17.3129
∉	-17.3129
∑	-17.3129
⎡	-17.3129
⎢	-17.3129
⎤	-17.3129
⎥	-17.3129
☆	-17.3129
➾	-17.3129
【	-17.3129
】	-17.3129
〜	-17.3129
う	-17.3129
そ	-17.3129
エ	-17.3129
オ	-17.3129
コ	-17.3129
タ	-17.3129
テ	-17.3129
ャ	-17.3129
ュ	-17.3129
仙	-17.3129
侯	-17.3129
信	-17.3129
党	-17.3129
兵	-17.3129
几	-17.3129
助	-17.3129
区	-17.3129
十	-17.3129
华	-17.3129
受	-17.3129
吴	-17.3129
妄	-17.3129
字	-17.3129
学	-17.3129
宗	-17.3129
市	-17.3129
师	-17.3129
张	-17.3129
德	-17.3129
慧	-17.3129
才	-17.3129
敬	-17.3129
旗	-17.3129
春	-17.3129
桑	-17.3129
氏	-17.3129
洞	-17.3129
港	-17.3129
漢	-17.3129
甘	-17.3129
生	-17.3129
痴	-17.3129
眼	-17.3129
网	-17.3129
茶	-17.3129
蛻	-17.3129
蜕	-17.3129
蟻	-17.3129
變	-17.3129
让	-17.3129
豬	-17.3129
足	-17.3129
还	-17.3129
迷	-17.3129
锷	-17.3129
音	-17.3129
黎	-17.3129
럽	-17.3129
뭐	-17.3129
야	-17.3129
연	-17.3129
차	-17.3129
학	-17.3129
합	-17.3129
～	-17.3129
𐐔	-17.3129
𐐻	-17.3129
𐑉	-17.3129
安	-17.3129
ĥ	-17.3129
ו	-17.3129
路	-17.3129
郎	-17.3129
Ą	-17.3129
Ъ	-17.3129
آ	-17.3129
在	-17.3129
研	-17.3129
よ	-17.3129
り	-17.3129
问	-17.3129
到	-17.313
不	-17.313
住	-17.313
之	-17.313
一	-17.313
鼓	-18.3063
麟	-18.3064
麒	-18.3065
迦	-18.3066
育	-18.3067
用	-18.3068
楼	-18.3069
得	-18.307
废	-18.3071
套	-18.3072
固	-18.3073
可	-18.3074
博	-18.3075
光	-18.3076
体	-18.3077
从	-18.3078
为	-18.3079
ệ	-18.308
מ	-18.3081
א	-18.3082
Θ	-18.3083
Ġ	-18.3084
革	-18.3085
陽	-18.3086
國	-18.3087
命	-18.3088
医	-18.3089
加	-18.309
伽	-18.3091
什	-18.3092
ロ	-18.3093
ก	-18.3094
گ	-18.3095
Ħ	-18.3096
가	-18.3097
代	-18.3098
ヴ	-18.3099
セ	-18.31
ὕ	-18.3101
ृ	-18.3102
ऐ	-18.3103
Ђ	-18.3104
Ţ	-18.3105
Ė	-18.3106
ッ	-18.3107
Ḥ	-18.3108
Œ	-18.3109
以	-18.311
ク	-18.3111
ظ	-18.3112
ʾ	-18.3113
Ż	-18.3114
Đ	-18.3115
Ċ	-18.3116
央	-18.3117
ز	-18.3118
京	-18.3119
Ц	-18.312
Ş	-18.3121
Ō	-18.3122
Ś	-18.3123
उ	-18.3124
इ	-18.3125
भ	-18.3126
ț	-18.3127
ș	-18.3128
ど	-18.3128
メ	-18.3128
东	-18.3128
他	-18.3128
会	-18.3128
储	-18.3128
品	-18.3128
备	-18.3128
够	-18.3128
已	-18.3128
提	-18.3128
盐	-18.3128
确	-18.3128
磷	-18.3128
等	-18.3128
箱	-18.3128
经	-18.3128
能	-18.3128
营	-18.3128
話	-18.3128
质	-18.3128
酸	-18.3128
ニ	-18.3129
ョ	-18.3129
五	-18.3129
交	-18.3129
未	-18.3129
氮	-18.3129
疾	-18.3129
號	-18.3129
通	-18.3129
ש	-18.3129
ঢ	-18.3129
ར	-18.3129
今	-18.3129
动	-18.3129
圣	-18.3129
宣	-18.3129
帘	-18.3129
杆	-18.3129
李	-18.3129
板	-18.3129
电	-18.3129
直	-18.3129
緋	-18.3129
觉	-18.3129
週	-18.3129
鎮	-18.3129
長	-18.3129
颐	-18.3129
산	-18.3129
Ā	-18.3129
ư	-18.3129
ǎ	-18.3129
ȏ	-18.3129
І	-18.3129
ח	-18.3129
إ	-18.3129
欲	-18.3129
Ē	-18.3129
ŏ	-18.3129
Ť	-18.3129
Ɩ	-18.3129
ƚ	-18.3129
ǝ	-18.3129
ɑ	-18.3129
ʊ	-18.3129
ʻ	-18.3129
̂	-18.3129
̆	-18.3129
̋	-18.3129
̶	-18.3129
Ή	-18.3129
Ξ	-18.3129
Ϊ	-18.3129
ϋ	-18.3129
Ё	-18.3129
ѐ	-18.3129
њ	-18.3129
ќ	-18.3129
ў	-18.3129
ә	-18.3129
ө	-18.3129
ִ	-18.3129
ג	-18.3129
נ	-18.3129
ס	-18.3129
ע	-18.3129
ק	-18.3129
ی	-18.3129
ऑ	-18.3129
ठ	-18.3129
ॉ	-18.3129
ক	-18.3129
ด	-18.3129
บ	-18.3129
พ	-18.3129
ห	-18.3129
ํ	-18.3129
་	-18.3129
ཁ	-18.3129
ང	-18.3129
ོ	-18.3129
ྫ	-18.3129
ḳ	-18.3129
ṛ	-18.3129
ṯ	-18.3129
ạ	-18.3129
ả	-18.3129
ầ	-18.3129
ậ	-18.3129
ằ	-18.3129
Ẻ	-18.3129
ế	-18.3129
ἀ	-18.3129
ἂ	-18.3129
ἰ	-18.3129
Ἱ	-18.3129
ὰ	-18.3129
ῆ	-18.3129
‟	-18.3129
‱	-18.3129
⇌	-18.3129
⎣	-18.3129
き	-18.3129
け	-18.3129
さ	-18.3129
ち	-18.3129
ね	-18.3129
や	-18.3129
ょ	-18.3129
れ	-18.3129
ォ	-18.3129
キ	-18.3129
ギ	-18.3129
ネ	-18.3129
ヒ	-18.3129
ビ	-18.3129
プ	-18.3129
ベ	-18.3129
丁	-18.3129
下	-18.3129
专	-18.3129
主	-18.3129
九	-18.3129
也	-18.3129
买	-18.3129
争	-18.3129
们	-18.3129
伊	-18.3129
伯	-18.3129
依	-18.3129
候	-18.3129
倻	-18.3129
做	-18.3129
入	-18.3129
八	-18.3129
关	-18.3129
其	-18.3129
冰	-18.3129
决	-18.3129
処	-18.3129
励	-18.3129
势	-18.3129
包	-18.3129
去	-18.3129
及	-18.3129
友	-18.3129
发	-18.3129
右	-18.3129
司	-18.3129
哀	-18.3129
哈	-18.3129
四	-18.3129
园	-18.3129
坂	-18.3129
城	-18.3129
增	-18.3129
处	-18.3129
外	-18.3129
它	-18.3129
宝	-18.3129
寧	-18.3129
將	-18.3129
尊	-18.3129
尽	-18.3129
州	-18.3129
巴	-18.3129
巻	-18.3129
帮	-18.3129
建	-18.3129
开	-18.3129
影	-18.3129
很	-18.3129
循	-18.3129
志	-18.3129
恩	-18.3129
感	-18.3129
手	-18.3129
扬	-18.3129
技	-18.3129
括	-18.3129
排	-18.3129
援	-18.3129
效	-18.3129
新	-18.3129
方	-18.3129
日	-18.3129
时	-18.3129
普	-18.3129
景	-18.3129
期	-18.3129
术	-18.3129
村	-18.3129
松	-18.3129
柯	-18.3129
校	-18.3129
格	-18.3129
橙	-18.3129
欗	-18.3129
此	-18.3129
武	-18.3129
毛	-18.3129
江	-18.3129
沈	-18.3129
泄	-18.3129
洋	-18.3129
洗	-18.3129
洛	-18.3129
活	-18.3129
清	-18.3129
湯	-18.3129
満	-18.3129
源	-18.3129
潔	-18.3129
火	-18.3129
牵	-18.3129
犬	-18.3129
狗	-18.3129
猛	-18.3129
猪	-18.3129
率	-18.3129
环	-18.3129
琴	-18.3129
田	-18.3129
画	-18.3129
益	-18.3129
眉	-18.3129
着	-18.3129
社	-18.3129
禽	-18.3129
筑	-18.3129
糖	-18.3129
素	-18.3129
罗	-18.3129
置	-18.3129
美	-18.3129
者	-18.3129
联	-18.3129
脈	-18.3129
腹	-18.3129
良	-18.3129
色	-18.3129
茱	-18.3129
萸	-18.3129
落	-18.3129
葱	-18.3129
蒐	-18.3129
融	-18.3129
血	-18.3129
衝	-18.3129
装	-18.3129
計	-18.3129
誌	-18.3129
謙	-18.3129
譲	-18.3129
象	-18.3129
赖	-18.3129
趋	-18.3129
轻	-18.3129
近	-18.3129
送	-18.3129
道	-18.3129
量	-18.3129
钦	-18.3129
链	-18.3129
门	-18.3129
雑	-18.3129
青	-18.3129
顾	-18.3129
额	-18.3129
风	-18.3129
駆	-18.3129
駕	-18.3129
駛	-18.3129
高	-18.3129
魔	-18.3129
龍	-18.3129
경	-18.3129
구	-18.3129
기	-18.3129
라	-18.3129
락	-18.3129
량	-18.3129
문	-18.3129
수	-18.3129
시	-18.3129
여	-18.3129
인	-18.3129
자	-18.3129
장	-18.3129
천	-18.3129
철	-18.3129
탱	-18.3129
Φ	-18.3129
檠	-18.3129
ű	-18.3129
ַ	-18.3129
ک	-18.3129
事	-18.3129
林	-18.3129
次	-18.3129
都	-18.3129
首	-18.3129
马	-18.3129
ข	-18.3129
เ	-18.3129
ん	-18.3129
ヤ	-18.3129
了	-18.3129
低	-18.3129
北	-18.3129
啦	-18.3129
嗚	-18.3129
嘉	-18.3129
娛	-18.3129
宇	-18.3129
官	-18.3129
宙	-18.3129
对	-18.3129
府	-18.3129
推	-18.3129
政	-18.3129
有	-18.3129
樂	-18.3129
無	-18.3129
矿	-18.3129
禾	-18.3129
私	-18.3129
究	-18.3129
续	-18.3129
绵	-18.3129
而	-18.3129
艦	-18.3129
这	-18.3129
采	-18.3129
陆	-18.3129
降	-18.3129
限	-18.3129
で	-18.3129
互	-18.3129
時	-18.3129
決	-18.3129
肥	-18.3129
肯	-18.3129
自	-18.3129
起	-18.3129
趣	-18.3129
く	-18.313
题	-18.313
अ	-18.313
ب	-18.3131
则	-18.3131
否	-18.3131
回	-18.3131
应	-18.3131
法	-18.3131
遇	-18.3131
那	-18.3131
该	-18.3132
Š	-18.3132
г	-18.3133
如	-18.3133
所	-18.3133
改	-18.3133
放	-18.3133
映	-18.3133
果	-18.3133
考	-18.3133
虑	-18.3133
