<s>	0
<pad>	0
</s>	0
<unk>	0
▁.	-3.13812
s	-3.27628
▁,	-3.29955
▁	-3.68476
▁a	-3.96836
;	-4.1462
▁&	-4.22669
▁the	-4.2432
▁de	-4.34833
apos	-4.62721
▁que	-4.70393
▁to	-4.77239
▁?	-4.81047
▁of	-4.83572
▁o	-4.91801
▁I	-4.91949
-	-4.99768
▁e	-5.00883
▁-	-5.0215
@	-5.06112
▁and	-5.07762
▁@	-5.11043
▁in	-5.12749
t	-5.16436
▁you	-5.28979
▁do	-5.33348
quot	-5.34579
m	-5.36985
▁that	-5.48603
r	-5.53264
▁é	-5.6403
▁is	-5.64743
o	-5.69082
▁para	-5.70528
▁it	-5.71902
ed	-5.72283
▁da	-5.72932
d	-5.75154
▁um	-5.75935
▁A	-5.80116
ing	-5.80374
▁não	-5.80806
▁me	-5.81968
!	-5.83391
▁em	-5.83734
▁se	-5.85541
)	-5.85668
▁uma	-5.89634
(	-5.89889
▁for	-5.90401
▁no	-5.92692
▁com	-5.97656
▁as	-6.00096
a	-6.00536
▁...	-6.00953
re	-6.02879
e	-6.05901
y	-6.07993
▁be	-6.09445
u	-6.10964
▁we	-6.12516
▁on	-6.13457
▁O	-6.19199
▁this	-6.19784
:	-6.2353
▁os	-6.24008
.	-6.31322
▁with	-6.34943
▁have	-6.38034
▁E	-6.38496
▁was	-6.38547
▁are	-6.42064
▁na	-6.42397
▁por	-6.43751
▁not	-6.44846
n	-6.45011
es	-6.45693
▁Não	-6.47917
ly	-6.48481
l	-6.51158
ção	-6.53446
▁The	-6.55615
▁You	-6.58192
i	-6.60226
do	-6.60925
▁And	-6.61534
▁can	-6.62474
mos	-6.67108
▁como	-6.6797
▁mais	-6.7226
/	-6.7405
ar	-6.78811
▁my	-6.81022
▁It	-6.82347
ve	-6.8318
▁at	-6.84697
▁à	-6.85177
▁or	-6.85786
▁by	-6.8628
mente	-6.86309
▁what	-6.86414
er	-6.87621
▁all	-6.87663
▁your	-6.90251
ll	-6.90744
da	-6.92032
▁dos	-6.92181
▁he	-6.94245
▁ser	-6.9461
▁they	-6.9488
▁No	-6.94911
▁know	-6.96362
▁an	-6.9667
▁from	-6.96743
▁ou	-6.97156
to	-6.9779
▁ao	-6.97836
▁so	-6.9798
▁está	-6.98
▁about	-6.98769
ão	-6.98869
▁We	-6.99142
te	-7.00259
▁1	-7.01392
▁like	-7.02799
is	-7.03395
▁eu	-7.03671
▁É	-7.04989
▁So	-7.07017
▁out	-7.07608
▁one	-7.09263
▁te	-7.09878
▁just	-7.11292
▁isso	-7.126
al	-7.12784
▁nos	-7.12986
▁but	-7.13715
▁up	-7.15078
▁there	-7.15292
▁mas	-7.17375
▁us	-7.20314
▁muito	-7.20682
▁re	-7.2191
=	-7.23021
ia	-7.23282
▁will	-7.23486
c	-7.2403
_	-7.24461
▁das	-7.27032
▁don	-7.27326
▁Eu	-7.2749
▁What	-7.28354
le	-7.28565
ce	-7.31172
▁which	-7.31366
▁fazer	-7.31538
▁S	-7.3196
▁get	-7.32559
▁here	-7.3265
▁foi	-7.32683
▁our	-7.32914
▁ele	-7.33568
▁bem	-7.35471
▁He	-7.36315
va	-7.36397
▁if	-7.36402
▁Mas	-7.37178
em	-7.37752
▁has	-7.37915
ta	-7.38124
▁são	-7.38837
in	-7.39536
▁meu	-7.40244
3	-7.40304
▁go	-7.40479
am	-7.41355
▁sobre	-7.41984
▁In	-7.42532
▁right	-7.43166
▁2	-7.43984
▁Se	-7.44327
p	-7.44864
ções	-7.45292
tion	-7.46216
▁who	-7.46749
▁But	-7.46829
▁were	-7.47225
g	-7.47982
▁C	-7.48432
▁time	-7.48626
▁people	-7.49234
▁would	-7.49792
▁think	-7.50137
▁ter	-7.50242
▁De	-7.50893
os	-7.51262
▁&#9	-7.51462
h	-7.51589
▁been	-7.52177
▁more	-7.52856
as	-7.53019
1	-7.53409
ndo	-7.53899
▁This	-7.5449
▁had	-7.54808
la	-7.54959
ra	-7.5673
▁sua	-7.56978
ca	-7.57314
▁esta	-7.57845
▁them	-7.57996
▁minha	-7.58014
á	-7.58236
▁when	-7.58662
▁want	-7.58989
ou	-7.59482
▁her	-7.59554
▁see	-7.59824
▁their	-7.59901
▁That	-7.59977
de	-7.60023
or	-7.60153
th	-7.60302
▁him	-7.60767
▁aqui	-7.61616
na	-7.62826
▁his	-7.63607
▁tem	-7.63899
co	-7.64828
b	-7.65878
▁pessoas	-7.66722
▁seu	-7.66841
▁got	-7.67427
ram	-7.67591
▁quando	-7.68108
í	-7.68748
▁going	-7.69164
▁ver	-7.69242
ion	-7.6989
▁isto	-7.70256
▁now	-7.70506
▁3	-7.71292
▁these	-7.71822
▁other	-7.72406
▁she	-7.72584
ir	-7.73151
▁how	-7.73413
▁há	-7.74209
▁con	-7.75295
▁very	-7.75676
▁some	-7.75727
se	-7.76489
▁era	-7.78393
▁pode	-7.78417
▁também	-7.79358
ter	-7.7956
en	-7.80077
▁anos	-7.8095
dos	-7.81031
▁need	-7.81793
ne	-7.81882
▁todos	-7.82138
▁Por	-7.82549
ma	-7.82671
▁mesmo	-7.83223
▁T	-7.835
▁into	-7.83923
▁should	-7.84604
▁Oh	-7.84723
▁lo	-7.85101
▁back	-7.85269
ado	-7.85419
▁way	-7.85618
das	-7.86796
▁este	-7.86803
▁Está	-7.87328
*	-7.87336
mo	-7.87372
▁porque	-7.87462
▁because	-7.87702
▁pelo	-7.87729
lo	-7.8823
▁could	-7.88333
on	-7.88432
▁Re	-7.88494
▁Ele	-7.88726
ment	-7.89067
▁P	-7.8962
▁They	-7.89854
▁coisa	-7.91081
▁make	-7.91127
▁where	-7.9129
▁good	-7.91789
▁só	-7.92165
ro	-7.92316
%	-7.92513
li	-7.92543
▁p	-7.93034
▁take	-7.93042
▁over	-7.93519
▁tempo	-7.93598
▁B	-7.93878
il	-7.9405
x	-7.94054
▁dizer	-7.94227
ste	-7.94882
▁work	-7.95321
▁As	-7.96575
▁L	-7.96617
us	-7.97215
▁Sim	-7.97351
nte	-7.97465
▁really	-7.97557
▁also	-7.97714
S	-7.97859
ck	-7.98365
▁lhe	-7.98422
▁4	-7.98433
▁come	-7.98499
▁Well	-7.98731
▁did	-7.99076
▁than	-7.99366
▁man	-7.99667
▁tudo	-7.99945
▁only	-8.00015
▁la	-8.00576
▁G	-8.00923
▁vez	-8.0112
▁Do	-8.01265
▁down	-8.01737
▁estão	-8.01875
▁já	-8.01894
▁European	-8.02155
w	-8.02395
▁ela	-8.02593
go	-8.02808
▁forma	-8.02872
▁n	-8.03347
▁pela	-8.03374
idade	-8.03551
no	-8.03609
▁vai	-8.03891
▁5	-8.03959
▁F	-8.04037
▁BAR	-8.04628
▁say	-8.04713
pa	-8.04957
▁Na	-8.04978
ó	-8.05211
▁vida	-8.05386
ti	-8.05661
▁Comissão	-8.05935
ation	-8.06276
▁vi	-8.07123
▁19	-8.07211
▁two	-8.07232
an	-8.0735
pe	-8.0772
▁then	-8.08668
ity	-8.08844
▁first	-8.0921
me	-8.09258
▁nós	-8.10058
▁co	-8.10631
▁said	-8.10711
▁any	-8.10934
que	-8.10971
▁lá	-8.11102
f	-8.11272
▁look	-8.11713
▁years	-8.11732
▁something	-8.11952
▁entre	-8.12327
▁those	-8.12391
z	-8.1244
▁dia	-8.13013
▁10	-8.13314
di	-8.13435
▁world	-8.1376
▁disse	-8.1409
▁Como	-8.14207
▁Os	-8.14471
I	-8.14508
▁Commission	-8.14838
ic	-8.14956
▁até	-8.154
▁If	-8.15698
▁She	-8.16186
ada	-8.16323
ri	-8.16457
ões	-8.16728
▁Em	-8.17058
po	-8.17251
O	-8.17278
▁agora	-8.1757
▁casa	-8.17794
▁There	-8.17911
▁new	-8.18357
▁shall	-8.18696
▁use	-8.18937
ria	-8.19231
k	-8.19302
▁Então	-8.19521
it	-8.19688
▁estava	-8.1999
▁even	-8.20054
▁pro	-8.20156
ga	-8.20452
▁M	-8.20705
▁di	-8.21042
▁per	-8.21168
▁Article	-8.21407
ng	-8.21802
▁Now	-8.22535
▁Mr	-8.22677
ur	-8.23074
est	-8.23226
▁aos	-8.23417
vo	-8.23698
▁mundo	-8.24218
▁much	-8.2461
▁trabalho	-8.24697
P	-8.24982
ke	-8.25034
▁onde	-8.25241
▁life	-8.26451
sta	-8.26561
▁c	-8.26865
▁gonna	-8.27104
▁tell	-8.27648
▁tu	-8.28264
▁little	-8.28437
ci	-8.28517
▁assim	-8.28521
▁How	-8.28591
io	-8.28839
ver	-8.29226
▁coisas	-8.29423
▁Yeah	-8.29563
▁parte	-8.29756
▁6	-8.29769
▁thing	-8.30084
sse	-8.30239
▁temos	-8.3066
▁ti	-8.30887
ação	-8.31042
▁falar	-8.31078
ting	-8.31388
▁alguma	-8.31577
ry	-8.3188
D	-8.32253
▁ir	-8.32661
C	-8.32662
▁sem	-8.32881
▁Que	-8.3289
▁nada	-8.3314
▁must	-8.33249
▁didn	-8.33352
et	-8.33799
ida	-8.34075
tro	-8.34114
▁num	-8.34177
▁melhor	-8.34752
be	-8.34976
▁apenas	-8.35034
▁D	-8.36074
▁most	-8.36616
▁ainda	-8.36701
ive	-8.36923
▁may	-8.36925
el	-8.37181
▁help	-8.37397
▁mim	-8.37398
fe	-8.37511
▁20	-8.37822
v	-8.3837
▁tinha	-8.38566
▁real	-8.38647
able	-8.38706
T	-8.38734
▁essa	-8.39396
▁un	-8.39507
▁pre	-8.39835
▁sei	-8.39852
▁things	-8.40208
vi	-8.40368
M	-8.40418
▁nossa	-8.40509
ers	-8.40554
▁estou	-8.41288
▁off	-8.41481
▁made	-8.41594
▁depois	-8.41765
▁artigo	-8.42007
▁às	-8.42114
é	-8.42443
▁tão	-8.42444
▁Esta	-8.42454
▁qualquer	-8.42922
▁eles	-8.42967
▁For	-8.42998
▁Um	-8.4315
▁day	-8.43553
ço	-8.43597
▁nas	-8.4384
▁Member	-8.43855
▁love	-8.43897
rem	-8.4396
▁ra	-8.44026
▁being	-8.4415
▁contra	-8.44295
▁Para	-8.44724
▁po	-8.44778
▁under	-8.44964
▁All	-8.44973
ei	-8.4501
▁To	-8.45216
A	-8.45228
▁car	-8.45347
▁tipo	-8.45417
▁never	-8.45679
ten	-8.45727
▁well	-8.45767
ni	-8.45818
▁Con	-8.45858
▁N	-8.45974
ntes	-8.46054
▁La	-8.46204
▁let	-8.4675
▁têm	-8.46944
ados	-8.46961
ge	-8.46971
▁podem	-8.47104
▁estar	-8.47119
▁nosso	-8.47185
B	-8.47379
nt	-8.47638
▁você	-8.48158
▁Vi	-8.4818
▁Vamos	-8.48253
man	-8.48599
▁Porque	-8.48753
▁after	-8.48871
▁grande	-8.48872
▁en	-8.48905
▁States	-8.4891
▁give	-8.49073
ns	-8.4911
▁tenho	-8.49123
▁mean	-8.49298
tar	-8.4946
▁find	-8.49693
▁favor	-8.49811
ie	-8.49843
▁Ela	-8.50064
▁through	-8.50228
▁many	-8.503
▁7	-8.5033
ton	-8.50378
rá	-8.50541
▁deve	-8.50902
▁conta	-8.50987
▁vou	-8.51059
▁before	-8.51218
ine	-8.51615
▁sempre	-8.51644
ita	-8.51715
ba	-8.5184
ies	-8.51868
um	-8.5198
▁too	-8.52013
▁caso	-8.52743
▁show	-8.52871
▁Estados	-8.52908
ente	-8.53162
ent	-8.53279
▁seja	-8.53305
▁numa	-8.53499
▁same	-8.53618
▁place	-8.53753
▁seus	-8.53782
▁Regulation	-8.53872
▁year	-8.53989
dor	-8.54043
▁actually	-8.54207
ch	-8.54282
▁dois	-8.54369
▁ca	-8.54478
bo	-8.54729
qui	-8.54905
▁8	-8.54909
▁Quando	-8.55165
▁li	-8.55425
tor	-8.55595
▁why	-8.55624
▁Co	-8.5575
▁Le	-8.55879
▁Com	-8.55922
▁Isto	-8.56021
▁put	-8.56056
▁Al	-8.56119
▁pe	-8.56506
▁still	-8.5666
▁12	-8.56758
▁lot	-8.5681
▁Conselho	-8.56883
▁kind	-8.56928
▁Ma	-8.57296
▁last	-8.5847
▁My	-8.58888
ido	-8.59004
▁podemos	-8.59359
ê	-8.59403
▁such	-8.59408
▁teu	-8.59629
▁tua	-8.59704
▁around	-8.59905
▁g	-8.59968
▁Estou	-8.60149
▁Be	-8.60221
▁Hey	-8.6054
▁outros	-8.60618
▁between	-8.60635
▁Council	-8.60795
per	-8.61746
▁part	-8.61875
▁end	-8.62779
▁human	-8.62794
▁Riso	-8.63017
▁doing	-8.6306
▁f	-8.63139
ina	-8.63376
▁K	-8.63492
mento	-8.63918
▁Isso	-8.63919
▁ma	-8.64094
▁sub	-8.64255
▁Don	-8.64294
▁social	-8.64327
▁great	-8.64441
▁own	-8.64542
▁pouco	-8.64674
▁novo	-8.64785
▁ex	-8.64996
▁Há	-8.65025
gue	-8.6586
▁its	-8.6588
▁Let	-8.65925
ça	-8.66034
ian	-8.6606
▁every	-8.66647
▁Mar	-8.66698
▁Come	-8.66937
▁antes	-8.66978
▁verdade	-8.67227
▁menos	-8.67242
▁Okay	-8.6743
▁15	-8.67564
ja	-8.67605
▁Ro	-8.67745
▁dar	-8.67776
ito	-8.67981
▁long	-8.68147
▁Mo	-8.68314
▁Bem	-8.68661
F	-8.68743
▁cada	-8.68971
mi	-8.69022
▁different	-8.69029
▁believe	-8.69123
▁base	-8.69143
▁Why	-8.69213
▁outro	-8.6934
G	-8.69372
▁three	-8.69376
▁CE	-8.69417
amente	-8.69417
▁talk	-8.6957
mp	-8.69617
▁outra	-8.69812
▁call	-8.69826
▁sabe	-8.69941
▁Ba	-8.7013
▁primeiro	-8.70371
ty	-8.70492
▁30	-8.70509
▁Este	-8.70666
nd	-8.70702
▁am	-8.71078
▁todas	-8.71103
U	-8.71349
▁Me	-8.71416
▁algo	-8.71508
▁vamos	-8.71652
▁18	-8.71657
E	-8.71756
▁thought	-8.71813
▁estamos	-8.72065
Laughter	-8.72143
▁vezes	-8.72151
▁pai	-8.72217
▁vos	-8.72303
▁report	-8.72337
▁U	-8.7262
▁sou	-8.72894
▁Tu	-8.72985
tra	-8.72986
min	-8.73049
▁Sa	-8.7335
▁durante	-8.73508
▁disso	-8.73565
▁R	-8.73666
▁quero	-8.73758
age	-8.73795
00	-8.73808
id	-8.73818
▁esse	-8.73854
pi	-8.74133
▁nunca	-8.74676
▁home	-8.7474
▁does	-8.74955
▁Po	-8.75161
he	-8.75198
▁EC	-8.75214
L	-8.75497
ência	-8.75688
▁Thank	-8.75855
ul	-8.75875
▁Vou	-8.75901
▁Li	-8.75915
ol	-8.75926
▁again	-8.76005
ist	-8.76067
▁fa	-8.76297
▁noite	-8.76305
▁better	-8.76339
▁point	-8.76339
▁Foi	-8.76422
cu	-8.76553
gan	-8.76682
▁Uma	-8.76871
ven	-8.77097
▁Já	-8.77578
▁foram	-8.77581
▁todo	-8.77587
▁mo	-8.77711
▁found	-8.77733
▁ano	-8.77908
▁bom	-8.77938
▁presente	-8.78167
▁Deus	-8.78608
▁dis	-8.78608
▁W	-8.78822
▁Da	-8.78882
▁Europeia	-8.79058
▁nome	-8.79205
▁ficar	-8.79348
bra	-8.79391
ling	-8.79861
▁important	-8.79881
fa	-8.80215
▁nem	-8.80539
▁três	-8.80903
▁When	-8.80957
tic	-8.81259
▁problema	-8.81313
▁si	-8.81363
▁toda	-8.81503
▁God	-8.81732
▁países	-8.81871
▁name	-8.8192
▁b	-8.82057
N	-8.82234
▁number	-8.82467
▁mãe	-8.82536
dores	-8.82543
▁11	-8.82701
▁lado	-8.82894
▁Ca	-8.82944
▁suas	-8.82973
▁causa	-8.83106
▁Yes	-8.83125
▁information	-8.83188
▁hoje	-8.83306
gen	-8.83316
▁Ra	-8.83829
▁Agora	-8.83949
tions	-8.83949
▁Senhor	-8.8399
nce	-8.84106
▁qual	-8.84133
▁mal	-8.84226
▁Community	-8.84274
▁importante	-8.84576
▁H	-8.8469
fi	-8.84897
▁União	-8.84913
con	-8.84984
▁Can	-8.85114
ness	-8.85131
▁maior	-8.8519
ú	-8.85303
▁Ho	-8.8556
▁acordo	-8.85891
▁posso	-8.86203
ário	-8.86374
cer	-8.86379
▁quem	-8.86417
▁pensar	-8.865
▁faz	-8.86502
▁local	-8.86541
▁question	-8.8672
car	-8.86781
amento	-8.86883
▁pi	-8.86981
ber	-8.87224
▁data	-8.87243
▁homem	-8.87367
ho	-8.87425
▁system	-8.87509
▁public	-8.87619
der	-8.87888
▁feel	-8.87916
▁dele	-8.87942
▁fact	-8.87963
▁sa	-8.88051
▁final	-8.8832
▁course	-8.88329
ámos	-8.88475
▁tra	-8.8856
▁might	-8.89051
▁sure	-8.89124
▁away	-8.89193
tive	-8.89314
▁alguém	-8.89383
▁old	-8.89455
son	-8.89497
▁market	-8.89595
tri	-8.89737
▁sim	-8.90111
▁Tenho	-8.90279
▁bo	-8.90325
▁always	-8.9042
▁saber	-8.90476
▁another	-8.9057
▁mercado	-8.90852
▁Lo	-8.90894
▁Union	-8.91255
▁Go	-8.91567
▁anything	-8.91616
▁live	-8.91672
ant	-8.91744
▁diz	-8.91763
▁called	-8.91773
ru	-8.91785
▁countries	-8.91901
▁poder	-8.91981
▁design	-8.91985
▁Pa	-8.92049
▁cor	-8.92104
▁each	-8.92115
▁lugar	-8.92126
▁person	-8.92164
ad	-8.92258
▁duas	-8.92977
▁fi	-8.93086
▁case	-8.93247
H	-8.93278
▁primeira	-8.933
▁today	-8.93328
▁precisa	-8.9333
▁milhões	-8.93385
▁keep	-8.93453
▁order	-8.93543
▁Di	-8.93606
▁sido	-8.93623
ais	-8.93669
▁sistema	-8.93764
▁Regulamento	-8.93879
▁volta	-8.94004
▁Who	-8.94171
▁número	-8.94617
gu	-8.94624
▁Só	-8.94999
▁Ha	-8.9508
▁second	-8.95257
▁Just	-8.95348
ze	-8.95352
▁Look	-8.95475
▁far	-8.95521
▁neste	-8.9559
▁momento	-8.95653
▁9	-8.96402
▁control	-8.96485
rei	-8.96802
▁facto	-8.9695
▁change	-8.96959
▁pessoa	-8.96996
gar	-8.97116
▁le	-8.97152
▁Pro	-8.97194
gi	-8.97713
▁Temos	-8.97851
▁senhor	-8.97977
▁parece	-8.97982
at	-8.98106
▁Where	-8.98388
▁vocês	-8.98395
▁told	-8.98467
▁problem	-8.98481
nha	-8.98526
▁start	-8.98545
▁outras	-8.98558
▁dela	-8.98664
▁process	-8.98852
▁men	-8.98977
▁raz	-8.99007
land	-8.99044
▁tentar	-8.99148
▁0	-8.99152
▁ever	-8.992
▁night	-8.9924
cor	-8.99241
bi	-8.99443
▁dinheiro	-8.99611
▁inter	-8.99618
R	-8.9965
▁Not	-8.99662
▁particular	-8.99897
▁mar	-8.99963
bu	-9.00216
lu	-9.0045
▁high	-9.00572
▁então	-9.00598
▁together	-9.0063
▁quer	-9.00633
▁certo	-9.00724
▁Presidente	-9.00901
▁Bo	-9.00995
▁turn	-9.01013
▁okay	-9.01033
▁play	-9.01064
▁without	-9.01165
ha	-9.0117
▁i	-9.01222
▁head	-9.01309
▁done	-9.01516
▁ask	-9.01555
ante	-9.01594
▁processo	-9.01681
▁exemplo	-9.01917
▁came	-9.01924
gra	-9.01993
▁tal	-9.02037
▁ponto	-9.02055
▁V	-9.02233
▁President	-9.02272
▁Per	-9.02278
▁country	-9.02444
cia	-9.02509
▁cidade	-9.02906
▁será	-9.02955
▁Muito	-9.02989
2	-9.03222
▁J	-9.03281
che	-9.0352
▁both	-9.03625
▁money	-9.03754
▁alguns	-9.03786
▁big	-9.03844
▁An	-9.03935
▁família	-9.0405
V	-9.0426
▁história	-9.04534
▁quê	-9.04568
▁ideia	-9.04601
▁Car	-9.04639
remos	-9.04734
▁next	-9.04905
pro	-9.05038
▁understand	-9.05157
▁17	-9.05559
▁16	-9.05668
▁idea	-9.05892
ler	-9.0618
▁few	-9.06205
▁everything	-9.06502
ff	-9.06516
tal	-9.06597
▁Sabe	-9.06733
▁ajuda	-9.0682
par	-9.06835
▁doesn	-9.07108
▁14	-9.07187
▁support	-9.0736
▁nossos	-9.07453
▁sector	-9.07479
tiva	-9.07693
ista	-9.07786
▁Membros	-9.07915
vis	-9.07948
▁nova	-9.08157
▁50	-9.08163
▁hand	-9.0833
▁Are	-9.08384
▁fim	-9.08422
▁mil	-9.08735
▁13	-9.08747
ster	-9.0875
▁encontrar	-9.08919
▁estás	-9.09018
▁set	-9.09067
▁ba	-9.09172
ando	-9.09337
▁Or	-9.09362
za	-9.09567
▁vão	-9.09588
ence	-9.09612
▁million	-9.09692
▁país	-9.09726
▁Tem	-9.09953
▁quanto	-9.10045
ável	-9.10257
▁tens	-9.10265
▁Fa	-9.10266
▁Parlamento	-9.10435
dy	-9.10458
ance	-9.10633
▁água	-9.10659
▁Você	-9.10732
▁within	-9.10801
▁segundo	-9.10921
▁Parliament	-9.11022
ary	-9.11085
wa	-9.11139
▁desta	-9.11227
▁mesma	-9.11271
▁best	-9.11505
▁water	-9.11605
▁Olá	-9.11627
via	-9.11731
▁matter	-9.11846
▁política	-9.11895
▁wanted	-9.11934
▁Quem	-9.11939
▁Dr	-9.12074
▁sorry	-9.12186
▁guy	-9.12241
Y	-9.12254
▁ga	-9.12472
▁job	-9.12535
fer	-9.12549
▁since	-9.12579
▁nothing	-9.12664
▁left	-9.12687
▁fora	-9.12699
▁family	-9.1274
▁Obrigado	-9.12802
▁went	-9.12931
▁100	-9.1295
▁meio	-9.13077
▁means	-9.13147
ka	-9.13147
▁passa	-9.13169
▁Acho	-9.13352
tas	-9.13433
▁already	-9.13548
▁imp	-9.13587
▁tri	-9.13753
jo	-9.13815
▁face	-9.1401
ish	-9.14047
▁bi	-9.14076
pre	-9.14079
▁care	-9.14196
▁Su	-9.14337
▁modo	-9.14396
▁against	-9.14584
▁school	-9.14615
▁Ka	-9.14688
ner	-9.14749
▁hard	-9.1478
▁ali	-9.14903
mit	-9.15034
▁Pe	-9.15071
▁whole	-9.15076
▁power	-9.15226
▁dados	-9.15333
▁du	-9.15353
▁25	-9.1564
▁Ju	-9.15697
cl	-9.15969
▁2006	-9.15983
▁Fi	-9.16294
mon	-9.16352
▁EU	-9.16358
▁open	-9.16424
▁questão	-9.16441
▁relatório	-9.16461
▁Ne	-9.16477
▁ro	-9.16549
▁segurança	-9.16569
ial	-9.16796
▁dias	-9.16923
ful	-9.16971
adas	-9.17056
▁possível	-9.17235
▁Man	-9.17391
▁através	-9.17516
▁ago	-9.17637
▁looking	-9.17652
▁mulheres	-9.17659
▁dentro	-9.17695
▁test	-9.17972
▁rec	-9.17977
ran	-9.1812
▁devem	-9.18168
mb	-9.18437
ite	-9.18698
▁mulher	-9.187
▁2004	-9.18837
ate	-9.18883
bre	-9.18907
▁working	-9.18945
king	-9.18951
op	-9.1915
▁vir	-9.19189
▁nível	-9.1919
▁Hi	-9.1922
▁pu	-9.19369
▁desde	-9.1941
▁women	-9.19439
ual	-9.19462
▁produtos	-9.19496
▁muitas	-9.19703
▁Jo	-9.19742
▁Talvez	-9.19903
▁normal	-9.19917
ction	-9.19918
▁mind	-9.19927
▁enough	-9.20036
▁One	-9.20123
ring	-9.20142
▁Ver	-9.20193
les	-9.20345
▁able	-9.20367
▁bar	-9.20417
ble	-9.20525
▁2005	-9.20556
▁won	-9.20599
▁Sr	-9.206
K	-9.20636
▁estes	-9.20812
un	-9.20818
stra	-9.20827
ária	-9.2092
▁Ga	-9.21009
▁w	-9.21015
▁estas	-9.21071
▁bad	-9.2112
▁move	-9.21183
▁Europeu	-9.21236
▁trying	-9.21426
nk	-9.21517
▁hope	-9.21553
▁carro	-9.21685
▁boa	-9.21724
ral	-9.2208
lin	-9.22122
▁result	-9.22123
▁global	-9.22163
▁talvez	-9.22462
▁state	-9.22498
▁tenha	-9.22645
▁fo	-9.22797
▁form	-9.2289
▁ajudar	-9.23161
ach	-9.23291
ica	-9.23462
▁enquanto	-9.23813
nta	-9.24048
agem	-9.24069
▁son	-9.24121
▁stop	-9.24183
▁ha	-9.24236
▁New	-9.24268
W	-9.24297
▁law	-9.243
▁São	-9.24314
▁deste	-9.24497
▁seria	-9.24746
▁line	-9.24792
▁Because	-9.24879
▁queria	-9.24942
▁example	-9.24972
▁total	-9.25136
▁bring	-9.25236
▁regard	-9.25444
▁Ja	-9.25715
amp	-9.259
lar	-9.26107
▁took	-9.26126
▁Du	-9.26159
▁Vai	-9.26347
▁Ta	-9.26358
▁talking	-9.26362
▁business	-9.26547
▁pass	-9.26591
▁su	-9.26659
▁termos	-9.26707
val	-9.26876
▁become	-9.26977
▁tanto	-9.27174
▁leave	-9.27237
▁sal	-9.27237
▁happened	-9.27271
▁while	-9.27281
▁bit	-9.27314
▁trans	-9.27343
ix	-9.2738
tivo	-9.27416
▁Get	-9.27568
▁cha	-9.27584
▁national	-9.27697
♪	-9.27738
▁trabalhar	-9.27746
ização	-9.27835
▁ob	-9.27975
▁fez	-9.27991
▁Quero	-9.2825
▁Europe	-9.28346
▁programa	-9.28457
,	-9.28459
▁State	-9.28612
▁health	-9.28678
#	-9.2885
cha	-9.28905
ight	-9.28916
▁Ex	-9.28924
▁started	-9.28952
▁else	-9.28953
▁children	-9.28998
ple	-9.29061
less	-9.29062
▁maneira	-9.29107
▁desenvolvimento	-9.29114
▁Onde	-9.29136
▁possible	-9.29139
ard	-9.29204
▁medidas	-9.29216
▁Nó	-9.29237
▁please	-9.29285
nde	-9.29316
▁house	-9.29473
▁light	-9.2974
bor	-9.29818
▁crianças	-9.29935
▁Eles	-9.29995
▁consegui	-9.30124
▁Your	-9.30201
▁começar	-9.30263
▁preciso	-9.30337
▁usar	-9.30447
mar	-9.30474
▁los	-9.30499
▁getting	-9.30576
▁debate	-9.30608
▁Estado	-9.30609
▁fosse	-9.30645
▁direito	-9.30659
▁ta	-9.30691
▁2000	-9.30756
▁comigo	-9.30783
▁significa	-9.30839
▁force	-9.30937
▁On	-9.30953
▁close	-9.31086
je	-9.31209
▁try	-9.31237
ide	-9.31268
▁Ar	-9.31285
im	-9.31303
▁Mi	-9.31313
cho	-9.3139
▁Pre	-9.31433
wi	-9.31539
▁deixar	-9.31572
ador	-9.31677
▁room	-9.3172
▁free	-9.31764
tch	-9.31824
▁diferentes	-9.31836
▁lhes	-9.32246
iva	-9.32259
inda	-9.32301
cas	-9.32314
▁partir	-9.32421
▁bu	-9.32498
▁wrong	-9.32551
▁Pode	-9.32637
▁simples	-9.32683
ac	-9.32683
mbora	-9.32767
▁problemas	-9.32794
▁natural	-9.33234
▁Here	-9.33303
▁Cha	-9.33474
▁Te	-9.33563
ley	-9.33857
▁future	-9.33944
inha	-9.33945
▁Europa	-9.34087
▁products	-9.34099
▁uns	-9.34109
we	-9.34165
lha	-9.34364
▁having	-9.34379
▁En	-9.3439
▁Good	-9.344
▁acho	-9.34476
lho	-9.34516
▁filho	-9.34582
elves	-9.34657
eiro	-9.34791
▁making	-9.34837
▁coming	-9.34843
▁someone	-9.34875
ino	-9.34957
▁consider	-9.34988
▁hear	-9.35276
▁level	-9.35352
▁record	-9.35417
til	-9.35644
▁quais	-9.35727
▁reason	-9.35858
▁large	-9.35879
ise	-9.35931
▁2007	-9.35993
▁fala	-9.36101
▁stay	-9.36129
▁Comunidade	-9.36166
quer	-9.36259
▁friend	-9.36344
▁following	-9.36358
mer	-9.36477
▁chegar	-9.36592
▁feito	-9.36791
▁Did	-9.3689
ical	-9.36995
xi	-9.37082
cri	-9.37089
▁Sou	-9.37152
▁remember	-9.37237
▁pelos	-9.37313
▁story	-9.37384
▁economic	-9.37395
cre	-9.37425
▁cost	-9.37651
▁policy	-9.3766
▁força	-9.37677
▁measures	-9.3778
▁maybe	-9.38123
fu	-9.38148
▁homens	-9.38268
▁relação	-9.38352
▁área	-9.38432
▁Aplauso	-9.38484
ated	-9.38486
▁v	-9.38656
▁ninguém	-9.38751
▁side	-9.38766
▁pois	-9.38825
▁seen	-9.38827
▁days	-9.38965
▁voltar	-9.39069
ph	-9.39128
▁mother	-9.39139
▁estado	-9.39174
▁development	-9.39246
ture	-9.39329
▁guys	-9.39358
nder	-9.39417
▁later	-9.39472
▁until	-9.39528
▁espera	-9.39732
▁These	-9.39741
▁four	-9.39849
if	-9.39857
▁escola	-9.39866
▁United	-9.39882
▁At	-9.3991
▁ri	-9.39929
▁Mon	-9.39966
▁saw	-9.39974
▁sair	-9.40002
ak	-9.4007
cção	-9.40156
▁period	-9.40207
▁fica	-9.40264
▁24	-9.40276
▁resposta	-9.40288
▁21	-9.40377
▁cap	-9.40425
▁situação	-9.40483
▁grupo	-9.40495
▁certeza	-9.40615
▁Directive	-9.40669
▁nesta	-9.40676
▁common	-9.40703
▁war	-9.40718
ger	-9.40721
▁seguinte	-9.40736
▁yet	-9.40851
ism	-9.4086
▁cause	-9.40899
zi	-9.40985
ex	-9.41001
▁father	-9.41011
▁taken	-9.41051
▁representa	-9.41242
▁Depois	-9.41464
▁40	-9.41479
▁2003	-9.41566
▁Ki	-9.41613
dio	-9.4186
▁dead	-9.41863
▁realmente	-9.41869
▁five	-9.41961
▁informação	-9.42007
idos	-9.42008
tan	-9.42123
▁Artigo	-9.42154
▁Then	-9.42336
▁body	-9.42372
ever	-9.42469
▁experiência	-9.42598
▁período	-9.42681
ward	-9.42708
▁empresas	-9.42747
ific	-9.4276
den	-9.42831
▁regulamento	-9.42909
▁during	-9.42918
▁pra	-9.43121
▁Applau	-9.43183
▁pequeno	-9.43183
vam	-9.43186
▁decisão	-9.43268
refore	-9.43269
tur	-9.43281
▁passar	-9.43434
▁Mu	-9.4346
▁aí	-9.43566
▁percent	-9.43583
cal	-9.43735
▁necessário	-9.43744
▁tecnologia	-9.43801
▁government	-9.43808
▁aconteceu	-9.4382
▁cerca	-9.43862
▁criar	-9.44026
▁material	-9.44072
▁im	-9.44073
▁view	-9.44138
▁THE	-9.44152
íamos	-9.44174
▁small	-9.44176
▁Cor	-9.44182
ismo	-9.44203
▁certain	-9.44224
▁less	-9.4428
▁sentido	-9.44365
▁Era	-9.44401
▁informações	-9.44451
▁plan	-9.44537
▁futuro	-9.44621
ag	-9.44672
▁least	-9.4482
20	-9.4491
▁mu	-9.45156
▁brain	-9.4516
▁fund	-9.45189
▁cover	-9.45336
▁certa	-9.45361
▁Tudo	-9.45384
▁Bu	-9.45389
▁algum	-9.45411
▁meses	-9.45432
cent	-9.45458
tin	-9.45475
nda	-9.45482
▁corpo	-9.45564
▁leva	-9.45572
ula	-9.45673
ki	-9.45696
emos	-9.45718
lt	-9.4577
▁levar	-9.45786
▁Parece	-9.45894
▁respect	-9.45918
ivo	-9.45974
▁Ru	-9.4599
▁walk	-9.46022
▁gra	-9.46024
▁capital	-9.46078
▁nossas	-9.46164
▁run	-9.46187
▁Aqui	-9.46241
▁deal	-9.46331
▁moment	-9.46671
eira	-9.4675
str	-9.46753
▁individual	-9.46859
▁risco	-9.46865
▁existe	-9.46892
▁girl	-9.46955
▁pay	-9.46964
▁provide	-9.46979
▁pen	-9.47036
▁Tra	-9.47066
▁claro	-9.47113
▁ho	-9.47165
▁rep	-9.47251
▁22	-9.47297
iu	-9.47336
▁general	-9.47362
pp	-9.47532
lan	-9.47595
▁quase	-9.47707
▁account	-9.47792
▁energia	-9.47821
ira	-9.47861
▁value	-9.48233
▁Maybe	-9.48254
▁altura	-9.48414
▁once	-9.48474
pt	-9.48499
▁answer	-9.48648
▁wasn	-9.48811
lic	-9.48842
▁Bar	-9.48888
▁ge	-9.4896
▁única	-9.4903
▁experience	-9.49039
▁br	-9.49122
▁procura	-9.49127
▁especial	-9.4924
lia	-9.49548
▁Wa	-9.49601
ô	-9.49736
▁risk	-9.49764
▁última	-9.49894
▁dessa	-9.49935
▁frente	-9.49942
iam	-9.50123
▁auto	-9.50163
br	-9.50195
▁horas	-9.50216
▁group	-9.50393
▁Right	-9.50515
iz	-9.50543
▁matéria	-9.50615
▁deles	-9.50715
▁2002	-9.50725
ações	-9.50746
▁taking	-9.5087
by	-9.50871
▁deixa	-9.51053
difícil	-9.51068
▁ci	-9.51071
▁area	-9.51086
▁given	-9.51176
▁food	-9.51293
▁action	-9.51372
▁condições	-9.51553
▁fun	-9.5172
▁caminho	-9.51728
▁suficiente	-9.51736
▁acontecer	-9.51744
▁interest	-9.51857
▁Ou	-9.51912
▁Lu	-9.51947
▁UE	-9.52012
▁kill	-9.52085
▁Claro	-9.52187
▁clear	-9.52288
▁trata	-9.52356
dia	-9.52458
▁hi	-9.525
▁die	-9.52556
los	-9.52575
ura	-9.526
▁anti	-9.52609
▁heart	-9.52708
▁Qual	-9.52803
▁empresa	-9.52828
▁rest	-9.52916
▁pergunta	-9.52956
▁cabeça	-9.52993
▁Pi	-9.53028
men	-9.53081
▁aquilo	-9.53107
▁controlo	-9.53119
▁che	-9.53246
▁months	-9.53252
▁type	-9.53305
▁devia	-9.53388
▁comum	-9.53432
▁ju	-9.53543
▁pequena	-9.5355
▁young	-9.53602
▁heard	-9.53655
▁past	-9.53828
▁thinking	-9.5388
▁using	-9.53978
▁aid	-9.5411
gg	-9.54188
▁third	-9.54298
▁desse	-9.54319
▁financial	-9.5438
ren	-9.54426
▁American	-9.54426
cy	-9.54608
▁Estamo	-9.54677
▁Tens	-9.54707
▁Nunca	-9.54799
▁após	-9.54799
▁knew	-9.54894
▁situation	-9.54921
com	-9.54959
ally	-9.55015
▁Je	-9.55134
qua	-9.55163
▁fight	-9.5517
▁sob	-9.55177
▁single	-9.55244
up	-9.55289
▁ouvir	-9.55292
▁2001	-9.55341
▁Assim	-9.55369
▁muitos	-9.55403
▁follow	-9.55952
ários	-9.55997
▁sabia	-9.56007
▁express	-9.5602
▁pat	-9.56054
▁gente	-9.56103
▁energy	-9.56191
▁present	-9.56249
▁cannot	-9.56354
▁OK	-9.56453
▁direitos	-9.56476
▁amigo	-9.56514
ham	-9.56519
▁saying	-9.56519
▁plano	-9.56546
▁col	-9.56576
▁access	-9.56576
▁podia	-9.56625
▁proposal	-9.56639
▁eram	-9.56737
▁isn	-9.56813
▁yourself	-9.56991
▁serviços	-9.57032
▁Portanto	-9.57055
▁cá	-9.57115
▁vista	-9.57156
des	-9.57361
▁31	-9.57374
▁luz	-9.57495
▁Th	-9.57543
▁fine	-9.57619
▁check	-9.57621
▁espécie	-9.57636
▁Che	-9.5768
▁Committee	-9.577
▁super	-9.57705
▁daqui	-9.57722
▁gas	-9.57729
ava	-9.57736
▁amor	-9.57785
au	-9.57834
▁Y	-9.57854
▁quatro	-9.57863
▁political	-9.57911
▁wait	-9.57917
▁morte	-9.57948
▁DE	-9.5795
▁jogo	-9.57962
▁including	-9.58122
▁whether	-9.58154
ure	-9.58174
ron	-9.58228
▁mudar	-9.58243
▁woman	-9.58317
▁saúde	-9.58349
▁diferente	-9.58627
▁II	-9.58671
▁respeito	-9.58675
way	-9.58687
▁list	-9.58706
▁Sta	-9.58764
▁pretty	-9.58839
one	-9.58863
▁Col	-9.59083
°	-9.59101
▁governo	-9.5911
▁watch	-9.59233
▁indica	-9.59299
ps	-9.59331
cion	-9.59381
▁legal	-9.59421
▁pensa	-9.59607
▁proposta	-9.59685
▁Todos	-9.59707
rão	-9.59813
▁Un	-9.59875
▁personal	-9.59929
len	-9.59967
▁lu	-9.59972
ow	-9.60105
▁secret	-9.60126
▁blood	-9.60156
▁sort	-9.60179
▁sign	-9.60207
▁Deve	-9.60252
ize	-9.60312
▁hell	-9.60341
▁effect	-9.60366
▁fr	-9.60367
▁myself	-9.60389
▁acontece	-9.60457
▁23	-9.60575
▁true	-9.60595
▁torna	-9.60645
ros	-9.60685
▁2008	-9.60703
▁half	-9.60731
▁read	-9.60755
▁aplicação	-9.60783
.1	-9.60784
▁grow	-9.60797
hi	-9.60824
▁olhar	-9.60933
▁Please	-9.61022
▁continua	-9.61155
▁hora	-9.61272
▁Annex	-9.6129
▁aquela	-9.61298
tá	-9.61314
▁espaço	-9.61357
▁somos	-9.61373
▁building	-9.61385
▁share	-9.61389
ap	-9.61393
▁consegue	-9.61491
xa	-9.61589
ud	-9.61717
▁cu	-9.61779
▁vosso	-9.61835
▁opera	-9.61908
j	-9.61956
plo	-9.61967
▁meet	-9.62061
▁tarde	-9.62102
▁programme	-9.6212
▁Ti	-9.62153
▁CEE	-9.62345
▁kids	-9.62363
rd	-9.62368
▁child	-9.62463
▁tomar	-9.62699
for	-9.62721
▁necessary	-9.62742
▁import	-9.62792
▁possa	-9.6282
▁oportunidade	-9.62844
▁porta	-9.62911
▁público	-9.63015
▁valor	-9.63022
bb	-9.63048
ig	-9.63072
▁China	-9.63091
▁death	-9.63109
bilidade	-9.63153
▁research	-9.63185
▁asked	-9.63224
tura	-9.63232
▁cinco	-9.63305
▁Ri	-9.63328
▁John	-9.63335
▁full	-9.63414
▁sir	-9.63416
▁special	-9.63425
tain	-9.6356
▁médico	-9.63596
▁igual	-9.63822
▁game	-9.63961
▁vossa	-9.63961
uta	-9.63985
unt	-9.64063
▁determina	-9.64064
▁procedure	-9.64078
▁tornar	-9.64156
▁cut	-9.64208
▁semana	-9.64221
▁longo	-9.64261
pul	-9.64284
▁product	-9.64342
▁guerra	-9.64354
tado	-9.64374
▁rules	-9.64548
▁2009	-9.64621
▁Hu	-9.64655
▁happen	-9.64661
▁consigo	-9.647
line	-9.6472
▁vais	-9.64737
▁vê	-9.64785
▁Internet	-9.64807
▁entrar	-9.64832
▁city	-9.64853
ea	-9.64956
▁allow	-9.65011
▁pessoal	-9.6503
▁havia	-9.6503
▁1999	-9.65096
vel	-9.651
lf	-9.65118
AR	-9.65126
▁probably	-9.65257
▁ven	-9.65362
▁conseguir	-9.65363
▁quite	-9.65369
amos	-9.65592
▁accordance	-9.65641
▁EEC	-9.65663
▁class	-9.65713
tou	-9.65785
▁sério	-9.65851
nia	-9.65929
las	-9.65968
▁X	-9.65969
▁cara	-9.66088
▁passado	-9.66183
▁estrutura	-9.66203
tei	-9.66208
▁Of	-9.66246
▁figure	-9.66275
ambém	-9.66331
▁enter	-9.66358
ice	-9.6655
▁prova	-9.66578
▁Sp	-9.66601
▁chega	-9.66677
gem	-9.66748
▁atrás	-9.66782
▁space	-9.67081
▁May	-9.67112
ile	-9.67134
port	-9.67233
▁nice	-9.67243
▁word	-9.67269
▁Fo	-9.67303
ân	-9.67325
cra	-9.67365
istas	-9.67366
▁Si	-9.67529
▁passo	-9.67536
ky	-9.67552
▁baby	-9.67565
▁uh	-9.67673
▁continue	-9.67698
▁doença	-9.67802
▁lei	-9.67838
AL	-9.67872
▁começa	-9.67874
▁baixo	-9.67901
▁transport	-9.67904
▁sense	-9.67954
▁amount	-9.68052
duc	-9.68054
▁exp	-9.6811
end	-9.68142
▁membros	-9.6824
▁art	-9.68267
▁cérebro	-9.68303
fin	-9.68327
ther	-9.68432
nc	-9.68479
▁post	-9.68548
side	-9.68621
▁defini	-9.68628
▁based	-9.68645
▁apoio	-9.68665
▁application	-9.68699
▁micro	-9.68743
lhe	-9.68858
▁par	-9.68984
chi	-9.69114
▁With	-9.69316
▁six	-9.69436
▁própria	-9.69497
ko	-9.69506
ign	-9.69605
▁preocupa	-9.69613
▁crime	-9.69644
▁capacidade	-9.69679
pli	-9.69721
ED	-9.69728
▁company	-9.69825
▁corre	-9.69838
+	-9.69861
▁hospital	-9.69893
nto	-9.6991
rra	-9.6995
▁document	-9.70071
▁necessidade	-9.70117
▁conditions	-9.70212
nos	-9.70357
uto	-9.70381
nch	-9.70422
▁Sha	-9.70467
ft	-9.70503
izado	-9.70612
▁project	-9.70613
ning	-9.70614
▁gave	-9.70655
▁decision	-9.7083
ep	-9.70831
▁Quer	-9.70942
.2	-9.71046
▁27	-9.71049
▁Uh	-9.71066
▁Tratado	-9.71076
▁provided	-9.71109
0	-9.71115
▁dólares	-9.71165
▁amigos	-9.71183
▁act	-9.71188
▁stuff	-9.71222
▁sex	-9.71293
▁sociedade	-9.71333
▁sala	-9.71349
▁emprego	-9.71519
▁animal	-9.71548
▁create	-9.71607
▁papel	-9.71642
▁issue	-9.71711
▁rate	-9.71718
▁non	-9.71729
▁lives	-9.71775
▁anexo	-9.71967
▁Estava	-9.71978
IS	-9.72031
▁cima	-9.72301
▁fazem	-9.7238
▁trabalha	-9.72463
cida	-9.72465
▁linha	-9.72508
ect	-9.72521
ER	-9.72526
▁ouvi	-9.72551
▁poderia	-9.72625
▁week	-9.72625
cio	-9.72652
▁prazo	-9.72685
▁Mor	-9.72734
▁wish	-9.72736
▁60	-9.72748
▁aquele	-9.72827
ya	-9.7284
▁security	-9.72865
▁sent	-9.73007
▁protect	-9.73009
▁hours	-9.7309
▁step	-9.7309
rou	-9.73108
▁cria	-9.73117
dora	-9.7313
▁Fe	-9.73163
▁Bom	-9.73209
▁speak	-9.73242
▁technology	-9.73242
hu	-9.73347
▁produção	-9.73356
tivos	-9.73383
▁acha	-9.73541
▁90	-9.73583
▁agreement	-9.73836
▁minutos	-9.73897
▁morrer	-9.73901
este	-9.73927
▁JO	-9.73996
▁viver	-9.74018
▁chama	-9.74051
▁estavam	-9.74061
▁contar	-9.74062
▁Olha	-9.7412
red	-9.74127
▁picture	-9.74268
missão	-9.74367
zo	-9.74369
▁thank	-9.74407
▁problems	-9.74451
dge	-9.74506
▁Nem	-9.74613
▁front	-9.74686
▁friends	-9.74689
iro	-9.74771
▁penso	-9.74854
▁services	-9.74859
▁humanos	-9.74875
▁music	-9.7492
▁regime	-9.74925
ized	-9.75059
ue	-9.75089
▁nenhum	-9.75205
▁times	-9.75234
▁pedido	-9.75309
▁subject	-9.75352
▁position	-9.75406
nal	-9.75497
dão	-9.75543
izar	-9.75544
almost	-9.7556
▁mostrar	-9.75576
▁grandes	-9.75611
▁known	-9.75622
▁specific	-9.75688
ér	-9.75691
▁funciona	-9.75745
▁book	-9.75778
▁contigo	-9.75845
▁Ni	-9.75846
▁28	-9.75898
▁leg	-9.75912
ilha	-9.76054
▁maioria	-9.76064
▁alone	-9.76091
▁pain	-9.7613
▁prefer	-9.76132
▁offer	-9.76192
,000	-9.76313
▁morto	-9.76316
▁compar	-9.76366
▁living	-9.76429
▁entan	-9.76442
▁Podemo	-9.76512
▁princípio	-9.76546
▁field	-9.76624
▁ambiente	-9.76709
▁Sam	-9.76776
▁qualidade	-9.76784
vin	-9.76859
▁break	-9.76859
▁Bi	-9.76864
▁espe	-9.76908
ker	-9.76933
▁2010	-9.76995
▁equipa	-9.7704
▁chance	-9.77042
nyone	-9.77054
tem	-9.77063
▁Ve	-9.77139
▁referred	-9.77176
▁yeah	-9.77212
▁Ok	-9.77258
▁exist	-9.77313
▁dá	-9.7738
▁morning	-9.77414
ES	-9.77499
▁serious	-9.77505
▁lost	-9.77511
▁Har	-9.77524
▁produto	-9.77533
▁esses	-9.77579
▁Am	-9.77609
▁Gu	-9.7768
▁phone	-9.77724
▁sol	-9.77759
▁contain	-9.77802
pri	-9.77808
▁See	-9.7794
▁sejam	-9.77942
▁Chi	-9.77957
▁soon	-9.78018
▁medo	-9.78167
▁Treaty	-9.78239
ugh	-9.78265
▁manter	-9.78395
▁único	-9.78398
▁inside	-9.78421
use	-9.78464
tter	-9.78484
▁tratamento	-9.78501
▁tinham	-9.78563
lém	-9.78572
cos	-9.78597
▁main	-9.78652
▁brother	-9.78677
▁seguir	-9.78688
vid	-9.78719
ato	-9.78786
ME	-9.78829
▁CA	-9.78917
▁matar	-9.78943
áveis	-9.78976
▁Mal	-9.79025
▁hold	-9.79088
▁minutes	-9.79091
▁Posso	-9.79239
▁date	-9.793
▁pé	-9.79347
▁exactly	-9.79403
▁fire	-9.79608
▁taxa	-9.79655
▁team	-9.79668
▁boy	-9.79696
bro	-9.7984
RA	-9.79894
▁difficult	-9.79922
let	-9.79933
▁irmão	-9.79984
ious	-9.79986
▁language	-9.80002
ico	-9.80025
▁sentir	-9.80038
▁29	-9.80054
▁pais	-9.80077
▁Diz	-9.80116
▁medida	-9.80163
ified	-9.80177
▁bastante	-9.80245
▁kid	-9.80468
ris	-9.8049
▁wouldn	-9.80551
▁says	-9.80564
▁comunidade	-9.8057
▁OJ	-9.80574
▁safe	-9.80642
▁though	-9.80691
▁short	-9.80737
▁deputado	-9.80855
▁importa	-9.80873
gui	-9.81008
▁animais	-9.81009
▁próximo	-9.81018
▁guess	-9.81031
ating	-9.81198
▁palavras	-9.81254
▁Decision	-9.81264
RE	-9.81297
▁learn	-9.81414
cina	-9.81511
ã	-9.81518
▁terra	-9.81525
aram	-9.81551
▁80	-9.81615
4	-9.81618
▁study	-9.81633
▁land	-9.81678
stead	-9.81781
▁conformidade	-9.81797
▁pr	-9.81827
▁fuck	-9.81829
▁killed	-9.81868
eu	-9.81869
▁fall	-9.81889
▁St	-9.81985
▁save	-9.82085
ub	-9.82138
the	-9.8214
▁forte	-9.82168
ability	-9.82189
▁international	-9.82212
▁meeting	-9.82216
▁trade	-9.82221
▁início	-9.82416
▁operation	-9.82463
▁inform	-9.82481
▁gone	-9.82529
▁sabemos	-9.82583
tica	-9.82591
▁arm	-9.8264
tel	-9.82696
▁Até	-9.82748
▁makes	-9.82845
▁wife	-9.82874
▁Bra	-9.82887
ship	-9.82888
▁met	-9.82899
▁Meu	-9.82924
▁fundamental	-9.82953
ny	-9.82995
ctor	-9.83013
▁lead	-9.83016
▁Mais	-9.83076
▁age	-9.8308
▁words	-9.8312
▁livre	-9.83165
▁l	-9.83217
▁refere	-9.8339
▁door	-9.83417
▁ready	-9.8346
part	-9.8346
▁próprio	-9.83498
▁faça	-9.83718
▁However	-9.83748
▁extra	-9.83756
▁queres	-9.83784
▁concerned	-9.83801
5	-9.83806
▁americano	-9.83877
▁goes	-9.83951
▁EUA	-9.83961
▁26	-9.83984
▁ia	-9.83984
bar	-9.84065
▁accept	-9.8413
▁comes	-9.84141
▁via	-9.84157
▁fui	-9.84228
▁Have	-9.84249
▁olhos	-9.84321
ON	-9.84325
▁relativa	-9.84358
▁geral	-9.84382
▁arma	-9.84394
▁interesse	-9.84426
▁couldn	-9.84655
▁fiz	-9.84795
▁tivesse	-9.84801
▁remain	-9.84891
▁beautiful	-9.84933
50	-9.84965
▁often	-9.85054
▁quarto	-9.85104
▁direct	-9.85156
▁Jesus	-9.85276
ática	-9.85313
▁doctor	-9.85432
▁lista	-9.85438
ang	-9.85497
▁further	-9.85575
lock	-9.85622
▁tre	-9.85651
ient	-9.85655
uz	-9.85673
nho	-9.85676
▁Our	-9.85695
▁either	-9.85703
▁basis	-9.85837
▁strong	-9.85918
ute	-9.85951
▁sh	-9.85954
▁multi	-9.85983
▁late	-9.86014
▁air	-9.86086
▁modern	-9.86101
AN	-9.86112
ssem	-9.86169
▁Certo	-9.86174
▁mão	-9.86215
imento	-9.86229
▁model	-9.86275
▁Obrigada	-9.86302
▁elas	-9.86313
▁bio	-9.86365
▁available	-9.86388
▁export	-9.86407
▁Inter	-9.86446
▁win	-9.86561
▁realidade	-9.86617
pic	-9.86716
▁k	-9.86786
▁pick	-9.86801
▁incluindo	-9.86836
▁outside	-9.86929
▁feliz	-9.86947
▁Directiva	-9.86993
▁pal	-9.8704
cip	-9.87067
▁palavra	-9.8722
▁conven	-9.87319
▁film	-9.87334
▁Jack	-9.87344
▁falta	-9.8739
▁regras	-9.87394
▁hit	-9.87402
▁continuar	-9.87411
▁everyone	-9.87425
▁mudança	-9.87473
▁rapariga	-9.87514
▁fucking	-9.87573
▁Precisa	-9.87602
▁filme	-9.8764
rt	-9.87713
▁sound	-9.87794
inho	-9.87815
▁table	-9.8786
▁production	-9.87878
▁obrigado	-9.88066
nes	-9.88116
▁exce	-9.88137
▁purpose	-9.88171
rn	-9.88191
▁sai	-9.88262
▁posição	-9.88265
▁pelas	-9.88355
fo	-9.88358
▁ensure	-9.88373
▁descobrir	-9.8841
▁aplicáve	-9.88566
lica	-9.88638
▁pan	-9.88648
▁gosta	-9.88707
▁sur	-9.88719
▁nacional	-9.88753
▁polícia	-9.88786
ano	-9.88808
▁modelo	-9.88814
har	-9.88826
▁happy	-9.88875
ult	-9.88905
van	-9.88928
▁shit	-9.89001
▁across	-9.89007
▁acesso	-9.89058
▁couple	-9.89096
▁000	-9.89101
▁Ah	-9.89137
▁Some	-9.89197
▁conversa	-9.89405
▁gostaria	-9.89495
▁novas	-9.89497
▁star	-9.89524
▁experiment	-9.89584
▁civil	-9.89609
▁efeito	-9.89782
▁plant	-9.8981
▁vem	-9.89815
vol	-9.89847
▁Ao	-9.89861
▁visit	-9.8995
▁fácil	-9.90119
▁progress	-9.90143
▁ten	-9.90154
▁Q	-9.90156
▁entra	-9.90262
▁Essa	-9.90284
▁education	-9.90421
▁san	-9.90424
▁relativo	-9.90441
▁resto	-9.9045
ndi	-9.90473
▁patients	-9.90476
▁machine	-9.90478
wer	-9.90481
RI	-9.90513
▁senhora	-9.90528
▁key	-9.90558
$	-9.90568
▁domínio	-9.90613
▁history	-9.90649
▁nomeada	-9.90667
▁mg	-9.90717
▁teve	-9.90741
▁disease	-9.90883
our	-9.90885
▁h	-9.90967
▁top	-9.91105
▁organiza	-9.91143
▁atenção	-9.9115
▁computer	-9.91208
▁Disse	-9.91218
▁Faz	-9.91272
ries	-9.91306
▁Qua	-9.91324
ST	-9.91328
▁âmbito	-9.91335
cido	-9.91351
log	-9.91385
▁piece	-9.91392
▁vote	-9.91401
▁authorities	-9.91427
▁campo	-9.91432
▁transforma	-9.91449
▁gene	-9.9145
▁conjunto	-9.91607
▁bank	-9.91617
can	-9.91707
▁tive	-9.91793
▁filhos	-9.91874
▁teria	-9.9188
IT	-9.92007
▁along	-9.92045
▁gr	-9.92061
▁General	-9.92065
▁Ali	-9.92072
▁limit	-9.92158
▁gotta	-9.92253
▁stand	-9.92357
▁Mil	-9.92358
▁disp	-9.92381
▁transporte	-9.92399
mas	-9.92442
cus	-9.92452
form	-9.92558
▁site	-9.92589
▁acaba	-9.9269
▁mine	-9.92734
▁último	-9.92743
ging	-9.92863
pesar	-9.92881
▁behind	-9.92932
▁sin	-9.92937
▁esp	-9.92977
▁text	-9.93069
▁Espera	-9.93071
ez	-9.93191
▁America	-9.9325
▁rede	-9.93299
▁media	-9.93325
▁listen	-9.93571
▁return	-9.936
▁Will	-9.93606
▁pena	-9.93632
▁black	-9.93641
▁sp	-9.93653
▁investigação	-9.93673
▁concentra	-9.93677
▁aumento	-9.93688
body	-9.93719
▁represent	-9.93746
▁draw	-9.93784
▁Like	-9.93802
▁wanna	-9.93857
mic	-9.9387
aria	-9.93914
▁colega	-9.93944
▁sabem	-9.93946
▁tenta	-9.94011
▁apply	-9.94026
▁livro	-9.94041
▁directiva	-9.94052
cou	-9.94109
▁rather	-9.94123
▁After	-9.94137
▁term	-9.94194
▁office	-9.94196
ático	-9.94226
▁December	-9.94275
▁mag	-9.94405
udi	-9.94426
ible	-9.94502
▁By	-9.94522
ome	-9.94584
rew	-9.94608
cle	-9.94698
▁Desculpa	-9.9479
▁Estão	-9.9479
ana	-9.94809
▁Her	-9.94811
▁OF	-9.94858
▁His	-9.94868
▁cultura	-9.94877
▁service	-9.94892
▁doentes	-9.94946
▁EUR	-9.9499
▁alta	-9.95004
▁eat	-9.95043
▁Vá	-9.95047
ança	-9.95089
▁central	-9.95105
▁image	-9.95152
▁truth	-9.95159
▁needs	-9.95159
enta	-9.95169
▁Paul	-9.95189
▁foto	-9.9519
▁perto	-9.95199
▁marca	-9.95218
▁El	-9.95245
▁Miss	-9.95268
▁York	-9.9531
▁observa	-9.95335
▁hands	-9.9536
▁correct	-9.95403
▁opinion	-9.95478
ec	-9.9553
▁send	-9.95536
▁diferença	-9.95542
▁tro	-9.95548
▁erro	-9.95629
IN	-9.9565
iga	-9.95699
▁Wait	-9.95701
▁quadro	-9.95896
por	-9.95898
bol	-9.95907
SE	-9.95915
▁motor	-9.96029
▁Take	-9.96141
▁areas	-9.96142
▁entire	-9.96148
row	-9.96154
▁population	-9.96158
▁environment	-9.96178
▁content	-9.96188
led	-9.96197
▁treat	-9.96299
▁simple	-9.96316
▁disto	-9.96329
▁luta	-9.96358
▁máquina	-9.96396
▁Frank	-9.964
▁buy	-9.96414
▁explora	-9.96493
10	-9.96502
▁increase	-9.96535
.19	-9.96542
▁Nova	-9.96556
▁protection	-9.96651
▁discuss	-9.96688
rk	-9.96695
▁cop	-9.96739
▁longer	-9.96785
▁euro	-9.96811
▁elemento	-9.96887
▁indústria	-9.96969
ância	-9.96981
▁pol	-9.97018
▁irá	-9.97075
▁paragraph	-9.97078
▁Dis	-9.97083
▁effective	-9.97147
ional	-9.97161
▁superior	-9.97211
her	-9.97219
▁participa	-9.97231
▁San	-9.97243
▁price	-9.97244
▁visto	-9.97292
▁easy	-9.97374
▁event	-9.9738
▁trust	-9.97479
hy	-9.97495
▁parecer	-9.97495
han	-9.97624
▁chamada	-9.97634
▁feeling	-9.97685
▁questions	-9.9771
▁população	-9.97835
▁decided	-9.97836
▁resultados	-9.97842
AS	-9.97858
▁Pol	-9.97871
▁muita	-9.97918
▁filha	-9.97991
▁Ben	-9.98053
▁autoridades	-9.9806
▁complex	-9.98115
▁gosto	-9.98121
▁Quanto	-9.98181
▁Sei	-9.98197
▁program	-9.98253
▁Z	-9.98369
ood	-9.98375
▁cre	-9.98503
▁assunto	-9.98612
tais	-9.98644
▁Desculpe	-9.9866
▁self	-9.98728
▁manhã	-9.98855
▁sleep	-9.98855
▁factor	-9.98902
▁seem	-9.98905
▁identifica	-9.98934
ciona	-9.98988
▁Pri	-9.99009
rmos	-9.99061
▁industry	-9.99199
▁00	-9.99228
▁party	-9.99302
▁zona	-9.99346
▁imagine	-9.99357
.4	-9.99386
▁plane	-9.99401
▁original	-9.99403
▁eyes	-9.99426
rhaps	-9.99429
▁assist	-9.99472
cr	-9.99475
▁Sch	-9.99475
lly	-9.99505
▁pedir	-9.99536
▁difference	-9.99541
▁dream	-9.99541
▁town	-9.99548
▁possibilidade	-9.9959
▁solution	-9.99591
▁terms	-9.99608
▁dose	-9.99665
▁Queres	-9.99667
▁mor	-9.99801
▁gera	-9.99897
▁dollar	-9.99899
.5	-9.99971
▁police	-9.99992
▁minute	-10.0002
▁companies	-10.0008
▁treatment	-10.0017
▁community	-10.0018
▁invent	-10.0041
tua	-10.0042
▁estiver	-10.0045
pressão	-10.0046
▁relat	-10.0049
▁2011	-10.0054
▁principle	-10.0058
▁cama	-10.0063
▁billion	-10.0064
▁drive	-10.0071
▁efeitos	-10.0076
▁sangue	-10.0085
ído	-10.0085
▁early	-10.0085
▁encontra	-10.0091
▁achieve	-10.0093
nel	-10.0096
▁redu	-10.0098
▁quality	-10.0098
nie	-10.0104
▁brought	-10.0113
▁Esse	-10.0123
nger	-10.0124
▁nacionais	-10.0127
▁Vo	-10.0137
ém	-10.0139
ities	-10.014
▁economia	-10.0143
▁Sal	-10.0149
J	-10.0149
▁rat	-10.015
▁needed	-10.0156
▁senti	-10.0159
▁serão	-10.0161
▁música	-10.0163
▁prática	-10.0163
▁Terra	-10.0175
▁pesca	-10.0184
tores	-10.0185
▁Deixa	-10.0188
▁fl	-10.0194
▁utilização	-10.0195
▁série	-10.0198
▁choice	-10.0198
pen	-10.0204
ium	-10.0206
icamente	-10.0207
▁planet	-10.0212
▁nenhuma	-10.0216
▁Bri	-10.0217
▁basic	-10.022
cional	-10.0232
▁conhece	-10.0233
▁fazê	-10.0234
▁discover	-10.0235
▁explain	-10.0238
▁born	-10.0242
▁encontro	-10.0243
▁nuclear	-10.0243
▁segunda	-10.0243
▁seguro	-10.0244
▁network	-10.0249
▁Fu	-10.0254
▁haven	-10.026
▁Tom	-10.0267
▁À	-10.0276
ível	-10.028
▁planeta	-10.0283
AT	-10.0284
▁Comp	-10.0285
▁presta	-10.0295
▁expect	-10.0304
▁yes	-10.0311
▁loca	-10.0318
▁Ge	-10.0318
▁computador	-10.0321
nic	-10.0325
ores	-10.0326
ade	-10.0334
▁happens	-10.0335
▁address	-10.0335
itself	-10.0336
▁aplica	-10.0348
press	-10.0351
▁above	-10.0356
istic	-10.0365
▁drink	-10.0371
▁Fin	-10.0377
▁requirement	-10.0384
▁fra	-10.0389
▁quantidade	-10.0389
▁arte	-10.0389
▁centro	-10.0393
▁últimos	-10.0397
▁chamado	-10.0397
▁ship	-10.0402
▁mau	-10.0422
▁Gi	-10.0424
põe	-10.0426
▁enorme	-10.0427
just	-10.0432
▁recursos	-10.0433
▁approach	-10.0437
▁Senhora	-10.044
▁video	-10.0443
▁mãos	-10.0447
▁região	-10.0448
▁reach	-10.0451
lor	-10.0453
ping	-10.0454
▁somebody	-10.0458
▁Mrs	-10.0468
pha	-10.0471
▁build	-10.0474
eg	-10.0482
▁Pu	-10.0483
▁mis	-10.0492
▁Esc	-10.0493
▁70	-10.0494
▁nisso	-10.0494
02	-10.0497
▁questões	-10.0505
▁cooperação	-10.0512
▁sometime	-10.0514
▁attack	-10.052
▁deep	-10.0528
▁file	-10.0528
▁Pois	-10.053
▁hurt	-10.0541
▁serviço	-10.0551
▁acabar	-10.0554
▁olha	-10.0562
▁bat	-10.0573
▁constru	-10.0573
▁inspir	-10.0575
▁Nada	-10.0584
rio	-10.0584
▁low	-10.0588
▁execut	-10.0588
▁melhores	-10.0591
▁appropriate	-10.0593
▁coloca	-10.0602
▁cooperation	-10.0602
▁Earth	-10.0604
▁povo	-10.0612
▁objectivo	-10.0614
ras	-10.062
ING	-10.0623
▁society	-10.0625
▁benefit	-10.0635
▁criança	-10.0638
▁conhecimento	-10.0642
▁Ke	-10.0643
▁procedimento	-10.0646
▁request	-10.0646
adores	-10.065
▁gun	-10.0656
▁similar	-10.0657
▁pôr	-10.0661
ney	-10.0664
▁role	-10.0671
▁include	-10.0675
▁World	-10.0678
▁Ste	-10.0679
▁forward	-10.0682
ab	-10.0683
▁contact	-10.0687
lip	-10.0688
▁tiver	-10.0696
▁interessante	-10.0698
para	-10.07
▁respeita	-10.0701
▁origin	-10.0708
▁prop	-10.0718
▁longe	-10.0718
LA	-10.0718
▁Boa	-10.0719
▁June	-10.0726
▁Bill	-10.0728
▁Pense	-10.0737
▁War	-10.0738
▁Val	-10.0739
und	-10.0743
▁sit	-10.075
▁perfect	-10.0754
▁appear	-10.0757
▁shot	-10.0758
TA	-10.076
▁diga	-10.0762
iti	-10.0767
▁Cla	-10.0769
▁cart	-10.0777
var	-10.078
▁adopted	-10.0783
▁clean	-10.0784
tividade	-10.0786
♫	-10.0789
▁principal	-10.08
▁bebé	-10.0805
ordem	-10.0807
cur	-10.0808
▁Sorry	-10.0816
▁vivo	-10.0817
▁imagem	-10.0817
▁paper	-10.0826
07	-10.0841
OR	-10.0843
▁dizem	-10.0848
▁ref	-10.0851
▁nesse	-10.0853
▁cell	-10.0854
▁querem	-10.0854
▁transfer	-10.0855
▁tendo	-10.0858
▁interesting	-10.0858
▁pior	-10.086
▁semanas	-10.0866
▁projeto	-10.0867
tina	-10.0881
wn	-10.0882
sen	-10.0883
▁aprender	-10.0883
ey	-10.0911
▁manda	-10.0914
▁europeia	-10.0918
▁disposições	-10.092
▁perder	-10.0922
▁coração	-10.0927
▁South	-10.0927
tima	-10.0932
▁alterações	-10.0933
▁juntos	-10.0934
▁humano	-10.0938
light	-10.0941
dade	-10.0951
ush	-10.0956
▁auxílio	-10.0962
▁dura	-10.097
cial	-10.0974
tivas	-10.0977
▁paz	-10.0982
▁systems	-10.0983
fla	-10.0985
04	-10.0986
rar	-10.0987
▁write	-10.0989
vil	-10.0993
▁nature	-10.0994
▁Vocês	-10.0996
▁relativamente	-10.0997
▁Africa	-10.0997
▁Tendo	-10.1003
▁actual	-10.1015
iza	-10.1017
▁France	-10.1021
▁referido	-10.1035
▁deveria	-10.1036
▁humana	-10.1045
mun	-10.1046
gas	-10.1047
▁species	-10.1049
▁culpa	-10.1049
▁movimento	-10.1049
▁code	-10.1051
▁houve	-10.1052
▁Além	-10.106
▁ground	-10.1062
▁mention	-10.1062
▁quant	-10.1067
▁message	-10.1071
ip	-10.108
▁training	-10.1081
▁grave	-10.1081
▁logo	-10.1084
▁measure	-10.1101
▁Membro	-10.1102
▁cancer	-10.1103
ense	-10.1103
ook	-10.1111
act	-10.1112
▁provisions	-10.1113
ncy	-10.1118
▁cab	-10.1125
ima	-10.1127
▁protecção	-10.1132
▁Ei	-10.1132
▁daughter	-10.1154
▁sorte	-10.1161
rada	-10.1164
sk	-10.1166
solução	-10.1167
▁supposed	-10.1174
▁parents	-10.1176
ular	-10.118
▁dr	-10.1184
▁worry	-10.1187
▁mi	-10.1189
▁Central	-10.1193
IC	-10.1194
▁sistemas	-10.1197
▁las	-10.12
▁teste	-10.1202
▁science	-10.1204
▁First	-10.1209
ban	-10.1214
▁miúdo	-10.1215
▁pensei	-10.1215
▁promise	-10.1216
▁aqueles	-10.1227
gio	-10.1233
rus	-10.1235
▁Ber	-10.1238
▁recente	-10.1238
▁podes	-10.1238
▁fear	-10.1239
▁acredita	-10.1247
▁Tell	-10.1249
▁tenham	-10.1255
▁Sem	-10.1264
bul	-10.1266
▁practice	-10.1271
▁mostra	-10.1276
▁Joe	-10.1282
wo	-10.1289
▁David	-10.129
stituição	-10.129
EA	-10.1293
▁próxima	-10.1293
▁Ten	-10.1294
ici	-10.1297
rico	-10.131
▁focus	-10.1312
▁pur	-10.1313
▁major	-10.1317
▁má	-10.1318
12	-10.1323
qu	-10.1327
▁velho	-10.1328
▁adopt	-10.1332
▁became	-10.1333
lig	-10.1341
▁cidadãos	-10.1346
▁faço	-10.1347
▁looks	-10.1347
06	-10.135
▁perceber	-10.1351
tório	-10.1351
▁comunitária	-10.1361
▁among	-10.1362
▁examin	-10.1362
▁Penso	-10.1363
▁ski	-10.1364
▁vá	-10.1375
▁poderá	-10.1377
▁implement	-10.1379
▁safety	-10.138
▁fil	-10.1385
▁Michael	-10.1389
▁everybody	-10.1391
▁sup	-10.1399
▁2.	-10.14
▁People	-10.1401
▁Hello	-10.1401
EN	-10.1404
lk	-10.1406
▁Comité	-10.1406
▁spend	-10.1407
late	-10.1413
▁Han	-10.1417
▁á	-10.142
▁Bre	-10.142
▁pública	-10.1423
cular	-10.1428
▁challenge	-10.143
▁poor	-10.1435
▁Ter	-10.1439
▁agree	-10.144
▁nu	-10.1446
▁tirar	-10.1448
â	-10.1449
▁relationship	-10.1452
▁source	-10.1458
▁estudo	-10.1459
tico	-10.1462
▁seems	-10.1471
▁200	-10.1474
▁manage	-10.1479
▁peace	-10.1486
▁rapaz	-10.1493
int	-10.1501
▁etc	-10.1502
▁tomorrow	-10.1503
▁documento	-10.1511
kin	-10.1516
▁created	-10.1518
▁Cri	-10.1525
▁weeks	-10.1529
▁software	-10.1532
agens	-10.1534
▁utilizado	-10.1534
▁cur	-10.1538
•	-10.1538
▁África	-10.1544
iv	-10.1547
▁2012	-10.1552
ier	-10.1552
▁press	-10.1552
▁month	-10.1553
▁hundred	-10.1555
▁sociais	-10.1556
▁died	-10.1557
▁tax	-10.1561
▁financeira	-10.1561
▁demonstra	-10.1561
▁murder	-10.1567
▁Pai	-10.157
▁Having	-10.1573
ece	-10.1575
▁limite	-10.1578
▁recon	-10.1585
rig	-10.1586
▁red	-10.1587
▁resultado	-10.1587
izada	-10.1588
▁rights	-10.1589
tim	-10.1597
▁pagar	-10.1601
▁amanhã	-10.1602
ick	-10.1623
▁Unidos	-10.1624
▁objective	-10.1627
▁activities	-10.163
▁release	-10.163
▁provavelmente	-10.1632
rica	-10.164
▁destes	-10.1643
08	-10.1643
▁devido	-10.1644
OS	-10.1649
▁function	-10.165
▁carta	-10.165
▁continu	-10.1654
▁código	-10.1654
xo	-10.1655
▁rua	-10.1655
▁passe	-10.1657
30	-10.166
bility	-10.1661
ição	-10.1661
mbo	-10.1663
▁VI	-10.1663
▁touch	-10.1664
una	-10.167
▁Cre	-10.1676
zz	-10.1683
responsabilidade	-10.1683
▁comunitário	-10.1683
▁formação	-10.1685
imo	-10.1694
▁cat	-10.1694
▁língua	-10.17
▁COM	-10.1705
▁preço	-10.1705
▁due	-10.1706
icos	-10.1706
uro	-10.1707
▁evidence	-10.1718
▁vigor	-10.1721
rop	-10.1724
tors	-10.1731
▁regular	-10.1733
▁Ce	-10.1735
TE	-10.1736
dra	-10.1737
gress	-10.1738
▁resources	-10.1739
▁sítio	-10.1741
▁fazemo	-10.1744
pel	-10.1746
bal	-10.1749
▁escolha	-10.1753
giving	-10.1754
ib	-10.1758
▁whatever	-10.1758
▁white	-10.176
av	-10.1761
cimento	-10.1766
▁Give	-10.177
ah	-10.178
rim	-10.1782
▁serve	-10.1784
▁raio	-10.1784
▁esteja	-10.1789
▁agente	-10.179
▁completely	-10.1792
▁fundo	-10.1793
▁crescimento	-10.1795
▁Even	-10.1796
▁except	-10.1797
cada	-10.1798
▁method	-10.18
▁wonder	-10.1803
▁Social	-10.1804
ä	-10.1806
▁Cu	-10.1809
▁animals	-10.1809
▁dog	-10.1811
▁tonight	-10.1813
▁Ab	-10.1816
▁aspecto	-10.1816
▁regional	-10.1817
▁partes	-10.182
pped	-10.1826
▁uso	-10.1828
68	-10.183
▁Preciso	-10.183
shi	-10.183
▁exclu	-10.1836
▁road	-10.184
▁tru	-10.1845
▁elimina	-10.185
nny	-10.1851
60	-10.1861
mission	-10.1871
▁familiar	-10.1872
▁século	-10.1872
▁according	-10.1878
ística	-10.1878
▁mov	-10.1888
▁presidente	-10.189
▁movement	-10.1894
bili	-10.1905
eiros	-10.1907
▁impact	-10.1915
▁crazy	-10.1919
SA	-10.1922
▁cla	-10.1923
▁huh	-10.1926
ín	-10.1931
▁apresentar	-10.1936
▁Ko	-10.1937
bin	-10.194
▁prevent	-10.1943
▁sendo	-10.1943
gado	-10.1943
▁gestão	-10.1943
▁TED	-10.1944
▁Dezembro	-10.1945
ologia	-10.195
▁substitu	-10.1957
▁luck	-10.1962
▁exten	-10.1972
grade	-10.1979
▁honest	-10.198
▁app	-10.1982
▁opini	-10.1988
bli	-10.1999
▁serem	-10.2002
▁memor	-10.2003
▁fish	-10.2003
▁running	-10.2005
▁orienta	-10.2014
▁size	-10.2015
burg	-10.2029
▁recebe	-10.2033
▁execução	-10.204
▁structure	-10.204
▁charge	-10.2047
▁pré	-10.2052
▁unit	-10.2056
▁travel	-10.2056
▁sold	-10.2059
▁firm	-10.2068
,5	-10.207
49	-10.2072
▁resid	-10.2074
▁portanto	-10.2077
▁América	-10.2088
▁attention	-10.2088
▁natureza	-10.209
▁telling	-10.2091
▁varia	-10.2094
▁Republic	-10.2094
▁reserva	-10.2094
▁volume	-10.2094
▁tipos	-10.2105
▁vindo	-10.2111
▁institutions	-10.2124
▁económica	-10.2125
05	-10.2127
▁count	-10.2129
▁começou	-10.2131
▁estima	-10.2132
▁complete	-10.2134
▁especially	-10.2144
ose	-10.2148
▁perguntar	-10.2164
▁voz	-10.2172
▁km	-10.2175
▁demasiado	-10.218
▁budget	-10.2197
▁várias	-10.2205
▁alto	-10.2209
▁contract	-10.2209
▁changed	-10.2211
▁felt	-10.2211
▁IN	-10.2213
NA	-10.2215
▁Ac	-10.2218
▁involved	-10.2222
▁esperar	-10.2224
▁vemos	-10.2226
▁hate	-10.2227
▁35	-10.2227
▁Sul	-10.223
▁several	-10.2236
▁vol	-10.2237
tric	-10.2238
▁Peter	-10.2243
▁cross	-10.2246
▁Men	-10.2247
▁raise	-10.2253
▁querida	-10.2253
▁construir	-10.2253
▁electric	-10.2254
▁permite	-10.2254
▁acredito	-10.2261
▁fast	-10.2266
▁pontos	-10.2268
eta	-10.2269
▁verdadeira	-10.2271
▁members	-10.2272
▁voice	-10.2273
sha	-10.2273
tory	-10.2282
gri	-10.2283
65	-10.2284
▁desculpa	-10.2291
▁Gar	-10.2293
▁análise	-10.2304
▁abandon	-10.2304
▁conserva	-10.231
▁depend	-10.2317
lus	-10.2324
PA	-10.2331
▁considera	-10.2335
▁ban	-10.2338
▁considered	-10.2339
nça	-10.2347
▁region	-10.2347
▁towards	-10.2348
▁stage	-10.2354
▁económico	-10.2366
▁merda	-10.2368
rais	-10.237
▁TV	-10.2372
▁deliver	-10.2373
gin	-10.2375
▁Cal	-10.2378
time	-10.2383
▁seis	-10.2389
▁George	-10.2391
▁hot	-10.2392
▁constitui	-10.2392
▁projecto	-10.2395
▁liberdade	-10.2397
▁estranho	-10.2397
▁July	-10.2399
dura	-10.24
▁January	-10.2404
quilo	-10.2406
78	-10.241
▁perde	-10.2415
77	-10.2415
▁feita	-10.2416
▁hour	-10.2424
mé	-10.2427
▁jovens	-10.2429
▁suggest	-10.2429
▁decidi	-10.2429
▁nessa	-10.2431
iosa	-10.2442
▁happening	-10.2446
▁deixe	-10.2449
▁criação	-10.2453
▁vídeo	-10.2454
▁concern	-10.2468
▁vários	-10.2469
mark	-10.2473
▁motivo	-10.2477
▁others	-10.2477
▁cases	-10.2478
▁telefone	-10.2479
▁comunica	-10.2484
▁amazing	-10.2486
▁comida	-10.2487
▁Dan	-10.2487
tada	-10.2488
▁culture	-10.2492
▁growth	-10.2495
▁obter	-10.2498
▁worth	-10.2504
▁Dad	-10.2506
▁1998	-10.2507
▁letter	-10.2508
culo	-10.2508
▁opportunity	-10.2511
▁totalmente	-10.2514
▁banco	-10.2522
▁garantir	-10.2524
▁conce	-10.2524
▁ultra	-10.2524
fraid	-10.2524
pan	-10.2527
▁eye	-10.2527
▁2013	-10.253
▁resolver	-10.2539
▁online	-10.2539
▁entrada	-10.254
ai	-10.2541
X	-10.2546
▁management	-10.2554
low	-10.2556
▁join	-10.2556
▁comer	-10.2561
▁células	-10.2561
▁acompanha	-10.2562
▁internacional	-10.2568
▁carry	-10.2571
▁sente	-10.2573
▁sinto	-10.2577
met	-10.2579
lthough	-10.2581
▁Va	-10.2596
▁valores	-10.2606
▁milhares	-10.2607
load	-10.2608
iano	-10.2611
▁visita	-10.2612
▁box	-10.2615
cula	-10.2626
▁morta	-10.2634
▁current	-10.2636
rado	-10.2643
bel	-10.2643
▁investimento	-10.2647
▁particularly	-10.2648
▁feed	-10.2651
▁pris	-10.2654
▁preços	-10.2655
▁card	-10.2657
▁possam	-10.2657
▁terá	-10.2661
EC	-10.2662
▁tratar	-10.2662
▁vota	-10.2665
▁1997	-10.2666
▁prove	-10.2673
▁train	-10.2673
ef	-10.2674
ised	-10.2677
▁street	-10.2677
▁receber	-10.2678
▁ama	-10.2678
▁95	-10.2679
▁iria	-10.2679
▁color	-10.2679
MA	-10.2681
▁fonte	-10.2684
▁norte	-10.2693
▁official	-10.2703
▁custo	-10.2708
55	-10.2715
ón	-10.2718
▁sexual	-10.2718
▁instituições	-10.272
▁cool	-10.272
▁marido	-10.272
▁effort	-10.2723
▁Ninguém	-10.2729
▁Listen	-10.2729
▁chamar	-10.2732
▁div	-10.2737
▁finally	-10.2739
89	-10.2741
▁fix	-10.2742
▁husband	-10.2742
posição	-10.2745
▁concerning	-10.2747
af	-10.2751
▁permitir	-10.2752
▁ball	-10.2755
ecei	-10.2757
▁seven	-10.2757
▁ciência	-10.2759
▁média	-10.2762
▁simply	-10.2762
▁issues	-10.2762
▁organização	-10.2765
▁upon	-10.2777
82	-10.279
▁news	-10.279
net	-10.2795
▁CO	-10.2795
az	-10.2806
▁capaz	-10.2822
comp	-10.2826
▁Israel	-10.2827
▁fail	-10.2831
▁estabelece	-10.2833
.6	-10.2851
isation	-10.2855
▁lose	-10.2855
▁House	-10.2856
▁demand	-10.2859
▁financeiro	-10.286
▁políticas	-10.2861
▁citizens	-10.2861
có	-10.2861
▁mom	-10.2862
▁US	-10.2866
▁celebra	-10.2866
▁Final	-10.2867
▁orige	-10.2869
▁errado	-10.288
▁essential	-10.2887
▁perguntas	-10.2891
▁Sir	-10.2892
▁DO	-10.2893
▁grupos	-10.2895
mba	-10.2899
▁referência	-10.29
▁fair	-10.2901
▁sum	-10.2913
▁results	-10.2914
▁fotografia	-10.2919
cel	-10.293
▁impress	-10.2931
▁pronto	-10.2931
EL	-10.2932
▁alteração	-10.2932
▁destas	-10.2933
▁Fica	-10.2935
▁qu	-10.2938
▁aparece	-10.2942
▁replace	-10.2943
▁sister	-10.2945
▁aumentar	-10.2947
▁sexo	-10.2947
▁argument	-10.2952
▁Deixe	-10.296
▁neuro	-10.2961
▁avaliação	-10.2964
▁Agreement	-10.2965
▁trás	-10.2966
▁learned	-10.2972
▁knowledge	-10.2972
zer	-10.2981
rate	-10.2981
▁cultural	-10.2983
▁March	-10.2983
▁Vais	-10.2984
▁visual	-10.2986
▁miss	-10.2988
▁unidade	-10.2994
▁idade	-10.3
rma	-10.3004
▁informa	-10.3005
▁Dá	-10.3009
ov	-10.3013
▁limita	-10.3019
▁From	-10.3025
▁andar	-10.3028
▁lie	-10.3028
▁Podem	-10.3036
▁cro	-10.304
▁girls	-10.3044
▁shoot	-10.3045
NC	-10.3048
sol	-10.3049
▁professor	-10.3056
chu	-10.3056
▁assegurar	-10.3058
▁responsibilit	-10.3059
42	-10.3061
▁digital	-10.3065
▁reflect	-10.3066
ÃO	-10.3067
▁wh	-10.307
▁private	-10.3079
▁montante	-10.308
▁waiting	-10.3081
ata	-10.3084
▁consulta	-10.3085
▁pagamento	-10.3094
▁melhorar	-10.3097
▁Two	-10.3097
▁método	-10.3099
▁Min	-10.3109
day	-10.3115
▁fecha	-10.3117
▁contrário	-10.3119
▁crise	-10.312
▁link	-10.3121
▁bed	-10.3124
▁Tri	-10.3128
▁segui	-10.3131
▁French	-10.3133
▁instrumento	-10.3141
▁III	-10.3142
▁eight	-10.3142
▁viola	-10.3149
ij	-10.3151
76	-10.3152
▁forget	-10.3154
ek	-10.3156
▁Fal	-10.3158
ator	-10.316
tação	-10.3161
▁rock	-10.3165
▁Lord	-10.3174
▁sucesso	-10.3174
▁fly	-10.3176
▁depende	-10.3178
▁massa	-10.318
▁veículo	-10.318
LE	-10.3184
▁object	-10.3188
▁sonho	-10.319
▁track	-10.319
▁industrial	-10.3194
lguém	-10.3202
fre	-10.3205
▁potential	-10.3214
char	-10.3214
6	-10.3215
▁Decisão	-10.3221
▁Wi	-10.3225
▁rápido	-10.3228
▁decisões	-10.3235
▁técnica	-10.3235
ization	-10.324
▁prevista	-10.3241
▁decide	-10.3243
▁partner	-10.3247
ο	-10.3248
▁century	-10.3248
▁deverá	-10.3248
▁beginning	-10.3249
▁comunicação	-10.325
▁Estes	-10.3256
▁established	-10.3258
▁Thanks	-10.3261
▁Court	-10.3262
.7	-10.3264
▁haver	-10.3277
ela	-10.3277
▁Á	-10.328
▁built	-10.3283
▁programas	-10.3285
▁investment	-10.3285
▁mini	-10.329
▁ganhar	-10.3302
▁October	-10.331
vé	-10.3312
▁parti	-10.3315
▁hotel	-10.3321
fen	-10.3323
nci	-10.3328
lum	-10.3328
▁creat	-10.333
▁quiser	-10.333
▁cells	-10.3332
▁venda	-10.3334
▁works	-10.334
▁importantes	-10.3342
▁significant	-10.335
gon	-10.3355
▁troca	-10.3358
▁average	-10.3365
▁1994	-10.3367
▁sell	-10.3367
bit	-10.3368
▁Most	-10.3369
essa	-10.3373
▁held	-10.3373
▁1996	-10.3374
▁vítima	-10.3379
▁stress	-10.3379
cie	-10.3381
▁begin	-10.3383
▁relation	-10.3392
▁vehicle	-10.3393
▁Espero	-10.3393
64	-10.3395
▁wall	-10.3397
▁confus	-10.34
▁92	-10.3402
▁wear	-10.3402
▁admit	-10.3403
▁Tinha	-10.3407
▁desaparece	-10.3407
▁título	-10.3407
▁escrito	-10.3428
▁32	-10.3431
▁border	-10.3435
cen	-10.3437
▁Podes	-10.3437
▁edifício	-10.3441
▁organization	-10.345
▁RE	-10.3452
▁laid	-10.3454
▁fat	-10.3454
47	-10.3467
▁transmit	-10.3467
▁economy	-10.3469
▁technical	-10.3469
▁digo	-10.3477
▁completamente	-10.3478
tória	-10.3483
▁Pelo	-10.3484
▁Nothing	-10.3484
▁Bur	-10.3487
relações	-10.3495
▁impacto	-10.3497
▁1.	-10.3501
▁alínea	-10.3504
▁importância	-10.3505
▁compra	-10.351
▁esperança	-10.3512
▁Ed	-10.3515
▁correr	-10.3522
▁prepara	-10.3524
▁ameaça	-10.3525
▁liga	-10.3528
vio	-10.3532
▁existem	-10.3532
ética	-10.3534
▁confirm	-10.3536
▁mental	-10.3544
▁acabou	-10.3547
▁camp	-10.3547
▁irmã	-10.355
▁credit	-10.3558
▁Medi	-10.3563
▁framework	-10.3568
ound	-10.3578
▁dad	-10.3585
▁integra	-10.3593
▁Neste	-10.3593
▁Tribunal	-10.3596
rge	-10.3599
▁45	-10.3599
▁ideias	-10.3603
▁amendment	-10.3606
▁rapidamente	-10.3611
ists	-10.3615
▁sc	-10.3618
ison	-10.3619
▁claim	-10.3626
▁organismo	-10.3631
▁precisam	-10.3633
▁dark	-10.3636
▁huge	-10.3639
ró	-10.3643
54	-10.3647
ology	-10.3656
▁ocupa	-10.3657
▁guarantee	-10.366
▁licença	-10.3667
▁custos	-10.3669
▁boas	-10.3672
▁applicable	-10.3674
▁responsible	-10.3674
▁instrument	-10.3684
▁pin	-10.3688
▁obvious	-10.3688
▁meaning	-10.3701
▁Mike	-10.3703
▁comprar	-10.3705
▁agrícola	-10.371
wood	-10.3711
ético	-10.3717
▁anymore	-10.3719
ré	-10.3719
▁wants	-10.3719
▁radio	-10.372
ávamos	-10.3721
plu	-10.3722
▁reforma	-10.3725
▁near	-10.3727
▁implementation	-10.3728
▁junta	-10.3736
▁República	-10.3753
▁himself	-10.3753
▁relevant	-10.3753
▁contrato	-10.3757
rro	-10.3762
▁fit	-10.3764
▁popular	-10.3767
▁costs	-10.3771
mino	-10.3774
▁vontade	-10.3774
▁exercício	-10.3774
▁Commissioner	-10.3778
▁Ya	-10.3781
ü	-10.3782
09	-10.3782
▁Tre	-10.3785
▁reference	-10.3785
▁pull	-10.3789
▁trouble	-10.3789
▁pedi	-10.3789
▁related	-10.3793
▁ficou	-10.3793
▁shar	-10.3795
▁500	-10.3798
▁Christ	-10.3798
▁equal	-10.3807
▁proteger	-10.3811
▁improve	-10.3812
gur	-10.3813
▁Reg	-10.3815
mensagem	-10.3817
▁welcome	-10.3818
▁applie	-10.3822
▁Out	-10.3822
▁ligar	-10.3836
▁target	-10.3839
▁trabalhadores	-10.3842
▁Great	-10.3854
▁wide	-10.3856
▁acção	-10.3859
TO	-10.386
▁joga	-10.3863
▁Será	-10.3868
▁procurar	-10.3874
CI	-10.3877
▁aware	-10.3877
over	-10.3879
▁Hoje	-10.388
vic	-10.3888
▁sinal	-10.3892
▁verdadeiro	-10.3894
▁Mac	-10.3895
▁seeing	-10.3895
▁cancro	-10.3898
▁mês	-10.3898
and	-10.3901
▁Ken	-10.3912
▁victim	-10.3912
▁baixa	-10.3912
▁waste	-10.3913
▁cast	-10.3914
58	-10.3917
▁previsto	-10.3919
OL	-10.3927
▁regulation	-10.3928
▁require	-10.3935
▁payment	-10.3936
▁brincar	-10.3938
▁Hol	-10.3941
▁1995	-10.3943
▁evitar	-10.3949
▁caixa	-10.3949
▁moral	-10.3959
RO	-10.3959
▁interior	-10.3961
ought	-10.3962
▁registo	-10.3963
▁vale	-10.3964
ji	-10.397
nom	-10.3973
▁disco	-10.3987
84	-10.3987
▁conhecer	-10.4
▁escala	-10.4001
▁environmental	-10.4004
▁sozinho	-10.4012
▁Mom	-10.4015
▁September	-10.4015
▁Mad	-10.4021
íveis	-10.4023
▁guarda	-10.4024
▁required	-10.4025
▁seguintes	-10.4025
▁various	-10.403
▁despe	-10.4036
▁sun	-10.4037
▁positive	-10.4037
▁twi	-10.4042
tenção	-10.4043
lon	-10.4044
▁patient	-10.4046
▁autoriza	-10.4047
gia	-10.4048
▁especialmente	-10.4048
▁song	-10.405
▁character	-10.4052
▁success	-10.4058
Junho	-10.4058
CE	-10.4059
ically	-10.4068
▁chave	-10.4071
▁300	-10.4072
▁desafio	-10.4074
▁veio	-10.4076
▁groups	-10.4077
▁ocorre	-10.4084
▁leader	-10.4084
▁peça	-10.4085
quê	-10.4086
▁extreme	-10.4089
▁surprise	-10.4089
▁bra	-10.4089
▁dormir	-10.4089
▁ahead	-10.4093
▁possibilit	-10.4096
▁investi	-10.4097
zar	-10.4097
▁Dia	-10.4099
▁acções	-10.41
▁fazia	-10.4104
ncia	-10.4109
bia	-10.4109
▁ensino	-10.4112
▁terceiro	-10.4114
ject	-10.4114
▁Apenas	-10.4119
▁visão	-10.4123
ung	-10.4128
▁buscar	-10.4129
▁device	-10.4129
▁colocar	-10.413
▁armas	-10.4138
40	-10.4146
▁competition	-10.4147
▁Janeir	-10.4152
▁peso	-10.4154
▁stories	-10.4156
▁middle	-10.4164
▁93	-10.4165
▁April	-10.4171
▁manufactur	-10.4179
▁pó	-10.418
▁center	-10.418
▁ataque	-10.418
▁resist	-10.4182
▁transform	-10.4184
▁desejo	-10.4186
▁viagem	-10.419
▁fase	-10.4195
▁confi	-10.4196
▁adult	-10.4198
86	-10.4199
AC	-10.4199
cup	-10.4201
present	-10.421
72	-10.4211
▁students	-10.4212
▁physical	-10.4216
▁fixa	-10.4221
▁Ph	-10.4228
▁changes	-10.4229
▁authority	-10.4231
▁Any	-10.4233
uff	-10.4235
▁imagen	-10.4237
▁estive	-10.4245
▁hair	-10.4246
▁competitiv	-10.4251
▁compensa	-10.4255
cker	-10.4257
PE	-10.4258
▁apresenta	-10.4259
▁orçamento	-10.4261
67	-10.4269
▁More	-10.4274
▁festa	-10.4277
▁scale	-10.4286
▁drug	-10.4286
cil	-10.4287
▁oil	-10.4291
▁Sub	-10.43
▁ways	-10.4303
▁tree	-10.4306
▁projects	-10.431
▁estratégia	-10.4322
▁medical	-10.4324
▁Mark	-10.4325
ase	-10.4326
▁paid	-10.4327
ification	-10.4332
▁response	-10.4337
▁abrir	-10.4338
ink	-10.4346
▁solar	-10.4347
▁Luc	-10.4349
▁sofre	-10.4349
▁mark	-10.4359
▁consequência	-10.436
▁Mc	-10.4361
▁workers	-10.4361
▁tornou	-10.4362
▁revela	-10.4366
bil	-10.437
▁propostas	-10.437
▁formula	-10.4371
▁communication	-10.4375
▁administra	-10.4376
▁sick	-10.4376
▁muda	-10.4381
▁competente	-10.4382
eiras	-10.4385
▁acreditar	-10.4391
▁Qui	-10.4392
▁Bank	-10.4394
▁eventual	-10.4396
▁morreu	-10.4398
▁respond	-10.4401
▁path	-10.4402
▁teacher	-10.4404
coming	-10.4406
OU	-10.4408
▁acima	-10.4415
▁Bal	-10.4418
▁hipótese	-10.4421
lí	-10.4427
▁chi	-10.4428
ciais	-10.443
▁percebe	-10.4438
▁breve	-10.4438
fle	-10.444
▁adiciona	-10.4441
▁alive	-10.4444
▁kg	-10.4448
▁Reino	-10.4448
▁disc	-10.4454
▁Star	-10.4456
▁bomb	-10.446
▁pudesse	-10.4462
▁slow	-10.4464
lá	-10.4464
rie	-10.4466
▁membro	-10.4469
▁Does	-10.4473
▁texto	-10.4474
▁Would	-10.4475
▁Steve	-10.4479
▁Excuse	-10.4483
66	-10.4489
▁court	-10.4491
gou	-10.4498
▁producer	-10.45
▁legislação	-10.4503
én	-10.4506
▁Considerando	-10.4507
▁carne	-10.4508
▁Sure	-10.4511
▁chefe	-10.4512
ev	-10.4514
▁freedom	-10.4514
▁pare	-10.4522
▁Toda	-10.4524
▁Every	-10.4525
▁navio	-10.4526
▁dúvida	-10.453
▁weapon	-10.453
▁extrema	-10.453
▁constante	-10.4531
HO	-10.4532
▁throw	-10.4538
▁DA	-10.4538
▁task	-10.454
ude	-10.454
▁weight	-10.4545
▁TO	-10.4547
▁mundial	-10.4549
▁Regi	-10.4552
▁greater	-10.4555
▁classe	-10.4557
mended	-10.4561
▁Gostaria	-10.4562
▁rea	-10.4563
▁escrever	-10.4564
▁reform	-10.4566
16	-10.457
▁casamento	-10.4571
▁associa	-10.4576
▁Chris	-10.4577
▁actividades	-10.4584
▁James	-10.4585
▁contexto	-10.4592
▁foot	-10.4593
fizeram	-10.4595
og	-10.4597
▁descobri	-10.4602
▁96	-10.4607
▁estrela	-10.4608
▁member	-10.4609
56	-10.4612
▁Wal	-10.4614
▁Ser	-10.4614
▁Pat	-10.4614
▁falha	-10.4615
▁Sol	-10.4618
room	-10.4621
▁querer	-10.4622
▁ran	-10.4623
▁English	-10.4623
▁disposto	-10.4623
aste	-10.463
▁gentlemen	-10.4631
▁branco	-10.4631
▁urban	-10.4631
▁equ	-10.4632
▁West	-10.4634
▁Paris	-10.4637
▁Tal	-10.4637
▁North	-10.464
▁lay	-10.4641
▁directly	-10.4644
aught	-10.4646
▁prote	-10.4646
spira	-10.4647
▁conhecido	-10.4648
rit	-10.4649
une	-10.465
right	-10.4651
▁1992	-10.4656
▁normas	-10.4658
▁permiti	-10.4659
pect	-10.466
▁balance	-10.4664
▁flu	-10.4668
▁push	-10.467
▁câmara	-10.467
▁married	-10.467
▁Portugal	-10.4678
▁1993	-10.4678
▁Alguma	-10.4678
▁strange	-10.4682
▁Dra	-10.4686
▁Bas	-10.4686
▁frac	-10.4693
▁Tru	-10.4701
▁vejo	-10.4703
▁mission	-10.4707
▁Pra	-10.4707
ctic	-10.4709
▁consult	-10.4714
▁detect	-10.4714
▁mistake	-10.4718
▁interessa	-10.4722
▁euros	-10.4732
▁sul	-10.4746
▁bodies	-10.475
▁literal	-10.475
pu	-10.4753
▁Count	-10.4755
▁learning	-10.476
▁seres	-10.4766
▁fronteira	-10.4767
74	-10.4781
▁líder	-10.4781
▁pressure	-10.4782
▁band	-10.4784
▁organisation	-10.4789
▁green	-10.4789
nosco	-10.4794
▁Stop	-10.4796
▁pesquisa	-10.4797
regiões	-10.4798
▁sitting	-10.4801
▁ontem	-10.4804
▁catch	-10.4808
níveis	-10.4812
▁establishing	-10.4815
▁75	-10.4817
▁Tive	-10.482
▁vive	-10.4821
▁aren	-10.4824
▁block	-10.4824
▁active	-10.4827
gency	-10.4827
▁negócio	-10.4828
pol	-10.4828
▁objetivo	-10.4829
▁smart	-10.4831
ik	-10.4836
▁máximo	-10.4837
▁devo	-10.484
9	-10.4845
▁developed	-10.4852
Ó	-10.4853
▁específica	-10.4853
▁movie	-10.4854
ena	-10.4855
▁tend	-10.4856
▁Pensa	-10.4859
▁defend	-10.4859
spent	-10.4859
▁rein	-10.486
▁Governo	-10.4861
▁internal	-10.4863
▁Which	-10.4877
▁EN	-10.4879
▁cru	-10.4879
▁estudante	-10.488
▁1990	-10.488
▁responder	-10.4881
▁interno	-10.4882
▁elabora	-10.4884
ificação	-10.4884
▁fale	-10.4884
▁NO	-10.4893
▁bag	-10.4895
▁Euro	-10.49
α	-10.4901
▁page	-10.4903
meter	-10.4904
▁Whereas	-10.4906
99	-10.4907
0,000	-10.491
▁acorda	-10.4911
▁relativas	-10.4912
▁iniciativa	-10.4914
▁compromisso	-10.4918
▁Ze	-10.492
cher	-10.4928
▁autoridade	-10.4931
ET	-10.4941
mate	-10.4942
▁Group	-10.4942
jovem	-10.495
▁adapta	-10.4951
▁Sempre	-10.4952
▁deseja	-10.4953
▁realize	-10.4956
▁utilizar	-10.4962
ento	-10.4965
03	-10.4965
▁substância	-10.4966
46	-10.4967
II	-10.4969
▁rule	-10.4969
▁saí	-10.497
zen	-10.497
▁standard	-10.4972
▁ideas	-10.4979
▁context	-10.4982
57	-10.4982
▁próprios	-10.4983
▁obra	-10.4984
▁higher	-10.4989
tec	-10.4989
▁military	-10.499
▁substance	-10.4991
▁Time	-10.4992
79	-10.4997
▁Vol	-10.4999
▁desenvolver	-10.5002
▁combina	-10.5004
▁November	-10.5007
▁exchange	-10.5007
▁educação	-10.5012
▁compara	-10.5015
▁segura	-10.5019
▁obriga	-10.5019
▁legislation	-10.5021
▁tarefa	-10.5023
▁Durante	-10.5024
▁store	-10.5025
▁satisfa	-10.5026
▁maiores	-10.5028
▁affect	-10.5031
▁Red	-10.5033
▁98	-10.5038
▁Mesmo	-10.504
lie	-10.5045
ped	-10.5048
▁Fuck	-10.5049
timo	-10.5053
▁points	-10.5056
▁disseram	-10.5056
▁avalia	-10.5059
ique	-10.5066
62	-10.5075
▁review	-10.5084
▁starting	-10.5085
dição	-10.5085
▁especifica	-10.5089
▁blue	-10.5089
uma	-10.5093
▁financiamento	-10.5106
gua	-10.5108
52	-10.5114
▁mesa	-10.5123
▁Mary	-10.5123
▁referida	-10.5132
tém	-10.5132
▁perform	-10.5134
▁acerca	-10.5139
▁sing	-10.514
▁resolução	-10.515
▁lembra	-10.5151
▁implica	-10.5156
59	-10.516
▁Primeiro	-10.5163
▁adora	-10.5163
▁planta	-10.5163
▁progresso	-10.5171
▁previous	-10.5171
ssão	-10.5181
▁bus	-10.5183
▁search	-10.5193
▁hum	-10.52
▁91	-10.5201
▁pap	-10.5201
▁drop	-10.5204
▁contacto	-10.5204
▁photo	-10.5205
▁histórias	-10.5206
guei	-10.5212
▁National	-10.5213
▁destroy	-10.5213
▁addition	-10.5223
tried	-10.5228
▁carried	-10.5229
Z	-10.5231
▁board	-10.5233
▁Got	-10.5233
▁notice	-10.5235
▁kept	-10.5238
▁mata	-10.5244
ö	-10.5246
▁powerful	-10.525
▁burn	-10.5253
▁recomenda	-10.5254
▁connection	-10.5257
▁paciente	-10.5279
▁afecta	-10.5279
▁Robert	-10.528
▁clearly	-10.5288
▁notícias	-10.5288
▁comportamento	-10.5288
▁duma	-10.5289
▁altera	-10.529
▁Acordo	-10.5296
CH	-10.5302
▁chego	-10.5306
▁enjoy	-10.5313
▁detail	-10.5315
▁dize	-10.5316
▁Za	-10.5319
▁floresta	-10.5321
▁thousands	-10.5324
yond	-10.5333
▁tanta	-10.5336
▁solve	-10.5337
▁crédito	-10.5338
▁combate	-10.5343
▁remo	-10.535
▁certainly	-10.535
▁host	-10.5352
▁Vê	-10.5355
▁develop	-10.5356
▁Sai	-10.5356
▁nele	-10.5358
▁formas	-10.5358
▁quickly	-10.5365
▁reasons	-10.5371
▁estudos	-10.5372
▁menina	-10.5373
▁Since	-10.5376
▁36	-10.5377
▁Bel	-10.5377
▁ferramenta	-10.538
IA	-10.5382
▁whose	-10.5384
▁responsável	-10.5389
▁camera	-10.539
▁fundos	-10.5395
▁território	-10.5397
▁German	-10.5401
bur	-10.5401
▁envia	-10.5402
▁doente	-10.5402
▁professional	-10.5403
▁option	-10.5412
DI	-10.5417
ane	-10.5419
▁Comissário	-10.5426
71	-10.543
▁árvore	-10.5431
▁City	-10.5438
▁parties	-10.5441
▁activa	-10.545
▁terem	-10.545
▁salvar	-10.5456
▁confiança	-10.5457
▁viu	-10.5461
▁Win	-10.5463
▁demais	-10.547
▁decisions	-10.5471
▁metade	-10.5472
▁afirma	-10.5474
ett	-10.5481
▁criminal	-10.5482
▁range	-10.5483
▁estivesse	-10.5485
▁parceiro	-10.5491
▁pratica	-10.5497
▁semelhante	-10.5499
▁accident	-10.5507
▁padr	-10.5507
▁maintain	-10.5509
ero	-10.551
▁33	-10.5513
q	-10.5514
▁Part	-10.5515
▁explicar	-10.5516
▁medicine	-10.5517
▁colabora	-10.5517
▁determinado	-10.552
▁King	-10.5522
▁elevado	-10.5522
▁reuni	-10.5522
▁trip	-10.5524
▁resolution	-10.5525
▁roupa	-10.5525
▁grand	-10.5527
▁depressa	-10.5535
▁takes	-10.5538
▁rapazes	-10.5541
▁Charlie	-10.5542
▁Kar	-10.5545
▁Fund	-10.5548
▁tamanho	-10.5551
▁expert	-10.5551
ç	-10.5555
▁nisto	-10.556
▁conseguimo	-10.5563
▁Max	-10.5567
▁leve	-10.5568
▁inferior	-10.5568
▁objectivos	-10.5569
▁fill	-10.557
▁match	-10.5575
guard	-10.5576
▁lutar	-10.5577
▁Germany	-10.5583
▁exporta	-10.5587
▁Sinto	-10.5587
chan	-10.5588
▁objecto	-10.5593
▁floor	-10.5594
▁peixe	-10.5594
▁comércio	-10.5595
crisis	-10.5595
▁Alemanha	-10.5611
▁profissional	-10.5611
MENT	-10.5615
▁Desde	-10.5616
▁construção	-10.5618
▁completa	-10.5619
14	-10.5624
▁tínhamos	-10.5629
▁Espere	-10.5629
dul	-10.5632
well	-10.5634
▁Olhe	-10.5643
▁usado	-10.5643
▁organiz	-10.5644
▁fur	-10.5645
▁indi	-10.5645
▁section	-10.5646
▁Brazil	-10.5646
▁generation	-10.5646
▁Julho	-10.565
▁imper	-10.5651
fund	-10.5652
▁bal	-10.5654
▁writing	-10.5655
▁mate	-10.5657
▁Roman	-10.5665
▁bear	-10.5666
▁alimentar	-10.5667
ned	-10.5668
▁map	-10.5671
▁favour	-10.5672
▁farm	-10.5673
▁acidente	-10.5674
rup	-10.5674
▁Ray	-10.5679
▁página	-10.5681
▁entender	-10.5684
▁Nice	-10.5685
▁introduce	-10.5689
▁consumer	-10.569
▁devemo	-10.569
lina	-10.5692
▁Enquanto	-10.5707
▁facilit	-10.5708
▁goal	-10.5708
▁inicia	-10.5709
▁directive	-10.5712
▁tais	-10.5712
ati	-10.5714
▁laboratório	-10.5716
▁levou	-10.5716
▁Bon	-10.5718
▁curso	-10.5729
▁idiota	-10.573
▁mail	-10.5733
▁Carl	-10.5734
cola	-10.5736
▁pilot	-10.5736
▁europeu	-10.574
▁agricultural	-10.5742
▁website	-10.5742
▁educa	-10.5744
▁ler	-10.5747
▁Air	-10.5747
▁jantar	-10.5751
▁add	-10.5751
▁aproxima	-10.5753
gt	-10.5753
▁funcionar	-10.5753
ntendo	-10.5754
▁requer	-10.5756
▁profunda	-10.576
vida	-10.5763
▁amend	-10.5764
▁Bol	-10.5766
▁dificuldade	-10.5768
▁arranjar	-10.577
▁equipamento	-10.5772
work	-10.5773
ncing	-10.5774
ben	-10.5776
▁Mãe	-10.5777
▁invest	-10.5779
pression	-10.578
▁worse	-10.5786
▁Arm	-10.5791
▁tele	-10.5791
▁bater	-10.5793
▁performance	-10.5796
cionais	-10.5807
ía	-10.581
▁mad	-10.581
▁Fui	-10.5817
▁rich	-10.5819
▁spa	-10.5822
▁activity	-10.5822
▁India	-10.5822
▁Veja	-10.5825
▁dance	-10.583
▁avoid	-10.583
▁Van	-10.5832
ligação	-10.5834
▁reac	-10.5835
▁Devia	-10.5837
▁aceitar	-10.5842
▁condition	-10.5843
ónia	-10.5844
▁envolve	-10.5846
ably	-10.5846
▁receive	-10.5852
▁parts	-10.5855
▁precisar	-10.5862
▁Tor	-10.5863
▁increasing	-10.5865
alha	-10.5876
▁employment	-10.5876
▁Human	-10.588
▁imediatamente	-10.5886
▁Sen	-10.5887
▁contribution	-10.5898
▁essencial	-10.5901
▁leaving	-10.5901
.8	-10.591
▁Green	-10.591
hose	-10.5911
VE	-10.5916
▁propriedade	-10.5919
69	-10.592
▁termina	-10.5922
▁frequente	-10.5924
▁traz	-10.5926
▁porquê	-10.5929
reunião	-10.5931
iana	-10.5931
▁levels	-10.5934
▁político	-10.5935
▁Februar	-10.5937
▁violência	-10.5937
tha	-10.5937
▁dedica	-10.5941
elo	-10.5941
cc	-10.5946
▁advance	-10.5946
▁scientist	-10.5946
▁grava	-10.5952
▁Dar	-10.5954
25	-10.5955
▁Vão	-10.5956
▁East	-10.5961
▁dado	-10.5962
▁places	-10.5969
▁específico	-10.5973
ssemos	-10.5976
flu	-10.5978
▁produz	-10.5982
▁Over	-10.5982
▁seat	-10.5986
98	-10.5987
▁fully	-10.5989
▁cientista	-10.5991
▁legisla	-10.5995
▁prazer	-10.6001
▁importação	-10.6002
▁competi	-10.6004
▁mode	-10.6004
▁climate	-10.6004
▁inteligente	-10.6008
▁França	-10.6009
▁speed	-10.6009
▁capacity	-10.6013
▁funny	-10.6019
▁fizemos	-10.6028
▁imaginar	-10.6029
▁allowed	-10.603
uit	-10.6033
▁Google	-10.6045
▁provision	-10.6047
die	-10.6048
▁Anda	-10.6054
▁wrote	-10.6054
▁straight	-10.6054
75	-10.6057
90	-10.6063
▁abordage	-10.6063
zy	-10.6063
▁improv	-10.6065
NE	-10.6067
▁careful	-10.6067
▁Super	-10.6071
▁aula	-10.6074
▁Sra	-10.6079
▁guard	-10.6079
pper	-10.6081
ith	-10.6086
▁sweet	-10.609
▁choose	-10.609
▁dangerous	-10.609
▁deixou	-10.609
▁series	-10.6096
▁hang	-10.6098
▁pertence	-10.6099
▁companhia	-10.6108
▁década	-10.6108
▁Henry	-10.6108
oxi	-10.6114
▁televis	-10.6114
itária	-10.6116
▁Nick	-10.6121
▁core	-10.6121
▁boys	-10.6123
▁alter	-10.6124
▁Parti	-10.6124
▁ladies	-10.6127
▁cry	-10.6128
▁Bro	-10.613
▁feet	-10.6132
▁universe	-10.6135
▁café	-10.6135
▁CON	-10.6139
▁African	-10.614
▁Park	-10.614
▁anybody	-10.6141
▁Num	-10.6142
▁indivíduo	-10.6144
▁redes	-10.615
▁minuto	-10.6151
ulo	-10.6152
▁principais	-10.6154
01	-10.6154
▁foreign	-10.6154
▁evolução	-10.6155
▁verifica	-10.6156
▁97	-10.6156
▁collect	-10.6157
▁nasce	-10.6164
▁bitch	-10.6174
▁drugs	-10.6179
▁função	-10.6179
▁despesas	-10.6181
▁Plan	-10.6182
▁Only	-10.6185
▁anyway	-10.619
▁lower	-10.6192
▁studies	-10.6194
gro	-10.6195
▁dimens	-10.6201
▁compreender	-10.6203
▁aim	-10.6204
▁Alex	-10.6206
felizmente	-10.6208
▁preocupe	-10.6209
▁spread	-10.6209
▁increased	-10.6209
gram	-10.6211
▁tiro	-10.6212
▁preso	-10.6212
hou	-10.6217
ânico	-10.6218
tiny	-10.6219
▁imagina	-10.622
▁Leva	-10.622
▁eficaz	-10.622
▁ignor	-10.6225
15	-10.6229
▁considerado	-10.6229
▁prices	-10.6232
of	-10.6233
▁psych	-10.6236
▁August	-10.6236
▁junto	-10.624
▁4.	-10.6247
▁van	-10.6248
▁3.	-10.6253
▁achas	-10.6253
▁Aquele	-10.6255
mmy	-10.6256
▁wonderful	-10.6256
▁modifica	-10.6257
▁distin	-10.6263
▁garantia	-10.6264
▁alimento	-10.6264
▁Ven	-10.6265
▁cuidado	-10.6266
▁quis	-10.6268
▁developing	-10.6269
▁destina	-10.6272
▁Never	-10.6273
▁Richard	-10.6273
▁AND	-10.6273
▁stick	-10.6274
▁apresentado	-10.6276
▁thereof	-10.6282
ju	-10.6286
▁Ouvi	-10.6287
▁beat	-10.6289
▁indicate	-10.6293
▁Martin	-10.6299
▁ensaio	-10.6301
▁written	-10.6301
▁shape	-10.6302
▁Mer	-10.6304
▁rap	-10.6304
▁orden	-10.6307
▁conflito	-10.631
▁prima	-10.6313
▁Gal	-10.6318
spite	-10.6318
▁degree	-10.632
▁holding	-10.6325
▁tira	-10.6328
▁basically	-10.633
▁zero	-10.6331
▁Wh	-10.6332
▁ficheiro	-10.6338
▁reduzir	-10.6338
▁época	-10.6338
▁select	-10.6342
▁recent	-10.6347
▁meta	-10.6348
▁espero	-10.6348
▁bone	-10.6355
▁perda	-10.6356
▁olho	-10.6357
▁produce	-10.636
DA	-10.6361
IL	-10.6362
pho	-10.6366
▁calcul	-10.6367
▁99	-10.6373
▁belong	-10.6376
▁estrada	-10.6377
▁refer	-10.6378
▁tomada	-10.6382
▁parar	-10.6387
DE	-10.6389
▁Par	-10.639
▁exatamente	-10.6394
▁regulamenta	-10.6395
▁medicamentos	-10.6396
del	-10.6407
received	-10.6411
▁duty	-10.6411
▁robot	-10.6414
▁85	-10.6416
▁Entre	-10.6417
▁Bru	-10.6422
▁Achas	-10.6425
▁reading	-10.6433
issões	-10.6435
▁aumenta	-10.6439
▁conclusion	-10.6443
▁dinner	-10.645
▁genetic	-10.6451
▁aspect	-10.6454
▁meant	-10.6456
80	-10.6456
bora	-10.6459
▁Adeus	-10.646
▁aberto	-10.6461
▁damage	-10.6461
ografia	-10.6463
▁fato	-10.6465
ID	-10.6467
▁engineer	-10.6469
▁strategy	-10.6469
LL	-10.6471
▁blow	-10.6473
▁Hold	-10.6476
▁behavior	-10.6479
▁Office	-10.6479
▁Pen	-10.6481
▁graça	-10.6485
▁conflict	-10.6488
▁stupid	-10.6488
▁jogar	-10.6497
▁liquid	-10.6498
▁recebi	-10.6498
▁formal	-10.6504
▁respira	-10.6507
bby	-10.6511
▁YOU	-10.6518
house	-10.6519
anda	-10.6525
▁Put	-10.6527
▁antigo	-10.6527
▁Norte	-10.6528
▁democracia	-10.6535
▁excelente	-10.6535
▁cold	-10.6541
bout	-10.6541
iff	-10.6543
▁published	-10.6543
truck	-10.6545
▁recognize	-10.6545
▁supply	-10.6545
jar	-10.6546
berg	-10.6548
▁querido	-10.6551
▁statement	-10.6551
▁amiga	-10.6553
▁advogado	-10.6554
▁granted	-10.6555
▁abaixo	-10.6559
ifi	-10.656
▁terceiros	-10.656
▁fé	-10.6561
▁ill	-10.6562
nica	-10.6563
▁policies	-10.6564
▁daquele	-10.6565
▁lack	-10.6567
lov	-10.6571
▁DNA	-10.6577
▁incrível	-10.6577
▁dumping	-10.6578
▁Unido	-10.6583
▁Ouve	-10.6586
▁Maio	-10.6587
graf	-10.6591
▁memória	-10.6593
▁céu	-10.6593
▁pensamento	-10.6598
▁pack	-10.6599
▁quisere	-10.6606
▁abrigo	-10.6612
▁liberta	-10.6612
▁park	-10.6612
nec	-10.6615
mocracy	-10.6621
▁competência	-10.6621
▁EM	-10.6622
▁thanks	-10.6629
▁escolher	-10.6631
▁destino	-10.6631
pping	-10.6631
▁Cada	-10.6631
verything	-10.6632
cepção	-10.6639
▁scheme	-10.664
96	-10.6641
▁1991	-10.6642
▁classifica	-10.6643
▁competent	-10.6648
▁sete	-10.665
SC	-10.6651
▁fizeste	-10.6651
19	-10.6655
▁skin	-10.6657
▁initiative	-10.666
dded	-10.666
▁cin	-10.6661
▁breath	-10.6662
▁apanhar	-10.6663
▁bons	-10.6666
▁recover	-10.6671
▁conversation	-10.6674
▁condu	-10.6675
bio	-10.6678
▁Keep	-10.668
▁observe	-10.6684
▁pele	-10.6688
▁amostra	-10.6691
▁potencial	-10.6693
▁lembrar	-10.6693
▁Dur	-10.6698
▁Imagine	-10.6698
▁village	-10.6698
▁shut	-10.6699
▁concept	-10.6699
▁round	-10.6702
▁ambo	-10.6703
LI	-10.6705
RT	-10.6706
▁Other	-10.6706
▁proposed	-10.6707
hen	-10.6708
▁decidir	-10.6708
▁partido	-10.6713
▁dito	-10.6715
▁explica	-10.6716
▁espírito	-10.6717
▁governa	-10.6719
▁Fiz	-10.6719
▁negócios	-10.6719
struction	-10.6723
▁loss	-10.6726
PS	-10.6726
▁rever	-10.6728
▁34	-10.6728
gie	-10.6732
▁station	-10.6732
▁doubt	-10.6738
▁laugh	-10.6746
▁mínimo	-10.6746
▁violence	-10.6746
▁inteiro	-10.6749
▁divis	-10.6751
▁William	-10.6758
▁preserv	-10.6763
▁artist	-10.6764
▁37	-10.6764
▁braço	-10.6769
▁rio	-10.6769
▁dizia	-10.677
▁anterior	-10.677
ivity	-10.6772
▁damn	-10.6773
▁adequada	-10.6776
▁trouxe	-10.6776
▁pattern	-10.6776
▁concorrência	-10.6777
▁relator	-10.6778
▁mm	-10.6791
▁sobretudo	-10.6801
ério	-10.6813
▁naquela	-10.6815
▁Stu	-10.6816
▁below	-10.682
▁recently	-10.6821
17	-10.6821
▁afasta	-10.6826
quar	-10.684
▁Vem	-10.6842
éis	-10.6842
▁necessárias	-10.6844
ológico	-10.6855
▁Jim	-10.6855
▁incorpora	-10.6858
inhos	-10.6865
▁dispositivo	-10.6867
▁metal	-10.6868
▁trial	-10.6873
▁teoria	-10.6874
▁spot	-10.6875
▁prior	-10.6877
▁motiva	-10.6882
▁livros	-10.6883
▁Pal	-10.6885
▁dress	-10.6894
behalf	-10.6903
CT	-10.6905
▁conheci	-10.691
▁extend	-10.6911
▁scientific	-10.6913
▁superfície	-10.6913
▁proper	-10.6913
▁surgi	-10.6913
18	-10.6916
board	-10.6917
riamente	-10.6918
▁coopera	-10.6922
▁universo	-10.6922
▁esquerda	-10.6923
▁photograph	-10.6933
▁hip	-10.6939
▁books	-10.6944
▁director	-10.6944
▁finding	-10.6948
▁migra	-10.6956
gun	-10.696
▁stock	-10.6962
▁ml	-10.6965
▁roll	-10.6969
▁administração	-10.6971
▁Liv	-10.6975
▁print	-10.6978
quei	-10.6984
▁ataca	-10.6984
▁fogo	-10.6986
▁sugar	-10.6988
▁direita	-10.6992
▁Chama	-10.6999
▁Outra	-10.7001
▁Director	-10.7002
▁remind	-10.7003
ício	-10.7004
cide	-10.7006
▁families	-10.7012
▁suit	-10.7019
τ	-10.7022
ili	-10.7022
▁centena	-10.7022
▁Ora	-10.7022
▁moved	-10.7022
▁contribu	-10.7022
gica	-10.7022
▁Madam	-10.7026
▁Outubro	-10.7031
▁conduct	-10.7031
▁continent	-10.7032
▁realized	-10.7037
▁standing	-10.7038
▁importance	-10.7038
▁cedo	-10.7039
▁limpa	-10.704
ash	-10.7041
▁Natal	-10.7041
▁equipment	-10.7042
▁status	-10.705
▁boca	-10.7054
▁categoria	-10.7056
more	-10.7056
▁additional	-10.7059
▁sudden	-10.7062
▁Minister	-10.7062
▁regions	-10.7066
▁Christian	-10.7066
gy	-10.7066
▁Act	-10.7067
▁cuidados	-10.707
▁Universit	-10.7072
▁escritório	-10.7072
▁tema	-10.7073
ware	-10.7073
viv	-10.7075
▁somewhere	-10.7075
▁investigation	-10.7076
▁Grupo	-10.7082
▁negro	-10.7082
gate	-10.7082
▁longa	-10.7082
▁domina	-10.7085
▁quota	-10.7085
▁net	-10.7087
▁menor	-10.7088
▁propósito	-10.7102
▁velocidade	-10.7102
▁lidar	-10.7103
▁paga	-10.7108
▁entende	-10.7108
▁totally	-10.711
ι	-10.7122
▁invite	-10.7124
▁bomba	-10.7125
▁immediately	-10.7128
▁Fala	-10.7128
▁projectos	-10.7131
▁distância	-10.7132
hood	-10.7133
▁trazer	-10.7136
stone	-10.7136
▁consumo	-10.7142
▁naquele	-10.7142
▁hero	-10.7142
ν	-10.7152
▁perfeita	-10.7152
▁launch	-10.7152
▁perigo	-10.7153
ball	-10.7154
▁reg	-10.7157
ological	-10.7161
▁Washing	-10.7162
▁aprende	-10.7167
▁Art	-10.7168
▁Trans	-10.7168
▁understanding	-10.7171
▁led	-10.7172
ku	-10.7173
▁políticos	-10.7174
▁supervis	-10.7175
▁Big	-10.7177
▁quiet	-10.7186
▁entidade	-10.7194
▁banho	-10.7198
▁putting	-10.7205
▁correspond	-10.7206
▁sounds	-10.7207
▁indeed	-10.7207
▁Mm	-10.7208
▁consciência	-10.7213
▁notifica	-10.7213
▁teach	-10.7214
▁produced	-10.7217
▁mouth	-10.7223
quin	-10.7224
▁assessment	-10.7226
▁diminui	-10.7233
cta	-10.7234
▁aluno	-10.7235
▁cir	-10.7237
▁distribui	-10.7238
▁banda	-10.7238
▁thems	-10.7239
▁Índia	-10.7243
▁window	-10.7244
▁version	-10.7247
▁enf	-10.7248
▁criado	-10.7252
gle	-10.7257
▁instru	-10.7259
çar	-10.726
older	-10.7262
▁forest	-10.7262
▁scar	-10.7273
graph	-10.7283
▁88	-10.7286
▁Cra	-10.7289
▁cities	-10.729
▁verificar	-10.7293
▁International	-10.7295
▁posto	-10.7297
CN	-10.7299
▁interpreta	-10.7299
▁sentimento	-10.7299
hor	-10.73
▁fizer	-10.7304
▁usually	-10.7305
▁bla	-10.7305
▁pac	-10.7311
emia	-10.7312
▁talked	-10.7319
▁87	-10.7323
wan	-10.7323
cita	-10.7324
▁assassina	-10.7325
▁separate	-10.7331
▁instant	-10.7333
▁insist	-10.7337
▁included	-10.734
▁calling	-10.7342
▁talent	-10.7353
▁Trata	-10.7357
▁prison	-10.7359
▁Queria	-10.736
▁mudo	-10.7363
▁Segundo	-10.7366
▁existência	-10.737
▁alemã	-10.7371
▁apoia	-10.7372
▁representative	-10.7372
▁característica	-10.7377
▁conteúdo	-10.7377
▁Could	-10.7377
▁promote	-10.7377
▁Iorque	-10.7377
▁signal	-10.7381
▁Zo	-10.7382
▁utiliza	-10.7386
▁Bob	-10.7392
▁settle	-10.7392
▁flow	-10.7392
VA	-10.7395
NG	-10.7397
▁ADOPT	-10.7408
▁terrorism	-10.7409
▁faith	-10.741
▁direction	-10.741
▁chão	-10.741
▁audit	-10.7415
▁segredo	-10.7418
turned	-10.7424
énio	-10.7428
▁handle	-10.743
▁certificado	-10.7432
▁regula	-10.7433
▁barco	-10.7434
▁impression	-10.7437
tiveram	-10.7447
▁ambi	-10.7448
ich	-10.7449
▁cabelo	-10.746
▁mix	-10.7462
▁author	-10.7464
▁estávamo	-10.7473
▁colleague	-10.748
▁Sil	-10.7486
eza	-10.7486
▁preven	-10.749
▁surface	-10.7491
▁undertaking	-10.7491
▁cook	-10.7491
▁ouvido	-10.7494
illa	-10.7501
▁dirigi	-10.7502
▁throughout	-10.7512
▁obtain	-10.7515
▁ice	-10.7518
tudo	-10.7526
igh	-10.7531
▁pop	-10.7532
▁mapa	-10.7535
▁repeti	-10.7536
▁lab	-10.7541
▁agent	-10.7542
▁absolutely	-10.7547
▁suc	-10.7551
▁contribui	-10.7552
fil	-10.7553
▁antiga	-10.7553
▁Charles	-10.7555
▁assume	-10.7557
▁partilha	-10.7565
▁provoca	-10.7565
▁actividade	-10.7565
▁miles	-10.7571
▁missing	-10.7573
▁Todas	-10.7574
▁British	-10.7575
▁wind	-10.7576
▁europeus	-10.7577
fica	-10.7578
▁vision	-10.7578
igualdade	-10.7579
majority	-10.7583
▁adapt	-10.7585
▁campanha	-10.7585
▁annual	-10.7585
▁autor	-10.7586
▁400	-10.7597
▁fixed	-10.76
▁trai	-10.7611
▁Mag	-10.7613
avam	-10.7614
▁rid	-10.7615
▁attempt	-10.7617
▁commercial	-10.7617
▁Alguns	-10.7617
▁cami	-10.7618
ológica	-10.7625
▁fishing	-10.7628
▁150	-10.763
▁Cro	-10.763
▁referi	-10.7633
▁lança	-10.7634
post	-10.7638
▁double	-10.7639
nvolv	-10.7646
▁Economic	-10.7649
▁Diga	-10.7651
11	-10.7661
▁impossíve	-10.767
▁reforça	-10.767
▁Têm	-10.767
▁staff	-10.767
▁moeda	-10.7673
ologist	-10.7677
▁successful	-10.7679
▁imposto	-10.7681
▁fuel	-10.7681
▁autorização	-10.7681
▁Existe	-10.7682
▁declara	-10.7683
▁cão	-10.7683
bon	-10.7689
▁career	-10.7691
▁election	-10.7691
▁traffic	-10.7691
▁Daniel	-10.7691
▁profit	-10.7692
mine	-10.7692
▁avião	-10.7693
▁48	-10.7696
shed	-10.7706
8	-10.7709
▁parede	-10.771
▁race	-10.7711
▁consequence	-10.7713
▁requisitos	-10.7713
▁defesa	-10.7713
izing	-10.7716
▁metros	-10.7718
▁grant	-10.7718
▁compreend	-10.7721
▁exacta	-10.7721
▁independente	-10.7723
▁Black	-10.7728
▁gostar	-10.7731
▁UN	-10.7735
▁standards	-10.7739
▁física	-10.7745
▁94	-10.7753
▁miúda	-10.7755
▁Cur	-10.7766
pin	-10.7766
▁Lembra	-10.7766
▁enviar	-10.7767
▁Lisbo	-10.7767
▁Government	-10.7768
ngel	-10.777
▁Pronto	-10.777
▁Adam	-10.7774
▁president	-10.7776
▁player	-10.7776
▁Mari	-10.7783
▁Ku	-10.7783
▁loja	-10.7788
▁produtores	-10.779
▁bird	-10.7792
▁termo	-10.7794
▁Antes	-10.7795
▁delega	-10.7802
▁clientes	-10.7803
▁drogas	-10.7804
tualmente	-10.7811
▁materia	-10.7818
zu	-10.7818
▁feira	-10.7823
▁pô	-10.7825
▁cozinha	-10.7833
▁mono	-10.7842
▁cole	-10.7852
▁criteria	-10.7852
▁Justiça	-10.7852
▁commitment	-10.7852
▁fome	-10.7859
▁promet	-10.7863
▁Setembro	-10.7863
▁rapporteur	-10.7863
▁FBI	-10.7863
▁apoiar	-10.7865
45	-10.7865
▁bola	-10.7873
▁Chinese	-10.7874
▁Scott	-10.7874
▁realiza	-10.7874
▁insulin	-10.7876
▁critérios	-10.7884
▁internacionais	-10.7885
▁rev	-10.7887
clusão	-10.7889
long	-10.7901
▁oito	-10.7903
▁wine	-10.7905
▁named	-10.7905
▁counter	-10.7906
▁ocean	-10.7913
▁shop	-10.7914
▁pensam	-10.7918
▁ideal	-10.7918
rosa	-10.7918
▁ligado	-10.7921
▁ECB	-10.7923
ford	-10.7927
▁percebi	-10.7929
▁viaja	-10.793
▁glad	-10.7931
esco	-10.7936
▁joint	-10.7939
▁vessel	-10.7939
▁command	-10.794
▁Ly	-10.7953
▁Mel	-10.7958
lé	-10.7959
ctually	-10.796
támos	-10.796
▁sequência	-10.7961
▁receita	-10.7961
▁analysi	-10.7962
▁BCE	-10.7967
né	-10.7969
▁nation	-10.7971
▁scared	-10.7975
▁arrest	-10.7976
▁benefício	-10.7983
▁convince	-10.7983
▁meter	-10.7986
▁Today	-10.7986
▁identifi	-10.7988
phy	-10.7991
▁obligation	-10.7994
SS	-10.7998
▁verde	-10.7998
70	-10.8001
chei	-10.8005
▁screen	-10.8005
▁violent	-10.8005
▁tocar	-10.8009
▁institui	-10.801
▁nine	-10.8011
interested	-10.8016
▁esposa	-10.8016
lândia	-10.8016
▁currently	-10.802
tações	-10.8022
TH	-10.8028
▁realizar	-10.8028
arch	-10.8029
▁repara	-10.803
▁01	-10.8034
▁manifesta	-10.8035
▁soul	-10.8037
▁revolution	-10.8038
▁carbon	-10.804
.9	-10.804
▁agenda	-10.8043
▁relative	-10.8043
▁uni	-10.8047
▁rural	-10.8049
▁conceito	-10.8052
▁prioridade	-10.8053
▁Bla	-10.8057
IF	-10.8061
▁Pare	-10.8064
▁janela	-10.8071
▁justiça	-10.8071
▁horse	-10.8072
▁uniform	-10.8072
▁glass	-10.8072
▁aberta	-10.8073
▁corrup	-10.8073
▁existing	-10.8079
HE	-10.8079
▁comercial	-10.8079
▁Jane	-10.8083
▁Sua	-10.8088
▁assassino	-10.8094
▁influence	-10.8094
▁monitor	-10.8096
▁género	-10.8105
▁London	-10.8105
▁entrega	-10.8111
▁lady	-10.8114
▁spirit	-10.8115
credible	-10.8116
▁esforços	-10.8121
▁controlar	-10.8125
▁limited	-10.8125
▁fell	-10.8126
▁Far	-10.8131
gh	-10.8132
▁alvo	-10.8133
▁faze	-10.8134
▁oferece	-10.8136
▁carreira	-10.8138
▁gold	-10.8147
▁restri	-10.8147
▁voto	-10.8148
▁Cam	-10.8149
▁Home	-10.8155
Í	-10.816
ânia	-10.8161
▁responde	-10.8163
▁Kingdom	-10.8172
▁associated	-10.8172
IR	-10.8176
▁apanha	-10.818
▁According	-10.8183
▁conheço	-10.8183
▁rise	-10.8185
▁expand	-10.8186
▁43	-10.8201
▁jump	-10.8201
▁beber	-10.8204
▁Louis	-10.8207
▁Grande	-10.8208
▁shouldn	-10.821
▁protest	-10.8219
▁grau	-10.8224
▁38	-10.8227
▁unless	-10.8227
▁Second	-10.8228
▁Captain	-10.8228
▁Make	-10.8231
▁habit	-10.8234
▁39	-10.8238
▁reprodu	-10.824
▁cabo	-10.8247
itz	-10.8249
▁disseste	-10.8251
▁pobres	-10.8254
pher	-10.8258
CA	-10.826
▁fugir	-10.826
▁morre	-10.8261
▁coffee	-10.8261
▁bonita	-10.8261
nut	-10.8262
▁directamente	-10.8266
▁saída	-10.8267
95	-10.8269
▁rápida	-10.8273
▁merece	-10.8273
▁Deput	-10.8273
TS	-10.8275
34	-10.8278
▁Cap	-10.828
▁calculat	-10.8282
▁cena	-10.8284
▁salva	-10.8288
▁vast	-10.8295
▁Ham	-10.8306
▁exigi	-10.8308
soluções	-10.8309
▁theory	-10.831
▁artista	-10.8315
▁reduce	-10.8315
▁Boy	-10.8315
UN	-10.8316
▁lugares	-10.8317
▁committee	-10.8318
▁órgão	-10.8318
▁scene	-10.8318
PR	-10.8319
▁tools	-10.832
▁norma	-10.832
▁High	-10.8321
▁Phil	-10.8328
▁açúcar	-10.8329
UR	-10.833
▁actua	-10.8334
▁instala	-10.8342
▁crescer	-10.8348
▁Óptimo	-10.8352
▁ADN	-10.8352
▁gostava	-10.8357
where	-10.8358
▁liberal	-10.8363
▁innovation	-10.8363
▁officer	-10.8368
▁mercadoria	-10.8372
▁technologi	-10.8372
▁Merda	-10.8377
▁mentir	-10.8381
▁faria	-10.839
▁adequado	-10.8398
▁boat	-10.8403
▁define	-10.8404
▁rain	-10.8406
▁percentage	-10.8409
PC	-10.8412
▁enable	-10.8413
▁foste	-10.8414
▁mecanismo	-10.8421
▁atingi	-10.8422
▁exercise	-10.8423
▁gay	-10.8423
▁aplicar	-10.8427
▁servi	-10.8431
▁objeto	-10.8432
▁finish	-10.8434
▁realizado	-10.8435
but	-10.8441
▁bottom	-10.8443
▁chemical	-10.8444
▁desert	-10.8448
▁oficial	-10.8449
▁comuns	-10.8449
▁fantas	-10.8451
▁weak	-10.8456
▁income	-10.8457
▁intended	-10.8461
baixo	-10.8463
matou	-10.8467
▁femini	-10.8469
▁operação	-10.847
▁cuja	-10.8473
▁IV	-10.8474
▁disponíveis	-10.8478
▁former	-10.8478
▁alma	-10.8479
▁Banco	-10.8483
▁approved	-10.8487
▁precise	-10.849
place	-10.85
▁fraud	-10.8501
▁Three	-10.8501
▁Shi	-10.8506
▁divers	-10.8508
▁college	-10.8513
▁Tan	-10.8518
fri	-10.8519
▁reaction	-10.8521
▁article	-10.8524
▁honor	-10.8524
▁inteira	-10.8527
▁Maria	-10.8528
▁44	-10.8529
▁Call	-10.853
▁expos	-10.8531
gna	-10.8531
▁esteve	-10.8531
▁Seu	-10.8533
▁estabelecido	-10.8536
PO	-10.8541
▁qualifica	-10.8546
▁Protocol	-10.8547
▁impossible	-10.8547
▁gain	-10.855
▁acusa	-10.8552
26	-10.8557
▁Sho	-10.8557
▁redacç	-10.8557
CO	-10.8561
▁cheio	-10.8571
ε	-10.8571
▁escape	-10.8571
greed	-10.8573
▁puder	-10.8574
35	-10.8578
▁Acha	-10.858
blo	-10.8589
▁island	-10.8591
▁pretend	-10.8592
TER	-10.8594
▁interessado	-10.8595
▁involve	-10.8597
▁engana	-10.8599
▁bocado	-10.8599
▁Stra	-10.8605
▁discussion	-10.8605
▁intervenção	-10.8606
▁suspens	-10.8617
▁marketing	-10.8623
▁valid	-10.8625
▁advers	-10.863
▁Fique	-10.863
▁velha	-10.863
▁earth	-10.8631
▁minimu	-10.8633
uch	-10.8638
▁suffer	-10.8646
cções	-10.8649
▁smell	-10.8653
▁sample	-10.8653
▁stopped	-10.8654
▁customer	-10.8654
▁destinado	-10.8658
▁north	-10.8663
▁exerc	-10.8664
▁speaking	-10.8664
▁estudar	-10.8667
▁dign	-10.867
▁partilhar	-10.8671
▁driving	-10.8676
▁demora	-10.8676
▁conduzir	-10.8681
elle	-10.8683
▁prepared	-10.8686
▁female	-10.8688
▁rendimento	-10.8688
▁roda	-10.8688
▁Sh	-10.8693
▁1989	-10.8693
jun	-10.8698
▁disappear	-10.8699
▁Brasil	-10.87
▁Think	-10.8701
▁caça	-10.8702
▁assistance	-10.8702
▁Foram	-10.8705
▁transmiss	-10.8708
▁necessária	-10.8712
▁Under	-10.8712
▁tumor	-10.8715
▁cujo	-10.8715
gli	-10.8717
▁saiba	-10.8717
▁setting	-10.8717
grama	-10.8719
▁White	-10.8724
▁encontrei	-10.8729
▁heat	-10.8733
▁robô	-10.8735
▁draft	-10.8735
▁soube	-10.8742
▁none	-10.8746
▁agradecer	-10.8747
▁bonito	-10.8747
▁department	-10.8747
▁cavalo	-10.8747
▁blind	-10.8747
▁proibi	-10.8747
▁Yo	-10.875
▁Something	-10.8759
▁Italian	-10.876
▁voo	-10.8763
▁Really	-10.8763
▁seek	-10.8764
tract	-10.8767
▁magic	-10.8777
▁var	-10.8778
claramente	-10.8778
▁fique	-10.878
▁desire	-10.8791
▁alimenta	-10.8793
▁earlier	-10.8794
▁apresentada	-10.8795
▁honey	-10.8796
▁Flor	-10.8798
tuais	-10.8802
▁chamo	-10.8808
▁chose	-10.8812
▁weird	-10.8818
▁Capitã	-10.8819
▁Tel	-10.882
▁lembro	-10.883
▁changing	-10.883
▁orgulho	-10.8842
▁anywhere	-10.8845
▁finger	-10.8846
▁exceed	-10.8848
▁injur	-10.8852
▁failure	-10.8855
▁considerar	-10.8855
▁admir	-10.8856
29	-10.8857
▁versão	-10.8862
▁perce	-10.8867
▁oceano	-10.8872
▁produzir	-10.8873
▁infec	-10.8874
ette	-10.8875
▁favorite	-10.8877
▁gás	-10.888
▁esquecer	-10.888
▁fault	-10.8882
▁Conta	-10.8883
Não	-10.8883
▁Brussels	-10.889
▁entry	-10.8891
▁Free	-10.8895
24	-10.8896
▁Conf	-10.89
▁justice	-10.89
▁Convention	-10.8902
▁harmon	-10.8912
▁dispara	-10.8913
▁Cli	-10.8914
▁hole	-10.892
▁thousand	-10.8922
▁farmer	-10.8925
▁triste	-10.8925
▁broken	-10.8929
▁declaração	-10.893
▁componente	-10.8931
nova	-10.8931
▁droga	-10.8932
EX	-10.8937
▁Journal	-10.8938
▁advantage	-10.8938
▁Passa	-10.8941
▁Prince	-10.8942
▁negocia	-10.8944
▁revista	-10.8949
▁birth	-10.895
▁Last	-10.8956
▁vantage	-10.8956
defined	-10.8962
▁exterior	-10.8962
▁feature	-10.8962
▁radia	-10.8963
▁threat	-10.897
7	-10.897
▁concorda	-10.8974
nother	-10.8976
▁Char	-10.8976
cept	-10.8977
▁militar	-10.8983
▁encourage	-10.8986
UL	-10.899
▁carrega	-10.899
▁Carol	-10.8993
▁daquela	-10.8999
38	-10.9
▁negociações	-10.9004
▁diria	-10.9007
▁warm	-10.9009
▁técnico	-10.9011
ónica	-10.9011
▁externa	-10.9012
▁caught	-10.9015
▁significativa	-10.9016
▁Wow	-10.9017
▁fabric	-10.9018
▁Podia	-10.9018
▁conduz	-10.9018
▁male	-10.9021
▁Após	-10.9023
▁Thomas	-10.9023
fon	-10.9024
▁pago	-10.9024
cioso	-10.9026
poli	-10.9027
▁politic	-10.9028
▁estabelecer	-10.9035
▁presença	-10.9035
▁sinai	-10.9036
vy	-10.9036
▁administration	-10.9037
▁necessita	-10.9037
▁2014	-10.9038
22	-10.9039
MO	-10.9047
▁perspectiva	-10.9047
▁gift	-10.9047
▁vós	-10.9048
▁confirma	-10.9056
▁pedra	-10.9056
▁Say	-10.9059
▁terrible	-10.9059
▁optim	-10.906
▁comerciais	-10.906
▁Geral	-10.9069
▁fantástico	-10.9072
▁wild	-10.9072
▁Help	-10.9073
TION	-10.9073
▁reduction	-10.9074
▁preced	-10.9075
▁telemóvel	-10.9076
head	-10.9078
▁client	-10.908
▁Pessoa	-10.9084
▁fiscal	-10.9084
▁juro	-10.9088
▁parent	-10.909
script	-10.9094
▁Fred	-10.9099
▁Bull	-10.9102
▁tido	-10.9105
▁Abril	-10.9108
▁FOR	-10.9117
▁permanente	-10.9118
▁inquérito	-10.9121
▁confront	-10.9123
▁compete	-10.9127
▁Pan	-10.913
▁universal	-10.9133
▁lawyer	-10.9133
▁cresce	-10.9141
▁appreciate	-10.9145
▁register	-10.9145
fia	-10.9153
▁solo	-10.9153
▁fresh	-10.9158
HA	-10.9159
▁utilizada	-10.9165
▁campaign	-10.917
▁Direito	-10.917
tran	-10.9171
▁exame	-10.9171
▁anima	-10.9172
▁corte	-10.9178
▁sad	-10.9181
ÇÃO	-10.9182
▁vaca	-10.9183
▁consum	-10.9188
▁rapid	-10.919
▁journey	-10.9195
ístico	-10.9196
▁pegar	-10.9196
▁quick	-10.9201
▁permanece	-10.9207
▁sensor	-10.921
▁broke	-10.9218
▁privado	-10.922
▁honra	-10.922
▁reject	-10.9222
▁Danny	-10.9224
▁speech	-10.9232
▁pig	-10.9232
MP	-10.9233
▁tendência	-10.9234
▁forgot	-10.9235
▁proporciona	-10.9241
▁clara	-10.9242
36	-10.9244
▁vivem	-10.9253
▁promover	-10.9257
▁venha	-10.9262
▁poderão	-10.9267
▁submitted	-10.9269
▁Exact	-10.9272
▁Brian	-10.9272
▁aparecer	-10.9276
▁consist	-10.9277
▁Move	-10.9279
▁interfer	-10.928
▁evento	-10.9283
▁corpora	-10.9287
▁anual	-10.9289
▁importações	-10.929
▁aprendi	-10.9295
▁mistura	-10.9296
ICA	-10.9299
▁convert	-10.9301
▁exército	-10.9307
ville	-10.9315
▁Bruxelas	-10.9319
▁Cast	-10.9319
▁relaciona	-10.932
pé	-10.9322
▁urgent	-10.9323
▁imagin	-10.9324
▁necessari	-10.9332
funcionamento	-10.9332
field	-10.9332
▁louco	-10.9332
▁resident	-10.9336
▁Jimmy	-10.9345
▁initial	-10.9347
▁evolu	-10.935
▁ensinar	-10.9356
▁calor	-10.9357
▁queira	-10.9359
▁judge	-10.9359
▁ride	-10.9362
▁Ban	-10.9363
▁habitua	-10.9363
▁traditional	-10.9364
▁Cala	-10.9364
MS	-10.9365
▁apaixon	-10.937
▁Sarah	-10.937
▁thus	-10.9373
▁tradiciona	-10.938
▁Gro	-10.9384
▁errada	-10.9384
▁veja	-10.9385
▁fazendo	-10.9388
▁flight	-10.9389
▁situa	-10.9393
▁Matt	-10.9396
ken	-10.9398
▁Love	-10.9402
▁terminar	-10.9406
▁milk	-10.9407
▁Novembro	-10.9407
▁perfeito	-10.9408
▁útil	-10.9408
▁Russian	-10.9408
▁supplie	-10.9408
▁expected	-10.9413
▁repente	-10.9416
▁circunstância	-10.942
▁rejei	-10.9423
▁PRO	-10.9428
▁independent	-10.9433
▁bebida	-10.9434
▁email	-10.9435
▁govern	-10.9439
▁Tony	-10.944
▁BE	-10.944
▁component	-10.9441
▁juntar	-10.9442
teen	-10.9443
▁harm	-10.9443
▁positivo	-10.9446
▁podiam	-10.9448
▁meat	-10.9452
▁aceita	-10.9457
▁alarm	-10.9458
▁Mundial	-10.9458
▁linguagem	-10.9458
▁worried	-10.9458
▁alternativa	-10.9458
▁Tro	-10.946
▁witness	-10.9471
▁absor	-10.9471
▁boss	-10.9475
▁candidato	-10.9484
▁diabo	-10.9484
gel	-10.9487
▁repeat	-10.9487
▁revis	-10.9489
énia	-10.9491
mond	-10.9496
▁engine	-10.9497
▁ficam	-10.95
48	-10.9503
▁vende	-10.9509
▁visa	-10.9513
▁ganha	-10.9514
▁consumidores	-10.9517
rick	-10.9519
▁closed	-10.9519
back	-10.952
▁concess	-10.9521
▁circumstances	-10.9522
▁diploma	-10.9522
▁Prote	-10.9527
▁bigger	-10.9528
▁esforço	-10.9529
avelmente	-10.9532
▁EUROPEAN	-10.9535
▁Tele	-10.9536
▁calm	-10.9541
dina	-10.9541
▁tape	-10.9544
curso	-10.9547
▁predict	-10.9552
ella	-10.9553
IM	-10.9554
▁pretende	-10.9555
▁viva	-10.9559
▁combat	-10.9561
▁Franc	-10.957
▁Official	-10.9573
vig	-10.9577
fol	-10.958
▁conference	-10.9586
▁financi	-10.9587
▁useful	-10.959
final	-10.9594
94	-10.9597
fal	-10.9599
▁Cho	-10.9602
▁colon	-10.9602
▁Real	-10.9604
▁remove	-10.9609
▁acto	-10.9611
▁cash	-10.9611
ramos	-10.9612
▁americana	-10.9612
▁exception	-10.9614
▁cruz	-10.962
ttle	-10.9622
▁soldier	-10.9626
▁radical	-10.9626
▁location	-10.9634
▁maximu	-10.9638
▁capaze	-10.9648
▁seguida	-10.9651
▁fruit	-10.9652
▁compro	-10.9652
▁impedir	-10.9653
▁especia	-10.9659
▁recommend	-10.9661
▁vital	-10.9662
▁frequência	-10.9664
zinha	-10.9667
27	-10.9667
▁nela	-10.9669
nsação	-10.9671
▁Nenhum	-10.9677
▁Street	-10.9677
▁pensava	-10.9678
▁Italy	-10.9686
▁trick	-10.9689
▁parágrafo	-10.969
▁connect	-10.9692
▁circula	-10.9694
▁Shut	-10.9697
▁monitoring	-10.9699
▁atingir	-10.9701
▁Many	-10.9703
▁inovação	-10.9703
▁assusta	-10.9703
▁conforme	-10.9703
▁kick	-10.9706
▁Toma	-10.9715
▁tecido	-10.9716
▁communities	-10.9716
▁disponível	-10.9716
▁fulfil	-10.9716
▁Angel	-10.9716
▁Opera	-10.9726
▁sujeito	-10.9729
▁premi	-10.9731
cidental	-10.9733
▁Law	-10.9734
▁Pac	-10.9739
▁constant	-10.974
▁loan	-10.974
▁killing	-10.9741
▁óptimo	-10.9742
▁broad	-10.9742
ception	-10.9744
▁parecia	-10.9744
▁Casa	-10.9748
▁complain	-10.9755
▁Encontra	-10.9755
▁universidade	-10.9755
▁poverty	-10.9755
▁ACP	-10.9755
▁river	-10.9755
▁precisava	-10.9759
▁existir	-10.9764
▁inicial	-10.9767
▁Clark	-10.9772
▁tivemo	-10.9773
▁alcançar	-10.9774
▁almoço	-10.9781
▁album	-10.9781
▁respectiva	-10.9786
▁fiquei	-10.9786
39	-10.9793
▁attract	-10.9798
▁Liga	-10.98
▁cheia	-10.9801
85	-10.9802
▁Tar	-10.9805
▁opportunities	-10.9808
▁conselho	-10.9808
▁médio	-10.9808
▁pobreza	-10.9808
▁2015	-10.9811
▁creation	-10.9812
▁bigge	-10.9813
▁scan	-10.9815
▁Rússia	-10.9821
▁shift	-10.9821
▁property	-10.9823
▁espi	-10.9824
37	-10.9828
▁Universidade	-10.9834
▁cadeia	-10.9834
▁emerge	-10.9837
▁vender	-10.9842
▁Guard	-10.9845
▁Gui	-10.9845
▁territory	-10.9847
▁solicita	-10.9853
▁student	-10.9854
▁church	-10.986
▁petróleo	-10.986
▁designer	-10.9864
▁surge	-10.9865
▁Day	-10.9866
▁identidade	-10.9874
▁inglês	-10.9874
▁yesterday	-10.9874
92	-10.988
pções	-10.9882
▁till	-10.9882
▁proud	-10.9886
▁empréstimo	-10.9887
▁inimigo	-10.9887
▁beneficiar	-10.9887
▁club	-10.9888
▁south	-10.9895
▁corner	-10.9896
▁Russia	-10.99
▁announce	-10.99
▁pursuant	-10.99
▁noutro	-10.9901
▁definition	-10.9905
nov	-10.9906
▁presented	-10.9907
▁irão	-10.9913
▁figura	-10.9914
▁sustainable	-10.9914
▁gang	-10.9921
▁civiliza	-10.9921
▁debt	-10.9922
▁Fine	-10.9923
▁Fevereiro	-10.9927
▁Spain	-10.9927
▁neutr	-10.9927
▁carbono	-10.9928
▁denomina	-10.9929
▁kiss	-10.993
▁establish	-10.9939
▁Turn	-10.9944
▁tradi	-10.9947
▁montanha	-10.9955
▁salvo	-10.9956
▁vinho	-10.996
▁connected	-10.996
▁Harry	-10.9962
▁infra	-10.9963
▁hearing	-10.9965
▁Stay	-10.9968
▁negative	-10.9968
▁plena	-10.997
▁blog	-10.9971
▁contribute	-10.9973
▁Bor	-10.9975
▁pedaço	-10.998
▁Wil	-10.9981
▁cura	-10.9986
Q	-10.9989
▁alternative	-10.9994
▁passada	-10.9999
raque	-11.0002
▁eleva	-11.0006
▁vír	-11.001
▁copy	-11.0018
▁cliente	-11.0019
▁Party	-11.002
▁marriage	-11.002
▁aspeto	-11.0021
▁owner	-11.0027
▁conferência	-11.0034
▁Rio	-11.0041
▁voca	-11.0046
▁expenditure	-11.0047
▁worst	-11.0047
▁Convenção	-11.0047
▁custa	-11.0048
▁azul	-11.0052
▁volte	-11.0053
ínio	-11.0054
▁merc	-11.0054
▁critic	-11.0057
▁mountain	-11.0061
▁Itália	-11.0061
▁killer	-11.0062
▁obrigada	-11.0062
▁drag	-11.0067
▁Victor	-11.0068
lico	-11.007
▁certifica	-11.0071
28	-11.0083
▁mid	-11.0085
▁practical	-11.0088
▁observar	-11.009
▁perigoso	-11.0092
▁easi	-11.0094
▁mora	-11.0095
▁rota	-11.0097
▁esconder	-11.0098
▁sport	-11.0098
dict	-11.0107
▁exact	-11.0108
▁democratic	-11.0109
revisão	-11.0114
ENT	-11.0115
▁Facebook	-11.0115
▁evidente	-11.0115
▁estilo	-11.0115
Cause	-11.0115
▁everywhere	-11.0117
▁vizinho	-11.0118
▁Island	-11.0122
▁religi	-11.0124
▁approval	-11.0129
▁deputada	-11.0129
▁alterar	-11.013
▁avança	-11.0132
▁pá	-11.0137
▁insurance	-11.0142
▁perspective	-11.0142
▁administrative	-11.0145
▁cai	-11.0148
▁danger	-11.0151
▁gelo	-11.0152
▁forever	-11.0155
▁Consegui	-11.0156
▁estranha	-11.0156
nhei	-11.0157
▁humanidade	-11.0164
▁sozinha	-11.0166
▁padrão	-11.0171
▁ferro	-11.0171
32	-11.0173
▁ponta	-11.0173
,4	-11.0179
▁físico	-11.0183
▁participar	-11.0184
▁package	-11.0186
▁exige	-11.0186
▁conseguia	-11.0186
▁assistência	-11.0188
▁Jean	-11.0189
▁interview	-11.0198
▁corrente	-11.02
apresentação	-11.0201
▁strengthen	-11.0201
▁Father	-11.0201
▁cair	-11.0207
▁Londres	-11.0211
▁mechanism	-11.0211
▁buraco	-11.0211
▁battle	-11.0212
▁acid	-11.0217
▁relacionado	-11.0219
▁master	-11.0236
▁aprecia	-11.0238
▁dê	-11.0244
▁evolution	-11.0244
▁professores	-11.0245
▁estejam	-11.0249
▁principalmente	-11.0251
▁critical	-11.0257
▁fixe	-11.026
▁kidd	-11.0261
▁Merc	-11.0265
▁Reference	-11.0266
▁adesão	-11.0267
▁summer	-11.0268
▁Latin	-11.0268
▁operate	-11.0272
▁encontram	-11.0273
▁chair	-11.0278
▁desempenho	-11.0279
▁testemunha	-11.0279
▁Public	-11.0279
▁tender	-11.0284
▁acting	-11.0286
▁finance	-11.0292
ólogo	-11.0293
▁wake	-11.0294
▁Grand	-11.0294
▁Pela	-11.0304
▁Espanha	-11.0307
▁terreno	-11.0308
▁preocupado	-11.0318
▁driver	-11.0319
▁41	-11.0319
▁external	-11.0319
mbia	-11.032
▁biolog	-11.032
▁identify	-11.0321
▁temperatura	-11.0321
ρ	-11.0321
▁habitante	-11.0323
▁incident	-11.0323
▁divide	-11.0329
▁quadr	-11.0329
▁Acontece	-11.0335
▁Ministro	-11.0335
▁afford	-11.0335
▁fus	-11.0336
▁install	-11.0336
bsolutamente	-11.0336
▁Homem	-11.0338
▁vêm	-11.0339
▁Work	-11.0341
▁listening	-11.0342
▁unique	-11.0343
è	-11.0349
▁Lei	-11.0349
▁Long	-11.0352
▁justifica	-11.0352
▁descreve	-11.0355
▁prejuízo	-11.0362
▁Yu	-11.0366
▁survive	-11.0367
dying	-11.0368
▁condena	-11.0369
▁agir	-11.0369
▁described	-11.0373
▁hide	-11.0374
▁Devo	-11.0374
▁aparelho	-11.0376
▁infrastructure	-11.0376
▁relax	-11.0377
▁Bye	-11.0379
▁monte	-11.038
▁Open	-11.038
stream	-11.038
▁sand	-11.0384
▁Segurança	-11.039
▁audience	-11.0404
▁infant	-11.0406
▁profissionais	-11.0418
BC	-11.042
▁operator	-11.0421
nico	-11.0429
▁vermelho	-11.0432
▁wire	-11.0433
ridge	-11.0434
▁Gri	-11.0434
▁resolv	-11.0436
▁Consider	-11.0447
▁hunt	-11.045
▁customs	-11.045
▁institution	-11.0452
▁preparar	-11.0454
▁recusa	-11.0454
▁resíduos	-11.046
▁criou	-11.0461
▁transferência	-11.0465
▁julga	-11.0474
▁negotiations	-11.0475
scrição	-11.0475
▁levanta	-11.0479
▁guia	-11.048
▁fan	-11.0485
gging	-11.0485
▁label	-11.0487
perante	-11.049
minal	-11.0497
▁gradua	-11.0497
▁pouca	-11.0503
▁Damn	-11.0504
▁deserve	-11.0504
▁wave	-11.0506
.12.20	-11.0507
efore	-11.0514
▁capítulo	-11.0517
▁famous	-11.0517
▁providing	-11.0517
EM	-11.0517
▁cancel	-11.0519
▁activo	-11.0519
▁Jeff	-11.0523
▁Tim	-11.0523
▁desenvolve	-11.0525
▁indicado	-11.0526
▁determined	-11.0533
▁opening	-11.0534
▁calma	-11.0536
▁regarding	-11.0544
μ	-11.0545
▁Guerra	-11.0545
▁variet	-11.0545
▁Seria	-11.0548
▁religion	-11.055
▁assess	-11.0553
ína	-11.0555
▁1.3	-11.0556
▁extraordinar	-11.0559
▁museu	-11.056
▁Report	-11.056
position	-11.0561
▁lying	-11.0562
▁ensina	-11.0562
▁threaten	-11.0564
▁encerr	-11.0566
▁administrativa	-11.0569
▁finished	-11.0571
▁sufficient	-11.0573
▁saving	-11.0574
▁Ryan	-11.0574
▁sentence	-11.0581
▁THIS	-11.0588
▁season	-11.0589
▁strength	-11.0598
▁Remember	-11.0602
▁horríve	-11.0602
▁avó	-11.0603
▁Sometime	-11.0603
▁XX	-11.0603
▁inclui	-11.061
▁flag	-11.0613
▁dívida	-11.0616
▁sobreviver	-11.0616
▁oferta	-11.0624
▁horizon	-11.063
,1	-11.0631
88	-11.0635
▁Professor	-11.0645
▁nutri	-11.0649
▁Fri	-11.065
▁Eric	-11.0654
▁Church	-11.0659
▁igreja	-11.0659
▁jurídica	-11.0659
▁suspect	-11.0659
▁leite	-11.0661
▁divertido	-11.0661
▁television	-11.0666
▁parque	-11.0672
▁Oficial	-11.0673
▁departamento	-11.0674
▁Japan	-11.0676
▁Mur	-11.0676
▁ECU	-11.0676
ssociação	-11.0676
▁lunch	-11.0676
▁Gene	-11.0676
▁iron	-11.068
▁preparado	-11.068
activ	-11.0684
▁Div	-11.069
▁interna	-11.0692
▁plac	-11.0694
▁lesson	-11.0695
▁Polícia	-11.0702
▁consolida	-11.0702
▁protocol	-11.0702
▁deposit	-11.0711
▁cave	-11.0711
▁particularmente	-11.0713
▁podía	-11.0716
▁positiva	-11.0717
▁milhã	-11.0727
▁efficient	-11.0731
▁apartamento	-11.0731
▁Volta	-11.0731
▁virus	-11.0732
É	-11.074
▁deverão	-11.0743
You	-11.0744
▁conclui	-11.0746
pont	-11.0746
▁linda	-11.0751
▁reconhecer	-11.0756
▁located	-11.0761
▁acaso	-11.0765
▁Congress	-11.0765
rês	-11.0768
▁avançar	-11.0772
▁relevante	-11.0773
▁agricultor	-11.0774
▁atravessa	-11.0774
▁confess	-11.0775
▁Everybody	-11.0775
▁arre	-11.0776
▁oferecer	-11.0777
91	-11.0781
ifying	-11.0783
▁melhoria	-11.0785
daily	-11.0787
▁detailed	-11.0788
▁reveal	-11.0789
▁solid	-11.0801
path	-11.0803
▁publication	-11.0803
abilities	-11.0803
▁descoberta	-11.0804
▁Fra	-11.0809
▁publicação	-11.0812
▁operating	-11.0815
▁overall	-11.0819
▁planning	-11.0821
lógica	-11.0822
▁square	-11.0834
▁hall	-11.0842
▁Jenn	-11.0842
▁fool	-11.0844
▁combine	-11.0846
σ	-11.0847
▁acontecimento	-11.0847
▁artificial	-11.0847
▁fábrica	-11.0847
▁Francisco	-11.0847
▁specifie	-11.0847
▁estaria	-11.0847
▁usada	-11.0861
▁climática	-11.0891
▁employee	-11.0906
▁quarter	-11.0906
▁carga	-11.0908
mato	-11.0908
▁colec	-11.0912
▁pude	-11.0914
▁exigência	-11.0921
▁álbu	-11.0921
▁prosper	-11.0922
▁centra	-11.0925
▁associado	-11.0929
dication	-11.093
▁virtual	-11.0931
▁determine	-11.0933
▁Presidência	-11.0935
▁temperature	-11.0935
▁apartment	-11.0936
▁zone	-11.0937
.11	-11.0945
▁definite	-11.0946
fina	-11.0947
▁estabelecimento	-11.095
▁surpresa	-11.095
▁wheel	-11.095
▁escolhe	-11.095
▁muta	-11.0951
▁occur	-11.0951
▁lixo	-11.0956
▁otherwise	-11.0958
▁Four	-11.0958
creio	-11.096
▁busca	-11.0962
▁adop	-11.0965
▁While	-11.0966
▁piada	-11.0967
▁bough	-11.0977
▁CD	-11.0982
▁Hy	-11.0988
playing	-11.0993
▁frase	-11.0993
▁cálculo	-11.0994
rovavelmente	-11.1006
▁title	-11.1012
▁gather	-11.1014
▁establishment	-11.1014
▁Fundo	-11.1015
▁pormenor	-11.1025
▁Shit	-11.1027
▁distor	-11.1035
▁cumprir	-11.1036
▁concert	-11.1039
▁diálogo	-11.1039
▁incluir	-11.104
ATION	-11.1041
matic	-11.1047
gger	-11.1047
▁Rose	-11.1052
▁Chicago	-11.1054
▁significado	-11.1055
▁Up	-11.1058
▁medicamento	-11.1065
▁Spanish	-11.1069
▁palestra	-11.1069
▁rosto	-11.1073
▁servir	-11.1082
▁subsequent	-11.1084
▁Arab	-11.1091
▁instalações	-11.1091
▁Gosto	-11.1092
▁secure	-11.1101
▁propor	-11.1103
▁clinical	-11.1106
η	-11.1114
▁proveniente	-11.1114
▁bairro	-11.1114
▁matemática	-11.1129
▁prevê	-11.1129
▁Conhece	-11.1129
▁joke	-11.113
▁1980	-11.1134
▁army	-11.1137
▁curto	-11.114
▁haja	-11.114
▁Development	-11.1144
▁aprovação	-11.1144
▁Lá	-11.1146
▁Back	-11.1147
▁steal	-11.1149
▁envolvido	-11.1159
▁pista	-11.1169
▁consumpti	-11.117
▁construction	-11.1174
▁Indian	-11.1181
▁negotiat	-11.1189
▁estabelecida	-11.1189
▁Christmas	-11.119
▁bunch	-11.1193
fra	-11.12
▁Continua	-11.1204
▁Should	-11.1204
ographic	-11.1205
▁faster	-11.1213
▁Music	-11.1214
possibly	-11.1219
▁monta	-11.1221
nate	-11.1221
▁policia	-11.1227
cultura	-11.1227
▁Whatever	-11.1227
▁spoke	-11.1231
▁disorder	-11.1235
▁consiste	-11.1235
▁ganho	-11.124
▁cadeira	-11.125
▁contribuir	-11.125
▁fellow	-11.1251
▁consideração	-11.1254
▁mathematic	-11.1265
▁bala	-11.1266
▁alterado	-11.1267
▁complexo	-11.1269
▁Life	-11.1275
gni	-11.1277
▁defender	-11.128
▁devíamos	-11.128
▁Adoro	-11.1283
▁perdi	-11.1284
▁plastic	-11.1295
▁entendi	-11.1296
▁crucial	-11.1296
▁País	-11.1297
▁Havia	-11.1305
▁discutir	-11.1314
▁Seja	-11.1318
▁veem	-11.1322
44	-11.1323
▁tentativa	-11.1324
▁rato	-11.1324
▁tired	-11.1325
▁laying	-11.1326
▁Democrat	-11.1326
veryone	-11.1328
▁herói	-11.1329
▁1988	-11.1329
▁distribution	-11.133
▁Rock	-11.1332
▁Rome	-11.1338
▁manutenção	-11.1341
▁birthday	-11.1342
▁Control	-11.1344
▁Energ	-11.1346
▁Ger	-11.1347
win	-11.135
▁ii	-11.1355
▁labour	-11.1358
▁convida	-11.136
▁reconstru	-11.136
▁tento	-11.1366
▁obrigações	-11.1368
▁terrível	-11.1372
▁abertura	-11.1372
▁symbol	-11.1372
▁Roma	-11.1374
▁fugi	-11.1374
▁assumi	-11.1382
▁editor	-11.1385
▁actualmente	-11.1387
▁Guy	-11.1387
▁emergência	-11.1388
▁hypo	-11.1388
▁Contu	-11.139
▁bound	-11.1396
▁cobra	-11.1397
▁sustentável	-11.1406
▁frio	-11.1406
prensa	-11.1411
▁suffering	-11.1412
▁conhecida	-11.1418
▁illegal	-11.1418
▁struggle	-11.1419
▁Watch	-11.1423
ography	-11.1426
▁especialista	-11.1427
▁Parte	-11.1428
▁suck	-11.1431
▁destinada	-11.1433
▁médica	-11.1434
▁ajudá	-11.1434
▁perdido	-11.1438
▁caminh	-11.1445
▁afeta	-11.1449
▁advice	-11.1449
▁persegui	-11.1449
▁Jornal	-11.1449
▁delibera	-11.1449
▁resolve	-11.145
▁busy	-11.1452
▁reserve	-11.1453
▁corresponde	-11.146
▁Chuck	-11.1465
▁completo	-11.1465
▁Use	-11.1466
▁considerada	-11.1471
▁stole	-11.1478
▁Common	-11.1479
▁ocasi	-11.148
▁eficácia	-11.148
▁terceira	-11.1481
▁naturai	-11.1483
móveis	-11.1483
ille	-11.1484
▁implementing	-11.1486
▁EUROPEIA	-11.1496
▁Someone	-11.1499
▁margin	-11.15
▁Case	-11.1501
cê	-11.1505
▁sorri	-11.1508
▁êxito	-11.1512
▁escrita	-11.1512
▁batalha	-11.1512
▁fundamentais	-11.1515
▁Justice	-11.1518
▁deriva	-11.1519
▁Anna	-11.1521
▁sight	-11.1526
responsáveis	-11.1527
▁intelligence	-11.1527
▁licence	-11.1527
▁legitim	-11.1528
▁teaching	-11.1543
▁tribunal	-11.1543
▁imigra	-11.1543
▁domestic	-11.1543
▁desenho	-11.1544
▁Cristo	-11.1544
▁permita	-11.1544
▁larga	-11.1549
▁situações	-11.155
▁recuperar	-11.1552
▁intervention	-11.1559
▁heavy	-11.1559
▁distance	-11.1559
▁Santa	-11.1561
87	-11.1564
RD	-11.1564
▁demonstrate	-11.1573
▁difíceis	-11.1574
▁Ireland	-11.1576
▁Jake	-11.1576
GA	-11.1576
▁viram	-11.1582
▁aponta	-11.1588
▁aldeia	-11.159
▁occasion	-11.159
▁Organiza	-11.1591
▁crack	-11.1592
▁concurso	-11.1595
▁rádio	-11.1606
▁budd	-11.1606
▁eleições	-11.1606
▁toxic	-11.1607
▁jail	-11.1607
▁hidro	-11.161
▁Wor	-11.1614
▁medicina	-11.1622
▁presence	-11.1622
▁motion	-11.1631
▁easier	-11.1634
▁Sobre	-11.1637
▁acelera	-11.1638
▁ultimate	-11.1642
▁automatic	-11.1642
BA	-11.1645
▁agarra	-11.1646
▁direta	-11.1654
media	-11.1658
▁improvement	-11.1661
▁chain	-11.1663
▁dança	-11.1679
SU	-11.168
▁Detective	-11.1685
▁federal	-11.1685
▁levá	-11.1687
▁missed	-11.1688
▁Chefe	-11.1696
▁integr	-11.1701
▁Administra	-11.1701
▁aprovado	-11.1701
▁frustra	-11.1701
▁instance	-11.1701
▁agência	-11.1702
▁cargo	-11.1704
▁combination	-11.1705
▁trauma	-11.1707
▁Iraq	-11.1714
▁communicate	-11.1717
▁cumprimento	-11.1718
▁beaut	-11.1726
▁direção	-11.1733
▁expans	-11.1733
▁rent	-11.1735
▁attend	-11.1736
▁realizada	-11.174
▁exposi	-11.1743
▁vegeta	-11.1748
▁Gold	-11.1748
▁sustenta	-11.1749
▁silenc	-11.1752
▁estará	-11.1755
▁equivalente	-11.1755
zinho	-11.1756
▁McC	-11.176
▁complicated	-11.1765
▁reconhecimento	-11.1765
▁Health	-11.1765
▁voltou	-11.1766
▁convers	-11.1777
▁pleasure	-11.1781
▁renew	-11.1781
▁currenc	-11.1782
▁bottle	-11.1782
▁Mother	-11.1788
▁Chega	-11.1792
▁Affair	-11.1797
▁imenso	-11.1797
▁dialogue	-11.1797
▁manipula	-11.1797
▁direcção	-11.1797
▁shock	-11.1797
▁entrevista	-11.1797
▁electronic	-11.1798
▁Tommy	-11.1801
▁consistent	-11.1802
▁definido	-11.1803
▁cheap	-11.1806
▁adquiri	-11.1813
▁religious	-11.1813
theless	-11.1814
▁Entra	-11.1814
▁quit	-11.1823
▁enfrentar	-11.1827
▁corrida	-11.1829
▁pega	-11.183
entrou	-11.1831
▁surgery	-11.1832
▁quinta	-11.1836
▁Walter	-11.1838
▁ambiental	-11.1841
▁Secretar	-11.1841
▁excited	-11.1845
▁scope	-11.1845
▁Unidas	-11.1845
▁cumpri	-11.1846
▁partida	-11.1847
▁Gosta	-11.185
▁diversas	-11.1854
▁preparation	-11.1858
97	-11.1859
▁brilhante	-11.1861
▁agricultura	-11.1862
▁allocat	-11.1863
▁conclusões	-11.1863
▁Johnny	-11.1864
▁geralmente	-11.1869
RES	-11.187
▁sacrific	-11.1877
▁gigante	-11.1877
▁impose	-11.1877
▁falou	-11.1878
▁espalha	-11.1878
▁neithe	-11.1879
▁Anti	-11.1882
▁Observ	-11.1894
▁Camp	-11.1897
▁1985	-11.1897
▁subir	-11.1898
RS	-11.1898
rose	-11.1901
▁collection	-11.1902
▁emotion	-11.1906
▁flower	-11.1909
▁candidate	-11.191
▁HIV	-11.191
▁Smith	-11.191
▁assets	-11.1912
diversity	-11.1913
▁financing	-11.1913
▁fornecer	-11.1918
▁aniversário	-11.1926
▁gerais	-11.1927
▁elevada	-11.1931
▁dimension	-11.1937
▁aprendizagem	-11.1942
▁cirurgia	-11.1942
▁http	-11.1942
▁pergunto	-11.1942
▁bill	-11.1949
▁destrui	-11.195
▁coast	-11.1955
▁circulação	-11.1961
▁subsid	-11.1963
▁abrange	-11.1963
ntial	-11.197
▁Assunto	-11.1975
▁Feliz	-11.1975
▁transaction	-11.1975
▁medium	-11.1975
▁1.2	-11.1977
▁frequent	-11.1981
▁participate	-11.1983
▁recurso	-11.1984
▁coincid	-11.1993
▁1986	-11.1998
▁alcanç	-11.2001
▁consideration	-11.2001
▁poet	-11.2002
▁fever	-11.2004
▁constitue	-11.2008
▁Serviço	-11.2008
▁duties	-11.2008
▁Western	-11.2008
▁cinema	-11.2008
▁Hall	-11.2008
▁nearly	-11.201
▁participation	-11.2014
kh	-11.2018
▁Venha	-11.2023
▁alargamento	-11.2024
▁beleza	-11.2024
▁affected	-11.2024
▁Muitas	-11.2025
▁reduced	-11.2038
▁Gen	-11.204
▁brief	-11.2041
▁centre	-11.2046
▁Santo	-11.2048
▁equivalent	-11.205
▁acrescenta	-11.2057
▁Especial	-11.2057
▁Further	-11.2057
▁underst	-11.206
▁recommendation	-11.2061
▁earn	-11.2067
▁científica	-11.2074
▁authoris	-11.2075
▁encontrado	-11.2081
▁decidiu	-11.2082
▁atitude	-11.2085
▁identity	-11.209
▁ingredient	-11.209
▁toneladas	-11.209
▁transition	-11.2091
▁rode	-11.2091
▁analisar	-11.2093
▁priority	-11.2095
▁bloque	-11.2107
▁Gran	-11.2112
▁Terr	-11.2113
π	-11.2123
▁acabe	-11.2125
▁wedding	-11.2126
▁simula	-11.2132
▁certificate	-11.2136
▁desempenha	-11.214
▁Japão	-11.214
▁excuse	-11.214
▁plate	-11.214
▁vento	-11.2141
town	-11.2145
▁HAS	-11.2145
reached	-11.215
▁Amendment	-11.2157
▁stuck	-11.2157
▁escuta	-11.2157
▁escreveu	-11.2161
▁Angeles	-11.2161
▁refuse	-11.2165
introdução	-11.2173
▁francesa	-11.2173
▁dry	-11.2173
▁variedade	-11.2173
▁arrangements	-11.2173
▁prince	-11.2173
▁transparent	-11.2173
▁Aquela	-11.2174
▁sentado	-11.2181
▁investigat	-11.2182
▁confiar	-11.2184
▁manner	-11.2185
▁efectuada	-11.2189
▁compreens	-11.219
▁circuit	-11.219
▁poderoso	-11.2191
▁discurso	-11.2192
▁Data	-11.2193
▁clima	-11.2198
▁retirar	-11.2207
▁fertil	-11.2207
▁adoptada	-11.2214
▁Roger	-11.2217
▁preste	-11.2222
▁comboio	-11.2223
▁FR	-11.2225
▁Alexand	-11.2226
▁leitura	-11.2226
▁integração	-11.2227
▁score	-11.2231
▁Total	-11.2234
▁Usa	-11.2237
▁Faça	-11.2238
▁óbvio	-11.224
▁fico	-11.2241
▁generate	-11.2243
▁Bobby	-11.2243
▁phase	-11.2244
▁reconhece	-11.2244
▁adoptar	-11.2247
▁folha	-11.2247
▁Agente	-11.2248
▁existence	-11.2254
▁Sand	-11.2254
▁congratula	-11.2257
▁statistics	-11.2257
,6	-11.2262
▁saco	-11.2264
▁chip	-11.2266
▁condição	-11.2266
▁Nacional	-11.2268
▁Egypt	-11.2274
▁vestido	-11.2274
▁pacote	-11.2274
TU	-11.2274
▁foca	-11.2275
▁Daddy	-11.2277
▁diante	-11.2282
▁clothes	-11.2283
pur	-11.2285
▁atende	-11.2286
▁taste	-11.2289
▁electro	-11.2289
▁Wall	-11.2289
▁chocolate	-11.2291
ondado	-11.2298
▁bond	-11.2307
down	-11.2308
▁roubar	-11.2309
▁committed	-11.2324
▁attach	-11.2325
▁conhecemo	-11.2325
▁forgive	-11.2327
▁passage	-11.2336
▁enterprise	-11.2341
▁felicidade	-11.2341
▁inteligência	-11.2341
▁Consegue	-11.2341
▁Cuidado	-11.2341
▁assumir	-11.2343
▁creature	-11.2343
▁1987	-11.2345
▁interpret	-11.2352
▁Sun	-11.2352
rich	-11.2352
▁duro	-11.2357
▁influência	-11.2358
▁perturba	-11.2358
▁insect	-11.2358
▁Kevin	-11.236
cesso	-11.2362
IES	-11.237
▁UK	-11.2371
▁switch	-11.2375
▁therapy	-11.2375
▁emergency	-11.2376
▁Rick	-11.2383
▁neighbor	-11.2392
▁química	-11.2392
▁destruí	-11.2392
▁complementar	-11.2395
▁Record	-11.2396
▁menino	-11.2402
▁Desenvolvimento	-11.2409
What	-11.2415
▁severe	-11.2416
▁maravilhoso	-11.2427
▁Irlanda	-11.2427
▁Palestin	-11.2427
▁encontramo	-11.243
▁painting	-11.2438
▁futebol	-11.2444
▁líquido	-11.2444
▁explore	-11.2445
▁História	-11.2445
▁restaurante	-11.2458
▁argue	-11.2461
▁estúpido	-11.2461
▁facilmente	-11.2461
▁químico	-11.2461
promoção	-11.2466
▁Korea	-11.2466
water	-11.2468
▁Hill	-11.2475
▁England	-11.2478
▁prémio	-11.2478
▁desliga	-11.2484
▁Turkey	-11.2495
▁estrangeiro	-11.2495
▁detalhe	-11.2496
▁spin	-11.25
▁jornal	-11.2503
▁compreende	-11.2505
▁comprimido	-11.2512
▁interface	-11.2513
▁entirely	-11.2516
▁prepare	-11.2517
▁revolução	-11.253
▁symptom	-11.253
▁ministro	-11.253
▁wound	-11.2532
▁pronta	-11.2534
▁Head	-11.2537
▁publicado	-11.2539
▁adolescente	-11.2547
▁escolhi	-11.2547
▁shirt	-11.2547
▁vacina	-11.2548
▁Pete	-11.2549
▁pergunte	-11.2565
▁ritmo	-11.2568
▁Zi	-11.2569
▁Read	-11.2573
▁destruir	-11.2574
▁Queen	-11.2575
▁east	-11.2576
▁adoro	-11.2579
▁rouba	-11.2582
▁wealth	-11.2582
▁guide	-11.2584
▁interact	-11.2588
▁California	-11.2599
▁refugee	-11.2599
▁Promet	-11.2608
mobil	-11.261
▁obvia	-11.261
▁sentar	-11.2615
▁Such	-11.2616
▁carácter	-11.2617
▁passageiro	-11.2617
▁significativo	-11.2624
▁coordenação	-11.2629
▁dançar	-11.2632
RU	-11.2632
▁científico	-11.2634
▁desenvolvido	-11.2634
▁excellent	-11.2634
ddie	-11.2634
▁Texa	-11.264
incredibly	-11.2652
▁crítica	-11.2652
▁faculdade	-11.2652
▁Leave	-11.2652
print	-11.2661
▁Ouça	-11.2662
posed	-11.2666
▁Agência	-11.2669
▁gross	-11.2671
▁proof	-11.2675
gla	-11.2677
▁pecado	-11.2683
▁apresento	-11.2686
▁typical	-11.2687
▁Little	-11.2689
itude	-11.269
▁levantar	-11.2691
▁cópia	-11.2704
▁Austria	-11.2704
▁Chapter	-11.2704
▁Obvi	-11.2705
▁desloca	-11.2706
▁comply	-11.2707
▁250	-11.2713
▁labor	-11.272
▁Special	-11.2722
▁binding	-11.2722
▁criatura	-11.2725
▁captura	-11.2727
▁UNI	-11.2729
▁expedi	-11.2731
▁empregado	-11.2732
▁afternoon	-11.2739
▁entitle	-11.2739
▁cycle	-11.2739
▁freak	-11.274
▁mentira	-11.274
▁outcome	-11.274
▁alfa	-11.2745
▁habitat	-11.2746
▁orçamental	-11.2747
▁receiv	-11.2752
▁smaller	-11.2752
▁letra	-11.2756
▁engraçado	-11.2757
▁Turqui	-11.2757
▁localizada	-11.2761
▁Estive	-11.2765
▁DAS	-11.2766
vosco	-11.2767
▁proportion	-11.277
visível	-11.2777
▁background	-11.2778
▁adoption	-11.2779
▁Senti	-11.2784
▁arquivo	-11.2792
▁humor	-11.2793
▁gradual	-11.28
▁Julie	-11.2803
▁cala	-11.2806
▁doutor	-11.2808
▁Saúde	-11.281
▁disaster	-11.281
▁rebel	-11.2815
▁Try	-11.282
▁Communities	-11.2828
▁equilíbrio	-11.2828
▁Security	-11.2828
▁Major	-11.2828
▁Sabia	-11.2833
▁gajo	-11.2837
▁River	-11.2843
The	-11.2845
▁affair	-11.2846
▁bacteria	-11.2846
▁regret	-11.2846
▁gira	-11.2847
▁crash	-11.2848
▁diverso	-11.2848
▁collective	-11.285
▁ignora	-11.2853
▁Nesta	-11.2854
▁esquece	-11.286
▁cortar	-11.2862
▁francês	-11.2864
▁mensagens	-11.2864
▁jardi	-11.2864
▁bridge	-11.2866
▁Pedi	-11.2866
▁mandato	-11.2867
▁tê	-11.2872
▁Simon	-11.2877
ethyl	-11.2879
▁Força	-11.2881
▁schedule	-11.2882
▁School	-11.2882
▁lucro	-11.2882
▁aceite	-11.2883
▁Show	-11.2886
,7	-11.2891
▁primo	-11.2893
▁Fro	-11.2894
▁Agent	-11.2894
▁concentration	-11.2898
▁occurr	-11.2898
▁Basta	-11.2898
oxy	-11.2899
▁Acredita	-11.2901
▁creative	-11.2906
▁grab	-11.2906
▁criada	-11.2907
▁categor	-11.2908
▁Bell	-11.2909
▁refund	-11.2917
▁Centro	-11.2922
phone	-11.2926
▁Check	-11.2928
▁pregnant	-11.2935
▁technique	-11.2935
▁somehow	-11.2935
▁highest	-11.2945
▁Houve	-11.2954
▁screw	-11.2955
▁brand	-11.2957
▁Section	-11.2965
▁adultos	-11.297
nderson	-11.2971
ntretanto	-11.2974
▁root	-11.2974
lected	-11.2977
▁terrorista	-11.2981
▁lift	-11.2983
▁smoke	-11.299
▁implant	-11.2992
▁capture	-11.2998
▁sake	-11.3002
nteriormente	-11.3003
▁posterior	-11.3008
▁propose	-11.3014
▁association	-11.3015
▁moon	-11.3024
▁proceder	-11.3026
▁futura	-11.3026
▁1000	-11.303
▁describe	-11.303
urgi	-11.3033
ÇÕES	-11.3044
▁unfortunate	-11.3044
▁succeed	-11.3044
▁libert	-11.3046
▁neighborhood	-11.3063
▁withdraw	-11.3063
▁empty	-11.3063
▁permanent	-11.3066
▁Começa	-11.3069
▁trend	-11.307
▁prever	-11.3078
▁route	-11.3079
▁Descobri	-11.3081
▁tissue	-11.3081
▁Again	-11.3081
▁publish	-11.3084
▁massive	-11.3086
▁possu	-11.3088
▁tight	-11.3092
▁600	-11.3093
gula	-11.3093
▁coordinat	-11.3094
▁Internacional	-11.3099
▁swear	-11.3099
▁fomo	-11.3099
▁calça	-11.3099
▁fluxo	-11.31
▁Brown	-11.31
▁terrorist	-11.3101
▁plástico	-11.3117
▁fixado	-11.3125
▁babi	-11.3125
▁Islam	-11.3127
▁queixa	-11.3129
▁length	-11.3135
▁injection	-11.3136
▁style	-11.3136
▁interroga	-11.3137
▁irrita	-11.314
▁militares	-11.3142
▁rumo	-11.3147
▁Mexico	-11.3154
▁compliance	-11.3154
▁knock	-11.3154
▁reforço	-11.3154
▁tolera	-11.3157
▁Nesse	-11.3159
▁expression	-11.3166
▁Contra	-11.3171
▁expensive	-11.3172
▁primary	-11.3177
▁proje	-11.3182
▁Inglaterra	-11.3191
▁homicídio	-11.3191
▁mínima	-11.3191
▁costumava	-11.3191
▁sugeri	-11.3191
dding	-11.3196
▁tail	-11.3196
Á	-11.3198
▁voar	-11.3199
tituí	-11.3206
▁branca	-11.3209
▁observações	-11.3213
▁respectivo	-11.3214
▁lançado	-11.3215
▁Papa	-11.3217
▁nega	-11.3219
▁Fico	-11.3222
▁navega	-11.3224
▁submit	-11.3225
▁blame	-11.3226
▁philosoph	-11.3228
urveillance	-11.3228
▁Igreja	-11.3228
▁retire	-11.3231
icialmente	-11.3237
▁possui	-11.324
▁exciting	-11.3246
▁namorada	-11.3246
▁march	-11.3254
▁mama	-11.3255
▁clube	-11.3264
▁COMISS	-11.3265
▁suposto	-11.3265
COMMISSION	-11.3283
▁swim	-11.3284
▁Gostava	-11.3294
pediu	-11.3299
▁ponte	-11.3301
▁suspeito	-11.3302
▁vigilância	-11.3302
▁parliament	-11.3302
▁possíveis	-11.3302
▁passenger	-11.3304
▁evaluation	-11.3321
▁recognise	-11.3321
▁Greek	-11.3321
▁Anexo	-11.3321
▁exclusiva	-11.3321
▁Michel	-11.3321
▁Middle	-11.3322
▁baseada	-11.3326
torage	-11.3329
▁pound	-11.3339
▁secundário	-11.334
▁Relatório	-11.334
▁Pára	-11.334
▁bastard	-11.334
▁Robin	-11.3342
▁percebo	-11.3343
▁suppose	-11.3345
▁marry	-11.3348
▁Six	-11.3354
roga	-11.3355
▁divulga	-11.3358
▁Next	-11.3359
▁expir	-11.3361
▁fourth	-11.3374
▁girlfriend	-11.3377
▁arrisca	-11.3377
▁integration	-11.3378
shown	-11.3378
▁declare	-11.3379
▁aviso	-11.3379
▁trav	-11.3379
▁Arth	-11.3383
▁CONS	-11.3383
▁Sabemo	-11.3395
▁maravilhosa	-11.3396
▁privada	-11.3396
▁guitar	-11.3396
▁alien	-11.3406
▁abuse	-11.3414
▁Política	-11.3415
▁football	-11.3415
▁planned	-11.3417
▁ruin	-11.3418
▁efectu	-11.3418
▁Land	-11.3421
▁Minha	-11.343
▁cerveja	-11.3434
employed	-11.3434
▁extension	-11.3434
▁circle	-11.3435
▁Rand	-11.3437
▁contest	-11.3441
▁interessada	-11.3448
▁funcionários	-11.3453
▁apparent	-11.3453
▁célula	-11.3455
▁começá	-11.3457
▁prescri	-11.3459
▁Número	-11.3472
▁session	-11.3473
▁Greec	-11.3484
▁ligada	-11.3487
▁Australia	-11.3491
▁nurse	-11.3491
▁mobile	-11.3491
▁slide	-11.3491
▁Project	-11.3494
▁strip	-11.3494
▁relacionadas	-11.3497
▁estuda	-11.3499
▁manual	-11.3504
▁Quin	-11.3505
▁flores	-11.3509
▁Caso	-11.3509
▁possess	-11.351
▁correspondente	-11.351
▁Rule	-11.351
ficado	-11.3511
▁diversidade	-11.3515
▁fornece	-11.3528
▁protein	-11.3528
▁reflex	-11.3529
▁cenário	-11.3529
▁excita	-11.3533
▁authorisation	-11.3533
▁torno	-11.3536
▁deixá	-11.3537
▁madeira	-11.3547
▁provável	-11.3548
▁fabricante	-11.3551
▁Vejo	-11.3553
ónico	-11.3554
▁reuniões	-11.3554
▁satélite	-11.3567
▁suspend	-11.3567
▁Tira	-11.3573
▁Gré	-11.3576
▁restante	-11.3576
book	-11.3581
▁funeral	-11.3586
▁bullet	-11.3586
gradeço	-11.3593
▁emissions	-11.3594
▁baseado	-11.3603
▁parceria	-11.3605
leading	-11.3609
▁poderosa	-11.3614
▁enormous	-11.3625
▁estatuto	-11.3625
▁esperava	-11.3629
▁harmoniza	-11.3636
ANT	-11.364
▁Down	-11.3643
▁Afeganistã	-11.3644
▁clínico	-11.3644
▁judgment	-11.3644
▁concedido	-11.3644
▁Rob	-11.3653
stabilidade	-11.3657
▁Afghanistan	-11.3663
▁punish	-11.3663
▁Without	-11.3664
▁Importa	-11.3664
▁Huh	-11.3679
▁Service	-11.3683
▁cultiva	-11.3683
▁comercializa	-11.369
▁Talk	-11.369
▁negativo	-11.3691
▁Querida	-11.3696
▁constitute	-11.37
▁emotional	-11.37
▁PRESENTE	-11.3702
▁aprovada	-11.3702
▁fashion	-11.3702
▁guidelines	-11.3702
▁participantes	-11.3707
view	-11.3715
2005	-11.3721
▁marge	-11.3721
▁México	-11.3722
▁agriculture	-11.3722
▁Sound	-11.3728
▁stabilit	-11.3741
▁ilegal	-11.3741
▁belief	-11.3741
▁compromise	-11.3741
▁ajude	-11.3741
▁heaven	-11.3741
AÇÃO	-11.3742
▁urge	-11.3746
▁convidado	-11.3751
▁pobre	-11.3753
▁apologi	-11.3755
▁traduz	-11.3756
▁happiness	-11.3762
▁enfrenta	-11.3763
.000	-11.3763
▁consent	-11.3771
▁espanhol	-11.378
▁Philip	-11.3781
▁Ferr	-11.3783
▁joy	-11.3786
▁remov	-11.3791
▁aeroporto	-11.38
▁breast	-11.38
▁investigador	-11.3801
▁propaga	-11.3802
▁Number	-11.3803
▁senão	-11.3805
ânica	-11.3806
▁namorado	-11.382
▁Ajuda	-11.382
▁Anyway	-11.3821
▁suporta	-11.3821
▁steel	-11.3822
▁rough	-11.3825
▁persist	-11.3833
ñ	-11.3839
▁applicant	-11.3839
▁opposite	-11.3839
▁confidence	-11.3839
▁ecrã	-11.3839
DR	-11.384
▁negra	-11.384
▁ambas	-11.3844
▁tradition	-11.3856
▁Dê	-11.3859
▁Women	-11.3859
▁beneficia	-11.3865
▁recuperação	-11.3866
▁Cuba	-11.3869
▁Queremos	-11.3869
▁infection	-11.3871
▁Federal	-11.3877
▁notícia	-11.3877
▁medicinal	-11.3878
▁alcance	-11.3879
▁district	-11.3879
▁shoes	-11.3879
▁airport	-11.3882
▁internet	-11.3883
▁crew	-11.3885
▁Also	-11.3887
▁construct	-11.3894
▁Califórnia	-11.3898
▁recognition	-11.3898
▁transparência	-11.3898
▁comentário	-11.3899
▁Edward	-11.3901
▁bordo	-11.3902
▁prisoner	-11.3906
▁Global	-11.3918
▁zoo	-11.3921
quí	-11.3922
▁bilhete	-11.3938
credit	-11.3944
▁armazen	-11.3948
,8	-11.3948
▁jornalista	-11.3949
▁Lisa	-11.3954
▁satellite	-11.3958
▁purchase	-11.3958
▁restaurant	-11.3962
▁perigosa	-11.3972
▁guest	-11.398
▁chá	-11.398
▁Hmm	-11.3981
▁féria	-11.3984
▁Financ	-11.3985
▁barra	-11.3987
▁uncle	-11.3988
▁pool	-11.3991
▁CIA	-11.3998
▁símbolo	-11.3998
▁efficiency	-11.3998
▁attitude	-11.3998
▁random	-11.3999
▁Programa	-11.4
▁esqueci	-11.4001
minated	-11.4001
▁patente	-11.4012
▁Greg	-11.4015
▁vinda	-11.4018
▁Research	-11.4018
▁audiência	-11.4018
▁ótimo	-11.4018
▁obrigatório	-11.4019
▁Josh	-11.4021
▁immun	-11.4024
▁1984	-11.4027
▁declaration	-11.4027
▁flat	-11.4029
▁comput	-11.403
EG	-11.4032
ássemo	-11.4033
▁Económico	-11.4038
▁refugiados	-11.4038
▁ticket	-11.4038
▁cristã	-11.4038
▁regressar	-11.4038
MAN	-11.4042
▁Calma	-11.4058
▁consciente	-11.4058
▁sapato	-11.4058
▁conquista	-11.4058
▁extin	-11.4063
▁idiot	-11.4065
▁mantém	-11.4067
▁Feito	-11.4068
EEE	-11.4072
▁WE	-11.4073
.2004	-11.4073
▁Doctor	-11.4074
▁Welcome	-11.4078
▁clínica	-11.4078
▁drunk	-11.4078
▁strike	-11.4079
▁ancient	-11.4079
▁Acabe	-11.4079
▁angry	-11.408
▁bail	-11.408
▁sintomas	-11.4081
▁roof	-11.4081
▁1970	-11.4084
▁citizen	-11.4095
▁approximate	-11.4099
▁comfortabl	-11.4099
▁constitut	-11.4101
▁contou	-11.4109
voted	-11.4113
▁máxima	-11.4119
▁structural	-11.4119
▁Esquece	-11.4119
▁Still	-11.412
▁Brook	-11.4121
▁hiper	-11.4122
▁círculo	-11.4139
▁Presidenc	-11.4139
▁click	-11.414
▁smile	-11.414
▁Happ	-11.414
▁detective	-11.4145
▁arranja	-11.4156
▁Except	-11.4159
▁crowd	-11.416
▁exposure	-11.4161
▁minister	-11.4164
▁update	-11.4164
▁pára	-11.4171
▁Muslim	-11.418
▁hungry	-11.418
▁indirect	-11.418
▁stake	-11.4182
▁aproximadament	-11.4195
combustível	-11.42
▁Follow	-11.42
▁jurídico	-11.42
▁cuidar	-11.4201
▁assustador	-11.4202
▁Peg	-11.4207
terapia	-11.4221
▁neck	-11.4224
▁gesto	-11.4228
▁flor	-11.4229
▁complicado	-11.4241
▁exploit	-11.4241
▁appeal	-11.4241
▁salário	-11.4242
▁Financial	-11.4242
lash	-11.4249
▁confia	-11.4254
▁isolat	-11.4257
▁fragment	-11.4262
▁decrease	-11.4262
▁Adop	-11.4264
▁palco	-11.4267
▁devasta	-11.4267
▁gender	-11.4268
▁entusiasma	-11.4282
▁plataforma	-11.4282
▁www	-11.4282
▁enemy	-11.4283
▁divert	-11.4283
▁ligo	-11.4284
▁controlled	-11.4289
▁upset	-11.4292
▁dormi	-11.4295
▁Vietnam	-11.4303
▁Agosto	-11.4303
▁unanim	-11.4303
▁Girl	-11.4304
▁efectivamente	-11.4309
▁Tenta	-11.432
▁restrict	-11.4323
chlor	-11.4338
▁distrito	-11.4344
▁setembro	-11.4344
▁hoping	-11.4348
latest	-11.4349
▁Olympic	-11.4365
▁Twitter	-11.4365
▁anuncia	-11.4365
▁Peço	-11.4366
íssimo	-11.4366
▁coordena	-11.4371
▁cub	-11.4378
discrimina	-11.438
ς	-11.4386
▁fantástica	-11.4386
▁Harvard	-11.4386
▁garden	-11.4386
▁oficiais	-11.4386
▁conclude	-11.4387
▁Lady	-11.4388
▁diabet	-11.4392
▁Earl	-11.4394
▁alcohol	-11.4407
▁conveniente	-11.4407
▁promessa	-11.4407
▁Grace	-11.4407
▁arrange	-11.4407
▁obsess	-11.4407
▁Foste	-11.4421
▁channel	-11.4428
▁profundo	-11.4428
▁inocente	-11.4428
▁Play	-11.4428
▁partnership	-11.4429
▁Secret	-11.4434
κ	-11.4448
▁individuais	-11.4448
▁sofrimento	-11.4448
▁esqueça	-11.4449
▁vergonha	-11.4449
SBN	-11.4449
▁judicial	-11.4449
▁avô	-11.4449
corrido	-11.4469
▁Clear	-11.4471
▁hmm	-11.4471
▁Transport	-11.4471
▁coordination	-11.4475
▁adjust	-11.4489
▁Conference	-11.449
▁Netherlands	-11.449
▁boyfriend	-11.449
▁perspetiva	-11.449
▁subparagraph	-11.449
▁confident	-11.4492
uratom	-11.4496
refiro	-11.4496
▁Product	-11.4497
nnis	-11.4503
▁contamina	-11.4504
▁curva	-11.4505
▁introduction	-11.4512
▁nervous	-11.4512
▁herself	-11.4512
▁chorar	-11.4512
▁disposi	-11.4513
▁curta	-11.4526
▁distribut	-11.4527
▁anúncio	-11.4533
▁slightly	-11.4533
▁Japanese	-11.4533
▁Normal	-11.4533
▁Somebody	-11.4535
▁sensíve	-11.4535
▁ambienta	-11.454
▁escreve	-11.4545
▁Kha	-11.4551
▁autocarro	-11.4554
▁ausência	-11.4555
▁encontrá	-11.4559
▁bactéria	-11.4575
▁Anything	-11.4575
▁composto	-11.4576
▁Club	-11.4577
craft	-11.4579
▁dump	-11.4586
▁desemprego	-11.4596
▁interromp	-11.4596
▁cloud	-11.4596
▁consiga	-11.4597
▁conclus	-11.4618
▁censo	-11.4619
▁weekend	-11.4621
à	-11.4622
▁mutual	-11.4623
mediante	-11.463
▁libera	-11.4635
▁magazine	-11.4639
▁Lembro	-11.4639
served	-11.4642
▁display	-11.4648
institutional	-11.4656
▁Porém	-11.4656
▁britânico	-11.466
▁Joseph	-11.466
▁Kosov	-11.4661
▁proteína	-11.4661
▁biological	-11.4663
▁Joint	-11.4664
tribuição	-11.4673
▁bolsa	-11.4682
▁resistência	-11.4692
▁split	-11.4703
▁roubo	-11.4704
▁presa	-11.4705
▁julgamento	-11.4706
▁Sweden	-11.4706
▁cruel	-11.4709
.10.	-11.4719
▁intend	-11.4724
▁Emily	-11.4726
▁Wood	-11.4732
▁cheiro	-11.4733
▁logic	-11.4737
▁definitiva	-11.4741
▁Conferência	-11.4746
▁genética	-11.4746
▁famoso	-11.4747
▁parcial	-11.4749
▁respeitante	-11.4759
▁cobertura	-11.4768
▁encoraja	-11.4768
▁false	-11.4768
▁presum	-11.4771
▁transição	-11.4771
▁librar	-11.4772
▁garage	-11.4775
▁embalage	-11.4776
▁defeat	-11.4779
▁básico	-11.4789
▁Pergunta	-11.4789
▁Rachel	-11.4789
▁comité	-11.4789
▁chief	-11.479
▁studie	-11.4803
▁Year	-11.4811
nteriores	-11.4815
▁prende	-11.4829
▁giant	-11.4834
▁mexer	-11.4834
eous	-11.4834
▁congela	-11.4838
▁participant	-11.4842
▁garrafa	-11.4855
▁influencia	-11.4855
▁vidro	-11.4856
▁vegetable	-11.4856
point	-11.4867
▁loucura	-11.4876
▁shame	-11.4879
▁budgetary	-11.488
▁Honey	-11.4882
▁Desc	-11.4883
▁Filho	-11.4885
▁irregular	-11.4898
▁Bern	-11.49
▁strict	-11.4901
▁gravit	-11.4902
▁batter	-11.4905
▁stoo	-11.4914
▁bathroom	-11.492
▁transparenc	-11.492
▁descobrimo	-11.4927
▁empurr	-11.4927
▁Allah	-11.4929
calhar	-11.4932
▁diagnos	-11.4938
▁mold	-11.4941
▁ANEXO	-11.4942
▁fisheries	-11.4942
▁PIB	-11.4942
plicações	-11.496
▁eficiente	-11.4964
▁molécula	-11.4964
▁simplifica	-11.4964
▁galax	-11.4964
▁escuro	-11.4964
▁Raios	-11.4966
▁treino	-11.4969
ESS	-11.497
▁Video	-11.498
▁silêncio	-11.4986
▁Jerry	-11.4986
▁masculin	-11.4987
▁awful	-11.4987
▁crap	-11.4987
ddle	-11.5002
▁municipalit	-11.5008
▁newspaper	-11.5008
▁survey	-11.5009
▁manifest	-11.5014
▁probabilidade	-11.5031
▁pension	-11.5032
▁derrota	-11.5041
janeiro	-11.5053
▁innocent	-11.5053
▁Albert	-11.5055
▁emoções	-11.506
▁crescente	-11.5074
▁literatur	-11.5075
▁platform	-11.5075
▁Percebe	-11.5075
▁muscle	-11.5075
▁Norman	-11.5076
▁noutra	-11.5076
▁treinado	-11.5078
DOS	-11.5082
PPE	-11.5086
▁localização	-11.5088
▁Suécia	-11.5097
▁supplement	-11.5097
▁GDP	-11.5097
▁courage	-11.5097
▁Third	-11.5097
▁cãe	-11.5098
▁originating	-11.51
▁edit	-11.51
▁Ooh	-11.5101
▁multiple	-11.5102
▁deficiência	-11.512
▁System	-11.512
▁fee	-11.5122
▁lançamento	-11.5124
▁frame	-11.5136
▁lend	-11.5142
▁monetar	-11.5143
olidariedade	-11.5145
employment	-11.5161
front	-11.5162
▁enlargement	-11.5165
▁grávida	-11.5165
▁molecule	-11.5165
▁prohibit	-11.5165
▁transplant	-11.5165
▁obtido	-11.5166
▁salienta	-11.5166
ótico	-11.5175
▁extract	-11.5178
▁obstáculo	-11.5187
▁desistir	-11.5187
▁warning	-11.5192
▁Until	-11.5193
panhei	-11.5196
▁fantastic	-11.5197
zembro	-11.5204
concluded	-11.5208
Ú	-11.521
▁macaco	-11.521
▁pursue	-11.5211
▁polui	-11.5214
rrived	-11.5214
▁vitória	-11.522
VER	-11.5229
▁adequate	-11.5232
▁bicicleta	-11.5232
▁concluí	-11.5232
▁characteristics	-11.5232
▁Oriente	-11.5233
▁investigar	-11.5237
▁julho	-11.5239
▁produzido	-11.5241
▁chamamo	-11.5245
▁Doug	-11.5246
▁galáxia	-11.5255
▁recompensa	-11.5255
▁trânsito	-11.5255
▁hidden	-11.5255
▁description	-11.5255
▁ajudo	-11.5256
▁regionais	-11.526
▁utilizadores	-11.5262
▁COMMUNIT	-11.5278
▁depósito	-11.5278
▁relógio	-11.5278
▁vazio	-11.5278
▁intervalo	-11.5278
▁louca	-11.5279
▁introduzir	-11.5301
▁limpo	-11.5302
▁Comun	-11.5323
▁chicken	-11.5323
▁Canadá	-11.5323
▁liderança	-11.5324
▁weather	-11.5324
▁bloco	-11.5324
▁specificall	-11.5325
▁leadership	-11.5325
▁Melhor	-11.5325
▁matá	-11.5327
▁Coopera	-11.5329
utubro	-11.5343
▁tank	-11.5343
▁Taylor	-11.5346
▁ampla	-11.5351
▁operaciona	-11.5354
ollywood	-11.5357
▁bright	-11.5358
gráfica	-11.5369
▁quisesse	-11.5369
▁Claire	-11.537
▁Kyl	-11.5372
▁excepção	-11.5374
▁Kong	-11.538
▁historical	-11.538
▁africano	-11.5392
▁histórico	-11.5392
▁chuva	-11.5393
▁pneu	-11.5394
▁Brother	-11.5394
▁Leonard	-11.5415
▁inferno	-11.5415
▁profile	-11.5416
▁derroga	-11.5416
vivemos	-11.5432
▁criminoso	-11.5438
▁kitchen	-11.5438
▁prisioneiro	-11.5438
▁concedida	-11.5438
▁assegura	-11.5441
▁politician	-11.5442
▁Cooper	-11.5456
▁substantial	-11.5461
▁REGULATION	-11.5461
▁sujeita	-11.5461
▁imensa	-11.5462
▁technological	-11.5463
neath	-11.5463
▁Hurr	-11.547
▁Acredito	-11.5485
▁aérea	-11.5485
▁storm	-11.5486
▁spring	-11.549
▁impedi	-11.5499
▁Encontrei	-11.5508
▁presidenc	-11.5508
▁Larr	-11.5509
▁Acaba	-11.551
▁hook	-11.5513
▁Johnson	-11.5518
▁maluco	-11.5532
▁soubesse	-11.5533
▁coat	-11.5533
▁condiciona	-11.5533
▁disappoint	-11.5538
▁convencer	-11.5542
▁arrive	-11.555
▁Portuguese	-11.5555
▁engenheiro	-11.5555
▁physics	-11.5555
▁consequent	-11.5555
▁remunera	-11.5555
▁aparente	-11.5555
▁Museu	-11.5556
▁adjustment	-11.5559
▁Argentina	-11.5578
▁russo	-11.5579
▁architecture	-11.5579
▁interrupt	-11.558
▁restriction	-11.5585
▁Jackson	-11.5586
▁Programme	-11.5601
▁explanation	-11.5601
▁Trabalho	-11.5602
▁assembl	-11.5609
а	-11.5625
≥	-11.5625
▁REGULAMENTO	-11.5625
▁essenciais	-11.5625
▁descend	-11.5629
▁apaga	-11.5644
▁Agricultura	-11.5649
▁riqueza	-11.5649
▁judeu	-11.5649
▁Center	-11.5649
▁slave	-11.565
▁facilities	-11.5654
▁Annie	-11.5655
▁saudável	-11.5672
▁fizesse	-11.5673
▁sombra	-11.5673
▁coberto	-11.5675
▁legislative	-11.5676
▁chart	-11.5696
▁Einstein	-11.5696
▁compassion	-11.5696
▁promotion	-11.5696
▁temporary	-11.5696
▁facing	-11.5696
▁rescue	-11.5697
▁elder	-11.5698
▁interaction	-11.5702
▁razoáve	-11.5705
▁surpreendente	-11.5705
▁Saint	-11.5713
▁ANNEX	-11.572
▁iguais	-11.572
▁sensitive	-11.572
▁monstro	-11.572
▁Quadro	-11.572
▁explodi	-11.572
▁agradáve	-11.572
noticed	-11.5738
▁eficiência	-11.5744
▁invitation	-11.5744
▁costume	-11.5746
normal	-11.5755
▁atirar	-11.5756
▁university	-11.5767
▁valuable	-11.5767
▁falsa	-11.5768
▁assure	-11.5768
▁ensur	-11.5781
Com	-11.5784
▁Information	-11.5791
▁cobrir	-11.5791
▁pocket	-11.5791
▁brutal	-11.5791
▁concreta	-11.5791
▁enhance	-11.5791
▁generos	-11.5793
▁ritual	-11.5799
▁Luxembourg	-11.5815
▁prejudica	-11.5815
▁Jordan	-11.5815
▁Window	-11.5815
▁Declara	-11.5815
▁incrivel	-11.5815
▁emphasis	-11.5815
▁Syria	-11.5816
▁dropped	-11.5816
▁Command	-11.5823
junho	-11.5836
▁embarrass	-11.5839
00000	-11.5841
▁ácido	-11.5842
▁efectuado	-11.586
▁compromete	-11.586
▁USA	-11.5861
υ	-11.5863
▁climb	-11.5863
▁Primeira	-11.5863
▁pintura	-11.5866
▁atraso	-11.5867
▁terror	-11.5872
▁entrepreneur	-11.5888
▁partículas	-11.5888
▁livrar	-11.5888
▁repair	-11.5888
▁configura	-11.5888
▁vieram	-11.5888
▁expuls	-11.5888
▁consciousness	-11.5889
▁Chief	-11.589
▁Old	-11.5894
▁journalist	-11.5908
▁assinatura	-11.5912
▁atmosphere	-11.5912
▁economist	-11.5912
▁inclusive	-11.5912
▁prejudice	-11.5912
▁disturb	-11.5912
▁unlike	-11.5912
▁mamã	-11.5913
▁align	-11.5918
anuais	-11.5934
▁ilumina	-11.5936
▁Hungar	-11.5937
▁parecido	-11.5938
▁atmosfera	-11.596
▁household	-11.596
▁nervoso	-11.596
▁província	-11.596
▁agencies	-11.596
▁ordinary	-11.596
▁envolvida	-11.596
▁asteroid	-11.5961
▁jeito	-11.5961
▁priorities	-11.5961
▁input	-11.5962
▁emprega	-11.5971
cheguei	-11.5973
▁comporta	-11.598
lógico	-11.5982
▁Acabou	-11.5985
▁desastre	-11.5985
▁monkey	-11.5985
▁lembre	-11.5986
▁nariz	-11.5987
▁facilitate	-11.6001
Que	-11.6008
▁fenómeno	-11.6009
▁novembro	-11.6009
▁árabe	-11.6009
▁úteis	-11.6009
▁fornecimento	-11.6009
▁aéreo	-11.6009
uthority	-11.6016
ground	-11.6025
registr	-11.6028
▁encontrámo	-11.6028
▁COMUNIDADE	-11.6034
▁Elizabeth	-11.6034
▁restructur	-11.6034
▁registado	-11.6034
▁particle	-11.6036
▁flash	-11.6038
▁proceed	-11.6058
▁aproveitar	-11.6058
▁estúdio	-11.6058
▁apercebe	-11.6058
▁spiritual	-11.6061
▁translate	-11.6064
▁boot	-11.6073
2006	-11.6082
λ	-11.6083
▁Environment	-11.6083
▁studio	-11.6083
▁discrimination	-11.6083
▁discriminação	-11.6083
▁banana	-11.6085
▁básica	-11.6108
▁Sistema	-11.6108
óxido	-11.6108
▁undertake	-11.6109
▁divertir	-11.6114
▁Know	-11.6118
▁cresci	-11.6122
▁crie	-11.6125
▁diagnóstico	-11.6132
▁incluído	-11.6132
▁gravidade	-11.6132
▁1983	-11.6132
▁óleo	-11.6132
▁hyper	-11.6133
▁magoar	-11.6134
anagement	-11.6137
▁algorithm	-11.6157
▁Código	-11.6157
▁Dinamar	-11.6157
▁japon	-11.6157
▁Blue	-11.6158
▁branch	-11.616
ł	-11.6182
▁acquire	-11.6182
▁revoga	-11.6185
▁categories	-11.6185
▁Susan	-11.6187
▁Haiti	-11.619
▁fluid	-11.6203
▁endereço	-11.6207
▁faixa	-11.6207
▁avanço	-11.6207
ólico	-11.621
▁absolute	-11.6217
▁disponibiliz	-11.6232
▁preliminar	-11.6232
▁quilómetros	-11.6232
▁burden	-11.6232
▁External	-11.6257
▁biblioteca	-11.6257
▁cousin	-11.6257
▁Aposto	-11.6257
▁Procura	-11.6258
▁coluna	-11.626
▁immediate	-11.6267
▁yellow	-11.6282
▁juíz	-11.6283
▁Wilson	-11.6285
▁autism	-11.6285
▁fabrica	-11.6289
▁string	-11.6292
▁alegria	-11.6307
▁gabinete	-11.6307
▁refrigera	-11.6307
▁Soviet	-11.6307
▁chapter	-11.6307
▁scream	-11.6307
▁potência	-11.6308
▁arrepend	-11.6308
▁aircraft	-11.6308
▁analisa	-11.6329
▁aboli	-11.633
▁Unfortunate	-11.6333
▁exhaust	-11.6333
▁neurónio	-11.6333
▁volunteer	-11.6333
▁inspection	-11.6333
▁corredor	-11.6335
▁tentei	-11.6337
▁dramatic	-11.6343
▁democrat	-11.6344
PER	-11.6352
▁Belgium	-11.6358
▁Institute	-11.6358
▁cerebral	-11.6358
▁beneficiário	-11.6358
▁espacial	-11.6358
▁prospect	-11.6358
▁solidari	-11.6364
▁algures	-11.6383
▁tradu	-11.6401
▁Graças	-11.6409
▁crítico	-11.6409
▁guilty	-11.6409
▁sobrevivência	-11.6409
▁puzzle	-11.6409
▁preenche	-11.6409
▁Kelly	-11.6411
worth	-11.6415
▁Mediterranean	-11.6434
▁incluem	-11.6434
compatible	-11.6434
▁incentivo	-11.6435
▁trigger	-11.6436
▁Stone	-11.6445
▁defense	-11.646
integrated	-11.6466
briu	-11.6467
▁negativa	-11.6467
▁Association	-11.6486
▁Trabalha	-11.6486
▁Doutor	-11.6487
▁decline	-11.6487
▁distinct	-11.6507
▁extraordinária	-11.6511
▁incêndio	-11.6511
▁Médio	-11.6511
▁mirror	-11.6511
▁estreita	-11.6511
▁Obama	-11.6511
▁sugere	-11.6512
▁minorit	-11.6512
▁quantiti	-11.6537
▁suicide	-11.6537
▁desporto	-11.6537
▁sweat	-11.6537
▁Ocean	-11.6545
▁retirada	-11.6563
▁database	-11.6563
▁producing	-11.6563
▁Parabé	-11.6563
hiding	-11.6572
▁Stephen	-11.6589
▁pollution	-11.6589
▁suplementar	-11.6589
▁recall	-11.6591
▁vertical	-11.6595
▁discuti	-11.6609
▁Process	-11.6611
▁mosquito	-11.6615
▁borrow	-11.6615
▁bandeira	-11.6623
▁Question	-11.6627
▁ideolog	-11.6632
▁absence	-11.6641
▁license	-11.6641
▁choque	-11.6642
▁peritos	-11.6643
▁clinic	-11.6656
▁jamais	-11.6667
▁simpático	-11.6667
▁Probabl	-11.6668
▁emitido	-11.667
▁brilliant	-11.6693
▁extraordinário	-11.6693
▁pássaro	-11.6693
▁survival	-11.6693
▁fornecedor	-11.6712
▁Significa	-11.6719
▁engenharia	-11.6719
▁proceedings	-11.6721
▁administer	-11.6746
▁energética	-11.6746
▁societies	-11.6746
▁paixão	-11.6746
▁Policy	-11.6746
▁sequence	-11.6746
▁aconteça	-11.6772
▁tráfico	-11.6772
▁Civil	-11.6772
▁crença	-11.6774
inheiro	-11.6777
xcluding	-11.6781
▁instituciona	-11.6798
▁absurd	-11.6798
▁gritar	-11.6799
▁idéia	-11.6825
▁landscape	-11.6825
▁remarkable	-11.6825
▁vermelha	-11.6825
▁Company	-11.6825
▁golpe	-11.6825
▁Centre	-11.6825
▁Bost	-11.6835
▁acredite	-11.6846
▁maintenance	-11.6852
▁suspeita	-11.6852
▁eligible	-11.6852
▁religiosa	-11.6852
▁Friday	-11.6852
rmed	-11.6854
▁curious	-11.6854
▁Instituto	-11.6878
▁unknown	-11.6878
▁incomoda	-11.6878
▁shadow	-11.6878
▁saudade	-11.6878
▁romance	-11.6878
▁Oliver	-11.6878
▁Bél	-11.6879
▁horror	-11.6879
▁capitã	-11.6885
▁susceptíve	-11.6905
▁Baixos	-11.6905
▁enviou	-11.6905
▁titular	-11.6905
▁procure	-11.6908
2003	-11.6919
▁accurate	-11.6932
▁simultaneamente	-11.6932
▁diagnostic	-11.6937
▁architect	-11.6958
▁breakfast	-11.6959
▁dynamic	-11.6959
▁hurry	-11.6959
▁concrete	-11.6959
▁emocional	-11.6959
▁knee	-11.696
▁Federa	-11.6965
▁voluntário	-11.6986
▁census	-11.6986
▁carrinha	-11.6986
▁ferida	-11.6987
▁subsidiar	-11.6999
▁Maggi	-11.7001
▁fold	-11.7002
▁surprising	-11.7013
▁atrasado	-11.7013
issued	-11.7016
▁drone	-11.7017
▁addict	-11.7026
preendi	-11.7038
▁tempestade	-11.704
▁Science	-11.704
▁Coreia	-11.704
▁abril	-11.7041
▁eterna	-11.7041
▁Govern	-11.7067
▁statu	-11.7067
▁infância	-11.7067
▁algoritmo	-11.7067
▁Jacob	-11.7067
▁regresso	-11.7069
▁tortura	-11.7071
▁Irish	-11.7071
▁elite	-11.7072
▁analog	-11.7075
▁Continue	-11.7094
▁Câmara	-11.7094
▁barulho	-11.7094
▁companheiro	-11.7094
▁barrier	-11.7094
▁barreira	-11.7094
▁Céu	-11.7095
▁consumidor	-11.7105
▁medir	-11.7106
Yeah	-11.7117
▁intercâmbio	-11.7121
▁Colombia	-11.7121
▁cereais	-11.7121
▁italiano	-11.7122
▁falso	-11.7122
▁Natural	-11.7122
▁automat	-11.7127
união	-11.7137
▁finai	-11.7144
▁agita	-11.7147
Ç	-11.7149
▁democrática	-11.7149
▁privilege	-11.7149
▁statistical	-11.7149
и	-11.7176
▁Consequent	-11.7176
▁awesome	-11.7176
▁monetária	-11.7176
▁Áustria	-11.7176
▁grateful	-11.7176
▁molecular	-11.7176
▁conjunta	-11.7176
▁Execut	-11.7176
▁imposi	-11.7189
▁Atlantic	-11.7204
▁Luxemburg	-11.7204
▁NASA	-11.7204
▁carvão	-11.7204
▁Forget	-11.7204
issão	-11.7207
mandou	-11.7218
atureza	-11.7221
}	-11.7232
▁compaixão	-11.7232
▁genuine	-11.7232
▁assembleia	-11.7232
▁fuga	-11.7233
▁Austrália	-11.7259
▁município	-11.7259
▁terapêutica	-11.7259
▁Department	-11.7259
▁Sweet	-11.7259
▁dirty	-11.726
▁Darwin	-11.726
▁experienc	-11.7278
▁mostro	-11.7283
▁frequency	-11.7287
▁pescoço	-11.7287
▁profound	-11.7287
▁ridiculous	-11.7287
▁álcoo	-11.7287
▁History	-11.7289
{	-11.7315
▁advertis	-11.7315
▁pertinente	-11.7315
▁promoting	-11.7315
▁acontecid	-11.7315
▁suporte	-11.7315
▁monitoriza	-11.7317
▁separado	-11.7322
▁episódio	-11.7343
▁Referência	-11.7343
▁acumula	-11.7343
▁Cinco	-11.7343
▁flutua	-11.7344
bsolutely	-11.7349
▁dispens	-11.7365
▁Lieutenant	-11.7371
▁aduaneira	-11.7371
▁privacy	-11.7371
▁rubrica	-11.7371
▁vaccine	-11.7371
▁externo	-11.7371
▁porcaria	-11.7371
▁subsídio	-11.7399
▁Assembleia	-11.7399
▁Suíça	-11.7399
what	-11.7401
▁0,0	-11.741
▁drama	-11.7417
certainty	-11.7424
▁brinquedo	-11.7427
▁grandmother	-11.7427
▁plenty	-11.7427
▁equipe	-11.7428
▁Irmã	-11.7449
▁Bulgaria	-11.7455
▁accelerat	-11.7455
▁intellectual	-11.7455
▁Spirit	-11.7455
▁plasma	-11.7455
▁THAT	-11.7455
▁incentive	-11.7455
▁actualiza	-11.7463
▁lidera	-11.7466
▁ecolog	-11.7482
▁Sunday	-11.7484
▁complement	-11.7485
▁Marshall	-11.7512
▁dezena	-11.7521
western	-11.7532
▁encounter	-11.7541
▁pizza	-11.7541
▁telefona	-11.7541
▁snow	-11.7541
▁confortáve	-11.7569
▁Hitler	-11.7569
▁concordo	-11.7569
▁Mulher	-11.7569
▁Patrick	-11.757
while	-11.7576
▁Música	-11.7598
▁incluída	-11.7598
▁satisfeito	-11.7598
▁espiritual	-11.7598
spoken	-11.7604
▁Manhattan	-11.7626
▁Bureau	-11.7627
▁Colonel	-11.7627
▁evidência	-11.7627
▁XVI	-11.7627
▁defence	-11.7628
▁Fizemo	-11.7632
national	-11.764
▁oxygen	-11.7655
▁Eastern	-11.7655
▁narrow	-11.7656
▁Plat	-11.7659
▁advise	-11.7662
▁cloth	-11.7668
▁descoberto	-11.7684
▁prime	-11.7686
▁tranquil	-11.7686
▁racism	-11.7687
▁Though	-11.7694
▁wisdom	-11.7713
▁fracasso	-11.7713
▁coesão	-11.7714
▁ferido	-11.7717
▁credibili	-11.7731
▁controvers	-11.7742
▁Proposta	-11.7742
▁comprimento	-11.7742
▁cereal	-11.7742
▁telhado	-11.7743
▁strategic	-11.7771
▁champion	-11.7771
▁Quantas	-11.7772
▁initiate	-11.7777
▁choca	-11.7796
volved	-11.7798
▁conscious	-11.7799
▁cardíaco	-11.7801
▁Jerusal	-11.7801
▁bocadinho	-11.7801
▁aquecimento	-11.7801
▁aquisiç	-11.781
▁Amazon	-11.783
▁privacidade	-11.783
▁trabalhe	-11.783
▁fifth	-11.783
▁enforc	-11.7834
riedade	-11.7857
▁Matthew	-11.7859
▁deficit	-11.7859
▁Summer	-11.7859
▁macro	-11.786
▁desperate	-11.7861
▁Põe	-11.7873
▁abrangido	-11.7889
▁reestruturação	-11.7889
▁veterinar	-11.7889
▁Trouxe	-11.7918
▁chapéu	-11.7919
▁mistério	-11.7919
▁exportador	-11.7919
▁accomplish	-11.7948
▁cohesion	-11.7948
▁phrase	-11.7948
ómica	-11.7949
▁ugl	-11.7972
▁horrible	-11.7978
▁recipient	-11.7978
▁reduzida	-11.7978
▁compound	-11.7978
▁priest	-11.7979
▁tonnes	-11.798
▁resource	-11.7989
▁muçulmano	-11.8008
▁Nathan	-11.8008
▁kilo	-11.8012
▁mestre	-11.8014
▁sustain	-11.8014
▁Defini	-11.8022
percebi	-11.8026
appointed	-11.8029
▁humanitarian	-11.8038
▁warrant	-11.8038
▁esperto	-11.8038
▁Norway	-11.8068
▁quarta	-11.8068
▁barely	-11.8069
▁oposto	-11.8069
▁vencedor	-11.807
▁globa	-11.8073
▁appointment	-11.8098
▁brincadeira	-11.8098
▁regenera	-11.8098
▁expectativa	-11.8098
▁escrevi	-11.8098
▁entities	-11.8098
¶	-11.8128
▁Comandante	-11.8128
▁urgência	-11.8128
▁vulnerabl	-11.8128
▁índice	-11.8128
▁evaluate	-11.8128
▁urso	-11.8131
▁Industrial	-11.8158
▁Popular	-11.8158
▁beijo	-11.8161
▁petrol	-11.8164
▁Compreend	-11.8174
eficazes	-11.8181
▁happi	-11.8188
▁Barcelona	-11.8189
▁intelligent	-11.8189
▁Foundation	-11.8189
▁exhibit	-11.8189
▁Space	-11.8189
mpatia	-11.819
▁spell	-11.819
europa	-11.8193
▁encara	-11.8202
о	-11.8219
▁collapse	-11.8219
▁grandfather	-11.8219
▁concebido	-11.8219
▁Vincent	-11.8219
▁aventura	-11.822
▁ONU	-11.822
▁abuso	-11.8221
▁Copenhag	-11.825
▁conhecê	-11.825
▁episode	-11.825
▁impulso	-11.825
▁reduzido	-11.825
▁populaciona	-11.825
▁Watson	-11.825
▁desenhar	-11.825
▁teatro	-11.8251
▁José	-11.8251
▁cheese	-11.8252
▁Comissári	-11.8267
▁espantoso	-11.8281
▁retorno	-11.8281
▁acessíve	-11.8281
quality	-11.829
▁encontre	-11.8295
▁Ukrain	-11.8311
▁appropriation	-11.8311
▁immigration	-11.8311
▁concretiza	-11.8311
▁broadcast	-11.8312
asleep	-11.8319
aimed	-11.833
nunciou	-11.8342
▁escondido	-11.8342
▁saudáveis	-11.8342
▁eletricidade	-11.8342
▁intervenções	-11.8342
▁genius	-11.8342
▁injecção	-11.8342
▁grego	-11.8342
▁devidamente	-11.8343
▁abelha	-11.8343
▁Autoridade	-11.8373
▁bolso	-11.8374
▁shake	-11.8377
▁segment	-11.8377
▁Swed	-11.8402
▁estúpida	-11.8404
▁imediato	-11.8404
▁satisfie	-11.8404
▁powder	-11.8404
▁ceiling	-11.8404
▁Animal	-11.8404
dependentemente	-11.8407
sistência	-11.841
▁gasolin	-11.8411
QUE	-11.8425
navir	-11.8427
pulled	-11.8431
▁explicit	-11.8435
▁dupla	-11.8435
▁Pretty	-11.8435
regulatory	-11.8448
ástica	-11.8458
▁YouTube	-11.8467
▁sucedido	-11.8467
▁telephone	-11.8467
▁penetra	-11.8467
▁Wolf	-11.847
▁injectáve	-11.8483
manhã	-11.8497
€	-11.8498
▁Alzheimer	-11.8498
▁tecnológico	-11.8498
▁empresário	-11.8498
▁pudésse	-11.8498
▁milagre	-11.8498
▁tunnel	-11.8498
▁designadamente	-11.8498
▁opposition	-11.8498
▁compatíve	-11.8498
▁propertie	-11.8499
▁espectáculo	-11.8529
▁goddamn	-11.8529
▁miracle	-11.8529
▁obstacle	-11.8529
▁vulneráve	-11.8529
▁colheita	-11.8529
▁condemn	-11.8529
▁disposal	-11.8529
▁Norueg	-11.8529
fected	-11.8535
ogether	-11.856
▁academic	-11.8561
▁democrático	-11.8561
▁oxigénio	-11.8561
▁romantic	-11.8561
▁innovative	-11.8561
▁registration	-11.8561
▁derogation	-11.8561
▁frasco	-11.8563
removed	-11.8573
▁aviõe	-11.8573
▁surpreende	-11.858
ा	-11.8593
▁authentic	-11.8593
▁stimulat	-11.8593
▁AIDS	-11.8593
▁fingir	-11.8593
Ã	-11.8616
▁deteriora	-11.8624
▁Czech	-11.8624
▁troops	-11.8625
▁registar	-11.8625
plat	-11.8628
▁modifie	-11.8637
▁desconhecido	-11.8656
▁industriais	-11.8656
▁infraestrutura	-11.8656
▁jornais	-11.8656
▁harvest	-11.8656
▁articula	-11.8656
witzerland	-11.8688
▁Tínhamo	-11.8688
▁holiday	-11.8688
▁homologa	-11.8688
е	-11.8688
▁ghost	-11.8688
▁Foreign	-11.8688
buried	-11.8694
▁duplica	-11.8717
▁proposto	-11.872
▁column	-11.872
▁recital	-11.872
▁recruta	-11.8721
▁àquele	-11.8721
rimavera	-11.8745
▁diferencia	-11.8752
▁apropriado	-11.8752
▁enfermeira	-11.8752
▁parlamentar	-11.8752
▁altitude	-11.8752
▁recruit	-11.8752
▁tariff	-11.8753
▁encanta	-11.8753
▁túne	-11.8753
▁torná	-11.8753
▁discipline	-11.8785
▁enquadra	-11.8785
▁knife	-11.8785
▁veterinário	-11.8785
▁italiana	-11.8785
----------------	-11.8817
▁arranjo	-11.8817
▁afirmo	-11.8817
▁signature	-11.8817
▁Segunda	-11.8817
▁thick	-11.8818
▁Ministério	-11.8849
▁collaboration	-11.8849
▁ridículo	-11.8849
▁enforcement	-11.8849
▁bubble	-11.8849
▁convite	-11.885
▁sublinha	-11.885
▁esconde	-11.8858
▁seleccion	-11.8882
▁Espírito	-11.8882
▁chinês	-11.8882
▁occupation	-11.8882
▁opposed	-11.8882
▁receptor	-11.8882
▁Devíamo	-11.8882
▁visibl	-11.8904
Â	-11.8915
▁Pakistan	-11.8915
▁arquitetura	-11.8915
▁sword	-11.8915
▁contempla	-11.8915
▁contingente	-11.8915
▁disagree	-11.8915
▁colocá	-11.8915
▁reclama	-11.8916
▁senior	-11.8916
▁dirige	-11.8917
control	-11.893
▁Bíblia	-11.8947
▁INFORMA	-11.8947
▁aduaneiro	-11.8947
▁desenvolvida	-11.8947
▁territorial	-11.8947
▁unusual	-11.8947
▁upstairs	-11.8947
▁sugest	-11.8948
▁Saturday	-11.898
▁combustíveis	-11.898
▁défice	-11.898
▁reinforce	-11.898
▁vulgar	-11.898
▁estacionamento	-11.898
▁Rebec	-11.8981
क	-11.9013
▁Georgia	-11.9013
▁cavalheiro	-11.9013
▁limpeza	-11.9013
▁reconhecido	-11.9013
▁scenario	-11.9013
▁mencionado	-11.9013
▁Funciona	-11.9013
▁adianta	-11.9015
▁float	-11.9017
▁Communication	-11.9046
▁calendário	-11.9046
▁geográfica	-11.9046
▁laboratory	-11.9046
▁ligeiramente	-11.9046
▁tráfego	-11.9046
▁Gordon	-11.9046
▁Passei	-11.9047
▁hábito	-11.9047
ί	-11.935
ό	-11.9557
л	-12.0206
ω	-12.0356
ά	-12.0356
δ	-12.0394
н	-12.0432
~	-12.0702
ا	-12.0741
े	-12.0741
र	-12.0781
\	-12.086
Ê	-12.1183
č	-12.1265
¡	-12.1517
±	-12.1602
·	-12.1951
£	-12.2085
Ε	-12.2085
έ	-12.2085
р	-12.2221
γ	-12.2266
χ	-12.2266
ą	-12.2405
š	-12.2405
т	-12.2639
्	-12.2639
ή	-12.2783
ï	-12.2977
θ	-12.3533
с	-12.3533
×	-12.369
ō	-12.385
§	-12.4232
ل	-12.4344
Ö	-12.4344
ż	-12.4401
ć	-12.4572
ę	-12.4806
ि	-12.4806
ं	-12.4806
в	-12.4924
ś	-12.5732
©	-12.5797
к	-12.5928
ύ	-12.5928
&	-12.5942
ë	-12.6061
ò	-12.6061
स	-12.6061
å	-12.6128
■	-12.6128
ă	-12.6196
ß	-12.6332
ø	-12.6471
न	-12.6471
ي	-12.6611
д	-12.6753
φ	-12.6753
≤	-12.6971
′	-12.7044
ý	-12.7193
ी	-12.7268
Α	-12.742
त	-12.7811
æ	-12.7811
^	-12.8053
ن	-12.8053
Ø	-12.8135
य	-12.8135
ر	-12.8301
‐	-12.8301
Õ	-12.8301
β	-12.8301
ā	-12.8555
म	-12.8728
Β	-12.8728
г	-12.8816
ह	-12.8994
ń	-12.9175
õ	-12.9262
प	-12.9359
Ä	-12.9547
م	-12.9547
Č	-12.9547
↓	-12.9642
ो	-12.9738
я	-13.0336
у	-13.0439
ž	-13.0439
̃	-13.0543
►	-13.0543
व	-13.0648
î	-13.0648
ώ	-13.1304
Τ	-13.1418
□	-13.1418
ल	-13.1418
Π	-13.1649
─	-13.1649
¿	-13.1886
ð	-13.2006
ū	-13.2128
و	-13.2128
ī	-13.2761
Б	-13.2893
È	-13.2893
ù	-13.2893
Κ	-13.3026
→	-13.3026
−	-13.3161
ě	-13.3298
ı	-13.3437
द	-13.3437
ग	-13.3578
†	-13.3578
ş	-13.3721
Η	-13.3866
⁄	-13.4013
Š	-13.4162
Ü	-13.4162
ъ	-13.4314
п	-13.4314
▼	-13.4624
м	-13.4782
ه	-13.4944
ξ	-13.4944
б	-13.5274
Å	-13.5444
з	-13.5616
ب	-13.5792
®	-13.6337
ì	-13.6337
ब	-13.6337
ц	-13.6718
й	-13.6718
ت	-13.6914
Æ	-13.7114
ع	-13.7114
Ν	-13.7318
Ι	-13.7527
ő	-13.7527
ज	-13.7739
ف	-13.7957
¬	-13.8179
û	-13.8179
Î	-13.8406
С	-13.8406
Μ	-13.8639
د	-13.8639
̈	-13.8877
ु	-13.8877
̧	-13.9371
Д	-13.9371
י	-13.9627
س	-13.9627
ț	-13.989
Е	-13.989
ै	-13.989
Λ	-14.0161
Т	-14.0161
ה	-14.0161
Ł	-14.0161
Н	-14.0438
Ρ	-14.0438
О	-14.0724
श	-14.0724
В	-14.1018
ق	-14.1018
ك	-14.1018
ध	-14.1018
ţ	-14.1018
。	-14.1018
أ	-14.1321
ح	-14.1321
थ	-14.1321
↑	-14.1321
ו	-14.1321
ए	-14.1634
ь	-14.1634
च	-14.1956
ē	-14.1956
ч	-14.1956
Ž	-14.229
П	-14.229
।	-14.2635
А	-14.2635
і	-14.2992
ष	-14.3362
Γ	-14.3362
ड	-14.3362
ф	-14.3362
ج	-14.3747
Ô	-14.3747
ğ	-14.3747
ת	-14.3747
Σ	-14.3747
ू	-14.3747
ė	-14.4147
œ	-14.4147
ζ	-14.4147
ל	-14.4147
ट	-14.4147
¥	-14.4563
Р	-14.4998
ψ	-14.4998
Ð	-14.4998
К	-14.5453
ة	-14.5453
ב	-14.5453
ר	-14.5929
Φ	-14.5929
ण	-14.5929
Ο	-14.5929
À	-14.6175
ж	-14.6429
¦	-14.6429
Ñ	-14.6429
भ	-14.6429
Ì	-14.6955
¢	-14.6955
þ	-14.6955
ų	-14.6955
ש	-14.6955
♦	-14.6955
ض	-14.6955
¤	-14.7511
औ	-14.7511
↔	-14.7511
ů	-14.7511
ط	-14.7511
ň	-14.8099
מ	-14.8099
Ï	-14.8724
Þ	-14.8724
̄	-14.8724
И	-14.8724
ص	-14.9391
उ	-14.9391
ť	-14.9391
‡	-14.9391
ź	-14.9391
خ	-14.9391
া	-15.0105
ġ	-15.0105
ļ	-15.0105
ľ	-15.0105
ى	-15.0105
़	-15.0105
●	-15.0105
ш	-15.0105
Г	-15.0105
א	-15.0874
ק	-15.0874
大	-15.0874
Ό	-15.0874
ख	-15.0874
ौ	-15.0874
人	-15.1707
ħ	-15.1708
х	-15.1708
І	-15.1708
ט	-15.1708
ა	-15.1708
✔	-15.1708
Ω	-15.2617
́	-15.2617
ג	-15.2617
ز	-15.2617
学	-15.2617
国	-15.3617
ث	-15.3617
州	-15.3617
อ	-15.3617
中	-15.3617
ы	-15.3617
ذ	-15.3617
ओ	-15.3617
➾	-15.3617
ÿ	-15.3617
Ш	-15.3617
ϋ	-15.4728
ー	-15.4728
נ	-15.4728
फ	-15.4728
ņ	-15.4728
Ξ	-15.4728
כ	-15.4728
ई	-15.4728
घ	-15.4728
라	-15.4728
פ	-15.4728
テ	-15.4728
Ć	-15.5978
Я	-15.5978
ッ	-15.5978
ח	-15.5978
Œ	-15.5978
Ş	-15.5978
̋	-15.5978
Υ	-15.5978
Ն	-15.5978
ם	-15.5978
ृ	-15.5978
√	-15.5978
∞	-15.5978
छ	-15.5978
公	-15.7406
ร	-15.7406
不	-15.7406
Θ	-15.7406
ű	-15.7406
צ	-15.7406
÷	-15.7406
Ț	-15.7406
ю	-15.7406
ء	-15.7406
ظ	-15.7406
ँ	-15.7406
ი	-15.7406
ア	-15.7406
・	-15.7406
스	-15.7406
ע	-15.7406
ϊ	-15.7406
任	-15.9073
是	-15.9073
三	-15.9073
の	-15.9073
放	-15.9073
ˈ	-15.9073
天	-15.9073
Ò	-15.9073
Ý	-15.9073
ĺ	-15.9073
ŕ	-15.9073
―	-15.9073
‰	-15.9073
レ	-15.9073
会	-15.9073
氏	-15.9073
的	-15.9073
크	-15.9073
İ	-15.9073
我	-15.9073
何	-16.1073
团	-16.1073
共	-16.1073
到	-16.1073
Ë	-16.1073
ј	-16.1073
ћ	-16.1073
ی	-16.1073
ॉ	-16.1073
∂	-16.1073
イ	-16.1073
ュ	-16.1073
体	-16.1073
员	-16.1073
石	-16.1073
지	-16.1073
У	-16.1073
地	-16.1073
Й	-16.1073
在	-16.1073
日	-16.1073
这	-16.1073
尔	-16.3573
э	-16.3573
军	-16.3573
多	-16.3573
工	-16.3573
Ř	-16.3573
į	-16.3573
غ	-16.3573
ப	-16.3573
Ő	-16.3573
ŭ	-16.3573
ƒ	-16.3573
ʼ	-16.3573
̌	-16.3573
Ц	-16.3573
إ	-16.3573
ئ	-16.3573
ً	-16.3573
ট	-16.3573
্	-16.3573
்	-16.3573
่	-16.3573
ḥ	-16.3573
ậ	-16.3573
‒	-16.3573
≈	-16.3573
≠	-16.3573
✡	-16.3573
〜	-16.3573
一	-16.3573
倍	-16.3573
正	-16.3573
源	-16.3573
真	-16.3573
社	-16.3573
送	-16.3573
道	-16.3573
院	-16.3573
대	-16.3573
또	-16.3573
이	-16.3573
ス	-16.3573
シ	-16.3573
論	-16.3573
林	-16.6906
家	-16.6906
น	-16.6906
ま	-16.6906
ジ	-16.6906
リ	-16.6906
ვ	-16.6906
年	-16.6906
Û	-16.6906
ə	-16.6906
̇	-16.6906
Έ	-16.6906
Ж	-16.6906
ё	-16.6906
ד	-16.6906
ז	-16.6906
ُ	-16.6906
ऋ	-16.6906
झ	-16.6906
ন	-16.6906
ன	-16.6906
ர	-16.6906
თ	-16.6906
რ	-16.6906
ả	-16.6906
ẽ	-16.6906
ễ	-16.6906
›	-16.6906
∈	-16.6906
⋅	-16.6906
♯	-16.6906
い	-16.6906
と	-16.6906
れ	-16.6906
デ	-16.6906
ト	-16.6906
ロ	-16.6906
个	-16.6906
子	-16.6906
文	-16.6906
月	-16.6906
本	-16.6906
海	-16.6906
아	-16.6906
ʻ	-16.6906
Ă	-16.6906
ビ	-16.6906
现	-16.6906
去	-16.6907
它	-17.1906
副	-17.1906
尊	-17.1906
尼	-17.1906
師	-17.1906
总	-17.1906
愛	-17.1906
拿	-17.1906
画	-17.1906
發	-17.1906
磨	-17.1906
统	-17.1906
者	-17.1906
衍	-17.1906
诺	-17.1906
迦	-17.1906
達	-17.1906
Ź	-17.1906
ঢ	-17.1906
ল	-17.1906
ু	-17.1906
ჩ	-17.1906
な	-17.1906
み	-17.1906
做	-17.1906
壹	-17.1906
法	-17.1906
玄	-17.1906
玖	-17.1906
藏	-17.1906
齊	-17.1906
ї	-17.1906
ე	-17.1906
オ	-17.1906
田	-17.1906
Ș	-17.1906
は	-17.1906
ĉ	-17.1906
ď	-17.1906
đ	-17.1906
Ė	-17.1906
Ů	-17.1906
ǔ	-17.1906
ɪ	-17.1906
ʹ	-17.1906
ˆ	-17.1906
Ё	-17.1906
Ю	-17.1906
љ	-17.1906
ң	-17.1906
ך	-17.1906
ן	-17.1906
ؤ	-17.1906
ٱ	-17.1906
ک	-17.1906
ढ	-17.1906
ক	-17.1906
খ	-17.1906
গ	-17.1906
চ	-17.1906
জ	-17.1906
ম	-17.1906
শ	-17.1906
হ	-17.1906
ী	-17.1906
କ	-17.1906
୍	-17.1906
ள	-17.1906
ா	-17.1906
ന	-17.1906
്	-17.1906
ව	-17.1906
მ	-17.1906
ო	-17.1906
Ḥ	-17.1906
ḳ	-17.1906
ế	-17.1906
ἶ	-17.1906
←	-17.1906
∃	-17.1906
∉	-17.1906
≡	-17.1906
◄	-17.1906
★	-17.1906
☆	-17.1906
☒	-17.1906
❏	-17.1906
し	-17.1906
ェ	-17.1906
ド	-17.1906
ム	-17.1906
ラ	-17.1906
ル	-17.1906
上	-17.1906
世	-17.1906
你	-17.1906
元	-17.1906
兩	-17.1906
北	-17.1906
卞	-17.1906
原	-17.1906
古	-17.1906
司	-17.1906
和	-17.1906
埗	-17.1906
報	-17.1906
壼	-17.1906
处	-17.1906
奉	-17.1906
奖	-17.1906
奘	-17.1906
妹	-17.1906
婦	-17.1906
守	-17.1906
安	-17.1906
尾	-17.1906
巻	-17.1906
帯	-17.1906
幸	-17.1906
庸	-17.1906
戀	-17.1906
戦	-17.1906
捌	-17.1906
捷	-17.1906
新	-17.1906
智	-17.1906
曼	-17.1906
有	-17.1906
杀	-17.1906
東	-17.1906
柒	-17.1906
業	-17.1906
毘	-17.1906
水	-17.1906
深	-17.1906
火	-17.1906
玩	-17.1906
环	-17.1906
球	-17.1906
界	-17.1906
瞱	-17.1906
硤	-17.1906
秉	-17.1906
科	-17.1906
租	-17.1906
笑	-17.1906
網	-17.1906
羅	-17.1906
美	-17.1906
羕	-17.1906
聖	-17.1906
葱	-17.1906
詔	-17.1906
語	-17.1906
調	-17.1906
譯	-17.1906
贝	-17.1906
赵	-17.1906
造	-17.1906
郗	-17.1906
鑒	-17.1906
钧	-17.1906
际	-17.1906
陸	-17.1906
馬	-17.1906
高	-17.1906
麻	-17.1906
걸	-17.1906
도	-17.1906
디	-17.1906
록	-17.1906
북	-17.1906
셜	-17.1906
야	-17.1906
울	-17.1906
주	-17.1906
첩	-17.1906
토	-17.1906
행	-17.1906
五	-17.1906
ŋ	-17.1906
ŝ	-17.1906
を	-17.1906
ん	-17.1906
ャ	-17.1906
京	-17.1906
向	-17.1906
央	-17.1906
笠	-17.1906
以	-17.1907
如	-17.1907
您	-17.1907
所	-17.1907
首	-17.1907
쟁	-18.1836
브	-18.1837
论	-18.1838
解	-18.1839
西	-18.184
程	-18.1841
来	-18.1842
敗	-18.1843
巴	-18.1844
士	-18.1845
坛	-18.1846
华	-18.1847
劉	-18.1848
冼	-18.1849
グ	-18.185
キ	-18.1851
ウ	-18.1852
ῦ	-18.1853
ṣ	-18.1854
ி	-18.1855
ɕ	-18.1856
ǎ	-18.1857
Ā	-18.1858
第	-18.1859
梁	-18.186
李	-18.1861
市	-18.1862
全	-18.1863
Ἀ	-18.1864
ზ	-18.1865
Ī	-18.1866
Đ	-18.1867
전	-18.1868
블	-18.1869
阿	-18.187
民	-18.1871
小	-18.1872
ポ	-18.1873
ქ	-18.1874
ლ	-18.1875
ย	-18.1876
র	-18.1877
Ġ	-18.1878
Χ	-18.1879
Ţ	-18.188
보	-18.1881
ク	-18.1882
щ	-18.1883
Х	-18.1884
ʾ	-18.1885
徐	-18.1886
З	-18.1887
Ί	-18.1888
Ч	-18.1889
Ф	-18.189
Ċ	-18.1891
ン	-18.1892
Ά	-18.1893
Ż	-18.1894
आ	-18.1895
М	-18.1896
Ō	-18.1897
इ	-18.1898
Л	-18.1899
ċ	-18.19
ش	-18.1901
Δ	-18.1902
Ś	-18.1903
अ	-18.1904
ș	-18.1905
卡	-18.1906
特	-18.1906
ค	-18.1906
ภ	-18.1906
ศ	-18.1906
า	-18.1906
ิ	-18.1906
ี	-18.1906
เ	-18.1906
ํ	-18.1906
兵	-18.1906
布	-18.1906
指	-18.1906
没	-18.1906
罗	-18.1906
ἐ	-18.1906
書	-18.1906
空	-18.1906
ნ	-18.1906
ტ	-18.1906
内	-18.1906
范	-18.1906
ห	-18.1906
た	-18.1906
张	-18.1906
張	-18.1906
昂	-18.1906
荔	-18.1906
Ǻ	-18.1906
Ğ	-18.1906
ĩ	-18.1906
ŏ	-18.1906
Ť	-18.1906
ũ	-18.1906
Ū	-18.1906
ư	-18.1906
ɐ	-18.1906
ɨ	-18.1906
ɾ	-18.1906
ʃ	-18.1906
ː	-18.1906
̣	-18.1906
̶	-18.1906
Ζ	-18.1906
Ϝ	-18.1906
ϝ	-18.1906
Є	-18.1906
ѕ	-18.1906
ֹ	-18.1906
ץ	-18.1906
آ	-18.1906
ٌ	-18.1906
ञ	-18.1906
ठ	-18.1906
প	-18.1906
ব	-18.1906
ਖ	-18.1906
ਨ	-18.1906
ਰ	-18.1906
ੀ	-18.1906
ੌ	-18.1906
ଉ	-18.1906
ତ	-18.1906
ର	-18.1906
ଳ	-18.1906
ଷ	-18.1906
ା	-18.1906
க	-18.1906
ம	-18.1906
ல	-18.1906
வ	-18.1906
ு	-18.1906
ே	-18.1906
ை	-18.1906
ദ	-18.1906
യ	-18.1906
ര	-18.1906
വ	-18.1906
ാ	-18.1906
േ	-18.1906
ජ	-18.1906
ය	-18.1906
ා	-18.1906
ේ	-18.1906
ท	-18.1906
ู	-18.1906
์	-18.1906
დ	-18.1906
ს	-18.1906
უ	-18.1906
ფ	-18.1906
შ	-18.1906
ḱ	-18.1906
ṁ	-18.1906
ṉ	-18.1906
ạ	-18.1906
ẻ	-18.1906
ệ	-18.1906
ỉ	-18.1906
ồ	-18.1906
ổ	-18.1906
ử	-18.1906
ἀ	-18.1906
ῖ	-18.1906
‹	-18.1906
∏	-18.1906
∠	-18.1906
∼	-18.1906
⊊	-18.1906
⎢	-18.1906
⎪	-18.1906
♀	-18.1906
♂	-18.1906
♥	-18.1906
❿	-18.1906
ⴰ	-18.1906
ⴱ	-18.1906
ⴳ	-18.1906
ⴻ	-18.1906
ⵜ	-18.1906
ⵢ	-18.1906
、	-18.1906
【	-18.1906
あ	-18.1906
か	-18.1906
そ	-18.1906
て	-18.1906
で	-18.1906
ば	-18.1906
び	-18.1906
る	-18.1906
ろ	-18.1906
ガ	-18.1906
サ	-18.1906
ズ	-18.1906
ダ	-18.1906
ツ	-18.1906
ナ	-18.1906
ハ	-18.1906
ヒ	-18.1906
ミ	-18.1906
ユ	-18.1906
下	-18.1906
业	-18.1906
东	-18.1906
么	-18.1906
于	-18.1906
云	-18.1906
什	-18.1906
今	-18.1906
介	-18.1906
仙	-18.1906
倭	-18.1906
優	-18.1906
光	-18.1906
关	-18.1906
兴	-18.1906
労	-18.1906
医	-18.1906
升	-18.1906
台	-18.1906
唐	-18.1906
四	-18.1906
図	-18.1906
國	-18.1906
场	-18.1906
型	-18.1906
声	-18.1906
复	-18.1906
嬰	-18.1906
字	-18.1906
孟	-18.1906
宋	-18.1906
宏	-18.1906
尚	-18.1906
就	-18.1906
屋	-18.1906
帆	-18.1906
师	-18.1906
延	-18.1906
形	-18.1906
很	-18.1906
復	-18.1906
承	-18.1906
抣	-18.1906
挥	-18.1906
排	-18.1906
摄	-18.1906
攻	-18.1906
无	-18.1906
未	-18.1906
朵	-18.1906
枝	-18.1906
欢	-18.1906
歳	-18.1906
殺	-18.1906
泄	-18.1906
洁	-18.1906
洋	-18.1906
洲	-18.1906
清	-18.1906
烦	-18.1906
照	-18.1906
煩	-18.1906
片	-18.1906
獄	-18.1906
白	-18.1906
盤	-18.1906
目	-18.1906
矿	-18.1906
禁	-18.1906
稜	-18.1906
穴	-18.1906
符	-18.1906
算	-18.1906
类	-18.1906
紀	-18.1906
纪	-18.1906
聲	-18.1906
自	-18.1906
船	-18.1906
良	-18.1906
艺	-18.1906
花	-18.1906
蔣	-18.1906
薇	-18.1906
藝	-18.1906
蘇	-18.1906
術	-18.1906
裔	-18.1906
角	-18.1906
詒	-18.1906
謀	-18.1906
诒	-18.1906
谋	-18.1906
軍	-18.1906
辻	-18.1906
迎	-18.1906
過	-18.1906
邓	-18.1906
部	-18.1906
郭	-18.1906
里	-18.1906
金	-18.1906
録	-18.1906
锡	-18.1906
锦	-18.1906
門	-18.1906
防	-18.1906
陈	-18.1906
陳	-18.1906
雲	-18.1906
音	-18.1906
香	-18.1906
魔	-18.1906
광	-18.1906
국	-18.1906
귀	-18.1906
남	-18.1906
녀	-18.1906
다	-18.1906
드	-18.1906
문	-18.1906
섯	-18.1906
소	-18.1906
시	-18.1906
여	-18.1906
운	-18.1906
ř	-18.1906
Ў	-18.1906
Ű	-18.1906
ָ	-18.1906
ხ	-18.1906
タ	-18.1906
メ	-18.1906
惟	-18.1906
カ	-18.1907
假	-18.1907
发	-18.1907
可	-18.1907
呼	-18.1907
奇	-18.1907
好	-18.1907
对	-18.1907
尝	-18.1907
果	-18.1907
溢	-18.1907
要	-18.1907
试	-18.1907
针	-18.1907
風	-18.1907
只	-18.1907
?	-18.1907
为	-18.1907
买	-18.1907
作	-18.1907
又	-18.1907
失	-18.1907
已	-18.1907
想	-18.1907
经	-18.1907
