<s>	0
<pad>	0
</s>	0
<unk>	0
▁.	-3.02803
▁,	-3.41945
s	-3.70057
▁	-3.73849
;	-4.06476
▁&	-4.13146
▁the	-4.22756
▁de	-4.33752
apos	-4.35575
▁in	-4.57278
▁to	-4.70894
▁of	-4.71399
▁is	-4.71556
▁?	-4.73426
t	-4.7357
▁I	-4.79427
▁van	-4.84061
en	-4.90923
▁a	-4.9314
▁het	-4.94193
e	-4.96819
▁een	-5.04116
▁-	-5.05523
▁and	-5.07466
▁you	-5.15633
▁en	-5.17627
d	-5.31092
▁dat	-5.32921
▁je	-5.35712
▁we	-5.37426
▁that	-5.3899
ing	-5.49112
▁it	-5.60585
▁te	-5.61787
▁niet	-5.65281
▁ik	-5.67079
-	-5.67634
▁op	-5.70183
▁Ik	-5.73799
quot	-5.75848
@	-5.75932
ed	-5.76312
▁was	-5.775
▁@	-5.80407
▁be	-5.81096
▁me	-5.86545
▁voor	-5.87077
▁on	-5.89146
▁die	-5.92207
▁for	-5.93683
)	-5.93996
▁zijn	-5.94805
m	-5.97718
(	-5.97951
▁...	-5.98137
er	-5.98241
re	-5.98688
n	-6.01029
▁met	-6.02465
y	-6.0592
▁this	-6.08403
:	-6.15448
!	-6.175
▁We	-6.18932
▁aan	-6.23165
▁om	-6.23869
▁have	-6.29392
▁with	-6.30981
▁are	-6.34696
▁over	-6.37443
▁not	-6.38355
▁ze	-6.39216
▁And	-6.43539
ly	-6.44571
▁er	-6.45295
▁Het	-6.45537
▁You	-6.46545
▁De	-6.4778
▁als	-6.54324
.	-6.54465
▁The	-6.57025
▁do	-6.58008
▁can	-6.58044
de	-6.67261
▁maar	-6.67311
▁my	-6.70704
▁wat	-6.7219
▁uit	-6.72386
▁what	-6.72962
▁all	-6.73914
▁It	-6.74422
▁your	-6.75876
▁as	-6.77002
al	-6.77236
▁at	-6.79737
▁know	-6.79887
▁he	-6.80444
▁they	-6.81205
▁ver	-6.8135
/	-6.81367
ll	-6.82074
▁naar	-6.82736
▁dan	-6.83657
▁hebben	-6.8404
▁about	-6.8473
ve	-6.85133
▁or	-6.85778
▁dit	-6.8617
▁s	-6.88103
▁had	-6.89354
▁ge	-6.90111
▁by	-6.9016
a	-6.90161
▁door	-6.9143
▁Je	-6.92356
▁from	-6.93029
▁like	-6.93138
▁out	-6.94233
▁an	-6.95229
▁deze	-6.97095
▁kan	-6.97519
▁In	-6.9782
▁so	-6.97919
▁So	-6.98277
▁En	-6.98293
▁mijn	-6.98872
▁up	-6.99502
▁Dat	-6.9955
▁just	-7.00021
▁one	-7.00133
▁heb	-7.01831
▁A	-7.02246
▁hij	-7.02366
▁there	-7.02501
▁bij	-7.02751
▁but	-7.034
▁heeft	-7.0582
▁worden	-7.07009
▁zo	-7.07769
▁ook	-7.0954
r	-7.11738
▁1	-7.11914
▁don	-7.12111
k	-7.1291
▁ben	-7.13301
o	-7.14868
le	-7.17035
▁nog	-7.17097
▁get	-7.17981
▁will	-7.18063
▁Ze	-7.18466
▁here	-7.19233
▁He	-7.2055
▁geen	-7.20823
▁No	-7.21064
es	-7.21662
▁hier	-7.21763
▁What	-7.21966
te	-7.24087
▁if	-7.24287
▁kunnen	-7.24633
▁want	-7.24812
▁her	-7.25128
in	-7.25414
▁moet	-7.26088
▁u	-7.26609
▁zou	-7.26976
▁Wat	-7.2726
▁n	-7.27782
den	-7.2913
▁our	-7.30647
ie	-7.31362
▁which	-7.31789
▁go	-7.32934
▁S	-7.33024
▁But	-7.33363
▁no	-7.3462
▁Hij	-7.35059
▁has	-7.35356
▁right	-7.35407
▁Maar	-7.35571
▁think	-7.36236
▁al	-7.37196
▁ons	-7.37346
ten	-7.3762
▁meer	-7.38636
▁time	-7.3901
▁see	-7.39431
▁who	-7.39449
g	-7.39916
▁people	-7.39961
▁wel	-7.40563
▁tot	-7.41381
▁would	-7.41658
▁doen	-7.4193
▁nu	-7.42004
▁waar	-7.42899
▁haar	-7.43107
▁them	-7.43927
▁more	-7.44031
▁him	-7.44121
▁were	-7.44701
ers	-7.45088
▁wil	-7.47076
▁This	-7.47081
▁C	-7.48141
▁That	-7.48393
▁hem	-7.48542
or	-7.48571
▁when	-7.487
▁been	-7.49197
▁us	-7.49639
▁2	-7.50623
▁wordt	-7.5174
f	-7.52432
▁Als	-7.52998
▁mensen	-7.53265
▁moeten	-7.53354
▁going	-7.53627
▁man	-7.54407
▁af	-7.54454
▁got	-7.54981
▁even	-7.55345
l	-7.5568
▁their	-7.56029
▁Dit	-7.56291
▁now	-7.56933
▁zal	-7.5768
▁gaan	-7.59631
▁re	-7.59965
▁these	-7.60178
ge	-7.60424
▁hun	-7.61485
▁his	-7.61932
i	-7.6317
▁weet	-7.64047
▁very	-7.6408
1	-7.64253
ar	-7.64442
ur	-7.64568
▁some	-7.65082
▁she	-7.65282
▁goed	-7.65481
p	-7.65986
3	-7.67042
▁how	-7.67851
▁mij	-7.68398
▁hoe	-7.68937
▁Oh	-7.69429
▁back	-7.70263
▁&#9	-7.70732
▁other	-7.70756
▁onder	-7.70773
▁B	-7.71289
▁onze	-7.71353
▁way	-7.72716
▁iets	-7.72723
on	-7.72754
an	-7.73465
▁need	-7.73988
▁E	-7.74366
▁zien	-7.75136
ic	-7.75517
▁could	-7.76022
▁into	-7.7652
▁should	-7.76797
▁because	-7.77258
▁They	-7.77929
▁Een	-7.78155
us	-7.78474
th	-7.78585
▁jaar	-7.7873
▁make	-7.78801
▁andere	-7.78952
▁Ja	-7.79116
▁really	-7.79351
▁p	-7.79572
▁Well	-7.79595
▁3	-7.79796
▁gaat	-7.80444
be	-7.80496
▁jullie	-7.80906
▁Er	-7.82478
▁where	-7.83074
▁good	-7.83121
▁take	-7.8457
c	-7.84856
il	-7.86078
ver	-7.86134
▁did	-7.86258
▁G	-7.86401
ation	-7.86524
w	-7.86616
u	-7.86846
▁work	-7.87156
▁t	-7.88111
el	-7.88213
▁daar	-7.88246
ion	-7.88685
▁veel	-7.89296
b	-7.89619
▁M	-7.89841
ken	-7.90429
h	-7.90785
▁than	-7.9084
op	-7.9096
eren	-7.91927
▁na	-7.9199
▁L	-7.92073
▁say	-7.92234
▁down	-7.92315
▁jij	-7.92681
ro	-7.93283
▁Mr	-7.93771
▁maken	-7.94244
ig	-7.94404
▁P	-7.94432
▁ga	-7.94474
▁leven	-7.94609
▁then	-7.95097
▁only	-7.95242
▁bent	-7.95707
▁alleen	-7.96126
▁Be	-7.96833
na	-7.97079
▁something	-7.97669
▁zich	-7.97715
▁also	-7.97817
ne	-7.98225
▁look	-7.98324
▁m	-7.99082
▁said	-7.99381
ven	-8.00079
▁two	-8.00218
la	-8.01917
▁weg	-8.02059
▁Nee	-8.02531
▁wij	-8.03022
▁first	-8.03439
S	-8.03593
heid	-8.03679
▁any	-8.04175
▁years	-8.04178
▁those	-8.04283
▁terug	-8.0451
▁come	-8.04815
▁tijd	-8.05139
▁If	-8.05232
▁There	-8.05389
ren	-8.05612
▁tegen	-8.05825
▁hebt	-8.05949
ment	-8.06299
▁twee	-8.06475
ke	-8.06995
▁Hoe	-8.07648
▁European	-8.07931
▁kind	-8.07962
▁Now	-8.08418
▁world	-8.08979
▁She	-8.09237
ste	-8.09339
▁O	-8.09441
▁F	-8.09479
▁T	-8.10514
▁4	-8.10592
▁k	-8.10693
▁D	-8.10771
me	-8.11022
▁zei	-8.11049
▁Yeah	-8.11279
▁little	-8.11988
▁much	-8.12112
atie	-8.12589
gen	-8.13173
▁echt	-8.13248
%	-8.13437
est	-8.13524
▁Commissie	-8.13718
ia	-8.13917
I	-8.13924
▁mee	-8.14011
ch	-8.14193
▁werd	-8.14811
▁K	-8.14898
ce	-8.14959
▁tell	-8.15164
▁5	-8.15468
ies	-8.15479
▁thing	-8.15874
▁alle	-8.1593
▁gonna	-8.16312
▁wereld	-8.16553
it	-8.16621
▁zoals	-8.16795
ter	-8.17381
▁new	-8.17532
▁U	-8.17669
▁Dus	-8.18064
▁Do	-8.18089
▁nodig	-8.18893
▁didn	-8.18936
▁How	-8.18941
ma	-8.19434
▁denk	-8.19727
je	-8.19833
▁life	-8.20429
v	-8.20441
der	-8.20566
▁zij	-8.21045
▁dus	-8.21178
▁things	-8.21238
ak	-8.21252
▁Commission	-8.21271
▁komen	-8.21677
is	-8.2181
▁help	-8.22038
▁off	-8.22332
▁10	-8.2238
li	-8.22921
id	-8.23207
ad	-8.2354
ul	-8.23557
▁hand	-8.2391
▁werk	-8.25354
▁toe	-8.25434
▁God	-8.25944
▁omdat	-8.26351
▁shall	-8.26423
at	-8.26441
▁zeggen	-8.26558
man	-8.26934
▁eerste	-8.27965
▁heel	-8.28431
ta	-8.29352
▁waren	-8.29557
z	-8.29579
ive	-8.30482
▁too	-8.30499
▁19	-8.30728
▁let	-8.30747
▁één	-8.3094
▁weten	-8.3117
=	-8.31612
▁Article	-8.31706
to	-8.33095
▁place	-8.33453
▁day	-8.33489
▁must	-8.33593
▁Europese	-8.33815
lo	-8.34011
▁through	-8.34249
▁never	-8.35378
▁made	-8.35475
▁mean	-8.35747
▁name	-8.35758
▁lot	-8.35827
▁water	-8.35939
▁use	-8.36068
len	-8.36391
▁love	-8.36485
▁actually	-8.36489
▁Ga	-8.36553
▁Re	-8.36629
▁laten	-8.36659
▁am	-8.37059
ling	-8.37204
▁find	-8.37296
as	-8.37543
▁All	-8.37544
▁alles	-8.37547
▁komt	-8.37771
▁well	-8.37798
ol	-8.38026
ra	-8.38149
ton	-8.38188
▁give	-8.38286
pen	-8.38381
um	-8.3852
▁talk	-8.38624
D	-8.38892
▁jou	-8.39174
▁most	-8.39349
x	-8.39362
ity	-8.39375
▁last	-8.39594
▁may	-8.39727
▁nooit	-8.39732
▁per	-8.40043
om	-8.40047
▁before	-8.40088
▁20	-8.40113
▁Mijn	-8.40204
▁weer	-8.40589
▁why	-8.41095
ster	-8.4126
▁being	-8.41375
ant	-8.41735
P	-8.41991
▁doing	-8.42537
▁staat	-8.42592
▁b	-8.4265
▁binnen	-8.4311
▁c	-8.43287
▁land	-8.43313
▁toch	-8.4336
ag	-8.43912
▁after	-8.44017
ti	-8.44151
▁still	-8.44168
▁nieuwe	-8.44228
able	-8.44524
▁un	-8.45679
▁put	-8.45901
▁around	-8.45909
ine	-8.45969
▁zullen	-8.46139
ir	-8.46252
▁Waarom	-8.46299
▁dingen	-8.46516
▁many	-8.46599
land	-8.46647
▁every	-8.47132
▁iemand	-8.47137
▁For	-8.47314
▁under	-8.47394
▁gewoon	-8.47565
▁same	-8.47778
▁own	-8.47978
no	-8.48186
▁net	-8.48572
▁Op	-8.48609
▁Al	-8.4876
per	-8.48889
▁Na	-8.48911
▁Hey	-8.49366
▁willen	-8.49456
▁year	-8.4949
▁g	-8.49746
▁co	-8.49942
▁car	-8.50059
ische	-8.50476
▁6	-8.50621
▁My	-8.50876
M	-8.51167
am	-8.51356
▁dag	-8.51447
▁open	-8.51479
▁Member	-8.51667
▁Waar	-8.51756
▁V	-8.51788
▁tussen	-8.51814
A	-8.5208
▁best	-8.52253
▁school	-8.52316
▁Deze	-8.52829
▁Ge	-8.52887
age	-8.53555
▁Die	-8.53565
ist	-8.53798
▁Let	-8.54226
▁Why	-8.54278
▁moment	-8.54373
▁long	-8.54599
▁R	-8.54891
▁great	-8.55299
▁allemaal	-8.55371
T	-8.55859
▁call	-8.5597
▁H	-8.56145
ck	-8.56346
▁Laught	-8.56705
▁Don	-8.57055
O	-8.57715
▁Voor	-8.57767
▁sch	-8.57807
B	-8.57865
ci	-8.57865
▁thought	-8.57965
▁grote	-8.5806
▁N	-8.58633
▁part	-8.59188
uit	-8.59208
▁States	-8.59455
▁altijd	-8.5954
▁kon	-8.59551
▁To	-8.5962
*	-8.59753
▁Gelach	-8.5984
▁ten	-8.59935
tie	-8.601
▁different	-8.60838
▁believe	-8.60956
▁7	-8.61028
▁achter	-8.61176
ting	-8.61642
▁hele	-8.61668
▁Ma	-8.6203
▁three	-8.62253
▁wie	-8.62294
▁plaats	-8.62845
▁W	-8.62917
ij	-8.62967
▁Zo	-8.62969
▁artikel	-8.62988
▁again	-8.63164
▁better	-8.63191
▁ex	-8.63302
▁human	-8.63317
co	-8.63555
▁Raad	-8.63718
▁its	-8.63748
▁between	-8.64011
▁erg	-8.64014
▁home	-8.64055
▁12	-8.64083
▁kunt	-8.64166
▁geld	-8.64198
▁Okay	-8.64206
▁does	-8.64581
R	-8.64634
▁ging	-8.65131
▁Council	-8.65327
▁show	-8.65557
▁bo	-8.65941
▁men	-8.66127
ut	-8.66719
▁start	-8.66821
▁z	-8.66844
ende	-8.67163
C	-8.67214
ot	-8.67314
▁zit	-8.67358
va	-8.67446
▁uw	-8.67518
▁idea	-8.67601
▁La	-8.67661
▁geven	-8.67733
▁keer	-8.67742
do	-8.68221
▁drie	-8.68241
▁Yes	-8.68684
▁Regulation	-8.68715
mo	-8.68725
▁vinden	-8.68827
ate	-8.68863
▁such	-8.68867
▁Niet	-8.68881
▁vast	-8.68962
im	-8.69195
ga	-8.69243
▁dood	-8.69258
▁Ro	-8.69582
▁old	-8.6959
ko	-8.69678
▁Kom	-8.6985
▁found	-8.70098
▁Ver	-8.70366
ige	-8.70386
▁huis	-8.70735
ek	-8.70814
E	-8.71112
vo	-8.71297
H	-8.71345
▁Come	-8.71416
▁con	-8.7143
▁mag	-8.71493
▁Mo	-8.71601
▁used	-8.71754
▁laat	-8.71759
▁auto	-8.71876
▁8	-8.72072
▁samen	-8.72281
▁point	-8.72366
ance	-8.72395
▁gedaan	-8.72431
▁Dan	-8.72522
eerd	-8.72553
sh	-8.72619
ha	-8.72623
▁Daar	-8.72828
▁deel	-8.72962
▁elkaar	-8.73018
ian	-8.73137
▁pro	-8.73428
▁sure	-8.73644
▁hard	-8.73968
▁hen	-8.74619
▁manier	-8.74657
▁When	-8.74739
ry	-8.74783
▁EU	-8.75214
▁15	-8.75255
nen	-8.75597
▁eigen	-8.75613
▁30	-8.75809
▁might	-8.76069
▁zeker	-8.76352
▁Nu	-8.76509
▁kinderen	-8.76628
▁important	-8.76742
▁beter	-8.76847
▁krijgen	-8.77743
N	-8.78154
▁Wij	-8.78157
▁vraag	-8.78175
▁toen	-8.7822
▁vrouw	-8.78289
▁zonder	-8.78338
▁anything	-8.78555
▁away	-8.78674
sta	-8.78707
▁As	-8.78884
▁feel	-8.78907
▁dacht	-8.78935
▁w	-8.79043
▁v	-8.79156
▁ja	-8.792
steeds	-8.79435
▁Go	-8.79456
▁fact	-8.79569
elijk	-8.7976
▁zelf	-8.79795
▁end	-8.79999
▁called	-8.80199
▁later	-8.80342
bu	-8.80476
▁report	-8.80704
▁second	-8.80722
dat	-8.8083
▁doet	-8.80903
▁paar	-8.81233
ze	-8.81248
▁misschien	-8.81414
▁Jij	-8.81427
▁real	-8.81443
▁another	-8.81908
▁course	-8.81986
▁di	-8.82054
▁wilde	-8.82215
ary	-8.82224
we	-8.82283
▁anders	-8.82698
go	-8.82958
af	-8.82976
▁always	-8.83114
V	-8.83148
▁Li	-8.8317
G	-8.83362
▁18	-8.83581
ru	-8.83583
▁system	-8.8359
▁Thank	-8.83723
ca	-8.83787
ep	-8.83948
▁Just	-8.84149
▁keep	-8.84306
▁zie	-8.84309
▁houden	-8.84319
▁dis	-8.84474
▁doe	-8.84511
▁hadden	-8.84578
pe	-8.84616
▁mo	-8.84674
po	-8.84996
▁Of	-8.85128
▁stop	-8.85461
▁Can	-8.85587
▁today	-8.85604
ring	-8.86327
▁Look	-8.86457
▁Community	-8.86502
▁information	-8.86513
tje	-8.86764
king	-8.8699
ef	-8.87457
▁each	-8.87675
bo	-8.87676
ier	-8.87687
da	-8.87707
ri	-8.87968
▁Hier	-8.88107
ip	-8.88273
▁data	-8.88338
▁big	-8.8835
K	-8.88469
▁Not	-8.88538
▁On	-8.88541
▁problem	-8.88544
son	-8.88583
▁soort	-8.88745
ba	-8.88758
▁night	-8.8883
▁Heb	-8.89085
ness	-8.89094
ld	-8.89122
▁told	-8.89127
pa	-8.89177
▁nemen	-8.89273
mon	-8.89355
▁doesn	-8.89376
▁case	-8.89422
▁Where	-8.89672
▁done	-8.8981
▁test	-8.90024
aal	-8.90108
ast	-8.90144
L	-8.90287
▁money	-8.90323
▁ever	-8.90344
▁order	-8.90523
ach	-8.90613
ger	-8.90832
▁person	-8.90892
▁Goed	-8.9096
▁won	-8.91133
00	-8.91162
2	-8.91327
▁together	-8.91677
▁Dr	-8.91688
▁nr	-8.91689
▁EC	-8.91857
men	-8.91887
▁denken	-8.92031
▁11	-8.92122
▁change	-8.92129
▁Le	-8.92148
▁waarom	-8.92359
▁sorry	-8.92514
▁zelfs	-8.9255
ard	-8.92568
ty	-8.92655
▁basis	-8.9276
▁next	-8.92773
▁question	-8.93042
▁came	-8.93138
▁lid	-8.93382
val	-8.93552
U	-8.93589
▁vragen	-8.93614
▁Ha	-8.93619
▁Me	-8.94048
▁l	-8.94297
▁went	-8.94357
cht	-8.94434
elijke	-8.94457
▁understand	-8.94487
F	-8.94604
▁set	-8.94644
tra	-8.94756
W	-8.94915
▁Co	-8.94937
▁ziet	-8.95059
mp	-8.95063
aan	-8.95229
▁werken	-8.95347
▁Who	-8.95373
lijk	-8.95428
cy	-8.95438
é	-8.95476
tro	-8.95528
▁few	-8.95611
▁landen	-8.95631
▁New	-8.9573
baar	-8.95814
▁gezien	-8.95923
▁idee	-8.96041
▁kleine	-8.96108
▁gebruik	-8.96404
▁wanted	-8.96406
▁bad	-8.96453
▁Ben	-8.96604
▁Te	-8.96605
▁President	-8.96859
▁Bo	-8.96934
▁la	-8.96981
▁Misschien	-8.97056
he	-8.9709
▁volgende	-8.97254
▁moeder	-8.97347
▁pre	-8.97354
▁okay	-8.97418
min	-8.9742
▁number	-8.97599
nd	-8.97601
▁onderzoek	-8.97648
▁Met	-8.97878
▁everything	-8.9798
▁countries	-8.98072
▁hoofd	-8.98177
▁guy	-8.98196
▁Wie	-8.98354
▁informatie	-8.98389
▁lang	-8.98424
▁EG	-8.9844
▁Are	-8.98659
_	-8.98709
▁Lo	-8.98752
▁probleem	-8.98778
▁goede	-8.98795
▁sta	-8.98833
▁without	-8.99105
▁family	-8.99242
▁maakt	-8.99317
▁genoeg	-8.99317
▁buiten	-8.99445
▁both	-8.99482
con	-8.99512
▁kijken	-8.998
▁wanneer	-8.99814
▁Unie	-8.99863
▁live	-8.99944
▁plan	-8.99949
▁kwam	-9.00251
▁looking	-9.00413
▁rest	-9.00722
▁week	-9.01011
ft	-9.01073
▁gebruiken	-9.01136
▁krijg	-9.01317
▁vader	-9.01383
▁vrij	-9.01467
▁left	-9.01564
▁elke	-9.01597
▁zeer	-9.01885
▁zitten	-9.0189
▁uur	-9.01948
▁praten	-9.01987
▁laatste	-9.02121
▁market	-9.02469
▁Or	-9.02505
▁dollar	-9.02632
▁ask	-9.02688
▁beste	-9.03003
▁blijven	-9.03031
▁ter	-9.03159
▁whole	-9.03214
▁po	-9.03282
▁Union	-9.03335
ron	-9.03415
und	-9.03619
▁bit	-9.03961
▁move	-9.03991
▁high	-9.0416
amp	-9.04331
▁ago	-9.04363
▁Laat	-9.04713
▁An	-9.04802
ber	-9.04806
▁geleden	-9.04917
▁helpen	-9.04939
▁groot	-9.05009
vi	-9.05083
▁nothing	-9.05258
▁kom	-9.05289
▁play	-9.05361
▁head	-9.05458
▁gek	-9.05542
▁9	-9.0562
di	-9.0571
ler	-9.05738
wa	-9.05808
▁million	-9.05922
ving	-9.06057
▁Wil	-9.06335
▁enough	-9.06608
ph	-9.06625
▁hope	-9.06653
▁Ra	-9.0677
ous	-9.06777
▁iedereen	-9.07049
▁already	-9.0731
gel	-9.0744
▁baby	-9.07495
tic	-9.07828
▁ro	-9.0785
ence	-9.07878
▁means	-9.07878
▁aantal	-9.07963
tal	-9.08004
▁Weet	-9.08175
▁country	-9.08217
▁snel	-9.0831
▁Parlement	-9.08818
▁care	-9.09054
▁trying	-9.09075
sch	-9.09157
▁belangrijk	-9.09201
▁50	-9.09294
▁able	-9.09418
schap	-9.09449
▁mind	-9.09499
▁working	-9.09522
▁house	-9.09621
▁Van	-9.09775
zen	-9.09832
▁Toen	-9.09872
▁zorgen	-9.0992
▁vertellen	-9.09924
▁gemaakt	-9.10563
ated	-9.10642
▁mogelijk	-9.10725
▁Mar	-9.1073
▁Sorry	-9.10741
un	-9.10926
heer	-9.11114
▁One	-9.11306
▁happened	-9.11373
▁hoop	-9.11407
▁du	-9.11622
wel	-9.11633
ner	-9.11791
over	-9.11999
tion	-9.12059
▁coming	-9.12162
▁Because	-9.12239
▁leave	-9.1226
ik	-9.12325
--	-9.12513
▁project	-9.12612
eel	-9.12672
▁power	-9.12679
▁talking	-9.13165
ka	-9.13204
ful	-9.13348
▁J	-9.13424
▁public	-9.13619
▁else	-9.13826
▁certain	-9.13845
▁zegt	-9.13859
▁half	-9.13894
▁staan	-9.13958
▁process	-9.14087
ally	-9.14303
▁within	-9.14443
ker	-9.14983
ning	-9.15034
ho	-9.15098
▁room	-9.15238
▁verschillende	-9.15345
▁gebruikt	-9.15528
▁rond	-9.15699
▁dr	-9.15778
dig	-9.15882
sp	-9.15981
gra	-9.16068
ac	-9.16115
▁support	-9.16217
▁arm	-9.16286
▁com	-9.163
kken	-9.16301
▁verder	-9.16336
ap	-9.16338
▁17	-9.16341
▁bring	-9.16546
▁familie	-9.16608
▁jouw	-9.16648
ish	-9.16796
▁Pa	-9.17025
▁14	-9.17045
ud	-9.17054
▁Parliament	-9.1727
▁try	-9.173
▁word	-9.17328
▁vandaag	-9.17336
ni	-9.17504
▁100	-9.17536
▁product	-9.17546
▁le	-9.1761
▁jaren	-9.17631
▁took	-9.17805
▁against	-9.17838
▁wrong	-9.17892
isch	-9.17908
▁started	-9.1811
les	-9.18232
bij	-9.18249
▁vrouwen	-9.18384
▁run	-9.18873
▁social	-9.18884
▁Your	-9.18938
▁ooit	-9.18983
▁Con	-9.19017
▁film	-9.19032
▁Did	-9.19287
▁small	-9.1932
▁getting	-9.19326
▁punt	-9.19366
▁lidstaten	-9.19432
▁Oké	-9.19773
▁team	-9.19889
▁women	-9.19929
▁boven	-9.1999
▁moest	-9.20006
▁begin	-9.20111
gaan	-9.20132
▁respect	-9.20201
self	-9.20357
▁job	-9.20541
tri	-9.20566
▁duidelijk	-9.20588
▁turn	-9.2064
▁stay	-9.20815
▁Kijk	-9.20838
▁niets	-9.20883
tor	-9.20885
▁vind	-9.2092
heden	-9.21066
▁regard	-9.2109
▁deal	-9.21136
▁gr	-9.21179
▁maybe	-9.21251
▁line	-9.2128
▁25	-9.21322
▁Po	-9.21338
▁DE	-9.21461
▁graag	-9.21603
▁form	-9.21639
▁enige	-9.21674
▁Verordening	-9.2171
▁moeilijk	-9.2171
▁brengen	-9.21796
▁sub	-9.21889
▁someone	-9.21947
up	-9.21992
▁taken	-9.22014
▁lijkt	-9.22065
▁begon	-9.22068
▁light	-9.22153
ff	-9.22161
▁present	-9.22265
▁hear	-9.22384
▁stad	-9.22399
▁control	-9.22437
▁geweest	-9.22451
▁business	-9.22474
jes	-9.22493
▁issue	-9.22582
▁grond	-9.227
▁example	-9.2273
▁minder	-9.22772
▁Om	-9.22813
▁geloof	-9.22822
▁mis	-9.22849
▁leuk	-9.22922
▁remember	-9.23056
▁Get	-9.23123
ert	-9.2322
▁ra	-9.23267
▁naam	-9.2331
▁beetje	-9.23389
▁Good	-9.23496
ging	-9.2354
▁vol	-9.23553
▁far	-9.23596
▁str	-9.2369
▁gelijk	-9.23715
▁seem	-9.23731
▁ma	-9.23826
▁Hi	-9.2391
▁16	-9.2407
▁13	-9.24189
▁face	-9.24212
▁please	-9.24231
EN	-9.24258
▁while	-9.24262
▁vier	-9.24342
cu	-9.24342
rwijl	-9.24448
♪	-9.24492
▁become	-9.24661
▁type	-9.24706
▁possible	-9.248
stand	-9.24869
stelling	-9.24925
▁guys	-9.24927
▁Da	-9.25186
ow	-9.25299
less	-9.25474
za	-9.25486
▁Nou	-9.25489
▁saw	-9.25543
▁zeg	-9.25715
lang	-9.25811
▁Here	-9.25817
▁i	-9.25999
▁tijden	-9.26041
▁having	-9.26175
Y	-9.26181
ium	-9.26196
▁Car	-9.26242
▁wilt	-9.26335
▁ontwikkeling	-9.26409
▁Ba	-9.26468
▁hou	-9.26578
▁markt	-9.26699
▁vroeg	-9.26777
gu	-9.26842
lin	-9.26867
rs	-9.27052
▁story	-9.27134
▁Se	-9.27141
bi	-9.27156
▁state	-9.27203
out	-9.27232
▁bedoel	-9.27258
zo	-9.27472
▁wist	-9.27728
▁matter	-9.27736
lt	-9.28019
▁Applaus	-9.28126
▁bed	-9.2818
▁friend	-9.28187
▁since	-9.28216
▁zodat	-9.28225
▁Then	-9.28236
▁werden	-9.28436
▁tweede	-9.28496
▁sir	-9.2868
▁children	-9.28749
▁act	-9.28767
▁f	-9.28887
▁steun	-9.28987
▁Applause	-9.29133
▁brain	-9.2914
▁Sa	-9.29142
▁side	-9.29155
▁body	-9.29256
ië	-9.29404
▁days	-9.29606
▁zag	-9.29694
▁seen	-9.29708
▁miljoen	-9.29735
ator	-9.29886
▁Gemeenschap	-9.30108
▁Ka	-9.30177
ight	-9.30301
eerde	-9.3031
▁0	-9.3032
▁verslag	-9.30331
▁design	-9.30429
▁These	-9.3044
▁reason	-9.3045
ood	-9.30592
▁making	-9.30642
▁free	-9.30711
eer	-9.30755
▁helemaal	-9.30767
▁less	-9.30858
▁ervan	-9.30978
▁problemen	-9.31033
ial	-9.31093
ical	-9.31224
line	-9.31306
▁Ho	-9.31555
aar	-9.31558
▁eigenlijk	-9.31698
pi	-9.31771
▁vijf	-9.31848
▁Europe	-9.31868
▁Dank	-9.3188
▁future	-9.31996
▁computer	-9.32032
▁geval	-9.32044
▁technologie	-9.32071
▁At	-9.32279
▁meest	-9.32332
▁national	-9.32345
▁five	-9.32408
▁Ar	-9.32526
nemen	-9.32547
iden	-9.32628
▁top	-9.32644
▁four	-9.32677
komen	-9.32696
▁foto	-9.32839
▁percent	-9.32987
▁bi	-9.33047
ill	-9.33055
▁dead	-9.33146
▁stellen	-9.33313
iteit	-9.33338
▁Geen	-9.33363
▁yet	-9.33543
▁betekent	-9.3367
▁force	-9.33692
ions	-9.33714
▁until	-9.33733
fa	-9.34115
zelf	-9.34188
ering	-9.34244
▁leg	-9.34283
▁Bij	-9.34316
ale	-9.3433
▁war	-9.34369
▁mother	-9.34435
▁Zij	-9.34486
▁nou	-9.34678
▁gebied	-9.34784
▁zoud	-9.3494
▁effect	-9.34951
ple	-9.34956
▁Di	-9.35034
▁bank	-9.35389
▁health	-9.35502
lie	-9.35565
▁particular	-9.35636
▁Maybe	-9.35717
▁pay	-9.36029
▁fl	-9.36417
▁energie	-9.36435
▁Pro	-9.36439
▁girl	-9.36454
slag	-9.3648
tel	-9.36491
▁sector	-9.3662
ley	-9.36683
▁products	-9.36685
▁cause	-9.36845
io	-9.36987
▁vriend	-9.36989
ble	-9.37059
▁spijt	-9.37078
▁klaar	-9.37194
▁once	-9.37223
the	-9.37378
ijn	-9.37546
▁werkt	-9.37582
▁verhaal	-9.3763
▁recht	-9.37825
eur	-9.3785
oi	-9.37977
bare	-9.38088
ick	-9.38186
▁father	-9.3822
▁model	-9.38232
weg	-9.38298
▁level	-9.38318
ng	-9.38337
J	-9.38375
▁kill	-9.38431
▁pa	-9.3852
tu	-9.38574
▁slechts	-9.38591
▁State	-9.38758
▁bar	-9.38786
▁OK	-9.38789
ER	-9.38836
▁wasn	-9.38893
▁answer	-9.39116
▁heard	-9.39216
▁close	-9.39352
▁hulp	-9.39583
▁vorm	-9.39658
▁Europa	-9.39677
▁check	-9.39775
▁ha	-9.39834
▁belang	-9.3993
▁geeft	-9.39941
▁licht	-9.4001
▁least	-9.40044
▁klein	-9.40049
▁thinking	-9.40104
▁gebeurt	-9.40217
net	-9.40219
eg	-9.40299
werk	-9.40385
lu	-9.40463
▁sort	-9.40508
act	-9.40705
▁St	-9.40841
▁Vi	-9.40851
j	-9.4086
▁knew	-9.40999
▁ba	-9.41104
▁post	-9.4114
▁dezelfde	-9.41577
▁waarin	-9.41679
▁gezegd	-9.4184
▁bijna	-9.41894
▁following	-9.41903
▁blijf	-9.41907
▁vaak	-9.4201
▁21	-9.42063
▁inter	-9.42137
kt	-9.42154
▁pretty	-9.42235
▁enkele	-9.4225
sche	-9.42272
▁clear	-9.42274
▁da	-9.42292
▁Man	-9.4231
▁Right	-9.4237
ang	-9.42485
▁past	-9.42677
ever	-9.42738
▁meet	-9.42826
▁eerst	-9.42827
▁food	-9.42985
▁niemand	-9.43001
▁perfect	-9.4307
bor	-9.43186
▁hart	-9.43209
▁taking	-9.4326
▁account	-9.43373
maal	-9.43578
▁mannen	-9.43589
▁ongeveer	-9.43718
▁gevolg	-9.43736
uw	-9.43776
▁gegevens	-9.4384
▁young	-9.43862
ele	-9.43929
▁contact	-9.44034
wer	-9.44103
▁Voorzitter	-9.44178
20	-9.44241
▁animal	-9.44467
eert	-9.44586
▁Over	-9.44666
▁dagen	-9.45023
▁toepassing	-9.45066
▁Europees	-9.45122
▁stand	-9.45149
ating	-9.45151
▁em	-9.45188
▁measures	-9.45294
▁24	-9.45298
▁40	-9.45389
▁bloed	-9.45518
▁kids	-9.45565
▁watch	-9.45613
recht	-9.45677
▁elk	-9.45721
▁policy	-9.45748
ING	-9.45768
▁leren	-9.45871
way	-9.45883
▁nee	-9.46007
▁gevoel	-9.4603
▁hell	-9.46038
▁risk	-9.46068
▁THE	-9.46078
vis	-9.46157
lic	-9.46175
aire	-9.4621
▁view	-9.46258
▁video	-9.46395
ors	-9.46417
▁Ne	-9.46587
ari	-9.46646
mer	-9.4669
ged	-9.46693
▁welke	-9.46703
▁Artikel	-9.4672
▁saying	-9.46753
os	-9.46775
▁experience	-9.47016
▁thuis	-9.4707
▁final	-9.47134
▁yourself	-9.47199
▁woman	-9.47225
▁Laten	-9.47299
▁eten	-9.47337
▁Am	-9.47339
geven	-9.47356
▁common	-9.47466
▁period	-9.47601
▁Directive	-9.47794
▁heer	-9.47811
▁economic	-9.47851
▁bepaalde	-9.48193
▁ruimte	-9.48285
▁fine	-9.48361
▁derde	-9.48431
by	-9.48547
ief	-9.48783
ja	-9.4885
▁government	-9.48853
▁happen	-9.48924
▁Z	-9.4898
▁wait	-9.49031
▁using	-9.49106
▁El	-9.49151
▁special	-9.4916
vel	-9.49161
▁probably	-9.49268
wi	-9.49273
▁law	-9.49453
au	-9.49503
▁betreffende	-9.49786
▁Omdat	-9.49806
nie	-9.49857
▁game	-9.49921
qui	-9.49941
aat	-9.49961
▁months	-9.50095
▁Sam	-9.50187
▁Doe	-9.50206
▁area	-9.50207
▁myself	-9.50226
▁sc	-9.50226
▁development	-9.50229
▁zaken	-9.50335
▁beginnen	-9.50361
▁heart	-9.50433
com	-9.50706
nk	-9.50845
▁asked	-9.5089
▁York	-9.51077
▁Kan	-9.51084
rit	-9.51271
▁document	-9.51342
▁class	-9.51355
▁Jo	-9.514
▁read	-9.51444
▁betrokken	-9.51603
▁uh	-9.51801
▁quite	-9.51845
.1	-9.51963
▁share	-9.51974
▁With	-9.52201
▁zat	-9.52305
▁third	-9.52477
▁maanden	-9.52507
let	-9.52563
ise	-9.52563
ris	-9.52646
▁fight	-9.52647
▁maatregelen	-9.52702
▁proberen	-9.52728
vol	-9.52738
▁ander	-9.52776
▁son	-9.52849
▁stuff	-9.52855
ide	-9.52887
▁Mi	-9.52936
▁blood	-9.53012
▁given	-9.53043
▁Ca	-9.53107
▁natuurlijk	-9.53108
▁Ta	-9.53255
ward	-9.5357
▁ho	-9.53932
▁Uh	-9.53986
▁action	-9.54095
▁during	-9.54143
▁true	-9.54201
erd	-9.54208
▁Daarom	-9.54236
▁2006	-9.5434
▁United	-9.54408
▁energy	-9.54504
▁toekomst	-9.5455
▁via	-9.54604
cannot	-9.54618
ran	-9.54642
▁phone	-9.54701
▁zin	-9.54876
▁group	-9.55029
▁nice	-9.55043
▁kracht	-9.55069
▁Bar	-9.55355
▁sense	-9.55473
uren	-9.55514
AR	-9.5557
▁building	-9.55585
▁veranderen	-9.55598
▁whether	-9.55662
iti	-9.55734
ei	-9.55751
ism	-9.55978
▁lichaam	-9.56149
▁ca	-9.56245
▁sociale	-9.5625
▁waarop	-9.56326
mit	-9.56461
uur	-9.56563
▁walk	-9.56658
▁Julli	-9.56745
▁space	-9.5685
wij	-9.56896
vers	-9.57013
▁programme	-9.57092
oon	-9.57178
▁times	-9.57227
▁bang	-9.57271
▁EEG	-9.574
▁situation	-9.57591
▁procent	-9.57601
▁material	-9.5769
▁full	-9.57722
port	-9.57738
pel	-9.57794
▁Zijn	-9.57874
▁programma	-9.57885
ure	-9.58002
▁interest	-9.5802
hi	-9.58064
▁Ten	-9.5818
▁Du	-9.58204
▁non	-9.58366
ën	-9.5857
▁listen	-9.5857
▁list	-9.58658
vat	-9.58698
cho	-9.58748
▁single	-9.58761
▁gave	-9.58777
ction	-9.5878
▁o	-9.58873
▁research	-9.58886
rust	-9.58903
▁friends	-9.58917
▁says	-9.5895
avond	-9.58986
dag	-9.59115
▁neer	-9.5912
▁procedure	-9.59211
▁accept	-9.59288
▁verordening	-9.593
▁recent	-9.59438
▁technology	-9.59523
▁horen	-9.59539
▁doel	-9.5956
ub	-9.59629
▁Su	-9.59636
ans	-9.59647
du	-9.59732
zicht	-9.59741
▁makes	-9.59752
bel	-9.59794
ex	-9.59846
▁gebeurd	-9.59889
▁2004	-9.59902
▁hours	-9.59933
fi	-9.59962
sion	-9.59978
▁kant	-9.59989
▁hetzelfde	-9.59995
▁22	-9.60099
che	-9.60117
ina	-9.60126
▁aid	-9.60129
▁echter	-9.60148
▁niks	-9.60167
▁create	-9.60266
▁EEC	-9.60585
▁city	-9.60656
houdt	-9.60723
▁heen	-9.60929
▁inzake	-9.6095
pt	-9.61082
ile	-9.61096
▁ka	-9.61127
▁death	-9.61225
stra	-9.61634
▁opge	-9.61718
rn	-9.61737
▁comes	-9.61779
▁isn	-9.61876
▁pass	-9.61987
of	-9.62072
▁six	-9.62134
▁fa	-9.62174
▁konden	-9.62178
▁deed	-9.62246
handel	-9.62257
▁Staten	-9.62488
▁betrekking	-9.62567
▁zoek	-9.62568
gro	-9.62581
Wanneer	-9.62632
▁vond	-9.62635
ations	-9.62692
▁kop	-9.62717
▁super	-9.62779
▁oude	-9.62916
▁plek	-9.62931
,000	-9.62966
▁wouldn	-9.62977
halve	-9.63068
▁Tot	-9.631
▁morning	-9.63124
har	-9.63162
▁front	-9.63225
bb	-9.63242
▁proposal	-9.63259
▁hit	-9.63336
▁inside	-9.63384
ah	-9.63391
▁Fa	-9.63414
▁Please	-9.63469
▁code	-9.63491
▁China	-9.63496
lf	-9.63635
▁pick	-9.63884
▁halen	-9.63901
sel	-9.63908
▁Committee	-9.63925
▁book	-9.63982
rij	-9.64053
▁win	-9.64067
waar	-9.64188
igen	-9.64325
kant	-9.64446
▁problems	-9.64482
▁bedrijf	-9.64486
▁step	-9.64653
▁kid	-9.64673
▁speak	-9.64715
tin	-9.64781
led	-9.64786
▁lives	-9.64799
▁guess	-9.64808
▁tien	-9.65044
▁fire	-9.6505
▁2007	-9.65069
iv	-9.6509
scha	-9.65158
▁provide	-9.65235
▁kans	-9.6525
▁controle	-9.65264
voer	-9.65274
lk	-9.6528
▁air	-9.65344
▁vrienden	-9.65498
pp	-9.655
▁reden	-9.65628
oo	-9.65657
▁gevonden	-9.65698
▁Aan	-9.65796
▁miss	-9.65809
▁lost	-9.65838
ose	-9.65843
bra	-9.65856
▁agent	-9.65863
rie	-9.65925
▁zaak	-9.66016
▁ding	-9.66021
▁record	-9.66021
▁direct	-9.66058
▁31	-9.66126
▁financial	-9.66134
▁eerder	-9.66315
▁orde	-9.66372
▁planet	-9.66404
▁2000	-9.6647
ppen	-9.66558
▁kl	-9.66627
▁term	-9.66874
oor	-9.66993
ug	-9.67018
▁vastgesteld	-9.67081
▁thank	-9.6712
▁antwoord	-9.6713
▁yeah	-9.67176
▁Pe	-9.67192
tig	-9.67202
▁cut	-9.67236
▁killed	-9.67273
▁John	-9.67306
▁mens	-9.67312
▁Mrs	-9.67344
que	-9.6736
▁ligt	-9.67414
▁vi	-9.67481
▁drink	-9.67529
▁general	-9.67585
if	-9.67616
elen	-9.67621
▁se	-9.67662
▁minutes	-9.67779
▁verwacht	-9.67791
▁allow	-9.67821
▁Denk	-9.67857
voor	-9.67858
▁geweldig	-9.6794
▁India	-9.68004
▁break	-9.68016
▁goes	-9.68097
AT	-9.68102
▁Ru	-9.68119
▁waarschijnlijk	-9.68161
▁lead	-9.68253
▁Sch	-9.68286
▁Want	-9.68305
▁soon	-9.68317
▁red	-9.68359
▁politie	-9.68418
▁couple	-9.68419
▁bekend	-9.68504
▁access	-9.6861
ieve	-9.68631
ED	-9.6865
▁begrijpen	-9.68687
▁denkt	-9.68732
▁trans	-9.6879
▁wonder	-9.68801
pl	-9.68889
▁beautiful	-9.68898
▁zoveel	-9.68901
▁living	-9.6891
▁political	-9.68964
▁systeem	-9.69016
▁Mag	-9.69034
tter	-9.69054
▁li	-9.69066
▁exactly	-9.69171
▁See	-9.69193
▁almost	-9.69194
ite	-9.69303
tijd	-9.69336
lui	-9.69385
▁result	-9.69392
▁waarde	-9.69418
licht	-9.69418
▁gone	-9.69469
▁contain	-9.69614
gang	-9.69687
▁Mu	-9.69738
▁extra	-9.69842
▁anti	-9.69873
▁volgens	-9.69905
▁situatie	-9.69977
▁precies	-9.70016
▁offer	-9.70021
ship	-9.7005
▁machine	-9.70075
art	-9.70091
▁necessary	-9.70124
▁mooi	-9.70139
oc	-9.70221
▁Hou	-9.70265
deel	-9.70272
▁Verdrag	-9.70304
▁therefore	-9.70312
▁X	-9.70376
ped	-9.70419
▁rules	-9.70456
▁fi	-9.70501
▁though	-9.7063
▁boy	-9.70637
▁object	-9.707
▁kijk	-9.70724
dien	-9.70749
▁spelen	-9.70753
lijke	-9.70884
▁r	-9.70906
ties	-9.70919
loos	-9.70993
ize	-9.71084
ki	-9.71102
ps	-9.71109
ign	-9.71202
AL	-9.71222
vin	-9.71226
▁American	-9.71239
▁main	-9.71346
▁Gu	-9.71352
▁im	-9.71423
nder	-9.71423
▁sal	-9.71453
▁fe	-9.71491
▁Bu	-9.71539
▁hold	-9.71544
▁alone	-9.71549
zien	-9.71667
▁experiment	-9.71708
▁Zeg	-9.7172
▁OJ	-9.71789
▁economische	-9.71795
▁global	-9.71822
bouw	-9.71887
▁company	-9.71974
▁groep	-9.71982
▁Zoals	-9.71983
bre	-9.72078
▁mi	-9.72097
▁PB	-9.72129
tan	-9.72131
delen	-9.72133
▁haven	-9.72172
▁los	-9.72368
▁doctor	-9.72443
▁child	-9.72514
▁function	-9.72542
▁save	-9.72614
leg	-9.72646
▁couldn	-9.72655
▁meeste	-9.7267
▁Ad	-9.7275
▁telefoon	-9.72816
▁everyone	-9.72914
▁based	-9.72953
▁Fi	-9.72978
▁ogen	-9.72985
▁late	-9.72989
fo	-9.73014
.2	-9.73023
▁specific	-9.73048
▁short	-9.7305
▁amount	-9.73085
▁protect	-9.73159
♫	-9.7324
her	-9.73245
chi	-9.73321
ult	-9.73337
▁Annex	-9.73355
▁alsof	-9.73561
▁echte	-9.73564
▁nationale	-9.73595
▁2005	-9.73603
▁subject	-9.73704
▁conditions	-9.73779
RE	-9.73785
▁zoon	-9.73912
▁happy	-9.73937
▁wife	-9.74015
igheid	-9.74077
▁decision	-9.74183
▁position	-9.74223
▁grootste	-9.74311
▁onge	-9.74324
▁Ste	-9.7439
▁23	-9.74393
▁anyone	-9.74428
▁lo	-9.74461
▁fout	-9.74477
▁oog	-9.74543
wo	-9.74574
▁kader	-9.74636
▁persoon	-9.74638
▁slecht	-9.7464
▁sla	-9.74652
▁media	-9.7475
hy	-9.74811
▁Gra	-9.74852
fer	-9.74863
one	-9.74955
▁nacht	-9.75011
▁plant	-9.7505
▁kun	-9.75072
▁voorbeeld	-9.75124
▁Sta	-9.75205
▁wish	-9.75271
▁geloven	-9.75385
▁Was	-9.75418
▁fall	-9.75446
▁field	-9.75454
▁pijn	-9.75486
4	-9.75624
ui	-9.75632
▁piece	-9.75661
▁beleid	-9.75728
▁lucht	-9.75756
▁Verenigd	-9.75819
▁kreeg	-9.75819
▁zoeken	-9.75867
win	-9.75917
ook	-9.75931
5	-9.75968
SE	-9.76144
▁feit	-9.76176
▁sommige	-9.76216
iek	-9.76233
▁complex	-9.76256
houden	-9.76325
▁Ti	-9.76332
▁personal	-9.76381
name	-9.76454
▁ready	-9.76636
▁agreement	-9.76714
▁including	-9.76774
▁probeer	-9.76819
berg	-9.76881
cor	-9.76992
▁follow	-9.77006
$	-9.77014
▁bijlage	-9.7702
▁hang	-9.7703
▁May	-9.77046
ative	-9.77076
▁needs	-9.77079
▁student	-9.77111
▁minuten	-9.7745
▁2003	-9.77462
▁60	-9.7747
ban	-9.77518
▁Hu	-9.77576
▁90	-9.77578
▁rate	-9.77582
oog	-9.77616
mmer	-9.77752
▁jongen	-9.77753
▁meisje	-9.77775
▁richtlijn	-9.77779
▁Stop	-9.77802
ica	-9.77827
▁dad	-9.77896
▁Ri	-9.77906
▁import	-9.77942
▁large	-9.78
▁mogen	-9.78003
▁camera	-9.78015
▁zon	-9.78022
ture	-9.78048
ized	-9.78252
▁einde	-9.78255
▁outside	-9.7831
▁office	-9.78456
▁either	-9.7859
▁delen	-9.78632
▁Geef	-9.78724
druk	-9.78729
gi	-9.78742
▁zetten	-9.78745
▁handel	-9.78777
▁nieuw	-9.78806
yl	-9.78856
▁woorden	-9.78919
▁hu	-9.79078
▁heet	-9.79224
▁Y	-9.7926
nny	-9.79273
▁actie	-9.79319
▁Have	-9.79323
▁chance	-9.79369
var	-9.79431
▁Her	-9.79433
ES	-9.79435
ice	-9.79437
▁behind	-9.79449
▁Alles	-9.7945
▁vooral	-9.79467
gan	-9.79506
▁Nog	-9.79728
▁application	-9.79736
▁kamer	-9.79737
▁Har	-9.79765
▁brother	-9.79863
▁vindt	-9.79914
▁individual	-9.8004
▁figure	-9.80069
▁Pi	-9.80095
▁gun	-9.80147
IS	-9.80162
ther	-9.80234
▁meeting	-9.80249
▁god	-9.80297
▁send	-9.80318
iet	-9.80322
▁Even	-9.80332
▁begrijp	-9.80343
▁instrument	-9.80366
▁bestaat	-9.80371
uck	-9.80411
▁geef	-9.80445
▁druk	-9.80496
▁woord	-9.80532
ade	-9.80533
van	-9.80614
nis	-9.80666
▁Sha	-9.80772
▁text	-9.80787
▁sleep	-9.80813
▁II	-9.80826
▁app	-9.80849
▁Our	-9.80873
▁words	-9.81007
▁learn	-9.81085
▁star	-9.81197
▁nieuws	-9.81245
across	-9.81313
ct	-9.81367
▁study	-9.81397
onder	-9.81438
ou	-9.8153
▁fuck	-9.81724
▁sound	-9.81734
▁Ko	-9.81766
▁vele	-9.81792
▁operation	-9.81879
▁enkel	-9.8188
ay	-9.81993
▁spreken	-9.82015
▁boek	-9.82063
▁80	-9.82083
▁gehad	-9.82113
▁niveau	-9.8216
▁anderen	-9.8221
▁bus	-9.8222
▁hi	-9.82458
▁imp	-9.82565
▁gebeuren	-9.82576
▁sa	-9.82579
▁provided	-9.82685
▁difficult	-9.82703
ham	-9.82719
▁sign	-9.82728
▁lopen	-9.82735
▁waarvan	-9.82807
▁blijk	-9.82884
▁wanna	-9.82886
▁euro	-9.82891
▁budget	-9.82915
▁soms	-9.82924
bl	-9.82952
▁belangrijke	-9.82984
▁financiële	-9.83045
▁His	-9.83081
▁realize	-9.83159
air	-9.83248
▁gen	-9.83422
▁blij	-9.83436
and	-9.8351
hal	-9.83515
▁vermoord	-9.83546
▁key	-9.83554
AN	-9.83569
▁27	-9.83707
▁Ken	-9.83728
▁morgen	-9.8374
▁2008	-9.83742
▁buy	-9.83742
plaats	-9.83797
▁transport	-9.8382
▁trust	-9.83825
pro	-9.83865
▁Hallo	-9.83995
our	-9.84028
▁feeling	-9.84086
▁accordance	-9.84113
ese	-9.84151
▁fucking	-9.8419
▁Bel	-9.8423
▁trade	-9.84287
▁security	-9.84328
▁voorstel	-9.84346
▁art	-9.84414
▁blz	-9.84415
▁gegeven	-9.84451
aai	-9.8447
▁value	-9.84487
jo	-9.845
▁Treaty	-9.84501
▁gotta	-9.84583
ration	-9.84702
▁continue	-9.84711
▁known	-9.84802
0	-9.84812
ervoor	-9.84945
spi	-9.84951
ab	-9.84956
▁gezicht	-9.84977
▁regering	-9.85065
▁Qu	-9.85081
▁pas	-9.85084
mor	-9.85089
▁wachten	-9.85257
▁easy	-9.85281
ana	-9.85283
▁questions	-9.85343
▁local	-9.85376
▁drugs	-9.85412
▁Door	-9.85424
▁contract	-9.85441
▁betreft	-9.85499
▁simple	-9.85631
▁along	-9.85631
han	-9.85635
▁oorlog	-9.85749
▁daarvan	-9.85758
▁erop	-9.85802
▁Miss	-9.85813
▁dieren	-9.85858
▁music	-9.85892
▁cool	-9.85931
leiding	-9.85938
▁fun	-9.85983
▁oud	-9.85996
▁Will	-9.86062
▁gaf	-9.86154
▁bijvoorbeeld	-9.86203
▁happens	-9.86221
▁lie	-9.86237
▁export	-9.86312
tte	-9.86399
▁shit	-9.86429
gesteld	-9.86464
ok	-9.86513
tjes	-9.8658
ney	-9.86596
▁hoor	-9.86608
sis	-9.86675
zel	-9.8677
▁available	-9.86816
▁species	-9.86817
merk	-9.86857
▁disease	-9.86861
par	-9.86991
▁hands	-9.87025
▁wacht	-9.87059
▁levens	-9.87073
▁cur	-9.8714
▁risico	-9.87259
▁strong	-9.87268
▁further	-9.87349
zij	-9.8737
ï	-9.87376
▁pr	-9.87381
▁relatie	-9.87419
▁Take	-9.87461
▁genomen	-9.87477
heen	-9.87486
▁2001	-9.87527
▁1999	-9.87805
▁ball	-9.87807
ON	-9.87893
▁spel	-9.87959
▁oké	-9.87977
▁opnieuw	-9.87988
put	-9.87995
▁para	-9.88033
▁stond	-9.88034
▁truth	-9.88045
▁cons	-9.88052
▁milieu	-9.88075
gie	-9.88122
▁language	-9.88151
▁Per	-9.88292
▁structure	-9.88292
▁eyes	-9.88455
▁focus	-9.88649
▁Ju	-9.8866
erhaps	-9.88698
▁quick	-9.88737
▁OF	-9.88769
▁robot	-9.88786
▁Jack	-9.88787
▁interesting	-9.88844
▁bio	-9.88982
▁Ki	-9.89132
staan	-9.89164
▁Ook	-9.89172
▁gl	-9.89174
▁ervaring	-9.89188
▁zichzelf	-9.89246
▁often	-9.89319
▁neem	-9.89387
▁Like	-9.89415
▁Wacht	-9.89483
ify	-9.89559
kel	-9.89564
tische	-9.89591
▁Some	-9.89595
▁gehoord	-9.89686
▁paper	-9.89689
▁veilig	-9.89699
▁brand	-9.89736
▁fr	-9.89793
▁rekening	-9.89861
ities	-9.89884
▁stem	-9.89927
▁concerned	-9.89997
▁yes	-9.90018
zet	-9.90033
▁mu	-9.90052
▁black	-9.9006
▁sh	-9.90112
▁looks	-9.90112
▁Nor	-9.90175
▁volledig	-9.90207
▁president	-9.90233
dra	-9.90255
▁bezig	-9.90276
gelopen	-9.90309
▁park	-9.90523
▁safe	-9.90533
▁indien	-9.90605
▁Earth	-9.90646
▁factor	-9.90648
ect	-9.90661
mi	-9.90687
▁Ke	-9.9085
ST	-9.90867
▁Wel	-9.90893
▁Zie	-9.90951
▁verband	-9.90966
▁fo	-9.91031
▁lange	-9.91044
▁picture	-9.91227
▁Hé	-9.91249
▁near	-9.91257
▁Uit	-9.91272
▁invoer	-9.91369
▁samenwerking	-9.91442
▁vis	-9.91468
IT	-9.91493
▁San	-9.91514
▁geluk	-9.91522
▁service	-9.91557
erde	-9.91564
▁somebody	-9.91568
▁28	-9.91603
▁sit	-9.91667
bod	-9.91681
systeem	-9.91698
▁stap	-9.91724
los	-9.91747
oom	-9.91766
▁party	-9.91859
▁image	-9.91875
▁Tra	-9.91972
▁groei	-9.92041
▁difference	-9.92079
▁train	-9.92112
▁jonge	-9.92143
▁age	-9.92153
▁return	-9.922
punt	-9.92214
▁kennis	-9.92224
▁normal	-9.9226
▁history	-9.92267
▁shot	-9.92289
▁police	-9.9236
▁referred	-9.92407
▁noemen	-9.92441
▁eruit	-9.92465
▁jongens	-9.92493
▁remain	-9.925
▁patients	-9.92569
OR	-9.92602
▁apply	-9.92635
rig	-9.92656
▁rechts	-9.92715
▁Amerika	-9.92716
▁town	-9.92777
▁secret	-9.92782
▁brought	-9.92828
qu	-9.92886
▁longer	-9.92893
▁2009	-9.92936
▁rol	-9.92961
ification	-9.92962
toe	-9.93003
▁ensure	-9.9309
og	-9.93122
log	-9.93148
▁band	-9.93182
▁CA	-9.93185
▁hurt	-9.93257
▁partner	-9.93404
▁cell	-9.93459
▁eat	-9.9348
ace	-9.93559
int	-9.93565
▁miljard	-9.93581
▁billion	-9.93612
▁cover	-9.9369
hor	-9.93694
▁Frank	-9.93735
▁sea	-9.93775
▁2002	-9.93846
ified	-9.93878
▁cost	-9.93898
plan	-9.94004
▁namen	-9.94038
▁liet	-9.94042
▁West	-9.94104
▁verzoek	-9.94151
▁choice	-9.94151
▁warm	-9.94163
laat	-9.94172
▁Mil	-9.94297
▁Un	-9.94307
▁thousand	-9.94341
▁element	-9.94343
cri	-9.9439
▁letter	-9.94449
▁hoeveel	-9.9448
▁Bedankt	-9.94532
▁mar	-9.94612
▁patiënten	-9.94615
▁producten	-9.94641
ious	-9.94651
▁rec	-9.94655
▁build	-9.94695
▁purpose	-9.94771
rap	-9.94775
▁lab	-9.94778
lar	-9.94876
▁Wait	-9.94994
▁file	-9.95025
met	-9.95048
▁Com	-9.95056
▁politieke	-9.95078
▁uitge	-9.95103
▁Col	-9.95106
▁murder	-9.95155
▁Vo	-9.9519
▁Decision	-9.95202
▁entire	-9.95242
▁00	-9.95243
▁29	-9.95263
lingen	-9.95276
▁decided	-9.95296
zz	-9.9531
door	-9.95332
▁overeenkomstig	-9.95379
▁explain	-9.95443
ase	-9.95503
▁kosten	-9.95533
▁invest	-9.95545
▁kennen	-9.95561
▁ground	-9.95588
▁services	-9.95648
▁crisis	-9.95684
▁vallen	-9.95782
fe	-9.95851
▁besluit	-9.95863
side	-9.95908
▁international	-9.95938
▁legal	-9.95983
▁vote	-9.96016
bri	-9.96069
waarde	-9.96173
▁environment	-9.96197
▁needed	-9.9624
▁Onze	-9.96385
mis	-9.96444
▁overeenkomst	-9.96509
ries	-9.96578
▁VAN	-9.96581
▁minute	-9.96684
▁Ex	-9.96703
zin	-9.96721
▁kaart	-9.9673
vang	-9.96733
▁training	-9.96744
kin	-9.96767
▁Bi	-9.96775
▁der	-9.96804
wezen	-9.96852
▁spend	-9.96973
▁Volgens	-9.97046
▁jezelf	-9.97051
▁nature	-9.97093
▁herinner	-9.97136
▁rep	-9.97205
▁tried	-9.97222
▁sinds	-9.97248
▁science	-9.97389
▁Maak	-9.97446
▁supposed	-9.97451
▁drive	-9.97469
▁Br	-9.97545
▁verteld	-9.97563
mel	-9.97671
▁select	-9.97685
▁education	-9.97734
won	-9.9774
rew	-9.97782
▁poor	-9.97838
nes	-9.97864
▁behandeling	-9.97883
▁dream	-9.97931
▁grow	-9.97968
▁solution	-9.9803
▁everybody	-9.98079
cla	-9.98142
▁rath	-9.98151
▁Th	-9.98191
▁veranderd	-9.98331
▁stoppen	-9.9835
▁self	-9.98365
▁ju	-9.98409
▁opinion	-9.9853
▁maakte	-9.98531
▁worry	-9.98575
▁natural	-9.98675
▁DNA	-9.98693
▁expect	-9.98714
lor	-9.98716
▁War	-9.98809
gegeven	-9.99003
▁gas	-9.99032
▁vormen	-9.99042
Z	-9.99103
.5	-9.99204
▁ship	-9.99211
▁dog	-9.99212
▁Pri	-9.99216
▁hoog	-9.99246
▁After	-9.99248
▁Wa	-9.9926
ister	-9.9928
▁deep	-9.99321
maken	-9.9934
▁message	-9.99437
▁TED	-9.99467
▁represent	-9.99519
rk	-9.99533
fu	-9.99627
▁enter	-9.99705
▁dochter	-9.99728
genomen	-9.9977
▁menselijke	-9.99787
▁increase	-9.99838
▁impact	-9.99987
▁26	-10.001
▁Ah	-10.0011
▁broer	-10.0013
lip	-10.0016
.000	-10.0019
▁lijst	-10.0019
▁By	-10.0022
▁publiek	-10.0023
ible	-10.0025
rr	-10.003
▁aarde	-10.0032
ack	-10.0041
▁others	-10.0043
▁themselves	-10.0048
▁forward	-10.005
oord	-10.0051
eet	-10.0065
▁Luister	-10.0069
▁news	-10.0077
▁road	-10.0081
▁serious	-10.0083
ump	-10.0083
▁areas	-10.0088
▁tri	-10.0094
▁tree	-10.0095
▁paragraph	-10.0099
abel	-10.01
▁maak	-10.01
▁stel	-10.0102
use	-10.0103
▁hotel	-10.0104
▁bewijs	-10.0105
▁afge	-10.0108
▁terms	-10.0112
▁voel	-10.0117
fin	-10.0142
ram	-10.0151
▁touch	-10.0153
50	-10.0153
▁Lid	-10.0157
▁mom	-10.0157
▁EUR	-10.016
▁community	-10.016
▁imagine	-10.0171
ping	-10.0171
ost	-10.0172
geleid	-10.018
▁Richtlijn	-10.0181
del	-10.0182
▁aandacht	-10.0184
▁visit	-10.0192
▁voedsel	-10.0196
▁sent	-10.0197
ME	-10.0198
▁Tell	-10.02
▁held	-10.02
▁whatever	-10.0203
IN	-10.0206
▁dicht	-10.021
▁production	-10.0211
press	-10.0213
▁voorstellen	-10.0218
cr	-10.0221
bin	-10.0223
▁daarom	-10.0226
▁mg	-10.0227
lig	-10.0229
▁Che	-10.0232
▁70	-10.0238
▁early	-10.0241
▁clean	-10.0243
woord	-10.0243
▁beeld	-10.0244
▁relevant	-10.0248
ya	-10.0259
▁stuk	-10.0262
▁cha	-10.0264
▁eind	-10.0266
▁kn	-10.0273
▁protection	-10.0274
taal	-10.0282
tain	-10.0285
▁wind	-10.0288
elijkheid	-10.029
eu	-10.0304
ergens	-10.0317
▁Echt	-10.0318
▁luck	-10.0319
beleid	-10.0323
iger	-10.0325
▁gezondheid	-10.0326
low	-10.0329
fl	-10.0332
zon	-10.0335
▁charge	-10.0337
▁culture	-10.0338
▁complete	-10.034
▁Twee	-10.0342
▁leer	-10.0343
▁internet	-10.0344
▁Afrika	-10.0346
▁network	-10.0348
lan	-10.0349
▁However	-10.0352
▁dank	-10.0357
▁geest	-10.0369
▁First	-10.0373
▁tro	-10.0373
▁dient	-10.0378
ourselves	-10.0385
▁tomorrow	-10.0388
▁bijzonder	-10.0393
▁rapporteur	-10.0394
▁site	-10.0396
▁middelen	-10.0397
▁Chi	-10.0398
▁volgen	-10.0399
su	-10.0402
▁Japan	-10.0418
▁discover	-10.0421
▁consider	-10.0422
ici	-10.0424
zu	-10.0428
▁motor	-10.0428
▁fear	-10.0432
▁radio	-10.0432
▁Amerikaanse	-10.0436
▁promise	-10.0436
▁bedrijven	-10.0445
▁mention	-10.0447
▁neemt	-10.0451
▁pen	-10.0453
schrij	-10.0453
▁Neem	-10.0464
▁liefde	-10.0467
ec	-10.0468
.19	-10.0471
cent	-10.0472
▁gene	-10.0479
reg	-10.0483
time	-10.0486
ory	-10.0487
▁weinig	-10.049
comp	-10.0504
▁min	-10.0509
▁wou	-10.0514
▁Reg	-10.0521
▁mine	-10.0521
+	-10.0531
▁Sir	-10.0535
▁weken	-10.0537
▁hundred	-10.0542
▁Lu	-10.0546
▁principle	-10.0547
hin	-10.0548
▁landbouw	-10.055
▁bestaan	-10.0554
▁America	-10.0554
aard	-10.0555
arch	-10.0565
▁nam	-10.0566
▁zorg	-10.0572
▁vertrouwen	-10.0573
CH	-10.0576
▁ken	-10.0576
▁Alle	-10.0583
▁Give	-10.0583
▁sometimes	-10.059
▁born	-10.0595
▁ouders	-10.061
▁industry	-10.0611
zi	-10.0619
lus	-10.0619
▁juiste	-10.0621
eit	-10.0636
▁collega	-10.0638
▁amazing	-10.0638
▁huh	-10.065
lia	-10.0653
▁crazy	-10.0654
▁ran	-10.0654
▁hoge	-10.0659
daan	-10.0663
▁prijs	-10.0673
▁aspect	-10.0674
▁effective	-10.0675
▁cop	-10.068
▁2010	-10.0683
mie	-10.0684
ong	-10.0686
komt	-10.0686
▁low	-10.0688
▁weeks	-10.0688
▁pan	-10.0691
isme	-10.0696
row	-10.0696
▁eeuw	-10.0703
▁People	-10.0703
▁dienst	-10.0708
▁rights	-10.0716
▁Allah	-10.0723
▁concern	-10.0724
▁daughter	-10.0724
▁correct	-10.0724
▁measure	-10.0727
▁dia	-10.0732
ov	-10.0739
▁Fe	-10.0745
▁fish	-10.075
gelijk	-10.0752
▁size	-10.0754
▁wijze	-10.0765
▁nummer	-10.0765
▁address	-10.0768
▁lu	-10.078
▁schuld	-10.0793
▁above	-10.0795
▁handen	-10.0796
▁val	-10.0801
▁juist	-10.0801
mmen	-10.0804
▁Wi	-10.0806
▁gekomen	-10.0807
▁approach	-10.0811
▁maand	-10.0812
▁COM	-10.0817
▁regels	-10.0825
▁price	-10.0834
EL	-10.0838
▁request	-10.0839
▁Sc	-10.0841
mate	-10.0843
▁zak	-10.085
▁relationship	-10.085
▁benefit	-10.0855
▁arrest	-10.0855
mun	-10.0856
rt	-10.0862
▁treatment	-10.0869
▁tonight	-10.0872
cing	-10.0878
▁aange	-10.0879
▁macht	-10.0882
zw	-10.0887
▁Cor	-10.0889
teken	-10.0894
▁progress	-10.0894
dom	-10.09
▁Iedereen	-10.0905
sk	-10.0907
gezet	-10.0918
▁hour	-10.0919
▁http	-10.0921
▁mede	-10.0931
wet	-10.0933
▁telling	-10.0935
▁table	-10.094
ement	-10.0942
▁productie	-10.0944
▁sex	-10.0946
▁parents	-10.0946
ath	-10.0947
unt	-10.0948
▁ziekte	-10.0957
▁micro	-10.0958
war	-10.0964
▁mevrouw	-10.0968
idae	-10.097
▁Pre	-10.0971
▁eenvoudig	-10.0985
▁Heeft	-10.0994
▁Net	-10.1006
▁hoeft	-10.1011
▁avond	-10.1011
▁attack	-10.1016
loo	-10.102
chten	-10.1023
▁challenge	-10.1027
raad	-10.1029
▁Africa	-10.1029
rak	-10.1034
▁sterk	-10.1038
LE	-10.1062
room	-10.1065
▁population	-10.1066
▁society	-10.1072
▁Paul	-10.1072
leider	-10.1083
▁uiteindelijk	-10.1089
▁mooie	-10.1097
▁happening	-10.1098
ient	-10.1107
spel	-10.1109
▁praat	-10.1111
IC	-10.1118
▁fast	-10.1123
▁street	-10.1124
▁wetenschap	-10.1124
▁fly	-10.1129
worden	-10.1131
▁belangrijkste	-10.1132
▁regio	-10.1132
▁December	-10.1134
▁waarheid	-10.1136
▁ontwerp	-10.1142
▁Kun	-10.1145
vorm	-10.1156
▁bedoelde	-10.1162
▁langer	-10.1163
ssa	-10.1165
▁moord	-10.1167
halen	-10.1171
▁kost	-10.1174
▁grant	-10.1177
▁Cha	-10.1179
▁evidence	-10.1185
completely	-10.1186
ins	-10.1194
▁authorities	-10.1196
gebied	-10.1197
▁acht	-10.1208
▁created	-10.1212
▁rat	-10.1212
▁voelen	-10.1214
▁Si	-10.1218
▁suggest	-10.1219
▁keuze	-10.1229
▁natuur	-10.1231
▁changed	-10.1235
▁systems	-10.1239
▁attention	-10.1242
▁kwamen	-10.1246
▁major	-10.1247
▁hot	-10.1247
fect	-10.1248
▁leiden	-10.125
#	-10.1251
▁companies	-10.1253
▁voorkomen	-10.1253
▁Mensen	-10.1255
▁bouwen	-10.1256
▁month	-10.1258
▁cat	-10.1268
▁adopted	-10.1272
vallen	-10.1276
zer	-10.128
uff	-10.1282
nnen	-10.1286
gelegd	-10.1286
▁gelukkig	-10.1287
ore	-10.1295
▁Joe	-10.1296
▁source	-10.1299
▁diep	-10.13
cept	-10.1301
▁december	-10.1305
lam	-10.1313
ringen	-10.1316
▁website	-10.1316
▁running	-10.1319
▁meneer	-10.1322
lopen	-10.134
▁cooperation	-10.134
where	-10.1342
▁quality	-10.1345
▁method	-10.135
▁zowel	-10.1357
▁kwestie	-10.1362
▁ieder	-10.1371
▁organisatie	-10.1374
▁conflict	-10.138
▁vergeten	-10.138
▁eye	-10.1386
▁voorbij	-10.139
▁Natuurlijk	-10.1391
isten	-10.1396
▁appear	-10.1397
▁debate	-10.1399
,5	-10.1402
▁disc	-10.1402
▁husband	-10.1403
▁gemeenschap	-10.1405
▁total	-10.1406
▁context	-10.1409
▁worth	-10.1409
▁limit	-10.1413
▁establish	-10.1414
▁George	-10.1414
komst	-10.1416
▁gebouw	-10.1416
▁hate	-10.1417
maak	-10.1419
▁IN	-10.1425
cc	-10.1426
▁online	-10.1427
▁debat	-10.1428
▁gang	-10.143
▁ontdekt	-10.1432
▁baan	-10.1439
▁count	-10.144
ET	-10.1443
▁flow	-10.1447
▁fail	-10.1452
▁Ch	-10.146
▁Cla	-10.1466
▁South	-10.1467
▁appropriate	-10.1478
ctor	-10.148
▁proces	-10.1481
▁waarme	-10.1487
▁langs	-10.149
iel	-10.1491
▁overal	-10.1492
▁tax	-10.1503
▁wall	-10.1505
▁receive	-10.151
▁toegang	-10.1513
▁beheer	-10.1513
▁kunst	-10.1516
▁travel	-10.152
▁stage	-10.1521
all	-10.1521
▁midden	-10.1523
bru	-10.1525
▁reach	-10.1525
▁exist	-10.1528
▁Niemand	-10.1531
▁voice	-10.1531
▁involved	-10.1536
uk	-10.154
bar	-10.1546
▁mening	-10.1546
roepen	-10.155
▁wants	-10.155
water	-10.1558
zetten	-10.1558
▁white	-10.1587
▁geheim	-10.1599
▁snap	-10.1608
▁cancer	-10.1609
slaan	-10.1609
▁Tu	-10.161
▁prevent	-10.1611
▁David	-10.1614
▁became	-10.1614
▁bra	-10.1616
▁internationale	-10.1618
.3	-10.1618
▁bel	-10.1619
▁organ	-10.1626
▁works	-10.1629
▁economie	-10.163
instead	-10.1632
ai	-10.1635
▁vanaf	-10.1637
▁200	-10.1642
▁provisions	-10.1646
▁among	-10.1646
▁Tom	-10.1651
grepen	-10.1656
▁seven	-10.1668
▁custom	-10.1673
▁volgt	-10.1675
▁moving	-10.1684
▁liggen	-10.17
▁box	-10.1702
stellen	-10.1705
▁producer	-10.1714
ogen	-10.1714
▁Help	-10.1715
▁rij	-10.1718
▁felt	-10.1718
▁kent	-10.1722
▁gebracht	-10.1724
▁voet	-10.1725
ization	-10.1735
▁Dad	-10.1737
ó	-10.1739
▁fair	-10.1741
▁dokter	-10.1745
pon	-10.1746
▁base	-10.1749
▁produce	-10.1749
▁vertelde	-10.1753
▁periode	-10.1761
▁beide	-10.1762
▁card	-10.1763
▁begint	-10.1767
mat	-10.177
▁built	-10.1775
▁eerlijk	-10.1776
▁huidige	-10.1776
icht	-10.1783
▁geschiedenis	-10.1785
▁Sp	-10.1787
▁soorten	-10.1791
richt	-10.1794
▁flu	-10.1795
▁opportunity	-10.1797
▁Sh	-10.1803
▁bepalingen	-10.1805
▁alsjeblieft	-10.1817
▁giving	-10.1824
goed	-10.1827
▁leden	-10.1835
▁pakken	-10.1838
▁unit	-10.184
▁financ	-10.1854
▁Internet	-10.1861
▁deliver	-10.1866
▁bepaald	-10.187
▁EN	-10.1872
▁Eén	-10.1872
▁minister	-10.1874
▁vermeld	-10.1874
▁gedrag	-10.1874
sha	-10.1875
▁genoemd	-10.1883
▁raise	-10.1884
▁wijziging	-10.1884
▁regel	-10.1887
▁Listen	-10.1889
pri	-10.19
▁bescherming	-10.1901
▁oplossing	-10.1902
▁brief	-10.1903
▁hoorde	-10.1912
▁inform	-10.192
▁Bra	-10.192
▁role	-10.1927
▁pain	-10.1939
stelsel	-10.194
▁2011	-10.1951
dor	-10.1959
▁program	-10.1961
▁vervoer	-10.1965
▁Michael	-10.197
▁Ve	-10.1982
▁verschil	-10.1992
▁pla	-10.1992
▁extreme	-10.1994
▁General	-10.2001
▁relat	-10.2003
hou	-10.2004
▁cre	-10.2006
▁Hello	-10.2007
ugh	-10.2008
▁middel	-10.2009
▁Moet	-10.201
ew	-10.2014
rel	-10.2015
kamer	-10.2025
▁trouble	-10.2025
▁girls	-10.2045
ders	-10.205
▁sister	-10.2052
ez	-10.2059
▁wens	-10.206
ability	-10.206
▁voorwaarden	-10.2061
werking	-10.2062
▁muziek	-10.2062
▁practice	-10.2062
▁ways	-10.2066
▁hield	-10.2068
▁onderwijs	-10.2069
▁add	-10.2071
▁eraan	-10.2083
▁doden	-10.2088
▁strijd	-10.2093
hu	-10.2095
cus	-10.2099
▁write	-10.2101
▁oil	-10.2121
▁dark	-10.2138
uwen	-10.2138
77	-10.2139
▁implement	-10.2139
▁pak	-10.2139
stel	-10.2143
▁leader	-10.2162
▁lidstaat	-10.2163
▁sterven	-10.2169
▁ouder	-10.2184
▁eight	-10.2185
▁lag	-10.2186
qua	-10.2187
▁buurt	-10.2193
▁Fin	-10.2196
▁pull	-10.2201
▁Bank	-10.2207
▁gevallen	-10.2208
cra	-10.2216
▁World	-10.2218
vest	-10.2225
02	-10.2227
•	-10.2231
▁mark	-10.2232
ists	-10.2237
▁spa	-10.2237
▁betalen	-10.2238
▁gebieden	-10.2242
itie	-10.2243
▁fund	-10.2247
ix	-10.2254
▁capital	-10.2256
uil	-10.2259
▁Za	-10.2264
for	-10.2267
form	-10.2267
zame	-10.2271
rijk	-10.228
▁afraid	-10.2282
▁gebeurde	-10.2282
cut	-10.2288
▁veiligheid	-10.229
▁br	-10.229
wissel	-10.2294
▁learned	-10.2298
leden	-10.2301
tuig	-10.2301
laag	-10.2301
▁waiting	-10.2304
▁Mon	-10.2312
▁taal	-10.2315
▁forget	-10.2317
▁hospital	-10.232
ami	-10.232
▁juni	-10.2321
▁software	-10.2332
▁Au	-10.2333
▁region	-10.2335
▁redden	-10.2339
▁asking	-10.2339
▁schat	-10.2341
bal	-10.2348
▁geluid	-10.2352
▁hond	-10.236
kker	-10.2361
oli	-10.2362
▁rechten	-10.2366
▁universe	-10.2377
▁particularly	-10.2377
roep	-10.2377
▁stress	-10.2378
bil	-10.2378
▁peace	-10.2385
▁agree	-10.2389
▁bereiken	-10.239
▁Excuse	-10.239
▁cross	-10.239
▁carry	-10.2393
▁towards	-10.2394
▁private	-10.2396
▁Ni	-10.24
▁mond	-10.24
racht	-10.2416
▁concept	-10.2417
.4	-10.2421
▁Thanks	-10.2427
▁gets	-10.2429
▁huge	-10.2431
▁beginning	-10.2432
cel	-10.2436
▁resources	-10.2438
▁lose	-10.244
▁volk	-10.2447
ijf	-10.245
▁reis	-10.2451
▁voelt	-10.2451
▁Christ	-10.2462
▁anymore	-10.2463
▁safety	-10.2463
▁beschermen	-10.2467
▁burgers	-10.247
▁rot	-10.2474
▁develop	-10.2481
▁liever	-10.2481
▁dier	-10.2481
bon	-10.2483
▁Euro	-10.2485
▁Part	-10.2486
▁cases	-10.2486
▁slechte	-10.2494
▁namelijk	-10.2499
ju	-10.2501
▁kort	-10.2502
▁middle	-10.2506
gt	-10.2513
▁lever	-10.2519
▁require	-10.2521
▁opgenomen	-10.2523
▁track	-10.2526
▁Alleen	-10.2527
▁mail	-10.2544
▁seeing	-10.2545
kracht	-10.255
▁ocean	-10.2551
▁Min	-10.2552
off	-10.2552
gar	-10.2556
▁verandering	-10.2556
▁www	-10.2558
▁makkelijk	-10.2564
▁Lord	-10.2578
rate	-10.259
▁foot	-10.2593
▁include	-10.2593
▁leggen	-10.2603
▁vertegenwoordig	-10.2603
scherm	-10.2607
ls	-10.2614
ox	-10.2616
▁noodzakelijk	-10.2617
▁Af	-10.2634
▁June	-10.2635
ons	-10.2637
blo	-10.2638
iz	-10.2642
▁Bur	-10.2645
▁Blijf	-10.2649
▁gewijzigd	-10.2649
▁ideeën	-10.2652
cket	-10.2653
▁employ	-10.2653
▁sun	-10.2655
▁significant	-10.2656
spec	-10.266
▁uitvoering	-10.266
▁beneden	-10.2663
▁jo	-10.2663
▁join	-10.2663
▁loop	-10.2667
▁especially	-10.2669
▁wa	-10.2679
genen	-10.2679
▁hè	-10.2682
loop	-10.2689
▁prison	-10.2689
▁smart	-10.2689
▁passen	-10.2694
programma	-10.2695
▁gehouden	-10.2696
leven	-10.2701
vaar	-10.2704
▁results	-10.2711
fen	-10.2717
▁studie	-10.2719
▁Two	-10.2721
▁Would	-10.2722
▁Inter	-10.2724
middel	-10.2728
boek	-10.2741
▁enorme	-10.2742
cal	-10.2743
▁fat	-10.2755
▁shoot	-10.2755
kort	-10.2757
▁objective	-10.2759
▁kleur	-10.276
▁Ed	-10.277
X	-10.2771
▁growth	-10.2774
▁groen	-10.2779
lij	-10.2783
▁prima	-10.2787
▁slaap	-10.2804
▁path	-10.2816
▁House	-10.2817
▁tru	-10.2818
▁movement	-10.2826
▁kijkt	-10.2826
▁procedures	-10.2829
nemer	-10.2834
activities	-10.2842
▁Pla	-10.2844
▁Mor	-10.2845
kla	-10.2848
▁Star	-10.285
▁slow	-10.2856
▁plaatsen	-10.2863
▁Mom	-10.2874
▁From	-10.2889
lit	-10.2892
▁valt	-10.2893
▁sport	-10.2895
durende	-10.2902
▁detail	-10.2906
▁industrie	-10.2908
▁Which	-10.2909
▁bezoek	-10.2916
▁moesten	-10.2926
▁station	-10.2926
▁Court	-10.293
verantwoordelijk	-10.293
▁blind	-10.2931
▁fan	-10.294
loze	-10.2944
ermee	-10.2954
08	-10.2954
por	-10.2955
▁stil	-10.2969
▁alive	-10.2972
▁naast	-10.2979
▁iedere	-10.299
ates	-10.2991
ock	-10.2993
▁netwerk	-10.2993
▁changes	-10.2994
▁deur	-10.2998
▁Peter	-10.3001
▁scale	-10.3001
▁surprise	-10.3004
▁roll	-10.3004
ric	-10.3006
▁print	-10.3012
▁vehicle	-10.3018
▁groter	-10.302
▁honderd	-10.302
▁studies	-10.3021
▁hersenen	-10.3022
▁zeven	-10.3024
simply	-10.3032
▁mate	-10.3039
▁planeet	-10.3055
▁several	-10.3059
▁Great	-10.3059
▁institutions	-10.306
▁gesteld	-10.306
▁seks	-10.3064
▁lief	-10.3068
▁France	-10.3072
▁meter	-10.3076
▁werking	-10.3083
▁waardoor	-10.3088
oem	-10.3094
▁Chinese	-10.31
▁Sommige	-10.3107
gebracht	-10.311
oid	-10.3112
▁amendment	-10.312
bed	-10.3122
72	-10.313
▁takes	-10.313
▁usual	-10.3131
▁lezen	-10.314
cl	-10.3141
▁bestuur	-10.3144
60	-10.3147
▁bestand	-10.315
▁feite	-10.3152
.6	-10.3154
▁creëren	-10.3155
syn	-10.3156
▁current	-10.316
▁diensten	-10.316
▁affect	-10.3162
▁kwaliteit	-10.3163
▁merk	-10.3178
▁CO	-10.3178
▁virus	-10.3186
burg	-10.3191
▁duizend	-10.3196
chan	-10.3202
doen	-10.3204
▁Pu	-10.3206
▁gew	-10.3208
AS	-10.3209
▁dienen	-10.321
▁Nothing	-10.3211
▁hair	-10.3216
SA	-10.3219
▁ontmoet	-10.322
rek	-10.3231
werken	-10.3234
10	-10.3239
▁map	-10.3244
▁tekst	-10.3246
▁wilden	-10.325
▁dergelijke	-10.3259
raden	-10.3261
hand	-10.3262
▁noem	-10.3267
TE	-10.3267
▁welcome	-10.3267
▁Having	-10.3271
30	-10.3274
lly	-10.3277
▁gebaseerd	-10.328
▁35	-10.3282
▁vent	-10.3286
▁stelt	-10.3292
▁Fo	-10.3294
▁termijn	-10.3294
▁specifieke	-10.3303
meenschappelijke	-10.3304
▁Gi	-10.3312
▁mistake	-10.3316
▁beweging	-10.3325
0.000	-10.3328
▁houd	-10.333
rag	-10.3331
▁active	-10.3337
bro	-10.3339
▁management	-10.3345
▁rust	-10.3349
kept	-10.3351
nel	-10.3356
▁Those	-10.3358
▁bedrag	-10.3362
▁paid	-10.3365
hoor	-10.3375
▁schrijven	-10.3381
▁fit	-10.3383
▁ring	-10.3384
▁slachtoffer	-10.3386
▁rent	-10.3386
▁brein	-10.3386
▁replace	-10.3396
▁Does	-10.3398
▁arts	-10.3409
von	-10.3409
▁Mal	-10.3424
ib	-10.3429
▁Han	-10.3435
▁store	-10.3436
▁color	-10.3439
▁zee	-10.3441
▁Brussel	-10.3442
▁throw	-10.3443
▁aware	-10.3444
▁cells	-10.3444
▁Heel	-10.3448
ili	-10.3449
▁spent	-10.3451
▁credit	-10.3457
▁simpel	-10.3464
ants	-10.3466
ett	-10.3471
▁victim	-10.3478
▁verspreid	-10.3478
kijk	-10.3481
▁stories	-10.3485
▁claim	-10.3485
▁push	-10.3485
▁Tel	-10.349
▁century	-10.3492
▁playing	-10.3494
▁basic	-10.3499
rac	-10.3503
ID	-10.3509
▁page	-10.3509
▁however	-10.3512
▁vriendin	-10.3512
▁bedoeld	-10.3514
▁vak	-10.3517
▁command	-10.3523
▁Veel	-10.3526
▁citizens	-10.3527
▁resultaten	-10.3528
bie	-10.3528
▁TO	-10.3531
▁sitting	-10.3539
▁costs	-10.3543
▁Charlie	-10.3543
▁potential	-10.355
á	-10.355
▁waard	-10.3553
▁feet	-10.3553
▁Bro	-10.3556
▁club	-10.3556
iën	-10.3558
▁waste	-10.3562
▁ab	-10.3567
▁National	-10.3574
▁Hun	-10.3574
▁due	-10.3576
▁technical	-10.3586
▁advies	-10.3593
▁regulation	-10.3593
▁observ	-10.3599
▁rechter	-10.3602
▁green	-10.3603
▁serve	-10.3607
▁effort	-10.3607
▁Mike	-10.3607
▁sick	-10.3611
38	-10.3611
naam	-10.3614
▁belasting	-10.3615
▁angst	-10.3616
well	-10.3619
▁kopen	-10.3621
▁daarna	-10.3627
raag	-10.3629
55	-10.3629
▁drop	-10.3631
▁members	-10.364
▁mogelijkheid	-10.364
brengen	-10.3646
▁rock	-10.3649
▁probeerde	-10.365
zorg	-10.3654
rouw	-10.3655
▁similar	-10.3658
gue	-10.3658
▁beschikbaar	-10.3658
gaat	-10.3659
▁responsibilit	-10.366
▁hoger	-10.367
▁bereid	-10.3671
▁Tre	-10.3671
▁requirements	-10.3673
▁interessant	-10.3675
▁ziek	-10.3675
▁trouwen	-10.3677
▁Va	-10.368
▁Minister	-10.3681
▁Wal	-10.3685
▁omgeving	-10.3698
▁More	-10.3699
wal	-10.37
▁uitvoer	-10.3701
▁Agreement	-10.3702
▁January	-10.3702
▁lunch	-10.3703
work	-10.3705
▁transform	-10.3705
▁onbe	-10.3707
▁qua	-10.371
▁fix	-10.3712
moe	-10.3714
▁multi	-10.3717
▁court	-10.3717
▁Chris	-10.3728
▁signal	-10.373
▁bellen	-10.3735
lever	-10.3736
right	-10.3739
▁Mac	-10.3747
▁feed	-10.3751
▁married	-10.3753
▁basically	-10.3754
▁Onder	-10.3755
▁drug	-10.3763
stig	-10.3765
▁official	-10.3768
ino	-10.3771
day	-10.3783
▁North	-10.3783
▁ECB	-10.3783
▁instellingen	-10.3785
huis	-10.3786
mil	-10.3788
▁onderwerp	-10.379
▁movie	-10.3791
ically	-10.3796
breken	-10.3799
▁machines	-10.3807
▁sell	-10.3808
▁race	-10.381
▁suffer	-10.3812
▁knowledge	-10.3819
▁weapon	-10.382
▁criteria	-10.3821
▁board	-10.3837
▁port	-10.384
▁verhalen	-10.3841
▁wetgeving	-10.3842
▁James	-10.385
▁Men	-10.3851
▁meaning	-10.3851
▁BAR	-10.3852
▁erin	-10.3853
▁daarme	-10.3853
▁French	-10.3856
▁release	-10.3856
aars	-10.386
▁breath	-10.3864
▁rich	-10.3865
zak	-10.3865
▁bedankt	-10.3871
▁ski	-10.3874
▁beroep	-10.3876
pu	-10.3877
68	-10.3885
▁Luc	-10.3886
▁par	-10.3889
▁95	-10.3892
▁500	-10.3893
▁link	-10.3893
07	-10.3894
stoffen	-10.3899
▁inge	-10.3903
▁reality	-10.3905
ob	-10.3906
▁ahead	-10.3907
▁writ	-10.3908
▁rijk	-10.3911
▁pot	-10.3915
▁ci	-10.3917
▁verg	-10.3918
▁Mars	-10.3919
pr	-10.3921
erende	-10.3922
05	-10.3924
▁rug	-10.3934
▁koe	-10.3938
▁hoogte	-10.3941
▁treat	-10.3943
▁demand	-10.3945
stan	-10.3948
▁bevolking	-10.3954
▁US	-10.3957
▁Any	-10.3959
▁Every	-10.396
▁betere	-10.3961
▁enjoy	-10.3961
assen	-10.3962
▁laid	-10.3965
▁bag	-10.3966
▁bouw	-10.3967
▁accident	-10.3968
▁device	-10.3976
▁YOU	-10.3976
▁Pas	-10.3976
▁dose	-10.3982
vul	-10.3983
LA	-10.3987
▁communautaire	-10.3995
▁Cal	-10.3997
▁positive	-10.3998
▁block	-10.4
light	-10.4
▁reduce	-10.4003
urg	-10.4004
din	-10.4006
aw	-10.4016
lon	-10.4016
ikt	-10.4019
ö	-10.4021
mar	-10.4021
▁considered	-10.4021
ith	-10.4024
▁whi	-10.4033
▁Pol	-10.4038
pha	-10.4038
▁Comité	-10.4044
bit	-10.4055
dis	-10.4063
▁search	-10.4067
▁lijken	-10.4069
▁werkte	-10.4072
gemaakt	-10.4073
hel	-10.4074
▁photo	-10.4074
▁catch	-10.4077
▁anybody	-10.4081
▁gesprek	-10.4082
▁equal	-10.4088
istic	-10.4092
▁92	-10.4092
▁patient	-10.4093
▁bereikt	-10.4097
▁Zelfs	-10.4099
▁analyse	-10.4104
▁target	-10.4112
markt	-10.4119
gene	-10.4119
ral	-10.4121
▁45	-10.4124
▁bro	-10.4125
49	-10.4126
ü	-10.4127
▁TV	-10.4129
▁algemene	-10.4141
die	-10.415
▁clo	-10.4153
▁zwaar	-10.4157
▁content	-10.4158
47	-10.4162
▁meisjes	-10.4167
fra	-10.4178
schot	-10.4178
▁werkelijk	-10.4181
rist	-10.4186
produc	-10.4187
mark	-10.4187
▁bracht	-10.4188
▁Pat	-10.4192
▁Vertel	-10.4193
▁Cent	-10.4195
▁Hol	-10.4196
▁gevaarlijk	-10.4197
▁profit	-10.4198
▁luister	-10.4199
▁Republic	-10.4203
vor	-10.4205
▁investment	-10.4216
▁gevangenis	-10.4219
▁blue	-10.4219
▁dragen	-10.4222
▁shut	-10.4223
▁Val	-10.4228
treden	-10.4229
▁les	-10.423
stof	-10.4234
▁Stu	-10.4238
▁brengt	-10.4249
▁Stel	-10.4249
▁worse	-10.425
IE	-10.4253
▁hoort	-10.4256
▁Mm	-10.4258
▁richting	-10.4261
▁physical	-10.4262
▁starting	-10.4268
▁VS	-10.4269
arm	-10.4274
last	-10.4279
waardig	-10.4284
▁januari	-10.4288
▁fantastisch	-10.4296
▁verloren	-10.4304
▁geleerd	-10.4305
▁stick	-10.4305
▁Commissioner	-10.431
pan	-10.431
▁Kar	-10.4314
▁Got	-10.4318
▁organization	-10.432
pers	-10.4322
▁voeren	-10.4324
▁teacher	-10.4327
▁origin	-10.433
▁burger	-10.4333
▁City	-10.434
lov	-10.4341
▁ontdekk	-10.4343
▁average	-10.4343
09	-10.4345
rc	-10.4347
▁responsible	-10.4351
▁haal	-10.4358
▁speed	-10.4358
▁vlak	-10.4359
uizen	-10.4359
▁discuss	-10.436
▁driv	-10.4363
▁links	-10.4364
▁according	-10.4366
▁crime	-10.4366
▁pressure	-10.4367
64	-10.4369
▁required	-10.4371
GE	-10.4371
▁kilometer	-10.4374
▁75	-10.4381
▁kwijt	-10.4382
▁III	-10.4382
lik	-10.4385
▁32	-10.4385
▁ijs	-10.4388
▁argument	-10.4389
▁burn	-10.439
▁activiteiten	-10.4391
set	-10.4392
7	-10.4396
▁Som	-10.4406
▁wonderful	-10.4407
▁medical	-10.4408
▁village	-10.4413
▁uitdaging	-10.4413
▁spot	-10.4419
▁succes	-10.442
▁kantoor	-10.4423
▁lijn	-10.4423
▁aard	-10.4424
▁vlucht	-10.4424
eks	-10.4426
▁gentlemen	-10.4429
▁bericht	-10.443
▁shape	-10.443
▁aren	-10.4434
▁algemeen	-10.4444
▁economy	-10.4444
▁zus	-10.4451
▁expert	-10.4452
▁modern	-10.4457
zaam	-10.4462
ato	-10.4464
▁points	-10.447
▁Mary	-10.447
▁hemel	-10.4471
▁UN	-10.448
kwam	-10.4483
▁App	-10.4483
▁kiezen	-10.4484
▁ontwikkeld	-10.4484
▁Angel	-10.4484
▁wapen	-10.4484
draai	-10.4491
ita	-10.4491
▁bureau	-10.4491
RA	-10.4496
▁strength	-10.4501
ria	-10.4515
▁wide	-10.4515
ches	-10.4523
▁continu	-10.4524
▁Engels	-10.4524
veel	-10.4533
cle	-10.454
▁straat	-10.4542
▁July	-10.4543
▁et	-10.4544
▁grand	-10.4552
▁kanker	-10.4553
▁institution	-10.4553
rant	-10.4555
▁300	-10.4555
▁various	-10.4555
▁match	-10.4567
▁Iemand	-10.4571
car	-10.4574
voeg	-10.4578
tude	-10.4579
▁floor	-10.4581
▁parts	-10.459
▁Em	-10.4594
ool	-10.4597
19	-10.46
▁framework	-10.4603
▁raakt	-10.4604
▁status	-10.4605
▁draw	-10.4608
▁ain	-10.4608
▁guarantee	-10.4611
▁connection	-10.4615
▁kerel	-10.4619
istische	-10.4624
▁reference	-10.4628
▁freedom	-10.4628
▁powerful	-10.4631
▁minimum	-10.4635
▁Gro	-10.4637
▁amended	-10.4643
▁bear	-10.4648
zult	-10.4648
▁verkoop	-10.4651
▁juli	-10.4653
▁invloed	-10.4655
▁task	-10.4658
rad	-10.4663
▁higher	-10.4667
▁manieren	-10.4668
▁gevraagd	-10.4673
ax	-10.4682
▁Zou	-10.4682
zing	-10.4684
▁died	-10.4686
OL	-10.4689
▁English	-10.4691
▁aim	-10.4697
▁professional	-10.47
▁Wh	-10.4705
▁civil	-10.4707
▁prove	-10.4714
▁verminder	-10.4715
bui	-10.4718
▁verwijder	-10.4723
▁1998	-10.4725
▁emotion	-10.4727
▁wro	-10.4727
▁Time	-10.4727
▁groups	-10.4729
▁decisions	-10.4729
▁verklaring	-10.4736
groep	-10.4737
keken	-10.4739
▁describe	-10.474
▁gesproken	-10.474
▁worst	-10.4742
▁verantwoord	-10.4747
staat	-10.4754
▁beperkt	-10.4756
hang	-10.4757
▁stemmen	-10.4759
centra	-10.4763
gekomen	-10.4764
▁zoiets	-10.4764
▁improve	-10.4767
isation	-10.4768
iseren	-10.4768
cin	-10.4768
hydr	-10.4768
▁klinkt	-10.4772
▁March	-10.4773
▁border	-10.4773
gon	-10.4776
▁bieden	-10.4776
▁Sure	-10.4787
▁log	-10.4791
▁su	-10.4792
▁response	-10.4793
▁transfer	-10.4798
▁Gar	-10.4798
▁Cra	-10.4801
▁began	-10.4801
▁Alex	-10.4802
74	-10.4803
▁Very	-10.4807
▁turns	-10.4809
▁workers	-10.4811
▁verkeerd	-10.4818
▁implementation	-10.4818
lap	-10.482
▁redenen	-10.482
▁reasons	-10.4821
▁funny	-10.4822
▁punten	-10.4823
▁boss	-10.4827
▁geweld	-10.4832
isatie	-10.4832
▁arbeids	-10.4833
▁Um	-10.4841
▁engineer	-10.4842
▁scientist	-10.4846
▁constant	-10.4846
▁blow	-10.485
▁success	-10.4851
▁lock	-10.4852
▁vervangen	-10.4862
▁Tri	-10.4864
▁intens	-10.4865
▁Wow	-10.4865
▁April	-10.487
▁bomb	-10.4871
▁greater	-10.4872
huizen	-10.4876
▁Win	-10.4884
▁achieve	-10.4887
▁Spe	-10.4889
54	-10.4896
▁details	-10.49
▁solve	-10.4904
▁afstand	-10.4905
▁jong	-10.4906
í	-10.4911
▁fundamental	-10.4911
▁communication	-10.4911
▁environmental	-10.4915
xi	-10.4923
▁sweet	-10.4928
tiek	-10.4928
▁clearly	-10.4933
▁voelde	-10.4935
▁vreemd	-10.4936
▁normaal	-10.4937
▁mess	-10.4939
▁partners	-10.4941
tric	-10.4941
▁trip	-10.4942
▁vrede	-10.4945
izing	-10.4948
▁rule	-10.4952
▁boys	-10.4953
▁reactie	-10.4955
centrum	-10.4958
6	-10.4958
ense	-10.496
▁96	-10.4961
▁straight	-10.4961
zie	-10.4962
▁Bill	-10.4966
▁glad	-10.4966
▁commissaris	-10.4969
▁Hoeveel	-10.4981
▁weight	-10.4981
▁threat	-10.4984
▁mei	-10.4985
geacht	-10.4985
▁wakker	-10.4986
▁dorp	-10.4987
▁dame	-10.4989
jaar	-10.499
tisch	-10.4992
avi	-10.4993
erzijds	-10.4994
▁connect	-10.5
shi	-10.5
▁boos	-10.5003
▁olie	-10.501
▁bevestig	-10.5011
06	-10.502
▁decide	-10.5021
▁Park	-10.5022
▁learning	-10.5026
▁consumer	-10.5027
▁center	-10.5029
04	-10.5032
▁likely	-10.5035
▁resolution	-10.5036
▁dinner	-10.5036
▁lekker	-10.5037
▁verschillen	-10.504
beeld	-10.504
▁Bla	-10.5043
▁competition	-10.5044
▁reserve	-10.5044
▁vliegtuig	-10.5044
▁collect	-10.5047
▁93	-10.5047
▁seat	-10.5048
▁gift	-10.5053
84	-10.5055
gelaten	-10.5056
▁trap	-10.5056
gaande	-10.5057
▁projects	-10.5058
▁gast	-10.5059
▁reflect	-10.5061
uik	-10.5061
è	-10.5067
▁cold	-10.5073
▁Could	-10.5077
tiny	-10.5079
▁gericht	-10.508
86	-10.5082
▁writing	-10.509
▁stupid	-10.5094
▁character	-10.5103
▁technische	-10.5103
▁interview	-10.5103
▁anyway	-10.5103
speel	-10.5106
▁terecht	-10.5107
gin	-10.5109
▁gemakkelijk	-10.5119
▁surface	-10.5119
rog	-10.5122
▁bewust	-10.5126
▁sounds	-10.5126
▁mass	-10.5129
▁bevat	-10.5131
dio	-10.5132
▁East	-10.5135
▁verbonden	-10.5136
▁sturen	-10.5138
nic	-10.5143
can	-10.515
achtig	-10.5152
▁manufactur	-10.5153
▁zul	-10.5155
▁restaurant	-10.5162
▁related	-10.5171
▁Oost	-10.5184
▁cru	-10.5184
coming	-10.5187
▁Had	-10.5191
▁kern	-10.5204
▁ontvangen	-10.5204
▁verliezen	-10.5204
▁vertel	-10.5204
▁firm	-10.5205
▁balance	-10.5206
▁dance	-10.521
▁effects	-10.521
stukken	-10.5214
▁standpunt	-10.5222
▁Count	-10.5223
▁85	-10.5226
▁politiek	-10.5226
▁Google	-10.5229
▁Noord	-10.5235
aten	-10.5235
▁condition	-10.5248
▁steden	-10.5249
▁established	-10.525
▁comment	-10.5251
▁camp	-10.5252
posed	-10.5252
▁Naar	-10.5256
pas	-10.5263
house	-10.5265
NA	-10.5266
66	-10.5271
▁cultuur	-10.5272
▁vonden	-10.5274
trekken	-10.5278
pping	-10.5281
AC	-10.5287
▁Sal	-10.5287
▁91	-10.5288
meter	-10.5291
trop	-10.5292
▁maximum	-10.5298
▁papier	-10.5299
leef	-10.53
rif	-10.5301
▁bodies	-10.5307
▁payment	-10.5308
82	-10.5318
▁bekijken	-10.5324
▁reeds	-10.5331
gesloten	-10.5335
▁computers	-10.5337
▁studenten	-10.5337
▁Rome	-10.5338
applicable	-10.5341
▁Max	-10.5341
concerning	-10.5342
▁directly	-10.5344
▁klopt	-10.5349
▁Ray	-10.5353
▁absolutely	-10.5357
ille	-10.5365
▁monster	-10.5367
SC	-10.5368
▁fruit	-10.537
▁Zuid	-10.5371
▁degree	-10.5375
▁haat	-10.5375
▁window	-10.5377
▁ondernemingen	-10.538
▁massa	-10.538
▁betaald	-10.5381
▁excuse	-10.5384
▁shows	-10.5385
▁km	-10.5388
▁October	-10.5392
▁taak	-10.5402
▁autoriteiten	-10.5411
▁ob	-10.5415
▁developed	-10.5417
rri	-10.5418
cha	-10.542
▁Bull	-10.5426
▁geboren	-10.5427
▁tonen	-10.5428
▁Henry	-10.5436
▁Group	-10.5439
▁geweldige	-10.5442
iff	-10.5445
middelen	-10.545
board	-10.5458
▁2013	-10.5462
ette	-10.5469
▁boeken	-10.5473
▁levels	-10.5475
▁numbers	-10.5479
▁conversation	-10.5479
hol	-10.5481
zeker	-10.5481
▁behavior	-10.5488
▁geheel	-10.5488
NE	-10.549
▁gevangen	-10.5497
▁scan	-10.5499
▁onderzoeken	-10.5501
▁King	-10.5503
tis	-10.5509
▁pattern	-10.5514
▁AND	-10.5518
▁vereist	-10.5519
▁original	-10.5519
▁proper	-10.5522
▁boot	-10.5523
ised	-10.5523
▁2012	-10.5525
▁conc	-10.5528
▁whose	-10.5528
▁allowed	-10.5529
▁apart	-10.5531
▁98	-10.5531
▁farm	-10.5534
▁Social	-10.5538
▁goederen	-10.5538
▁ziekenhuis	-10.554
▁vuur	-10.5545
▁oktober	-10.5549
▁growing	-10.5552
▁somewhere	-10.5556
▁Captain	-10.5558
▁dangerous	-10.5559
▁authority	-10.556
▁gezin	-10.5561
▁verst	-10.5562
▁strategie	-10.5562
▁slapen	-10.5564
▁leaving	-10.5567
evrouw	-10.5567
58	-10.5567
▁sleutel	-10.5574
▁item	-10.5576
DE	-10.5577
aught	-10.5578
hoe	-10.5581
▁vaststelling	-10.5582
▁volwassen	-10.5584
▁screen	-10.5585
anda	-10.5585
▁vroeger	-10.5587
▁pal	-10.5591
▁Q	-10.5592
▁Bon	-10.5593
▁1996	-10.5595
▁loss	-10.5599
schrift	-10.5601
▁legislation	-10.5602
▁climate	-10.5602
▁loopt	-10.5606
▁verleden	-10.5609
meenschappelijk	-10.5609
▁member	-10.5615
kr	-10.5616
lei	-10.5619
▁nobody	-10.562
ung	-10.562
▁1995	-10.5621
activiteit	-10.5622
▁voorzitter	-10.5629
▁cap	-10.5637
kelijk	-10.564
▁overheid	-10.5641
▁range	-10.5649
▁slag	-10.5656
pleeg	-10.5658
▁miles	-10.5659
don	-10.5664
▁Haar	-10.5664
▁rid	-10.5671
▁erover	-10.5672
▁cook	-10.5674
▁college	-10.5682
▁mission	-10.5691
imp	-10.5697
▁indeed	-10.5699
▁vernietig	-10.5709
▁doubt	-10.5709
uch	-10.5712
▁totaal	-10.5713
▁choose	-10.5718
moedig	-10.5719
▁kwaad	-10.5726
▁werknemers	-10.5727
▁mix	-10.5728
▁schade	-10.5732
poli	-10.5736
▁meestal	-10.574
▁leeftijd	-10.5744
▁vooruit	-10.5745
▁belong	-10.5747
carried	-10.5747
▁koning	-10.5748
▁Elke	-10.5751
▁Fuck	-10.5763
▁statement	-10.5765
▁droom	-10.5766
rechten	-10.5767
▁families	-10.5772
▁aardig	-10.5772
zelfde	-10.5777
meteen	-10.5777
rin	-10.578
▁totally	-10.578
▁pop	-10.5781
laten	-10.5782
▁song	-10.5785
VE	-10.5789
▁notice	-10.5789
▁Nederland	-10.5789
▁spread	-10.5789
▁bal	-10.5792
▁holding	-10.5798
▁bitch	-10.58
gevoerd	-10.58
spraak	-10.5811
▁baas	-10.5815
▁bird	-10.5817
▁reading	-10.5819
ND	-10.5828
▁Mc	-10.5831
PA	-10.5833
▁damn	-10.5835
▁Keep	-10.5838
▁oh	-10.5841
▁vóór	-10.5843
▁plastic	-10.5843
▁Hoi	-10.5844
▁36	-10.5849
▁recognize	-10.5852
▁ladies	-10.5853
▁except	-10.5855
▁Green	-10.5855
▁luisteren	-10.5859
erlei	-10.5861
▁waarvoor	-10.5867
▁ontwikkelen	-10.5867
▁Wo	-10.5868
▁organism	-10.5869
geen	-10.587
▁ability	-10.5872
▁Gri	-10.5873
▁compet	-10.5878
▁Nice	-10.5879
▁Everything	-10.588
▁artist	-10.5885
ue	-10.5888
▁gezet	-10.589
vr	-10.5893
99	-10.5894
▁Bri	-10.5897
▁vermoorden	-10.59
turned	-10.5904
▁leger	-10.5907
▁vliegen	-10.5908
▁Vol	-10.5911
▁slot	-10.5915
▁zwarte	-10.5915
▁missing	-10.5915
▁beyond	-10.5916
▁winkel	-10.5917
▁uitgevoerd	-10.5919
▁ice	-10.5926
matig	-10.5927
▁fell	-10.5932
▁Ab	-10.5932
▁separate	-10.5934
fil	-10.594
▁avoid	-10.5944
▁photograph	-10.5944
▁omstandigheden	-10.5944
▁afval	-10.5948
▁33	-10.5949
▁November	-10.5952
▁Open	-10.5953
▁gezond	-10.5956
▁designed	-10.5956
▁pack	-10.5957
▁Ac	-10.5957
▁biolog	-10.596
▁September	-10.5962
▁overeenstemming	-10.5962
▁agenda	-10.5962
▁activity	-10.5962
voeding	-10.5963
▁Bas	-10.5967
▁trial	-10.5967
▁bottom	-10.5971
▁thanks	-10.5973
▁bot	-10.5976
59	-10.5984
▁Only	-10.5986
ology	-10.5989
▁mogelijkheden	-10.5989
oud	-10.5991
▁behandeld	-10.5992
▁truck	-10.5993
▁International	-10.5998
dacht	-10.6
itor	-10.6008
▁calling	-10.6012
▁standard	-10.6013
▁Mooi	-10.6014
▁German	-10.6021
56	-10.6022
mann	-10.6022
▁vorige	-10.6024
▁intelligent	-10.6026
▁internal	-10.6026
▁Central	-10.6026
▁Steve	-10.6029
▁Whereas	-10.6031
▁goal	-10.6034
▁Air	-10.6038
lot	-10.6038
cup	-10.604
▁opleiding	-10.6042
▁generation	-10.6045
▁adem	-10.605
▁vermogen	-10.6052
▁resultaat	-10.6056
▁Put	-10.6058
▁Red	-10.6063
ertijd	-10.6069
▁vaccin	-10.6072
ional	-10.6075
▁spoke	-10.6087
▁suit	-10.609
▁Big	-10.6092
▁vrijheid	-10.6097
ijg	-10.6098
▁medicine	-10.61
▁review	-10.6103
67	-10.6103
▁Toe	-10.6103
ole	-10.6106
ura	-10.6106
▁advance	-10.6109
▁lokale	-10.6109
drukken	-10.611
▁directive	-10.6116
▁1990	-10.612
▁vanwege	-10.6121
▁personen	-10.6123
▁Martin	-10.6129
▁Act	-10.613
nadat	-10.6132
aanse	-10.6133
oeien	-10.6133
03	-10.6138
▁helft	-10.6139
▁option	-10.6142
schreven	-10.6143
▁voorbereid	-10.6146
▁definitie	-10.6146
script	-10.6152
ppel	-10.6154
▁Office	-10.6156
▁section	-10.6159
▁Hold	-10.6159
▁korte	-10.6164
vig	-10.6164
▁alcohol	-10.6165
kundig	-10.6175
▁cities	-10.618
▁verplicht	-10.6184
▁press	-10.6196
▁november	-10.6203
▁eiland	-10.6203
▁gegaan	-10.6205
part	-10.6211
▁besloten	-10.6212
▁substance	-10.6212
▁hole	-10.6213
▁Agent	-10.6213
▁introduce	-10.6213
▁Germany	-10.6217
deling	-10.6217
▁perform	-10.6218
▁regeling	-10.6219
▁gemeente	-10.622
hold	-10.6222
TH	-10.6223
▁gekrege	-10.6224
▁menselijk	-10.6228
▁laag	-10.6229
RT	-10.623
▁Most	-10.6231
▁skin	-10.6232
▁Ya	-10.6232
wan	-10.6235
▁drinken	-10.6235
▁meant	-10.6239
itt	-10.6239
▁route	-10.6242
▁covered	-10.6247
▁calculat	-10.6249
▁september	-10.6249
▁damage	-10.625
isering	-10.6255
lijn	-10.6256
▁beschikking	-10.6259
▁exchange	-10.6259
▁remind	-10.6259
▁twijfel	-10.626
▁Mont	-10.6261
▁lower	-10.6263
▁shop	-10.6266
▁favour	-10.6268
▁straf	-10.6269
▁laugh	-10.6272
▁finding	-10.6273
▁stom	-10.6275
▁Mari	-10.6281
▁enorm	-10.6281
▁chemical	-10.6287
▁Fu	-10.629
▁led	-10.6291
▁1997	-10.6298
ius	-10.6301
▁degene	-10.6302
▁agricultural	-10.6306
▁values	-10.6307
▁previous	-10.6316
▁behalf	-10.6316
▁prefer	-10.6319
▁opening	-10.6323
ux	-10.6323
UR	-10.6323
▁verbeteren	-10.6325
▁rijden	-10.6328
lim	-10.6329
57	-10.6329
69	-10.6331
▁spring	-10.6331
ë	-10.6332
▁elektro	-10.6335
▁host	-10.6339
interested	-10.6342
▁politic	-10.6345
▁trekken	-10.6345
▁hoef	-10.6346
▁harmon	-10.635
▁bepalen	-10.6354
▁vertrouw	-10.6355
▁kg	-10.6357
▁handle	-10.6359
▁detect	-10.6363
▁sterren	-10.6364
eerden	-10.6367
▁organisation	-10.6374
neming	-10.6376
▁bla	-10.6379
rib	-10.6382
▁Overeenkomst	-10.6382
komende	-10.6388
pol	-10.6389
rry	-10.639
▁plezier	-10.6392
▁lady	-10.6393
naar	-10.6393
▁direction	-10.6397
▁voorzien	-10.6401
▁zone	-10.6408
proces	-10.6411
▁addition	-10.6415
▁begroting	-10.6415
▁verkopen	-10.6421
▁Uw	-10.6421
▁dress	-10.6422
▁Tro	-10.6425
▁military	-10.643
▁vergadering	-10.643
▁adopt	-10.6433
▁hoeveelheid	-10.6437
▁psycholog	-10.6438
CT	-10.6438
▁persoonlijk	-10.6438
▁onmogelijk	-10.6439
▁revolution	-10.6444
▁terrorist	-10.6449
▁Jesus	-10.6454
igh	-10.6454
▁hero	-10.6455
▁tegelijk	-10.6457
.7	-10.646
▁vooruitgang	-10.646
▁Meer	-10.6466
▁honest	-10.6469
.8	-10.6469
▁kw	-10.647
▁gevaar	-10.6471
rink	-10.6474
▁gedachten	-10.6475
78	-10.6477
▁positie	-10.6484
▁hersen	-10.6488
▁zover	-10.6489
▁lay	-10.6492
▁Mark	-10.6496
▁Richard	-10.6508
pje	-10.6508
▁pet	-10.6511
vragen	-10.6511
not	-10.6524
▁spirit	-10.6526
▁beat	-10.6527
▁krege	-10.6527
wagen	-10.6529
II	-10.653
▁showed	-10.6538
bul	-10.6546
ima	-10.6549
▁lift	-10.655
▁Pra	-10.6555
▁versie	-10.6555
hr	-10.6557
schieten	-10.6564
▁1993	-10.6565
▁mouth	-10.6575
62	-10.6577
spite	-10.6578
▁projecten	-10.6585
▁scar	-10.6592
▁forest	-10.6595
▁ear	-10.66
ini	-10.6602
▁Call	-10.6602
graph	-10.6606
veld	-10.6609
▁vraagt	-10.661
▁pad	-10.6612
▁1994	-10.6615
46	-10.6619
gh	-10.6619
atur	-10.6622
▁97	-10.6622
▁hypo	-10.6624
▁pers	-10.6629
▁april	-10.6634
▁gras	-10.6635
▁geldt	-10.6638
▁Fra	-10.6639
▁books	-10.664
▁verlies	-10.6646
▁wonen	-10.665
▁teach	-10.6654
tus	-10.6657
▁pin	-10.6662
▁keek	-10.6664
upon	-10.6667
▁weren	-10.6673
▁successful	-10.6674
▁grotere	-10.6676
▁hel	-10.6677
▁winnen	-10.6678
▁mor	-10.6681
▁Actually	-10.6683
▁colleague	-10.6683
rum	-10.6685
▁rare	-10.6687
changing	-10.6695
▁mental	-10.6697
▁raad	-10.6697
▁volledige	-10.6698
▁zagen	-10.6699
▁overeen	-10.67
▁beelden	-10.6702
▁Overwegend	-10.6702
▁verricht	-10.6711
UT	-10.6721
▁reform	-10.6727
40	-10.6729
▁Dar	-10.673
vie	-10.6741
▁categorie	-10.6742
▁Dag	-10.6746
▁standing	-10.6747
▁neuro	-10.6748
▁Robert	-10.6753
▁tafel	-10.6762
▁universiteit	-10.6762
▁Toch	-10.6763
rol	-10.6771
▁verlaten	-10.6784
▁partijen	-10.6787
stuk	-10.6789
▁1992	-10.6793
▁sneller	-10.6793
nieuw	-10.6798
ua	-10.6801
jarige	-10.6804
▁stoo	-10.6806
▁groeien	-10.6807
▁gesloten	-10.6808
kers	-10.6811
▁Duitsland	-10.6812
▁bewegen	-10.6813
ero	-10.6816
▁Jane	-10.6819
mbo	-10.6821
▁nine	-10.6821
▁spoor	-10.6821
▁verkeer	-10.6824
▁weekend	-10.6824
▁immediately	-10.6827
grond	-10.6827
▁author	-10.6828
etje	-10.6835
pool	-10.6836
▁Ok	-10.6839
parties	-10.6843
▁negen	-10.6844
▁pur	-10.685
▁Hand	-10.6854
25	-10.6854
▁jump	-10.6854
▁Bal	-10.6857
°	-10.6861
▁conclusion	-10.6861
▁veroorzaakt	-10.6861
▁speelt	-10.6864
▁slim	-10.6866
▁teken	-10.6867
▁grens	-10.687
▁huwelijk	-10.6871
▁web	-10.6872
▁Medi	-10.6874
▁earth	-10.6876
MA	-10.688
▁London	-10.6881
▁oorsprong	-10.6881
▁omhoog	-10.6881
▁generatie	-10.6881
▁Eerst	-10.6884
chu	-10.689
▁prices	-10.6891
▁coffee	-10.6891
▁confirm	-10.6891
vraag	-10.6894
▁comm	-10.6911
▁central	-10.6911
voc	-10.6912
.12.	-10.6913
▁gemiddelde	-10.6919
nit	-10.6919
▁statistic	-10.6922
▁eisen	-10.6922
▁cel	-10.6924
putting	-10.6928
▁mogelijke	-10.6931
▁scientific	-10.6934
▁materiaal	-10.6939
▁hey	-10.6941
lok	-10.6943
▁Indien	-10.6948
8	-10.6953
gging	-10.6953
▁interne	-10.6955
▁spin	-10.6958
▁round	-10.6958
▁planning	-10.6958
ji	-10.6963
ural	-10.6964
▁honey	-10.6964
▁speech	-10.6972
▁location	-10.6972
▁daarvoor	-10.6972
▁percentage	-10.6977
▁rode	-10.6986
▁Sto	-10.6992
▁client	-10.6992
▁fully	-10.6995
▁borst	-10.6997
▁ontmoeten	-10.6998
mocracy	-10.7003
▁supply	-10.7003
▁jobs	-10.7004
▁understanding	-10.7007
▁VI	-10.7013
itch	-10.7016
▁Other	-10.7019
▁lived	-10.7019
position	-10.7024
soort	-10.7025
▁tend	-10.7025
illa	-10.7029
▁IT	-10.7031
volle	-10.7032
▁recover	-10.7035
▁voldoen	-10.7042
▁rapport	-10.7042
▁Welke	-10.7051
▁psych	-10.7052
▁boodschap	-10.7054
▁increasing	-10.7054
▁huid	-10.7057
▁cent	-10.7057
▁weird	-10.7059
▁matters	-10.706
79	-10.7063
▁Heer	-10.7063
▁duty	-10.7071
SS	-10.7074
▁scene	-10.7078
▁lack	-10.7079
▁BE	-10.7084
▁stof	-10.7085
▁finish	-10.7093
elde	-10.7094
▁rechtstreeks	-10.7094
▁Since	-10.7094
pect	-10.7095
rik	-10.7097
▁rustig	-10.7098
▁regions	-10.7103
▁handels	-10.7103
▁openbare	-10.7104
valu	-10.7106
▁trots	-10.711
▁Afghanistan	-10.7115
▁performance	-10.7117
▁participat	-10.7121
▁hat	-10.7125
▁ingediend	-10.7125
▁finger	-10.7128
plicht	-10.7136
signed	-10.7136
ulate	-10.7144
▁nuclear	-10.7146
▁verzamel	-10.7152
▁Pen	-10.7154
▁vet	-10.7157
mede	-10.7158
▁Ph	-10.7165
▁capacity	-10.7166
▁Say	-10.7171
AM	-10.7177
▁contribution	-10.7177
▁Something	-10.7177
▁totale	-10.7181
ford	-10.7184
▁Leg	-10.719
▁democratie	-10.719
▁37	-10.7195
▁tools	-10.7195
▁gold	-10.7201
▁homo	-10.7201
ware	-10.7204
▁Nick	-10.7208
▁sum	-10.7209
trekt	-10.7213
▁Kon	-10.7216
▁symptom	-10.7218
▁stuur	-10.722
▁48	-10.7221
app	-10.723
ough	-10.7233
▁explor	-10.7239
▁respond	-10.7239
hul	-10.724
nch	-10.7242
vir	-10.7242
ara	-10.7244
▁Bru	-10.7246
dding	-10.7249
▁ongeluk	-10.7249
ball	-10.7254
atory	-10.7255
ander	-10.7261
▁decade	-10.7262
▁settle	-10.7263
steun	-10.7265
▁tech	-10.7268
▁ongelooflijk	-10.727
OM	-10.7271
procedure	-10.7272
▁rise	-10.7273
▁bestaande	-10.7279
dit	-10.7281
▁Land	-10.7289
iële	-10.7293
▁Daarna	-10.7309
▁vreselijk	-10.7312
▁Stan	-10.7315
▁naartoe	-10.7316
▁scheme	-10.7317
▁liep	-10.732
fonds	-10.7323
▁horse	-10.7323
▁vrije	-10.7325
▁additional	-10.7329
ethyl	-10.733
OU	-10.7335
▁mad	-10.7336
▁criminal	-10.7337
bank	-10.7339
ash	-10.7342
zijn	-10.7345
gesch	-10.7345
▁um	-10.7348
▁illegal	-10.7354
▁operatie	-10.7355
▁krachtig	-10.7359
▁persoonlijke	-10.736
▁conclude	-10.7365
ku	-10.7373
loof	-10.7373
▁....	-10.7374
▁FBI	-10.7375
▁Korea	-10.7376
▁koffie	-10.7386
▁visserij	-10.7386
▁officer	-10.7386
▁smell	-10.7387
▁aanzien	-10.739
▁employment	-10.7391
▁investigation	-10.7392
▁component	-10.7396
▁schreef	-10.7396
▁herinneren	-10.7398
▁Adam	-10.7399
kop	-10.74
▁killer	-10.7403
▁till	-10.7403
actie	-10.7405
▁grade	-10.7406
▁raken	-10.7407
▁interpret	-10.7417
▁register	-10.7417
▁rain	-10.7429
▁competent	-10.743
▁Stra	-10.7432
pot	-10.7433
▁coordinat	-10.7439
▁vechten	-10.7439
▁leidt	-10.7449
▁schip	-10.7451
▁instantie	-10.7451
char	-10.7451
▁Iran	-10.7452
spiegel	-10.746
▁shift	-10.746
▁High	-10.7466
▁vijand	-10.747
▁Sea	-10.7471
▁erbij	-10.7474
▁fuel	-10.7474
▁unless	-10.748
▁mocht	-10.7481
▁Carl	-10.7481
▁Brazil	-10.7481
▁verdomme	-10.7481
▁verandert	-10.7481
▁Mexico	-10.7492
loog	-10.7493
▁boat	-10.7494
▁Egypt	-10.7502
▁innovatie	-10.7502
01	-10.7503
▁wild	-10.7505
▁goedgekeurd	-10.7513
▁invite	-10.7516
▁eindig	-10.7524
▁predict	-10.7525
▁voldoende	-10.7527
▁blad	-10.7529
▁propert	-10.7531
kie	-10.7532
▁verbetering	-10.7534
ison	-10.754
▁symbol	-10.7545
▁violenc	-10.7545
▁below	-10.7545
▁extend	-10.7546
▁Mel	-10.7562
more	-10.7565
▁Lee	-10.7569
▁published	-10.7571
▁fijn	-10.7571
ani	-10.7574
▁staff	-10.7577
▁Three	-10.7578
▁pictures	-10.7581
▁vinger	-10.7585
▁maintain	-10.7589
▁boom	-10.7591
▁refer	-10.7593
80	-10.7595
▁impossible	-10.761
▁zwanger	-10.761
▁conserv	-10.7611
▁veiligheids	-10.7612
▁betaal	-10.7612
▁Ly	-10.762
▁series	-10.762
▁Nik	-10.762
▁Frankrijk	-10.7621
▁scared	-10.7623
▁bevoegde	-10.7624
▁anywhere	-10.7627
baarheid	-10.763
14	-10.763
houding	-10.763
▁Washington	-10.7631
▁voertuig	-10.7631
▁beslissing	-10.7633
▁koud	-10.7636
▁Harry	-10.7637
▁fishing	-10.7638
▁vlieg	-10.7641
,2	-10.7642
▁foreign	-10.7643
▁1.3	-10.7643
▁remove	-10.7643
nminste	-10.7644
▁RE	-10.765
CE	-10.7652
vy	-10.7652
▁beïnvloed	-10.7653
▁functie	-10.7658
▁liter	-10.766
▁corrupt	-10.7664
▁Second	-10.7664
▁visual	-10.7664
▁witness	-10.7665
EC	-10.7665
truc	-10.7665
ctu	-10.7667
AG	-10.7669
▁bone	-10.7669
▁initiative	-10.7675
▁district	-10.7675
ridge	-10.7676
▁speciale	-10.7681
▁journalist	-10.7683
gehaald	-10.7686
vullen	-10.7686
mission	-10.769
▁Make	-10.7693
▁vision	-10.7696
▁Verdom	-10.77
grad	-10.7701
▁African	-10.7703
▁samenleving	-10.7707
▁grappig	-10.7707
▁Think	-10.7707
▁double	-10.7707
▁Lang	-10.7709
gebruik	-10.7709
▁schaal	-10.771
▁traffic	-10.7718
▁volume	-10.7719
▁govern	-10.7719
▁joint	-10.7722
▁version	-10.7723
▁patiënt	-10.7732
▁Daniel	-10.7733
▁99	-10.7739
▁William	-10.7751
MO	-10.7758
gevallen	-10.7758
▁agreed	-10.7759
ably	-10.7759
▁hiervan	-10.776
▁verdedig	-10.7762
▁000	-10.7772
▁associate	-10.7773
▁Real	-10.7775
▁forgot	-10.7775
▁regional	-10.7777
▁genetic	-10.7781
▁zonne	-10.7784
▁contra	-10.7785
▁noord	-10.7789
76	-10.7792
▁leek	-10.7794
▁mountain	-10.7795
thro	-10.7795
▁flat	-10.7797
▁vertelt	-10.7799
TER	-10.7801
▁thereof	-10.7802
▁sprak	-10.7803
16	-10.7805
▁Street	-10.7806
▁Danny	-10.7809
▁prachtig	-10.7814
▁minste	-10.782
rang	-10.7821
▁aanwezig	-10.7825
gewezen	-10.7827
▁leeft	-10.7831
▁nation	-10.7834
▁feest	-10.7838
▁Vandaag	-10.7839
▁Jezus	-10.784
una	-10.7845
▁doelstellingen	-10.7856
▁walking	-10.7857
▁actual	-10.7857
▁Comp	-10.786
▁moeite	-10.7861
uin	-10.7863
▁leerde	-10.787
▁mechanism	-10.7872
▁adult	-10.7873
▁kick	-10.7874
▁conduct	-10.7874
hon	-10.7874
▁increased	-10.7881
gestuurd	-10.7885
▁stukje	-10.7886
geslagen	-10.7891
▁disappear	-10.7894
▁closed	-10.7895
▁natuurlijke	-10.7897
▁pill	-10.7898
▁obligation	-10.7899
▁maat	-10.7913
▁bleef	-10.792
overeenkomst	-10.7921
kje	-10.7922
▁personeel	-10.7924
▁laws	-10.7925
0,000	-10.7927
▁compar	-10.7929
▁schoon	-10.7931
▁viel	-10.7942
▁theorie	-10.7946
▁inderdaad	-10.795
▁allebei	-10.795
▁geïn	-10.795
▁Kunnen	-10.7954
▁consequence	-10.7961
▁industrial	-10.7961
ich	-10.7968
olen	-10.7971
lezen	-10.7973
▁Far	-10.7974
▁essential	-10.7979
▁regime	-10.798
▁Protocol	-10.7984
▁diploma	-10.7984
▁earlier	-10.7984
TS	-10.7984
▁favorite	-10.7984
▁bron	-10.7985
▁Trans	-10.7985
▁blank	-10.7997
▁none	-10.8001
▁insect	-10.8001
▁Atlant	-10.8007
lige	-10.8008
▁mm	-10.8009
▁overleven	-10.8013
▁Phil	-10.8014
maker	-10.8016
▁Boy	-10.8017
▁dimension	-10.8017
▁survive	-10.8017
▁terrible	-10.8029
▁onmiddellijk	-10.8029
ologie	-10.803
▁voorschriften	-10.8031
▁fixed	-10.8033
▁label	-10.8044
▁wapens	-10.8048
▁Pap	-10.8052
▁stroom	-10.8053
▁score	-10.8061
▁grati	-10.8062
kan	-10.8062
stru	-10.8067
▁kinder	-10.8069
stopped	-10.8071
gelegen	-10.8075
kon	-10.8076
HO	-10.8076
▁kerk	-10.8077
tallen	-10.8082
▁bigger	-10.8084
▁pregnan	-10.8085
▁sad	-10.8086
▁helpt	-10.8087
▁chair	-10.809
▁gisteren	-10.8094
▁convince	-10.8096
▁krediet	-10.8098
▁onderneming	-10.8101
▁Drie	-10.8104
▁article	-10.8108
▁bijzondere	-10.8108
plu	-10.8109
▁erger	-10.8109
▁prepar	-10.8111
▁committee	-10.8114
▁proposed	-10.8115
▁Economic	-10.8119
▁resolutie	-10.8119
▁judge	-10.8119
toren	-10.8122
▁launch	-10.8132
▁creating	-10.8132
▁fault	-10.8132
▁vervolgen	-10.8133
▁bewijzen	-10.8134
▁Jim	-10.8135
▁audit	-10.8137
▁standards	-10.814
▁FR	-10.8141
▁exact	-10.8145
▁zuid	-10.8145
eindelijk	-10.8149
rick	-10.8157
▁inhoud	-10.8159
18	-10.8159
▁Portugal	-10.8159
graaf	-10.8161
▁lawyer	-10.8177
▁Staat	-10.8177
▁voorgesteld	-10.818
▁artikelen	-10.818
▁Franse	-10.8186
▁douane	-10.8187
▁restrict	-10.8188
▁150	-10.819
▁partij	-10.8192
▁regular	-10.8199
▁career	-10.82
▁caught	-10.8202
regel	-10.8205
▁sin	-10.8209
▁exploit	-10.821
▁plane	-10.8212
cher	-10.8214
bronnen	-10.8215
▁miljoenen	-10.8216
place	-10.8221
leggen	-10.8224
▁Ol	-10.8228
gri	-10.8231
▁favor	-10.8233
▁combine	-10.8235
▁setting	-10.8236
▁carbon	-10.8237
▁speaking	-10.824
▁prijzen	-10.8241
▁sociaal	-10.8245
▁Scott	-10.8245
▁Madam	-10.8245
▁individue	-10.8246
▁stoffen	-10.8253
▁hall	-10.8256
▁liberal	-10.8256
▁mode	-10.8257
▁Charles	-10.8257
▁nood	-10.8258
bak	-10.8259
zig	-10.826
▁mam	-10.8263
▁policies	-10.8268
▁vessel	-10.8268
▁Never	-10.8269
EP	-10.8269
▁goedkeuring	-10.8279
▁copy	-10.8284
ski	-10.829
▁Government	-10.8291
▁adapt	-10.8291
▁theory	-10.8291
pil	-10.8294
▁nergens	-10.8296
▁broken	-10.8298
▁strategy	-10.8302
importance	-10.831
▁Fund	-10.8312
▁trouw	-10.832
▁provision	-10.8321
▁continent	-10.8326
▁zomaar	-10.8326
▁Tru	-10.8327
▁gebruikte	-10.8329
cellen	-10.8333
▁express	-10.8333
zar	-10.8334
90	-10.8335
ologisch	-10.8335
▁Super	-10.8336
▁permanent	-10.8337
stream	-10.8339
▁ware	-10.8343
▁sugar	-10.8349
▁talent	-10.8353
bleven	-10.8358
▁equipment	-10.836
▁vreemde	-10.8361
▁produced	-10.8364
▁Tony	-10.8373
▁bied	-10.8375
▁kat	-10.8377
▁ride	-10.838
▁deserve	-10.8384
▁White	-10.8385
ffer	-10.8385
▁onderdelen	-10.8386
▁onderdeel	-10.8386
▁Last	-10.8388
vaardig	-10.8388
▁34	-10.8388
▁goud	-10.8391
▁aanpak	-10.8392
band	-10.8392
▁Universit	-10.8395
▁killing	-10.8397
▁promote	-10.8408
▁noch	-10.841
link	-10.8412
dingen	-10.8413
▁discussie	-10.8413
▁principe	-10.8419
▁obtain	-10.8419
▁aangenomen	-10.8429
▁temperature	-10.843
▁physic	-10.8434
▁wijzen	-10.8439
▁sample	-10.8443
▁assessment	-10.8444
▁Oke	-10.8444
▁heat	-10.8448
getrokken	-10.8454
▁gered	-10.8458
▁reaction	-10.8458
▁Turn	-10.8461
15	-10.8462
▁digital	-10.8463
▁prepared	-10.8463
▁quiet	-10.8466
tekening	-10.8469
▁94	-10.8473
dict	-10.8476
▁suspect	-10.8477
▁shirt	-10.8477
▁sluiten	-10.8479
gever	-10.8485
▁strange	-10.8488
▁electric	-10.8489
▁stock	-10.8489
▁betaling	-10.849
eem	-10.8491
▁toilet	-10.8497
▁Chan	-10.85
▁undertaking	-10.8501
▁master	-10.8502
,	-10.8509
▁neuron	-10.8511
▁obviously	-10.8513
▁repeat	-10.8516
maatregelen	-10.852
▁woon	-10.8522
▁storm	-10.8525
chem	-10.8525
▁representative	-10.8526
▁besluiten	-10.8528
▁mama	-10.8534
▁compromis	-10.8536
▁existing	-10.8537
▁opdracht	-10.8537
▁kamp	-10.8538
DA	-10.8541
▁nor	-10.8542
▁Zeker	-10.8544
conferentie	-10.8548
▁terrorism	-10.8548
▁journey	-10.8548
▁provid	-10.8553
▁poly	-10.8554
ula	-10.8554
▁onto	-10.8556
▁Toda	-10.8556
▁bijdrage	-10.8559
iseerd	-10.8559
▁Tur	-10.856
hoek	-10.856
▁income	-10.8565
▁incredible	-10.8572
▁lastig	-10.8573
▁verkeerde	-10.8574
▁overheids	-10.858
▁februari	-10.8584
▁currently	-10.8588
▁Fred	-10.859
▁Under	-10.8593
▁Char	-10.8594
▁betekenis	-10.8596
▁bezorgd	-10.8597
▁wood	-10.8598
▁wan	-10.8601
IL	-10.8601
geld	-10.8605
▁mid	-10.8606
▁influence	-10.8608
▁klas	-10.8608
▁Black	-10.8611
▁cellen	-10.8611
▁harm	-10.8616
▁February	-10.862
▁mal	-10.862
▁concurrentie	-10.8622
ueel	-10.8622
▁milk	-10.8622
▁locate	-10.8623
▁relative	-10.8625
12	-10.8626
▁commitment	-10.8632
▁worried	-10.8632
▁geschreven	-10.8635
▁Bob	-10.8638
▁Grand	-10.8639
▁ruim	-10.8641
▁groepen	-10.8643
▁eet	-10.8647
▁trick	-10.8658
vordering	-10.8661
oxi	-10.8662
▁attempt	-10.8668
▁uitzondering	-10.8668
▁uniform	-10.8668
▁Jimmy	-10.8668
▁missie	-10.8668
▁bough	-10.8674
▁datum	-10.8677
▁molecule	-10.868
▁steek	-10.868
▁mensenrechten	-10.8687
▁tip	-10.8687
▁election	-10.8688
▁Gelet	-10.8688
▁Journal	-10.8692
eeuw	-10.8697
▁stemming	-10.8699
▁absoluut	-10.8699
▁400	-10.87
▁structuur	-10.8702
▁oplossen	-10.8704
▁gewerkt	-10.8704
▁discussion	-10.8706
▁winst	-10.8707
field	-10.8708
vil	-10.8709
norm	-10.871
PR	-10.8712
▁drag	-10.8716
▁faith	-10.8717
▁Stand	-10.8717
gegaan	-10.8718
▁gain	-10.872
▁Wees	-10.8722
▁appreciate	-10.8728
▁honger	-10.8728
▁oprichting	-10.8728
▁trend	-10.8729
▁plus	-10.8733
▁toezicht	-10.8739
▁advantage	-10.874
▁werkgelegenheid	-10.874
▁zwak	-10.874
▁87	-10.8742
▁amendementen	-10.8743
▁praktijk	-10.8745
▁Cat	-10.8745
▁proud	-10.8749
nother	-10.8751
▁Koninkrijk	-10.8752
▁advocaat	-10.8752
▁commercial	-10.8752
▁construct	-10.8758
▁ontstaan	-10.8761
▁wine	-10.8761
▁broke	-10.8762
▁although	-10.8764
▁Thomas	-10.8764
▁male	-10.8767
▁west	-10.8768
▁Facebook	-10.8776
▁moordenaar	-10.8776
slotte	-10.8781
▁grenzen	-10.8783
▁89	-10.8787
▁events	-10.8788
fri	-10.8788
▁Fine	-10.8789
▁Roman	-10.8789
▁donker	-10.8791
▁ya	-10.8795
▁aanvaard	-10.8802
gericht	-10.8802
▁Cam	-10.8805
▁magic	-10.8811
▁wijn	-10.8811
behoefte	-10.8812
▁birth	-10.8812
▁financiering	-10.8813
▁Nobody	-10.8813
▁glass	-10.8824
analysis	-10.8825
sector	-10.883
▁engine	-10.8832
▁sky	-10.8835
graven	-10.8835
▁ernstige	-10.8843
▁golf	-10.8848
▁exceed	-10.8849
▁medische	-10.8853
▁advis	-10.8861
▁Hebben	-10.8862
▁Bovendien	-10.8874
▁Spain	-10.8874
▁defined	-10.8877
Q	-10.8881
▁dichter	-10.8892
▁encourage	-10.8898
▁counter	-10.8899
▁Hy	-10.89
▁regen	-10.8907
▁ziel	-10.8908
issen	-10.891
EF	-10.8913
▁antwoorden	-10.8914
▁breed	-10.8914
houdende	-10.8918
▁soul	-10.892
▁schiet	-10.892
▁British	-10.8923
maat	-10.8923
▁evolution	-10.8932
.10	-10.8932
▁Matt	-10.8933
gger	-10.8935
▁akkoord	-10.8935
▁geprobeerd	-10.8935
▁oefen	-10.8935
▁tough	-10.8935
▁krant	-10.8941
▁flight	-10.8941
▁spr	-10.8945
gedeeld	-10.8945
▁female	-10.8947
▁genaamd	-10.8947
▁attract	-10.8949
fel	-10.8957
45	-10.8958
▁rivier	-10.896
head	-10.8964
▁Yo	-10.8965
▁limited	-10.8966
▁aanpassing	-10.8972
▁intended	-10.8972
gepakt	-10.8972
▁Republiek	-10.8984
▁voorzichtig	-10.8986
▁pig	-10.899
cum	-10.8995
▁fysiek	-10.8997
▁iron	-10.8997
▁Pan	-10.8999
▁wake	-10.9001
▁psycho	-10.9001
▁Aarde	-10.9011
ama	-10.9012
▁Cap	-10.9014
▁sprake	-10.9015
▁bezit	-10.9018
▁veld	-10.902
▁65	-10.9021
▁gaten	-10.9022
▁cry	-10.9023
▁wisten	-10.9026
▁moral	-10.9031
▁verbinding	-10.9032
▁strip	-10.9034
▁sexual	-10.9034
biggest	-10.9035
▁farmer	-10.9044
ora	-10.9044
▁waarschuw	-10.9047
▁destroy	-10.9049
▁chose	-10.9055
▁toegepast	-10.906
▁summer	-10.9061
▁1991	-10.9061
rijp	-10.9063
wijk	-10.9065
DER	-10.9068
▁vlees	-10.9068
▁enable	-10.9069
▁Sinds	-10.9072
▁Word	-10.9072
Ik	-10.9075
96	-10.9075
elle	-10.9075
duct	-10.9076
▁innovation	-10.9084
▁honor	-10.9084
applied	-10.9085
▁Rustig	-10.9085
verzekering	-10.9086
▁tablet	-10.9086
▁player	-10.9096
▁correspond	-10.9097
▁verkocht	-10.9097
eraard	-10.9105
▁Free	-10.9105
▁August	-10.9109
▁verklaar	-10.9109
▁fu	-10.9109
unch	-10.911
▁ml	-10.9115
ano	-10.912
oxy	-10.9121
▁Christian	-10.9125
▁Vind	-10.9128
▁Island	-10.9132
vergunning	-10.9134
▁generaal	-10.9134
▁Italian	-10.9134
▁fill	-10.9138
▁begrotings	-10.9141
▁schijn	-10.9143
▁chip	-10.9144
▁north	-10.9145
▁seconden	-10.9147
▁kilo	-10.9149
erij	-10.9152
▁forever	-10.9155
▁systemen	-10.9156
▁Hong	-10.9156
▁Shit	-10.9158
▁professor	-10.9159
▁mini	-10.9161
.9	-10.9163
▁passed	-10.9165
staande	-10.9176
▁kiss	-10.9177
▁Kingdom	-10.9185
▁Terr	-10.9189
▁justice	-10.9189
▁expected	-10.919
▁normale	-10.9191
autoriteit	-10.9196
strom	-10.9197
▁hervorming	-10.9197
▁recept	-10.9198
▁Vraag	-10.9201
▁lager	-10.9203
cker	-10.9206
▁Convention	-10.921
▁cultural	-10.921
▁guard	-10.921
▁Wereld	-10.9211
▁arrangement	-10.9211
▁conclusie	-10.9212
▁gij	-10.9222
▁oceaan	-10.9223
▁memory	-10.9223
▁closer	-10.9223
▁literal	-10.9229
▁Tim	-10.9231
▁connected	-10.9233
▁followed	-10.9234
▁Canada	-10.9235
▁wit	-10.9235
▁dagelijks	-10.9236
▁42	-10.9242
wijzing	-10.9244
▁Day	-10.9247
▁Ont	-10.9248
▁verdienen	-10.9248
▁fractie	-10.9249
▁Art	-10.9252
▁Shut	-10.9256
och	-10.9256
▁audience	-10.9261
kor	-10.9262
▁failure	-10.9262
lock	-10.9263
▁manager	-10.9265
▁etc	-10.9268
▁Paris	-10.9269
bot	-10.927
▁maakten	-10.9276
▁desire	-10.9278
▁fresh	-10.9286
sluiting	-10.9291
zy	-10.9291
▁hide	-10.9295
wacht	-10.9297
▁supplie	-10.9299
▁Abou	-10.93
▁admit	-10.9301
▁Sarah	-10.9301
▁driver	-10.9302
▁Iets	-10.9306
▁maatschappij	-10.9309
▁lying	-10.931
▁muur	-10.9315
▁roof	-10.9316
▁wire	-10.9317
▁wearing	-10.9317
wood	-10.9323
▁Arab	-10.9324
▁Pak	-10.9324
▁approved	-10.9327
igenlijk	-10.9328
▁afhankelijk	-10.9329
▁88	-10.9332
▁Alsjeblieft	-10.9337
▁getrouwd	-10.9338
▁melk	-10.9341
17	-10.9343
▁cash	-10.935
▁entry	-10.9355
▁Video	-10.9363
▁finished	-10.9364
▁tape	-10.9373
ificatie	-10.9374
▁complain	-10.9376
▁yesterday	-10.9376
▁01	-10.9377
bber	-10.9381
▁Nieuw	-10.9389
▁communicatie	-10.9389
wijzen	-10.9393
▁optreden	-10.9393
▁fles	-10.9398
▁ok	-10.9398
▁duur	-10.94
▁winter	-10.9403
▁river	-10.9404
ella	-10.9412
▁Probeer	-10.9415
▁Stay	-10.9417
▁gehele	-10.9428
▁stam	-10.9429
▁Sil	-10.9435
▁marketing	-10.9436
puls	-10.9437
boel	-10.9441
schrijven	-10.9444
geving	-10.9445
stairs	-10.9445
▁largest	-10.9447
kom	-10.9451
▁universum	-10.9453
▁initial	-10.946
▁prachtige	-10.9471
▁commissie	-10.9473
▁ramp	-10.9474
▁former	-10.9474
▁stappen	-10.9478
▁Zal	-10.9479
▁concrete	-10.948
▁corner	-10.948
▁platform	-10.948
▁Sometime	-10.9481
▁hyper	-10.9481
periode	-10.949
▁escape	-10.9493
AD	-10.9493
▁Christmas	-10.9493
▁begrip	-10.9493
▁apartment	-10.9497
▁wereldwijd	-10.9497
▁hearing	-10.9503
▁gebrek	-10.9507
▁react	-10.9507
▁wave	-10.9513
▁lesson	-10.9513
ville	-10.9518
▁diverse	-10.9519
▁grap	-10.952
▁Louis	-10.9532
▁draft	-10.9532
▁44	-10.9533
shop	-10.9534
▁bunch	-10.9537
niveau	-10.9543
arrow	-10.9543
apparaat	-10.9545
▁exception	-10.9545
▁showing	-10.9548
▁Hof	-10.9551
▁planten	-10.9552
▁assist	-10.9556
▁Hope	-10.9558
▁exercise	-10.9558
▁poverty	-10.9558
▁hum	-10.9561
▁kust	-10.9561
▁Zonder	-10.9566
▁annual	-10.9571
fabriek	-10.9571
▁Sla	-10.9571
▁ochtend	-10.9573
▁Out	-10.9576
neemt	-10.9582
▁load	-10.9584
▁daadwerkelijk	-10.9584
▁onderzocht	-10.9584
▁Israel	-10.9584
▁reduction	-10.9585
▁momenteel	-10.9597
▁adres	-10.9599
▁sold	-10.9604
▁recommend	-10.9605
▁besloo	-10.9606
▁blok	-10.961
▁accu	-10.961
▁soldier	-10.9612
▁emerg	-10.9614
crimin	-10.962
▁waarden	-10.9623
▁According	-10.9624
nacht	-10.9625
tenschappelijke	-10.9632
▁Spi	-10.9637
▁Geweldig	-10.9637
▁heading	-10.9638
▁useful	-10.9639
sprak	-10.9641
dition	-10.9649
▁practical	-10.965
▁defend	-10.9655
ifice	-10.9661
▁armoede	-10.9663
▁conference	-10.9663
▁uitbreiding	-10.9663
▁stimul	-10.9664
▁positieve	-10.9677
▁controleren	-10.968
▁involve	-10.9681
laas	-10.9681
▁Official	-10.969
▁insulin	-10.9692
▁vooraf	-10.9693
Tijdens	-10.9696
▁included	-10.9697
▁39	-10.9699
▁interesse	-10.9704
▁protest	-10.9704
▁treated	-10.9707
cial	-10.9707
▁43	-10.9707
▁prior	-10.9708
▁kapitaal	-10.9716
▁klootzak	-10.9716
▁zorgt	-10.9731
▁gebouwd	-10.9734
▁Yu	-10.9743
▁speciaal	-10.9743
onderhandelingen	-10.9743
▁tumor	-10.9743
▁submitted	-10.9743
,3	-10.9749
▁twice	-10.9757
▁Eric	-10.9757
▁staten	-10.9758
▁leveren	-10.9764
▁pea	-10.9766
▁Spanje	-10.977
▁south	-10.9771
▁behandelen	-10.9771
▁afspraak	-10.9778
▁welk	-10.9781
▁HIV	-10.9783
middag	-10.9784
▁zomer	-10.9785
▁serieus	-10.9786
▁saving	-10.9787
▁tank	-10.9791
▁majorit	-10.9797
▁koop	-10.9798
gedragen	-10.9799
▁careful	-10.9802
▁circumstances	-10.981
▁gedacht	-10.9811
▁centrale	-10.9813
▁stole	-10.9819
▁infrastructure	-10.9824
▁museum	-10.9824
▁registr	-10.9824
▁crash	-10.9824
▁assume	-10.9825
▁stoel	-10.9827
,1	-10.9829
ivity	-10.9832
code	-10.9833
▁kidding	-10.9838
▁blog	-10.9838
▁administration	-10.9851
▁gekozen	-10.9851
▁assistance	-10.9857
▁Italy	-10.9857
velen	-10.986
rank	-10.986
▁possibility	-10.9864
▁reject	-10.9867
▁Haal	-10.9874
▁papa	-10.9875
▁beveilig	-10.9878
▁Everybody	-10.9878
▁equivalent	-10.9878
▁Mam	-10.988
▁activa	-10.9883
▁paint	-10.9892
▁highly	-10.9894
Cause	-10.9898
▁tv	-10.9899
▁HE	-10.9901
▁Move	-10.9902
▁monitoring	-10.9904
▁suiker	-10.9905
▁Leo	-10.9913
▁relations	-10.9914
▁alstublieft	-10.9918
▁famous	-10.9918
▁gedood	-10.9919
euze	-10.9919
▁Jud	-10.9921
▁duurt	-10.9932
▁Remember	-10.9932
▁Should	-10.9932
▁sterke	-10.9943
▁traditional	-10.9947
▁improv	-10.995
98	-10.9962
▁bedank	-10.9964
▁dump	-10.9973
▁alarm	-10.9973
▁meerderheid	-10.9973
▁plannen	-10.9977
ulation	-10.998
▁afford	-10.998
IF	-10.9983
▁Jeff	-10.9983
wapen	-10.9983
ieën	-10.9985
capaciteit	-10.9987
▁Someone	-10.9988
binding	-10.9992
emy	-10.9993
iva	-10.9993
oma	-10.9995
▁onafhankelijk	-10.9995
▁stelde	-10.9999
▁geïnteresseerd	-11
organisatie	-11.0004
q	-11.0009
▁VOOR	-11.0014
▁sentence	-11.0017
▁busy	-11.0022
▁inspanning	-11.0022
▁operate	-11.0032
▁loan	-11.0038
95	-11.0038
▁dossier	-11.0042
▁Before	-11.0042
▁dying	-11.0042
▁cijfers	-11.0047
itz	-11.0051
arian	-11.0051
▁tegenover	-11.0055
ikken	-11.0064
pakken	-11.0064
▁Gemeenschappen	-11.0068
▁universit	-11.0069
▁opzichte	-11.0069
▁Work	-11.0071
34	-11.0082
▁Everyone	-11.0084
HA	-11.0085
▁Dia	-11.0085
▁steel	-11.0086
▁Law	-11.0087
▁waaronder	-11.0089
▁geo	-11.0095
▁ticket	-11.0097
kosten	-11.0097
load	-11.01
atuur	-11.0108
▁strand	-11.0114
kaart	-11.0116
▁gewicht	-11.0119
▁definitely	-11.0119
▁Economisch	-11.0124
▁pursuan	-11.0124
▁monitor	-11.0125
▁bottle	-11.0125
▁pray	-11.0126
state	-11.0129
▁prioriteit	-11.0139
▁Many	-11.014
▁eventual	-11.014
▁department	-11.0152
▁Port	-11.0155
▁sight	-11.0157
cir	-11.0161
▁marriage	-11.0166
▁dubbel	-11.0167
▁standaard	-11.0168
▁poll	-11.0169
▁broad	-11.0172
▁kar	-11.0177
▁laborator	-11.0179
▁herstel	-11.018
▁ondank	-11.0182
▁aangezien	-11.0182
vrij	-11.0182
▁1980	-11.0183
▁comfort	-11.0188
regeling	-11.0192
▁actief	-11.0192
▁verstand	-11.0193
ο	-11.0194
▁independent	-11.0194
▁nadenken	-11.0194
▁distance	-11.0194
▁bak	-11.0203
▁bill	-11.0204
atic	-11.0205
▁inspire	-11.0206
knop	-11.0208
▁woont	-11.021
▁sec	-11.0217
▁motion	-11.0219
▁41	-11.0219
▁Anna	-11.0221
▁contribute	-11.0222
west	-11.0224
▁Meneer	-11.0224
diensten	-11.0225
▁perspective	-11.0236
▁buitenlands	-11.0236
▁Hmm	-11.0237
▁sensor	-11.0237
▁shock	-11.0237
▁Final	-11.0238
gedaan	-11.0238
tevens	-11.024
▁trek	-11.024
dienst	-11.024
▁elder	-11.0244
,4	-11.0247
▁church	-11.025
▁egg	-11.0253
▁snelheid	-11.0254
comfortable	-11.0256
▁Doctor	-11.0257
ambi	-11.0258
▁techniek	-11.0263
▁meat	-11.0263
▁karakter	-11.0264
▁suck	-11.0266
▁Four	-11.027
▁gescho	-11.0272
ika	-11.0275
▁Bureau	-11.0278
print	-11.028
▁blik	-11.0288
▁daarbij	-11.0288
▁easi	-11.0288
▁Chicago	-11.0292
▁protocol	-11.0292
▁wetenschappers	-11.0293
▁hoogste	-11.0299
▁suddenly	-11.0302
▁voordeel	-11.0302
▁organis	-11.0306
▁combinatie	-11.0307
▁parlement	-11.0307
▁geschikt	-11.0307
▁hack	-11.0309
▁Hoewel	-11.0314
beginsel	-11.0315
efficiënt	-11.0316
▁beoordeling	-11.0317
▁lossen	-11.0319
▁stuck	-11.0321
▁Still	-11.0325
▁grab	-11.0337
▁Boo	-11.034
trekking	-11.0341
IES	-11.0342
▁eventue	-11.0347
aliseerd	-11.0348
▁definition	-11.0349
▁nader	-11.035
▁hire	-11.0357
▁Werk	-11.036
▁Democrat	-11.0363
▁reached	-11.0369
card	-11.0372
▁aanzienlijk	-11.0375
▁lijden	-11.0378
▁Binnen	-11.0379
▁instruct	-11.0381
▁cast	-11.0385
▁geraakt	-11.0387
▁unique	-11.0393
▁Blo	-11.0406
▁communiti	-11.0406
▁zwart	-11.0408
▁Prima	-11.0408
▁Victor	-11.0409
▁Indian	-11.0411
▁fase	-11.0415
▁Human	-11.0415
▁belde	-11.0419
▁Str	-11.0419
▁incident	-11.042
IG	-11.0426
cijfer	-11.0429
35	-11.0434
▁square	-11.0435
▁affair	-11.0436
▁Maria	-11.0438
▁Director	-11.0442
▁pagina	-11.0443
▁Special	-11.0449
▁skills	-11.0449
▁aanval	-11.0458
produkt	-11.0461
sky	-11.0462
achtige	-11.0463
groei	-11.0464
▁thus	-11.0466
col	-11.0469
▁consult	-11.0469
cular	-11.047
▁bijdragen	-11.0472
▁fool	-11.0473
▁noemde	-11.0476
▁consumenten	-11.0477
▁battle	-11.0478
▁oorspronkelijk	-11.0478
▁wheel	-11.0478
▁Rusland	-11.0478
▁alinea	-11.0478
▁dosis	-11.0481
vatten	-11.0485
▁EUROPE	-11.0491
▁voortdurend	-11.0493
therapie	-11.0494
▁creation	-11.0504
ifi	-11.0504
▁werkelijkheid	-11.0505
▁religion	-11.0506
zetting	-11.0514
▁gebeld	-11.0521
prestatie	-11.0522
▁beschouwd	-11.0523
▁tegenwoordig	-11.0524
▁Para	-11.0527
▁Mama	-11.0528
▁danger	-11.0529
▁receiv	-11.0529
utter	-11.053
AB	-11.0531
▁switch	-11.0535
concentratie	-11.0535
▁bleek	-11.0535
▁negotiations	-11.0536
▁toekomstig	-11.0537
▁succesvol	-11.0539
▁Islam	-11.0542
▁dak	-11.0542
▁wedding	-11.0543
▁bedoeling	-11.0548
▁Bay	-11.055
▁verschrikkelijk	-11.055
▁THIS	-11.055
pho	-11.055
▁operator	-11.055
▁evil	-11.0552
ATION	-11.0554
70	-11.0554
▁CON	-11.0557
▁HET	-11.0559
ïne	-11.0562
ër	-11.0563
▁stierf	-11.0564
▁sufficient	-11.0564
▁dromen	-11.0564
▁crack	-11.0565
▁Communities	-11.0579
▁identiteit	-11.0579
▁leugen	-11.0579
▁Too	-11.0579
▁Londen	-11.0579
▁regionale	-11.058
▁hopen	-11.058
▁Brian	-11.0585
▁architect	-11.0591
▁idiot	-11.0593
▁1.4	-11.0595
mus	-11.06
▁kende	-11.0606
▁gather	-11.0607
▁otherwise	-11.0608
▁Damn	-11.0608
▁bevatten	-11.0609
▁ontwerpen	-11.0609
cli	-11.0622
blad	-11.0624
cies	-11.0628
▁interessante	-11.0633
▁easier	-11.0634
▁Love	-11.0644
▁mono	-11.0645
▁Scha	-11.0645
▁maxima	-11.0652
▁immers	-11.0652
▁ECU	-11.0652
▁meerdere	-11.0658
▁draaien	-11.066
iviteit	-11.0664
▁verbinden	-11.0666
▁precise	-11.0666
▁birthday	-11.0667
type	-11.067
▁wound	-11.067
dynami	-11.0673
voudig	-11.0675
▁Gaa	-11.068
▁Italiaans	-11.0681
▁fundamentele	-11.0681
▁juridisch	-11.0681
▁director	-11.0682
▁Exp	-11.0686
▁Whoa	-11.0686
▁breng	-11.0693
▁possibly	-11.0696
geschreven	-11.0697
added	-11.0701
▁opportunit	-11.0702
▁steal	-11.0702
▁Bor	-11.0703
▁indicate	-11.0705
lijst	-11.0706
▁wedstrijd	-11.0707
▁uitgaven	-11.0707
▁toegevoegd	-11.071
▁emotie	-11.071
ological	-11.0712
▁faster	-11.0713
▁batter	-11.0714
▁advice	-11.0725
▁terrein	-11.0725
▁gewone	-11.0728
▁2014	-11.0728
▁Report	-11.0736
▁methode	-11.0744
75	-11.075
▁tekenen	-11.0751
▁klimaat	-11.0752
▁figured	-11.0754
▁celebrat	-11.0755
▁locatie	-11.0755
▁Father	-11.0757
▁hoofdstuk	-11.0758
▁joke	-11.0762
▁voorzitterschap	-11.0764
▁edit	-11.0768
nummer	-11.0769
ä	-11.0769
▁emission	-11.0772
▁klanten	-11.0772
lac	-11.0772
▁Jouw	-11.0773
65	-11.0778
▁quota	-11.0779
uele	-11.078
▁Back	-11.078
▁complicated	-11.0784
▁negative	-11.0784
▁rapid	-11.0784
▁trein	-11.0785
▁prof	-11.0786
▁Ham	-11.0788
▁vissen	-11.0793
broken	-11.0793
machine	-11.0799
▁feature	-11.0799
▁favoriete	-11.08
child	-11.0805
veloping	-11.0808
temperatuur	-11.0814
▁beroemd	-11.0814
▁draait	-11.0818
klasse	-11.0819
▁Tar	-11.082
▁Russian	-11.0824
▁alternative	-11.0829
▁privacy	-11.0829
▁insurance	-11.0829
▁leeg	-11.0836
▁Health	-11.0844
▁produkten	-11.0845
genoemde	-11.0846
▁lukt	-11.0847
▁sexy	-11.0847
▁Fri	-11.0847
▁luid	-11.0849
▁nauw	-11.0849
▁earn	-11.085
▁stak	-11.0853
▁rail	-11.0853
▁territory	-11.0859
bestrijding	-11.0859
▁vloei	-11.0859
▁Gezi	-11.0863
daily	-11.0863
bbel	-11.0863
UC	-11.0863
▁trace	-11.0865
▁bedenken	-11.0865
▁bound	-11.0872
▁instance	-11.0874
▁tap	-11.0875
▁relation	-11.0877
.11	-11.0888
▁quarter	-11.0889
▁Ku	-11.0889
▁toestemming	-11.089
29	-11.0897
▁resist	-11.0901
▁email	-11.0904
▁behoorlijk	-11.0904
▁richten	-11.0907
ruim	-11.0916
▁administrative	-11.0918
▁Pardon	-11.0919
▁communicate	-11.0919
▁uitleggen	-11.0919
▁overtuigd	-11.0919
▁Sit	-11.0927
▁Kl	-11.093
▁surround	-11.0934
▁estimate	-11.0934
▁nuttig	-11.0934
▁EUROPEAN	-11.0934
▁ontwor	-11.0935
greep	-11.0935
▁cloud	-11.0936
▁slight	-11.0936
LL	-11.0937
▁Cur	-11.0941
▁poging	-11.0941
▁realiteit	-11.0947
▁Gene	-11.0948
▁verschijn	-11.0949
▁harder	-11.095
▁1989	-11.0951
▁tuin	-11.0951
▁letterlijk	-11.0952
vermogen	-11.0952
▁exciting	-11.0964
▁tired	-11.0964
weefsel	-11.0965
▁Chuck	-11.0965
bescherming	-11.0968
MP	-11.097
▁critical	-11.0973
▁geneesmiddelen	-11.0973
▁DO	-11.0979
▁excited	-11.0979
▁plaatsvind	-11.0979
visible	-11.0983
houder	-11.0985
▁ernstig	-11.0986
▁Wall	-11.0988
▁spulle	-11.0989
28	-11.0993
▁onderscheid	-11.0994
taart	-11.0995
97	-11.0997
▁eating	-11.0998
▁Bye	-11.1
▁beloof	-11.1005
▁suppose	-11.1005
▁taste	-11.1006
▁Midden	-11.1009
ikkel	-11.1012
▁bloem	-11.1014
▁schuldig	-11.1017
▁certificate	-11.1021
force	-11.1022
▁campaign	-11.1024
▁cheap	-11.1024
▁kies	-11.1025
▁verleend	-11.1027
39	-11.1031
▁pure	-11.1036
▁ingewikkeld	-11.1039
DR	-11.1047
▁Russia	-11.1047
▁genetisch	-11.1049
drijven	-11.1051
clusief	-11.1052
▁passion	-11.1053
▁football	-11.1055
▁Leuk	-11.1059
▁bedacht	-11.1059
▁vertrekken	-11.1062
26	-11.1071
▁reeks	-11.1082
▁consumption	-11.1085
▁Italië	-11.1085
▁seriously	-11.1087
▁democratic	-11.109
▁zulke	-11.1094
prijs	-11.1097
ngry	-11.1098
91	-11.11
▁afternoon	-11.11
▁clothes	-11.1101
▁package	-11.1104
▁raar	-11.1112
▁Duitse	-11.1114
istisch	-11.112
▁Amerikanen	-11.1122
ruis	-11.1126
juist	-11.1128
▁glas	-11.1128
▁obvious	-11.1131
▁collaborat	-11.1131
▁gezamenlijk	-11.1131
▁vergelijking	-11.1131
▁doorgaan	-11.1132
▁fellow	-11.1133
ologist	-11.1135
project	-11.1139
▁FOR	-11.1141
▁owe	-11.1142
EX	-11.1146
▁Gewoon	-11.1146
▁freak	-11.1147
▁titel	-11.1147
gaven	-11.1147
▁gedachte	-11.1154
▁bevel	-11.1156
▁toont	-11.1156
▁geë	-11.116
▁duurzame	-11.1162
gestemd	-11.1162
geleverd	-11.1167
▁Houd	-11.1174
You	-11.1175
▁divide	-11.1178
▁solar	-11.1178
▁historic	-11.118
▁Vergeet	-11.1193
▁hé	-11.1193
▁attach	-11.1194
PE	-11.1195
▁Spaans	-11.1202
▁oplossingen	-11.1209
▁plate	-11.1211
MS	-11.1219
▁beslissingen	-11.1221
▁ideal	-11.1221
▁ultimate	-11.1224
school	-11.1228
voorziening	-11.1232
▁maan	-11.1233
pira	-11.1237
▁alternatie	-11.1239
investeringen	-11.124
wandel	-11.1245
jar	-11.1252
▁fraud	-11.1255
▁medicijnen	-11.1257
duce	-11.1257
gio	-11.126
▁gedeelte	-11.1261
▁gestol	-11.1271
▁jaarlijks	-11.1271
▁sustainable	-11.1272
IM	-11.1273
▁economisch	-11.1281
▁television	-11.1286
▁reveal	-11.1286
AF	-11.1288
▁Juist	-11.1293
park	-11.1297
▁convention	-11.1301
▁elektriciteit	-11.1301
▁surgery	-11.1301
▁split	-11.1301
▁aanmerking	-11.1302
▁Up	-11.1304
ndy	-11.1314
▁compared	-11.1315
positie	-11.1316
plicat	-11.1317
▁School	-11.1318
path	-11.133
seizoen	-11.1333
▁expenditure	-11.1333
treffen	-11.1333
▁grootte	-11.1333
▁Long	-11.1334
▁debt	-11.1342
▁keu	-11.1347
▁Papa	-11.1351
▁Guy	-11.1354
▁Home	-11.1354
▁Hor	-11.1355
boven	-11.1362
▁openbaar	-11.1362
rium	-11.1363
▁Israël	-11.1364
▁intelligence	-11.1364
back	-11.1369
phone	-11.137
▁uitvoeren	-11.1378
▁Spanish	-11.138
▁interactie	-11.1381
▁noise	-11.1383
systemen	-11.139
hoofd	-11.1394
▁administratie	-11.1396
▁Sand	-11.1398
▁bridge	-11.1399
▁manage	-11.1404
▁geslacht	-11.1411
▁creature	-11.1411
comité	-11.1411
▁omvang	-11.1412
▁Clark	-11.1413
22	-11.1416
▁unfortunate	-11.1427
▁hmm	-11.1427
▁operating	-11.1428
48	-11.1435
▁schel	-11.1443
▁werkzaamheden	-11.1443
▁Vijf	-11.1448
▁injectie	-11.1451
incredibly	-11.1459
▁neck	-11.1461
▁lachen	-11.1462
▁militaire	-11.1464
democrat	-11.1466
producten	-11.1467
▁jail	-11.1468
pressed	-11.1469
flu	-11.1469
▁tar	-11.147
▁Tor	-11.1476
▁scholen	-11.1478
▁vuil	-11.1479
▁colon	-11.148
▁Walter	-11.1482
▁gunst	-11.149
▁Besluit	-11.1491
▁trauma	-11.1491
▁producenten	-11.1491
No	-11.1492
▁determine	-11.1493
▁McC	-11.1494
IR	-11.1497
▁investigat	-11.1497
▁tas	-11.1503
▁Beschikking	-11.1506
subsidie	-11.151
▁neus	-11.1511
▁coast	-11.1512
▁tenzij	-11.1514
tussen	-11.1517
▁external	-11.1522
▁uitgebreid	-11.1522
▁vrijwillig	-11.1522
▁verzamelen	-11.153
▁witte	-11.1531
▁familiar	-11.1538
▁revolutie	-11.1538
▁swear	-11.1538
▁electronic	-11.1539
▁ervaren	-11.1539
▁dry	-11.1544
▁moderne	-11.1547
▁pleasure	-11.1554
▁entirely	-11.1559
zinnen	-11.1566
▁beaut	-11.1566
▁keren	-11.1569
▁larger	-11.1571
▁draagt	-11.1575
▁bestemd	-11.1581
rekening	-11.1581
model	-11.1586
▁carrière	-11.1586
▁girlfriend	-11.1586
▁mathematic	-11.1586
▁popular	-11.1586
▁extent	-11.1587
85	-11.159
iro	-11.1593
KE	-11.1594
▁root	-11.1602
▁approval	-11.1603
maatschappij	-11.1606
▁somehow	-11.1606
astro	-11.1612
▁blame	-11.1612
▁Zw	-11.1615
▁Billy	-11.1617
stok	-11.1617
▁determined	-11.1622
▁Music	-11.1624
▁Watch	-11.1625
dicated	-11.1625
▁Sub	-11.1631
▁tradition	-11.1632
hood	-11.1633
▁Ow	-11.1636
oorlog	-11.1642
▁afdeling	-11.1645
lijnen	-11.1647
NG	-11.1647
▁spreekt	-11.165
▁verliefd	-11.1651
verbruik	-11.1652
▁overtuigen	-11.1652
gesproken	-11.166
▁reizen	-11.1667
▁zacht	-11.1669
▁improvement	-11.1674
zag	-11.1676
▁spreek	-11.1681
▁moon	-11.1682
▁kogel	-11.1684
▁medium	-11.1684
inter	-11.1686
▁specifie	-11.1695
▁occasion	-11.17
24	-11.17
▁toestand	-11.1706
▁valid	-11.1715
▁regret	-11.1716
▁examine	-11.1718
matic	-11.1719
hoeven	-11.1719
▁herstellen	-11.1722
▁redelijk	-11.1722
▁committ	-11.1723
wijze	-11.1725
▁beschouw	-11.1732
▁Netherlands	-11.1732
▁combination	-11.1732
▁expensive	-11.1732
▁intervention	-11.1732
▁erachter	-11.1732
zinnig	-11.1733
▁While	-11.1733
▁Shi	-11.1734
▁underst	-11.1737
▁beschermd	-11.1738
tress	-11.1741
▁noticed	-11.1742
▁nerve	-11.1743
▁digitale	-11.1754
will	-11.1761
mending	-11.1761
rio	-11.1764
▁straks	-11.1765
▁banen	-11.1766
▁speelde	-11.1769
▁severe	-11.1772
town	-11.1775
▁lied	-11.1775
▁army	-11.1777
clock	-11.178
▁Rob	-11.1782
▁secure	-11.1783
▁tunnel	-11.1797
▁circle	-11.1798
down	-11.1806
▁interact	-11.1807
\	-11.1814
▁beslissen	-11.1814
▁competitive	-11.1814
▁initiatief	-11.1814
▁officiële	-11.1814
▁Britse	-11.1814
▁mist	-11.1815
▁Case	-11.1816
wereld	-11.1823
▁Pop	-11.1825
▁Affair	-11.183
▁punish	-11.183
▁liquid	-11.183
▁consist	-11.1845
▁disorder	-11.1847
▁phase	-11.1852
ruimte	-11.1856
▁identify	-11.1863
▁Prince	-11.1863
sprong	-11.1878
▁neighbor	-11.188
▁1000	-11.1883
▁Talk	-11.1885
▁microb	-11.189
▁negotiat	-11.1895
▁boyfriend	-11.1896
▁Turkey	-11.1896
▁odd	-11.1898
▁1985	-11.1899
▁zware	-11.1899
▁Geloof	-11.19
▁vierde	-11.191
▁geboorte	-11.1913
▁refuse	-11.1913
▁bevorderen	-11.1914
▁gevecht	-11.1914
▁Show	-11.1921
▁CD	-11.1923
▁sheet	-11.1924
some	-11.1924
▁Cooper	-11.193
▁verstrekt	-11.193
▁season	-11.1935
slav	-11.1935
▁server	-11.1937
94	-11.1937
27	-11.1938
▁Check	-11.1939
▁occur	-11.1943
▁empty	-11.1946
▁relax	-11.1946
▁knap	-11.1947
ministr	-11.1952
▁gender	-11.1953
▁Therefor	-11.1961
▁Gelukkig	-11.1963
▁extraordinary	-11.1963
▁urban	-11.1963
▁Hill	-11.1964
prop	-11.1965
▁plot	-11.1972
▁Party	-11.1973
▁epi	-11.1978
dragen	-11.1979
▁excellent	-11.198
▁knock	-11.1981
,6	-11.1985
therapy	-11.1989
geboden	-11.199
▁vakantie	-11.1996
▁behulp	-11.1996
▁proportion	-11.1996
▁Smith	-11.1996
▁fiets	-11.1997
▁Anyway	-11.1998
pin	-11.1998
▁error	-11.1998
▁1988	-11.1999
azi	-11.1999
▁raam	-11.2001
▁Cypr	-11.2002
▁establishment	-11.2005
OO	-11.2007
schappen	-11.2008
aagd	-11.2011
▁efficient	-11.2013
▁database	-11.2013
▁Michel	-11.2014
▁Afrikaans	-11.2016
▁wettelijk	-11.2018
station	-11.2028
▁Zorg	-11.203
▁outcome	-11.2031
▁urgent	-11.2031
OT	-11.2035
kleed	-11.2038
▁slimme	-11.2043
▁crucial	-11.2047
▁kapot	-11.2048
▁Baby	-11.2052
▁Mother	-11.2054
▁identity	-11.2064
partij	-11.2064
▁Ban	-11.2073
▁Amsterdam	-11.208
▁Detective	-11.208
▁heavy	-11.208
▁achieved	-11.208
▁beperken	-11.2081
▁Alic	-11.2082
▁ontslag	-11.2082
▁achtergrond	-11.2083
aandoening	-11.2086
▁Vic	-11.2089
▁funding	-11.209
▁steen	-11.2093
TEN	-11.2094
▁edge	-11.2095
▁Nigeria	-11.2097
▁Ryan	-11.2097
▁NO	-11.2101
▁Chief	-11.2104
▁pap	-11.2107
▁privé	-11.2114
cap	-11.2121
▁marry	-11.2122
PO	-11.2124
▁ontmoette	-11.2132
▁jeugd	-11.2133
▁screw	-11.2134
▁huur	-11.2135
▁kerst	-11.2138
▁painting	-11.2138
▁onschuldig	-11.2148
▁Iraq	-11.2148
▁bullet	-11.2149
▁intention	-11.2149
▁babie	-11.2151
▁1.2	-11.2154
▁Justice	-11.2155
▁tight	-11.2155
▁Turkije	-11.2165
▁Life	-11.2172
▁California	-11.2182
▁announce	-11.2182
▁Roger	-11.2183
▁organize	-11.2183
▁bestuder	-11.2183
bedrijf	-11.2183
▁crew	-11.2184
▁Kate	-11.2184
▁Try	-11.2184
▁poet	-11.2185
▁61	-11.2186
IA	-11.219
▁heilig	-11.2191
▁herhaal	-11.2199
▁jongeren	-11.2202
▁teaching	-11.2204
▁geheugen	-11.2216
EA	-11.2217
▁bevoegd	-11.2227
▁Eu	-11.2231
▁hierme	-11.2231
▁neither	-11.2233
▁verdwijnen	-11.2233
verkeer	-11.2237
▁rough	-11.2238
▁overall	-11.224
▁construction	-11.2242
▁allocat	-11.2242
▁Doug	-11.2242
▁Josh	-11.2244
▁infrastructuur	-11.2251
▁religie	-11.2251
▁dumping	-11.2251
▁eveneens	-11.2251
▁Western	-11.2252
zaak	-11.2255
verdient	-11.2257
amine	-11.2259
▁introduc	-11.2264
▁bewustzijn	-11.2268
▁absolute	-11.2269
breuk	-11.2271
▁ruin	-11.2272
▁managed	-11.2274
llicht	-11.2277
▁uiteen	-11.228
campagne	-11.2285
▁gelegenheid	-11.2285
▁Tommy	-11.2285
▁guide	-11.2285
▁consistent	-11.2287
stuur	-11.2288
▁amendement	-11.2298
▁Buil	-11.2298
brand	-11.2299
hoping	-11.2303
▁1987	-11.2305
▁Kevin	-11.2305
▁chain	-11.2305
▁Nation	-11.2307
▁1984	-11.2307
▁gemeen	-11.2311
▁ertoe	-11.2313
▁Rose	-11.2317
▁radical	-11.2323
▁samenwerken	-11.2324
▁Onc	-11.2325
▁fold	-11.2326
▁graf	-11.2328
▁boord	-11.2329
post	-11.2335
▁Development	-11.2337
▁afzonderlijk	-11.2337
▁zocht	-11.2338
▁verdomd	-11.2342
▁Grote	-11.2347
▁Elk	-11.2347
ility	-11.2351
▁argue	-11.2355
▁vermoed	-11.2356
87	-11.2361
▁collection	-11.2369
▁dinosaur	-11.2371
▁climb	-11.2372
▁Jake	-11.238
▁permit	-11.2384
verdrag	-11.2386
▁bind	-11.2389
▁Pakistan	-11.2389
▁disaster	-11.2389
▁labour	-11.2391
▁forgive	-11.2391
▁vot	-11.2392
▁theater	-11.2395
36	-11.2395
▁doos	-11.2407
▁blauwe	-11.2407
▁Plan	-11.2407
▁wealth	-11.2408
team	-11.241
▁upset	-11.2411
▁proof	-11.2414
37	-11.2419
inbegrip	-11.2424
▁drunk	-11.2424
▁identifie	-11.2424
US	-11.2424
▁shoes	-11.2425
▁aanvullend	-11.2429
▁flag	-11.2441
▁uitsluitend	-11.2441
▁kenmerken	-11.2441
▁currenc	-11.2442
▁helder	-11.2442
aliteit	-11.2442
▁Gold	-11.2445
▁emotional	-11.2452
▁soft	-11.2453
▁dozen	-11.2457
▁eigenaar	-11.2457
▁transparant	-11.2459
▁verjaardag	-11.2459
▁oordeel	-11.2459
▁verplichtingen	-11.2459
▁nationaal	-11.2461
schilder	-11.2461
MENT	-11.2469
▁distribution	-11.2476
▁succeed	-11.2476
assembl	-11.2476
▁creative	-11.2478
▁nurse	-11.2478
▁Sun	-11.2479
▁acid	-11.2486
▁publication	-11.2488
▁evenwicht	-11.2494
▁plat	-11.2494
▁transition	-11.2494
▁enormous	-11.2496
▁download	-11.2499
▁duties	-11.25
kunde	-11.2503
▁Huh	-11.2508
▁ondersteunen	-11.2512
▁Five	-11.2515
▁solidarit	-11.2516
▁ecolog	-11.2523
▁diagnose	-11.2529
▁creëer	-11.2529
▁filter	-11.2529
▁proef	-11.2531
▁directeur	-11.2534
▁Common	-11.2534
▁Six	-11.2537
▁Parijs	-11.2547
▁WE	-11.2549
▁Hoor	-11.255
▁HAS	-11.2552
▁alter	-11.2561
▁emergency	-11.2564
▁neighborhood	-11.2565
ulf	-11.2566
▁kleren	-11.2566
▁depressie	-11.2567
LO	-11.2581
▁Brown	-11.2583
▁Control	-11.2583
▁Boston	-11.2583
▁culturele	-11.2591
ographic	-11.26
▁Little	-11.26
▁England	-11.26
▁pilot	-11.26
▁heaven	-11.26
▁massive	-11.2605
▁preparation	-11.2606
▁vital	-11.2612
otic	-11.2614
▁marine	-11.2614
borg	-11.2616
▁verdwenen	-11.2618
▁Johnny	-11.2618
▁combat	-11.2618
▁leidde	-11.2619
▁zekerheid	-11.2622
▁individu	-11.2627
▁clinical	-11.2629
92	-11.2632
▁Tan	-11.2638
▁applie	-11.2641
▁Pete	-11.2646
▁Zull	-11.2647
ografie	-11.2652
▁vertrok	-11.2652
▁gezondheidszorg	-11.2653
▁genieten	-11.2654
▁pretend	-11.2654
▁Breng	-11.2654
▁smoke	-11.2656
▁eco	-11.2663
▁scenario	-11.2671
▁wiskunde	-11.2671
▁expand	-11.2671
▁aanbeveling	-11.2672
▁inwoners	-11.2672
▁drawing	-11.2674
onderzoek	-11.2685
▁Welkom	-11.2688
▁minuut	-11.2689
▁Rachel	-11.2689
▁Simon	-11.2694
▁normen	-11.2694
arbeid	-11.2698
CI	-11.2698
▁verbrand	-11.2701
▁arrived	-11.2705
88	-11.2706
▁onthoud	-11.2707
▁televisie	-11.2707
▁smile	-11.2711
▁Ach	-11.2711
▁logic	-11.2716
9	-11.2716
laden	-11.2722
▁boeren	-11.2723
▁Asia	-11.2724
▁dialogue	-11.2725
▁Emily	-11.2725
OC	-11.2725
▁presence	-11.2725
gehalte	-11.2726
▁historisch	-11.2726
▁occurr	-11.2728
▁airport	-11.2729
▁onderhoud	-11.2734
view	-11.2738
▁oppervlakte	-11.2743
▁technique	-11.2743
▁tissue	-11.2743
▁dronken	-11.2743
▁mededeling	-11.2744
▁priority	-11.2746
▁positief	-11.2754
▁centre	-11.2756
▁Hall	-11.276
▁platteland	-11.2761
▁formal	-11.2762
▁Leave	-11.2762
▁toegesta	-11.2774
▁zogenaamd	-11.2779
▁Ooh	-11.2779
▁Blue	-11.278
▁capabl	-11.2791
gevuld	-11.2792
à	-11.2797
▁toetreding	-11.2797
2015	-11.2798
▁frame	-11.28
▁kruis	-11.2801
▁nose	-11.2806
▁alien	-11.2812
,7	-11.2815
▁applicant	-11.2816
▁Welcome	-11.2816
▁Again	-11.2816
▁breast	-11.2816
▁preserv	-11.2816
▁veronderstel	-11.282
42	-11.2824
▁uitvind	-11.2825
▁Arch	-11.2828
point	-11.2829
▁attend	-11.2831
sloeg	-11.2835
▁brug	-11.2836
heffing	-11.2841
weeg	-11.2843
▁erkend	-11.2844
▁uiterst	-11.2851
▁coach	-11.2857
▁blu	-11.2863
▁determin	-11.2864
loc	-11.2866
person	-11.2868
▁parent	-11.2869
▁domestic	-11.287
▁kitchen	-11.287
▁reageren	-11.287
▁keuken	-11.2875
▁waaraan	-11.2878
▁crap	-11.288
rab	-11.288
▁reduc	-11.2882
▁aangepast	-11.2883
▁buddy	-11.2889
▁malaria	-11.2889
▁garden	-11.2889
▁generate	-11.2892
▁Cho	-11.2901
▁expressed	-11.2904
bureau	-11.2907
▁traditionele	-11.2908
▁electricit	-11.2908
▁struggle	-11.2911
▁bespreken	-11.2913
▁delay	-11.2915
hield	-11.2918
▁assess	-11.2923
▁Although	-11.2925
▁laptop	-11.2925
▁studio	-11.2925
▁happiness	-11.2926
▁aangegeven	-11.2927
▁schriftelijk	-11.2928
▁arrive	-11.2928
▁brood	-11.2929
rup	-11.2931
▁Kim	-11.2941
▁conform	-11.2942
▁Fractie	-11.2944
▁vaardigheden	-11.2944
▁slide	-11.2948
▁zenuw	-11.2952
▁Bobb	-11.2953
▁passie	-11.2956
▁verhouding	-11.2963
▁calm	-11.2965
▁rood	-11.2968
▁adoption	-11.297
ziekten	-11.2972
▁Santa	-11.2973
▁Chapter	-11.298
▁channel	-11.298
▁verborgen	-11.2981
▁afgevaardigde	-11.2981
▁Francisco	-11.2982
industrie	-11.2983
▁besmet	-11.2984
▁Frans	-11.2985
▁spul	-11.2987
spanning	-11.2988
▁Zu	-11.2991
▁eeuwig	-11.2998
▁augustus	-11.2999
apparatuur	-11.2999
▁display	-11.2999
▁gewonnen	-11.2999
▁mobile	-11.2999
▁Next	-11.2999
▁collective	-11.3004
▁participation	-11.3006
PPE	-11.3016
▁Congres	-11.3017
▁appartement	-11.3017
▁background	-11.3017
▁evolutie	-11.3017
▁referentie	-11.3018
▁250	-11.3023
CA	-11.3023
▁recommendation	-11.3025
▁Alan	-11.3028
worm	-11.3032
▁expression	-11.3035
▁chemische	-11.3036
▁Precies	-11.3037
geeft	-11.3048
▁laatst	-11.3051
▁evaluatie	-11.3055
breekt	-11.3055
▁gemist	-11.3056
▁Verder	-11.3063
▁quit	-11.3064
pparently	-11.3067
▁mol	-11.3076
▁Fijn	-11.3076
▁compassion	-11.3092
▁fantastic	-11.3092
▁variet	-11.3092
▁Daddy	-11.3092
▁priest	-11.3095
▁piss	-11.3097
warming	-11.3104
▁snelle	-11.3106
TION	-11.3109
▁Secretar	-11.3111
▁praktisch	-11.3111
▁beslist	-11.3111
▁lees	-11.3111
▁lach	-11.3115
UL	-11.3115
▁wetten	-11.3116
▁sustain	-11.3127
▁pensioen	-11.3129
materiaal	-11.3135
▁rook	-11.3139
▁Vooruit	-11.3139
▁maag	-11.3143
▁bug	-11.3144
▁berekening	-11.3146
▁sand	-11.3146
▁cycle	-11.3148
▁opgelost	-11.3148
▁dialoog	-11.3149
▁solid	-11.3152
What	-11.3155
verlening	-11.3156
▁Helaas	-11.3159
pending	-11.3161
▁zelfmoord	-11.3167
▁obsess	-11.3167
▁innocent	-11.3167
▁title	-11.3167
▁uiterlijk	-11.3168
▁capture	-11.3168
ntil	-11.317
32	-11.3174
liep	-11.3175
▁bond	-11.3175
▁Andere	-11.3175
▁vertrek	-11.3183
box	-11.3186
▁captain	-11.3187
▁Julie	-11.3192
▁vergelijkba	-11.3193
▁sterker	-11.3198
▁Tegen	-11.3198
OS	-11.3201
▁pistool	-11.3205
▁provincie	-11.3205
▁Further	-11.3205
▁crowd	-11.3205
▁betekenen	-11.3205
▁Groot	-11.321
▁essentially	-11.3213
VA	-11.3213
▁unemploy	-11.3221
▁guest	-11.3224
heim	-11.3226
gehouden	-11.3232
latest	-11.3233
spelletje	-11.3235
ody	-11.3236
▁Somebody	-11.3242
▁Ross	-11.3249
▁River	-11.3254
▁cooperat	-11.3258
▁VER	-11.3258
▁atmosphere	-11.3261
▁Philip	-11.3264
craft	-11.3266
▁specifiek	-11.3267
▁linker	-11.3271
▁gebruikers	-11.3273
▁talen	-11.3277
▁candidate	-11.328
▁nervous	-11.328
▁verwezenlijk	-11.328
▁Arthur	-11.328
▁ancient	-11.328
▁600	-11.3291
ibility	-11.3294
▁Such	-11.3296
The	-11.3298
posing	-11.3298
▁licence	-11.33
▁verkre	-11.3302
▁vorig	-11.3303
▁injection	-11.3306
▁confront	-11.3312
frequent	-11.3318
▁schedule	-11.3319
▁Service	-11.3319
▁existence	-11.3322
▁haast	-11.3329
hebben	-11.333
schik	-11.3331
▁Master	-11.3335
▁industriële	-11.3338
▁Bang	-11.3338
▁garage	-11.3338
▁signaal	-11.3344
lib	-11.3349
▁McG	-11.3357
▁beschuldig	-11.3357
▁Gebruik	-11.3357
▁concentration	-11.3357
▁enterprise	-11.3357
▁judgment	-11.3357
▁noodzaak	-11.3357
▁appeal	-11.3357
Dat	-11.336
equality	-11.336
controle	-11.3369
▁Amendment	-11.3376
▁Australia	-11.3376
▁Security	-11.3376
▁toegekend	-11.3376
▁beloofd	-11.3378
▁mobiele	-11.3381
▁demonstrate	-11.3395
▁refugee	-11.3395
▁behoeften	-11.3396
▁eigendom	-11.3401
▁oost	-11.3403
▁Jason	-11.3409
schema	-11.341
▁update	-11.3413
▁Twitter	-11.3414
▁satellite	-11.3414
▁verrassing	-11.3414
▁Middle	-11.3415
▁Ierland	-11.3418
▁spell	-11.3421
▁eh	-11.3427
▁sake	-11.3433
▁hielp	-11.3434
neath	-11.3439
▁extract	-11.3447
▁statistiek	-11.3453
▁typical	-11.3453
▁protein	-11.3453
▁uncle	-11.3459
▁getuigen	-11.3459
▁Table	-11.3459
▁Rock	-11.3461
▁bright	-11.3462
lphi	-11.347
ique	-11.3472
▁consideration	-11.3472
▁misdaad	-11.3473
▁federal	-11.3473
▁Dutch	-11.3473
▁voren	-11.3479
▁mysterie	-11.3486
▁attitude	-11.3492
▁parliament	-11.3492
▁sporen	-11.3492
▁sharing	-11.3493
book	-11.3493
PC	-11.3494
▁klimaatverander	-11.3496
▁union	-11.3496
~	-11.3511
▁Jordan	-11.3511
▁enzovoort	-11.3511
trans	-11.3513
▁vergeet	-11.3513
▁rural	-11.3513
89	-11.3519
▁critic	-11.352
▁gram	-11.3522
▁Merc	-11.3524
▁magazine	-11.3531
▁multiple	-11.3533
▁mask	-11.3535
laying	-11.3535
▁serie	-11.3538
▁Rand	-11.3539
▁Rule	-11.3541
▁Luke	-11.3543
mobiel	-11.3545
▁visie	-11.355
▁recognise	-11.355
▁belief	-11.3553
▁bestemming	-11.3555
EG	-11.356
▁gister	-11.3564
nything	-11.3566
▁nano	-11.3567
vast	-11.3569
▁koolstof	-11.357
▁voorlopig	-11.357
nstead	-11.357
▁awful	-11.357
▁ought	-11.3582
▁fourth	-11.3584
just	-11.3585
▁gecontroleerd	-11.359
▁biologische	-11.3594
media	-11.3598
▁Austria	-11.3609
▁democratische	-11.3609
▁knee	-11.3614
▁Wood	-11.3615
▁logisch	-11.3619
▁aanwijzing	-11.362
▁getuige	-11.3624
▁NL	-11.3624
▁surveillance	-11.3629
▁Number	-11.3629
▁manner	-11.3629
drawn	-11.3634
▁Use	-11.3638
▁Zoek	-11.3642
▁hidden	-11.3649
AK	-11.365
seksuele	-11.3663
ENT	-11.3663
hof	-11.3663
▁integratie	-11.3668
▁afbeelding	-11.3668
▁Ari	-11.3668
▁Uiteindelijk	-11.3669
▁patent	-11.367
▁behoren	-11.3671
▁strike	-11.3672
▁Honey	-11.3673
▁specifically	-11.3674
▁schoonheid	-11.3674
▁besefte	-11.3678
▁drank	-11.3679
isse	-11.3679
how	-11.368
▁opposite	-11.3688
▁uitstekend	-11.3688
technologie	-11.3688
▁durf	-11.3689
▁random	-11.369
rich	-11.369
▁bacteria	-11.3692
gewerkt	-11.3693
▁realiseerde	-11.3696
▁ii	-11.37
▁brandstof	-11.3701
▁reward	-11.3704
▁agriculture	-11.3708
▁Texas	-11.3708
▁vrees	-11.3711
▁kwart	-11.3712
rucht	-11.3712
▁planne	-11.372
▁Public	-11.3728
▁interface	-11.3728
verkiezingen	-11.3741
▁Emma	-11.3742
▁desert	-11.3745
▁ondersteuning	-11.3748
▁gekocht	-11.3748
▁pee	-11.375
lucht	-11.3754
▁yo	-11.3762
pakket	-11.3765
▁bijeenkomst	-11.3768
▁beperkingen	-11.3769
▁duren	-11.3779
spannen	-11.378
ALL	-11.3784
▁fabric	-11.3788
▁twintig	-11.3788
▁remote	-11.3788
▁bodem	-11.3788
baan	-11.3789
▁pocket	-11.3791
▁Finland	-11.3795
▁layer	-11.3796
▁propose	-11.3799
▁circuit	-11.3808
▁refund	-11.3808
▁album	-11.3809
▁electro	-11.3811
▁math	-11.3815
▁ernaar	-11.3823
nuitvoerlegging	-11.3828
▁territori	-11.3828
▁afkomstig	-11.3828
gezocht	-11.3828
▁religious	-11.3848
▁survey	-11.3848
▁veroorzaken	-11.3848
gifte	-11.3851
44	-11.3855
▁duik	-11.3856
▁leefde	-11.3857
▁Lieutenant	-11.3868
▁Professor	-11.3868
▁adequate	-11.3868
▁confidenc	-11.3868
▁getroffen	-11.3868
▁length	-11.3868
▁Schiet	-11.3872
▁dichtbij	-11.3872
▁jury	-11.3875
▁sluit	-11.388
▁fashion	-11.3888
▁bestond	-11.3891
▁Brand	-11.3893
▁stuurde	-11.3902
▁taxi	-11.3903
▁interaction	-11.3907
▁cliënt	-11.3909
▁muscle	-11.3909
▁piano	-11.3909
▁regelmatig	-11.3909
▁bless	-11.391
▁vrucht	-11.391
▁concert	-11.3912
201	-11.3915
▁tempo	-11.3917
blazen	-11.3919
▁dankbaar	-11.3922
zuur	-11.3927
▁gepubliceerd	-11.3929
▁remarkabl	-11.3929
macht	-11.393
▁langzaam	-11.3932
▁hook	-11.3933
▁volg	-11.3939
▁maatschappelijk	-11.3949
▁automatisch	-11.3949
▁kunstenaar	-11.3949
▁particle	-11.395
▁infection	-11.395
▁Lady	-11.3951
▁Lisa	-11.3953
▁grondgebied	-11.3953
▁luchtvaart	-11.3967
▁pair	-11.3967
▁kapitein	-11.397
▁advocate	-11.397
▁extension	-11.397
▁nauwelijks	-11.397
▁style	-11.397
▁verlenen	-11.3971
filled	-11.3977
ION	-11.3978
▁loon	-11.398
▁Grace	-11.3985
▁Rich	-11.3989
▁Harvard	-11.399
▁indicator	-11.399
▁Project	-11.399
▁gewond	-11.3992
SU	-11.3993
▁passenger	-11.3995
▁submit	-11.3996
▁geneesmiddel	-11.3998
▁feestje	-11.4005
▁hungr	-11.4009
▁blauw	-11.4012
▁Section	-11.4017
formed	-11.4021
▁hip	-11.403
▁verhoogd	-11.4031
patronen	-11.4031
▁Camp	-11.4031
▁Joint	-11.4035
OW	-11.4039
gevoel	-11.404
verdeling	-11.4042
▁abuse	-11.4043
,8	-11.4049
▁draag	-11.4049
▁cake	-11.4052
▁assets	-11.4052
▁aanwezigheid	-11.4058
▁ecu	-11.4058
▁Presidenc	-11.4072
▁Unfortunately	-11.4072
▁integrate	-11.4072
▁bevindt	-11.4072
▁1979	-11.4077
BO	-11.4081
▁prototype	-11.4093
▁toevallig	-11.4093
▁geplaatst	-11.4094
▁loud	-11.4102
methode	-11.4109
▁virtual	-11.4113
▁bevinden	-11.4113
▁scope	-11.4114
▁onbekend	-11.4115
oodbye	-11.4127
▁1983	-11.4134
▁purchase	-11.4134
▁populair	-11.4134
▁scream	-11.4134
legging	-11.414
▁Zodra	-11.4143
▁twaalf	-11.4155
▁explanation	-11.4155
▁Eddie	-11.4156
kleur	-11.4161
▁verkracht	-11.4169
▁800	-11.417
▁doelstelling	-11.417
▁philosoph	-11.4176
▁privilege	-11.4176
▁1986	-11.4182
▁spannend	-11.4189
▁verblijf	-11.4196
▁declaration	-11.4196
▁Aangezi	-11.4197
▁warning	-11.4206
▁gebrok	-11.4214
▁munt	-11.4216
▁realise	-11.4217
▁Sergeant	-11.4217
▁kandidaat	-11.4217
▁tevreden	-11.4238
▁biological	-11.4241
▁voorwerp	-11.4242
▁carefully	-11.4242
▁During	-11.4248
▁Rick	-11.4253
▁Euratom	-11.4259
▁idioot	-11.4259
▁galax	-11.4259
▁ruzie	-11.4259
▁Greek	-11.426
▁bathroom	-11.426
stitution	-11.4269
▁collectie	-11.4269
▁liegen	-11.4274
▁exposure	-11.428
▁subparagraph	-11.428
namelijk	-11.4281
PD	-11.4284
▁satelliet	-11.4301
▁Clear	-11.4302
▁giant	-11.4302
▁Klaar	-11.4303
▁Cuba	-11.4305
▁Thu	-11.4321
▁compleet	-11.4322
▁integration	-11.4322
▁newspaper	-11.4322
▁folks	-11.4322
▁metabol	-11.4322
▁subsid	-11.4323
stitute	-11.4334
▁Robin	-11.4339
▁efficiency	-11.4344
▁entitle	-11.4344
▁chief	-11.4344
▁UK	-11.4359
▁pipe	-11.4364
▁frequenc	-11.4365
▁Engeland	-11.4365
▁Girl	-11.4365
▁Jerry	-11.4366
RC	-11.4367
verslag	-11.4369
▁withdraw	-11.4372
▁Snel	-11.4377
blijven	-11.4382
▁goedkope	-11.4385
▁Waarschijnlijk	-11.4386
▁antibiotic	-11.4386
▁graduate	-11.4386
▁Agency	-11.4386
lichamen	-11.4386
▁Muslim	-11.4386
veranderingen	-11.4387
▁minst	-11.4388
▁shame	-11.4388
▁Queen	-11.4388
daardoor	-11.4393
▁Meest	-11.4402
controlled	-11.4404
stoel	-11.4406
,9	-11.4406
▁misbruik	-11.4407
▁weather	-11.4408
▁comply	-11.4409
▁Product	-11.4409
▁primary	-11.4412
auto	-11.4421
ochtend	-11.4426
▁nauwkeurig	-11.4429
▁structural	-11.4429
▁lezing	-11.4432
▁reageer	-11.4434
▁duurde	-11.4444
▁session	-11.445
▁besef	-11.4452
▁automatic	-11.4453
AY	-11.4461
▁schatje	-11.4465
MISSION	-11.4471
▁ADOPT	-11.4471
▁verklaren	-11.4471
▁Slecht	-11.4471
▁middelbare	-11.4474
▁chaos	-11.4475
sfeer	-11.448
▁coat	-11.4487
▁Begrijp	-11.4493
▁Research	-11.4493
▁association	-11.4493
▁bastard	-11.4493
▁ignore	-11.4493
▁overweging	-11.4493
▁ultra	-11.4495
preek	-11.4496
▁pension	-11.4497
▁rip	-11.451
▁VOLGEND	-11.4514
▁Women	-11.4518
▁versterken	-11.4536
▁traged	-11.4536
▁margin	-11.4537
▁voormalig	-11.4537
ography	-11.4538
▁Rij	-11.4548
▁EER	-11.4549
▁Greg	-11.4554
▁belofte	-11.4558
zending	-11.4559
▁EEA	-11.4563
▁grapje	-11.4577
▁Greece	-11.4579
▁Imagine	-11.4579
▁externe	-11.4579
▁geproduceerd	-11.4579
▁Yet	-11.4587
▁formule	-11.4591
▁streng	-11.46
▁Oostenrijk	-11.4601
▁Taylor	-11.4601
▁belachelijk	-11.4601
▁disappoint	-11.4605
▁Carter	-11.4607
sturen	-11.4617
▁vlag	-11.4623
EEFT	-11.4623
neinde	-11.4627
▁samenhang	-11.4627
▁assure	-11.4628
▁haalde	-11.4631
▁gehol	-11.4634
▁machtig	-11.464
▁droppe	-11.464
▁indirect	-11.4644
▁gebeurtenissen	-11.4645
▁Auto	-11.4661
▁adjust	-11.4663
▁citizen	-11.467
▁tries	-11.467
▁voetbal	-11.4678
▁Tijd	-11.4678
▁recognition	-11.4688
▁destination	-11.4688
▁Claire	-11.4688
storing	-11.4689
▁constitute	-11.469
▁heerlijk	-11.4692
gedrukt	-11.4693
▁Cass	-11.471
▁Florida	-11.471
▁storage	-11.471
▁snow	-11.471
▁trail	-11.4711
▁convert	-11.4711
▁VN	-11.4712
waarts	-11.4724
▁eigenschapp	-11.4725
▁Follow	-11.4732
▁sequence	-11.4732
▁vluchtelingen	-11.4732
▁reclame	-11.4732
▁hiding	-11.4733
▁plekke	-11.4751
▁supplement	-11.4754
▁1981	-11.4754
▁resident	-11.4754
▁profile	-11.4757
▁dankzij	-11.4757
▁bun	-11.4759
praat	-11.4761
zaamheid	-11.4763
▁Portug	-11.4767
▁betekend	-11.4769
▁description	-11.4776
▁essentieel	-11.4778
▁woede	-11.4786
▁georganiseerd	-11.4798
▁ridiculous	-11.4798
▁zuurstof	-11.4798
▁retire	-11.4799
▁beurt	-11.4799
▁vergelijken	-11.4799
▁Jones	-11.4802
▁observation	-11.4803
▁detective	-11.4804
vlees	-11.4804
problemen	-11.4804
▁pond	-11.4807
▁Kir	-11.481
wend	-11.4816
spreken	-11.4818
▁COMMISSIE	-11.482
gestorven	-11.482
▁parallel	-11.4821
▁geregeld	-11.4821
▁Kyle	-11.4821
▁poison	-11.4823
▁bevrijd	-11.4823
▁strict	-11.4845
▁semi	-11.4847
▁Russ	-11.4861
▁monkey	-11.4865
▁sensitive	-11.4865
▁dimensie	-11.4865
diversity	-11.4869
▁CIA	-11.4876
▁vervaardig	-11.4886
certificaat	-11.4887
▁Elizabeth	-11.4887
▁Goedemorgen	-11.4887
▁Griekenland	-11.4887
▁awesome	-11.4887
▁erkenning	-11.4887
▁broek	-11.4894
letten	-11.4895
▁coördinatie	-11.4909
▁possess	-11.4909
▁virtue	-11.491
▁verdeeld	-11.4912
▁Achter	-11.4914
▁Morgen	-11.492
▁bath	-11.4923
▁Barcelona	-11.4932
▁traditie	-11.4932
▁THAT	-11.4932
▁podium	-11.4932
▁originating	-11.4934
▁10,000	-11.4944
elektrische	-11.4953
▁Muziek	-11.4954
▁AIDS	-11.4954
▁toepasselijk	-11.4977
▁ogenblik	-11.4977
▁transaction	-11.4977
▁Hoofd	-11.4977
▁soldaten	-11.4977
▁schrijver	-11.4978
stoornis	-11.4979
▁humor	-11.499
▁zand	-11.499
▁facilit	-11.4998
▁confident	-11.4999
▁Anderson	-11.5001
▁Edward	-11.5002
▁repair	-11.5003
▁ineens	-11.5007
▁charm	-11.5011
kanker	-11.5013
▁deelnemen	-11.5014
▁courage	-11.5022
▁fake	-11.5023
▁Majest	-11.5023
▁tanden	-11.5024
▁branch	-11.5025
▁stranger	-11.5026
▁1975	-11.5026
▁publish	-11.5036
▁bepaal	-11.5043
▁compliance	-11.5045
▁vegetable	-11.5045
BC	-11.5048
functie	-11.5057
effect	-11.506
▁stabilit	-11.506
▁societ	-11.5067
▁Publicatieblad	-11.5068
▁Nathan	-11.5068
▁verlangen	-11.5068
▁Russische	-11.507
▁sudden	-11.5075
▁decrease	-11.5083
▁Zit	-11.5089
▁gestopt	-11.509
▁oorzaak	-11.509
▁streven	-11.5091
▁Zweden	-11.5091
▁plasma	-11.5091
▁mobilit	-11.5096
▁zuster	-11.5101
▁vriendelijk	-11.5104
▁urge	-11.5106
▁panel	-11.5111
▁spectrum	-11.5113
▁Sara	-11.5116
toets	-11.512
▁formula	-11.5124
▁rape	-11.513
▁east	-11.5136
▁garantie	-11.5136
▁schouder	-11.5137
▁voorkeur	-11.5138
▁facing	-11.5139
▁vocht	-11.5141
▁kocht	-11.5142
vlieg	-11.5144
corp	-11.5146
▁prioriti	-11.5147
oïde	-11.5147
verordening	-11.5151
▁consultation	-11.5154
vlucht	-11.5154
▁vervolg	-11.5155
▁modellen	-11.5156
▁afwijking	-11.5159
▁emissie	-11.516
▁stink	-11.516
▁Albert	-11.5161
▁Susan	-11.5163
▁fur	-11.5181
▁embarrass	-11.5182
▁guilty	-11.5182
▁holiday	-11.5182
▁rubriek	-11.5182
▁beschikken	-11.5182
▁Jackson	-11.519
▁define	-11.5192
▁Evan	-11.5194
▁necessarily	-11.5205
▁verbergen	-11.5205
▁gemeenschappe	-11.5206
▁vaststellen	-11.5211
▁concentrate	-11.5228
▁click	-11.5228
beperking	-11.5229
▁1970	-11.5232
emia	-11.5243
▁consequent	-11.5251
▁brilliant	-11.5251
▁prohibit	-11.5251
▁unlike	-11.5251
▁subsidiar	-11.5251
▁leraar	-11.5252
▁dramatic	-11.526
2006	-11.5263
▁grave	-11.5265
▁Global	-11.5274
▁mirror	-11.5274
▁manifest	-11.5274
▁dirty	-11.5274
▁toepassen	-11.5274
▁ACS	-11.5275
▁Except	-11.5276
▁Kinder	-11.5278
▁politician	-11.5278
▁vastgelegd	-11.5281
▁klant	-11.5285
vloed	-11.5288
wortel	-11.5296
▁evaluation	-11.5298
▁excess	-11.5298
▁wijzigen	-11.5298
▁borrow	-11.5298
▁infectie	-11.53
▁zaal	-11.5302
▁scherp	-11.5305
verbazingwekkend	-11.5321
▁cirkel	-11.5321
▁Friday	-11.5321
▁consciousness	-11.5322
▁Down	-11.5329
▁terugkom	-11.5332
▁Hang	-11.5337
case	-11.5343
▁medicinal	-11.5344
▁willekeurig	-11.5344
▁vlinder	-11.5344
▁verhogen	-11.5344
formulier	-11.5344
▁kleding	-11.5345
wekkend	-11.5346
feliciteerd	-11.5347
▁chart	-11.5349
▁PRO	-11.5351
▁plent	-11.5354
▁Zaken	-11.5358
worth	-11.5365
▁Einstein	-11.5368
▁VAST	-11.5368
dioxide	-11.5368
▁abandon	-11.5368
▁duurzaam	-11.5368
▁distinct	-11.5368
nomen	-11.5383
wetenschappelijk	-11.5387
▁negatieve	-11.5391
▁Joseph	-11.5391
▁Question	-11.5391
▁Terug	-11.5391
▁Sweet	-11.5391
▁oxygen	-11.5391
▁Know	-11.5391
▁shark	-11.5391
▁deeltjes	-11.5401
▁zingen	-11.5406
▁System	-11.5415
▁Sweden	-11.5415
▁librar	-11.5415
▁telken	-11.5418
▁dergelijk	-11.5419
▁perspectief	-11.5438
▁mutual	-11.5438
rijdt	-11.5441
▁autism	-11.5442
fusie	-11.5442
▁mededinging	-11.5462
▁beschaving	-11.5462
▁Post	-11.5463
▁schepen	-11.5463
▁audio	-11.5465
▁Belgium	-11.5486
▁illustrat	-11.5486
▁onderhavig	-11.5486
▁interventie	-11.5486
▁constitution	-11.5488
▁kritiek	-11.5509
▁landscape	-11.5509
▁verwoest	-11.5509
▁Kosov	-11.551
▁hurry	-11.5511
▁klacht	-11.5512
▁gepland	-11.5513
▁Klein	-11.5516
schakelen	-11.5524
GESTELD	-11.5533
▁Vietnam	-11.5533
▁guidelines	-11.5533
▁kalm	-11.5537
▁lone	-11.5538
▁Vrij	-11.5547
▁rational	-11.5555
▁flip	-11.5555
▁maatregel	-11.5556
▁NASA	-11.5557
▁goeie	-11.556
▁België	-11.5581
▁circulat	-11.5581
▁sweat	-11.5582
▁Institute	-11.5592
proeven	-11.5593
▁deposit	-11.5594
meester	-11.5597
▁volunteer	-11.5605
▁berekend	-11.5606
▁transactie	-11.5606
2004	-11.5622
▁horribl	-11.5629
▁agency	-11.5629
▁genezen	-11.5634
▁welkom	-11.5637
stroom	-11.5648
vleugel	-11.5653
▁incorporat	-11.5653
▁Azië	-11.5653
▁benadering	-11.5653
▁Ladies	-11.5654
▁manipulat	-11.5654
▁flash	-11.5655
▁minstens	-11.5657
mount	-11.5674
▁Probably	-11.5677
▁universal	-11.5677
▁activist	-11.5677
▁fisheries	-11.5677
▁cartoon	-11.5677
▁sail	-11.5683
▁empath	-11.5703
▁partnership	-11.5705
gegroeid	-11.5705
feest	-11.5707
krijg	-11.5709
LY	-11.5719
▁bloot	-11.5725
▁approximate	-11.5726
▁atmosfeer	-11.5726
▁beschikbare	-11.5726
▁nieuwsgierig	-11.5726
▁substantial	-11.5726
▁yellow	-11.5726
▁kwetsbaar	-11.5726
▁communiceren	-11.5726
▁gereedschap	-11.5726
stijging	-11.5726
▁rescue	-11.5726
▁Kelly	-11.5728
bedrijven	-11.5738
▁inject	-11.574
▁Spring	-11.5747
μ	-11.575
▁resolve	-11.575
▁Larry	-11.5755
▁realiseren	-11.5759
ndeed	-11.5767
ddle	-11.577
▁beëindig	-11.5775
▁grateful	-11.5775
▁vermijden	-11.5775
▁senior	-11.5775
▁skelet	-11.5775
▁dynamic	-11.5776
▁Link	-11.578
▁1982	-11.5782
▁rechtvaardig	-11.5782
▁verkiezing	-11.5783
crypt	-11.5787
▁chest	-11.5788
▁cutting	-11.5789
richtsnoeren	-11.5799
▁Luxemburg	-11.5799
▁kwalijk	-11.5799
▁bread	-11.58
▁zweer	-11.58
▁materie	-11.5803
productie	-11.5805
▁volgde	-11.5811
▁tube	-11.582
▁surprising	-11.5823
▁rubber	-11.5824
populatie	-11.5824
▁rush	-11.5824
still	-11.5828
prijzen	-11.5837
ñ	-11.5848
▁Conference	-11.5848
▁breakfast	-11.5848
▁license	-11.5848
▁buik	-11.5848
▁prins	-11.5852
▁jammer	-11.5857
▁proceed	-11.5872
▁pizza	-11.5873
▁stabiliteit	-11.5873
▁revenue	-11.5878
▁lung	-11.5881
▁ontken	-11.5884
▁brede	-11.5897
▁algorithm	-11.5897
▁enlargement	-11.5897
▁technologische	-11.5897
▁bedreiging	-11.5897
▁liedje	-11.59
▁loyal	-11.5903
▁Congo	-11.5914
▁disturb	-11.5922
▁Hollywood	-11.5922
▁instinct	-11.5922
▁zodanig	-11.5922
stemming	-11.5923
▁Justitie	-11.5928
▁woonde	-11.5937
ACE	-11.594
▁Amazon	-11.5947
▁burden	-11.5947
▁proceedings	-11.5948
▁Duits	-11.595
▁pitch	-11.5958
nformation	-11.5964
▁Arabisch	-11.5964
▁explosie	-11.5972
▁imagination	-11.5972
▁Church	-11.5972
▁Third	-11.5972
▁laser	-11.5976
▁zichtbaar	-11.5976
ELL	-11.5976
▁Dankjewel	-11.5997
▁divorce	-11.5997
▁ordinary	-11.5997
▁Besides	-11.5997
▁Johnson	-11.6007
▁klassiek	-11.6022
▁verloor	-11.6022
▁accurate	-11.6022
▁behoeve	-11.6024
▁Morgan	-11.6024
▁cheat	-11.6026
▁Begin	-11.603
tijdje	-11.6035
▁droeg	-11.6047
▁Hartelijk	-11.6047
▁koloni	-11.6047
mechanisme	-11.6047
▁ACP	-11.6047
▁encounter	-11.6047
▁effectief	-11.6054
▁ecosystem	-11.6055
▁Latin	-11.6055
▁klap	-11.6063
▁Luxembourg	-11.6072
▁ambulance	-11.6072
▁violent	-11.6072
▁schilderij	-11.6072
▁Major	-11.6072
count	-11.6073
▁consument	-11.6074
▁curious	-11.6075
dank	-11.6075
egenwoordig	-11.6091
▁immigrant	-11.6097
▁subsequent	-11.6097
▁technological	-11.6097
▁valuable	-11.6097
▁verpest	-11.6098
▁authorisation	-11.6098
▁bevoegdheden	-11.6099
▁bull	-11.6108
▁Vader	-11.611
MAN	-11.6118
▁Hurr	-11.6121
▁suicide	-11.6122
▁transparenc	-11.6122
doeleinden	-11.6122
▁geweten	-11.6123
▁geopend	-11.6123
▁knie	-11.6131
▁spier	-11.6137
▁Foundation	-11.6148
▁injury	-11.6148
▁admir	-11.6148
▁trigger	-11.6149
▁1978	-11.6154
communic	-11.6172
▁aangetoond	-11.6173
▁column	-11.6173
▁uitzoeken	-11.6173
▁verscheiden	-11.6173
▁GDP	-11.6173
▁verbeterd	-11.6173
▁quantiti	-11.6173
▁sneeuw	-11.6173
▁feedback	-11.6174
voorstel	-11.6182
▁dodelijk	-11.6189
vriend	-11.6196
▁entrepreneur	-11.6199
▁gevestigd	-11.6199
▁Nooit	-11.6199
▁Saint	-11.6205
beweging	-11.6216
▁abstract	-11.6224
▁introduction	-11.6226
evertheless	-11.6226
▁Jesse	-11.6239
ANT	-11.624
▁Financial	-11.625
▁ruil	-11.6255
▁characteristics	-11.6275
▁impuls	-11.6277
aneous	-11.6279
venue	-11.6281
▁Yep	-11.6285
▁swim	-11.6286
▁profession	-11.6291
rommel	-11.6292
affected	-11.63
▁Mediterrane	-11.6301
▁legislative	-11.6301
▁aanpassen	-11.6301
▁bijwerkingen	-11.6301
▁solv	-11.6301
▁diabetes	-11.6327
gress	-11.6328
▁stomme	-11.6349
ijvoorbeeld	-11.6351
▁promotion	-11.6353
▁Science	-11.6353
▁internationaal	-11.6353
▁beseffen	-11.6353
soever	-11.6355
▁prime	-11.6357
▁stort	-11.6362
▁waardevol	-11.6364
▁feitelijk	-11.6366
ontwikkeling	-11.6374
{	-11.6378
▁buitengewoon	-11.6378
▁cadeau	-11.6378
▁exhibit	-11.6378
▁gigantisch	-11.6378
▁woestijn	-11.6378
▁consensus	-11.6378
▁levensmiddelen	-11.638
▁beginselen	-11.6382
▁organiseren	-11.6392
▁clip	-11.64
▁Environment	-11.6404
▁Colonel	-11.6404
▁Vincent	-11.6405
▁pursue	-11.6405
▁draad	-11.641
▁ambitie	-11.6413
▁goddamn	-11.643
▁verdieping	-11.643
▁Leonard	-11.6431
vloek	-11.6431
▁analog	-11.6431
▁Jacob	-11.6432
▁crop	-11.6432
▁verspil	-11.6433
▁reverse	-11.6436
destroyed	-11.6452
▁stimuleren	-11.6455
▁apologize	-11.6457
snijden	-11.6457
▁voltooi	-11.6457
▁regelgeving	-11.6457
▁Annie	-11.6467
long	-11.6477
▁tonne	-11.6481
▁REGULATION	-11.6483
▁particuliere	-11.6483
chauffeur	-11.6483
▁studeren	-11.6483
▁geliefd	-11.6483
▁Vegas	-11.6483
▁ijzer	-11.6483
gebonden	-11.6483
▁Darwin	-11.6484
▁1976	-11.6489
liggende	-11.6498
▁Californië	-11.6509
▁category	-11.6509
▁emphasis	-11.6509
▁routine	-11.6509
▁Lisbon	-11.6509
▁float	-11.651
breiden	-11.6517
schouw	-11.6534
▁Madrid	-11.6535
▁cousin	-11.6535
▁digit	-11.6537
▁vecht	-11.6539
▁habitat	-11.6543
▁exclusive	-11.6562
▁silence	-11.6562
▁ontbijt	-11.6562
▁sharp	-11.6563
▁Dames	-11.6563
golven	-11.6566
▁navigat	-11.6566
▁modul	-11.6568
gezonden	-11.6576
financ	-11.6584
▁doeltreffend	-11.6585
▁compliment	-11.6588
▁Though	-11.6589
▁architecture	-11.6591
▁pijl	-11.66
tempel	-11.66
▁fulfill	-11.6608
▁Authorit	-11.6615
▁advertis	-11.6615
▁Happy	-11.6615
▁inspection	-11.6615
▁verkrijgen	-11.6615
▁municipality	-11.6616
▁bewaren	-11.6616
gewend	-11.6626
â	-11.6641
▁garanderen	-11.6641
▁sacrifice	-11.6641
▁vergeleken	-11.6641
▁vulnerabl	-11.6641
▁verdriet	-11.6641
▁financiee	-11.6641
▁eligib	-11.6644
▁facilities	-11.6645
genoten	-11.6653
▁aanbev	-11.666
2003	-11.6664
▁klok	-11.6665
▁Absolute	-11.6668
▁genuine	-11.6668
therapeut	-11.6668
▁yard	-11.6677
enoeg	-11.6684
▁ontsnappen	-11.6695
▁potentieel	-11.6695
▁false	-11.6695
vereniging	-11.6695
▁vertical	-11.6696
▁Sky	-11.6696
▁Earl	-11.6701
▁Harris	-11.6702
▁neder	-11.6708
▁Technolog	-11.6722
▁VERORDENING	-11.6722
▁officieel	-11.6722
▁profound	-11.6722
▁shadow	-11.6722
▁sponsor	-11.6722
▁symmetr	-11.6722
▁bibliothe	-11.6722
▁defense	-11.6722
▁verplaatsen	-11.6722
structuur	-11.6726
▁permission	-11.6727
▁cabin	-11.673
▁gedeeltelijk	-11.6739
▁exhaust	-11.6748
▁Patrick	-11.6749
▁adjustment	-11.6752
▁immediate	-11.6759
UST	-11.6769
▁Australië	-11.6775
▁Manhattan	-11.6775
▁bacteriën	-11.6775
▁sympath	-11.6775
▁afscheid	-11.6775
▁Stephen	-11.6775
▁tijdstip	-11.6775
▁mineral	-11.6778
▁contrary	-11.6779
▁addict	-11.678
termijn	-11.6782
▁legend	-11.6798
ç	-11.6802
▁Inderdaad	-11.6802
▁gearresteerd	-11.6802
▁ontvangst	-11.6802
▁NCB	-11.6802
▁bedreigd	-11.6802
▁knife	-11.6802
▁schaduw	-11.6802
▁toevoegen	-11.6802
▁gemiddeld	-11.681
▁ideolog	-11.6821
missie	-11.6826
▁confess	-11.683
▁sheriff	-11.683
bewust	-11.6836
sproken	-11.6839
laatstelijk	-11.6856
}	-11.6857
▁geneeskunde	-11.6857
▁WTO	-11.6857
▁beweegt	-11.6857
▁motive	-11.6857
▁Uncle	-11.6858
▁voldaan	-11.6862
voorwaarden	-11.6864
▁geleidelijk	-11.6865
what	-11.6865
▁collapse	-11.6884
▁ongelofelijk	-11.6884
▁survival	-11.6884
▁voorspellen	-11.6884
▁Federal	-11.6884
▁mondiale	-11.6884
▁scheppen	-11.6884
▁schaam	-11.6884
onica	-11.6891
confronteerd	-11.6893
▁coral	-11.6894
zitten	-11.6901
▁prospect	-11.6905
▁COMMUNIT	-11.6911
▁YouTube	-11.6911
▁Department	-11.6911
▁Sunday	-11.6912
▁Brother	-11.6914
▁highlight	-11.6916
▁gedw	-11.6924
▁drankje	-11.6927
▁slep	-11.6935
▁happi	-11.6938
▁Alzheimer	-11.6939
▁empower	-11.6939
▁tijdperk	-11.6939
▁undertake	-11.6945
getekend	-11.6949
▁instant	-11.6967
▁transmission	-11.6968
▁opmerkelijk	-11.6968
▁Valley	-11.6969
lweer	-11.6986
▁habit	-11.6989
▁Virginia	-11.6994
▁luchthaven	-11.6994
▁fiscal	-11.6994
▁Police	-11.6996
bevolk	-11.7016
▁balans	-11.7021
▁wiskundig	-11.7021
▁nagedacht	-11.7021
▁division	-11.7021
▁beloning	-11.7022
▁Irish	-11.7023
groet	-11.7026
▁Tha	-11.7028
▁eiwit	-11.7049
▁desbetreffende	-11.7049
▁neutral	-11.7049
▁bedraagt	-11.7049
▁implant	-11.7049
▁plaatje	-11.7049
▁......	-11.7049
▁cheese	-11.7049
▁bedrijfstak	-11.7049
▁geboekt	-11.705
▁authorised	-11.705
factor	-11.7067
buried	-11.7077
▁grafiek	-11.7078
▁Abby	-11.7079
gewicht	-11.709
▁assistent	-11.709
▁commerciële	-11.7105
▁examination	-11.7105
▁voldoet	-11.7105
▁Agricultur	-11.7105
▁volksgezondheid	-11.7105
▁waarborgen	-11.7105
▁Schengen	-11.7105
liegt	-11.7106
▁instructions	-11.7106
▁chef	-11.7107
gepast	-11.7122
▁possibilities	-11.7133
▁zwemmen	-11.7133
▁Exactly	-11.7133
onderneming	-11.7148
▁temporary	-11.7161
▁chapter	-11.7161
▁interrupt	-11.7161
▁gespeeld	-11.7161
▁decline	-11.7162
▁Ondank	-11.7162
▁communautair	-11.7174
▁ratio	-11.7178
▁gecreëerd	-11.7189
▁prejudice	-11.7189
▁quantity	-11.7189
▁werkloosheid	-11.7189
▁Oceaan	-11.7189
▁College	-11.7189
▁absence	-11.7189
▁frequentie	-11.719
commissie	-11.7205
▁pollution	-11.7217
▁erkennen	-11.7217
▁koffer	-11.7217
▁authentic	-11.7245
▁geslaagd	-11.7245
▁voeden	-11.7245
▁enhance	-11.7246
▁Serv	-11.7247
▁voegen	-11.7251
▁clinic	-11.7256
▁effectieve	-11.726
persoon	-11.7265
▁conscious	-11.7272
▁enthousiast	-11.7273
▁plotseling	-11.7273
▁auteur	-11.7274
▁fenome	-11.7275
▁preced	-11.7276
▁Wolf	-11.7276
▁warrant	-11.7277
voeder	-11.7285
▁Direct	-11.7286
compatible	-11.7302
▁unusual	-11.7302
▁involv	-11.7323
▁participant	-11.733
▁controvers	-11.733
▁throat	-11.7331
▁civilization	-11.7332
▁considerabl	-11.7349
ngeveer	-11.7359
▁Olympic	-11.7359
▁academic	-11.7359
▁asleep	-11.7359
▁geduld	-11.7359
▁Jongens	-11.7359
▁verwerkt	-11.7364
▁straten	-11.7364
ière	-11.7367
▁accelerat	-11.7387
▁appointment	-11.7387
▁voornaamste	-11.7388
▁verstrekken	-11.7388
▁dumb	-11.7405
▁Commander	-11.7416
▁discrimination	-11.7416
▁uitgenodigd	-11.7416
▁barrier	-11.7417
▁tante	-11.742
▁telephone	-11.7445
▁verzekeren	-11.7445
destruction	-11.7446
▁ethic	-11.7451
▁resource	-11.7458
while	-11.7468
▁arrange	-11.7471
▁geïntegreerd	-11.7474
▁veroordeeld	-11.7474
▁Museum	-11.7474
▁radiation	-11.7474
▁Sociaal	-11.7474
▁moslim	-11.7474
▁bezocht	-11.7474
▁dispute	-11.7475
▁Market	-11.7479
▁index	-11.7482
▁drama	-11.749
▁grandmother	-11.7503
▁intellectual	-11.7503
▁Year	-11.7503
▁stabiel	-11.7503
placing	-11.7531
kapitalis	-11.7532
▁Obama	-11.7532
▁astronom	-11.7532
▁spiritual	-11.7532
▁childhood	-11.7533
▁vermist	-11.7537
structure	-11.7552
▁Saturday	-11.7561
ł	-11.7561
▁agencies	-11.7561
▁versterking	-11.7561
▁Policy	-11.7561
▁hormone	-11.7561
▁thick	-11.7563
▁jurk	-11.7564
▁absorb	-11.759
▁darling	-11.759
▁Krijg	-11.7591
▁Eastern	-11.7591
▁creatieve	-11.7591
▁echtgenoot	-11.762
▁obstacle	-11.762
creativity	-11.762
▁lobby	-11.762
▁Club	-11.762
▁Monday	-11.7621
▁flink	-11.7624
▁Gibb	-11.7627
▁aantrekkelijk	-11.7649
▁excluding	-11.7649
▁monetary	-11.7649
а	-11.7649
▁illness	-11.765
▁Alexander	-11.765
▁Forget	-11.765
▁raket	-11.7651
▁Politie	-11.7652
▁douche	-11.7653
▁schadelijk	-11.7656
situatie	-11.7677
▁briljant	-11.7679
▁centimeter	-11.7679
▁tremendous	-11.7679
▁Foreign	-11.7679
▁translate	-11.7679
▁gevormd	-11.768
▁rechtbank	-11.7681
▁inkomsten	-11.7683
▁froze	-11.7683
▁Matthew	-11.7708
▁accomplish	-11.7708
▁grandfather	-11.7708
▁suspend	-11.7709
▁timing	-11.7709
▁broeder	-11.771
▁uitzonderlijk	-11.7738
▁versterkt	-11.7738
▁toediening	-11.7738
▁aircraft	-11.7739
▁summar	-11.7742
▁Sheriff	-11.7768
▁fought	-11.7768
▁Kerst	-11.777
▁acquire	-11.7798
▁bilateral	-11.7798
▁impression	-11.7798
▁ingredient	-11.7798
▁onderworpen	-11.7798
▁telescope	-11.7798
▁toegankelijk	-11.7798
gerelateerd	-11.7798
▁desperate	-11.7798
▁blootstelling	-11.7799
gewassen	-11.7803
▁genome	-11.7803
▁opeens	-11.7807
inrichting	-11.7826
▁GEMEENSCHAPPE	-11.7827
▁vrachtwagen	-11.7827
▁leraren	-11.7827
▁ghost	-11.7828
▁whale	-11.7828
▁STA	-11.783
▁NOT	-11.7832
bedrag	-11.7848
▁fundamenteel	-11.7857
▁invitation	-11.7857
▁asshole	-11.7858
▁Klopt	-11.7858
▁tariff	-11.7858
▁spuit	-11.7858
▁Universiteit	-11.7859
▁expertise	-11.786
betaling	-11.7861
club	-11.7863
rsey	-11.7864
▁toonde	-11.7884
▁Francis	-11.7886
selling	-11.7888
openhagen	-11.7888
▁Association	-11.7888
▁Pacific	-11.7888
▁regulator	-11.7888
▁smooth	-11.7888
▁ceiling	-11.7888
▁inlichtingen	-11.7888
▁duivel	-11.7888
▁blond	-11.7889
cyclo	-11.789
▁schakel	-11.79
bacter	-11.7916
▁geregistreerd	-11.7918
▁wisdom	-11.7918
▁kennisgeving	-11.7919
afhankelijkheid	-11.7919
▁dikke	-11.7925
▁drove	-11.7938
▁beoordel	-11.7941
▁surgeon	-11.7948
▁Oliver	-11.7948
▁incentive	-11.7948
gedreven	-11.7948
▁Space	-11.7951
▁overwegen	-11.7952
▁elect	-11.7959
Jawel	-11.7961
entities	-11.7966
▁administer	-11.7979
▁bekendmaking	-11.7979
▁verheug	-11.7979
▁embryo	-11.7979
▁NGO	-11.7979
▁terugkeer	-11.7984
▁replica	-11.7986
▁facilitate	-11.7991
▁plug	-11.7992
▁naald	-11.7999
vlek	-11.8
leverancier	-11.8009
▁algoritme	-11.8009
▁beschrijving	-11.8009
▁dominant	-11.8009
▁elite	-11.801
▁genius	-11.8011
▁depth	-11.8013
uitziet	-11.8025
▁bedenk	-11.8026
republiek	-11.804
▁bruiloft	-11.804
▁creativiteit	-11.804
▁unknown	-11.804
▁harvest	-11.804
herstructurering	-11.804
▁tongue	-11.8041
▁convict	-11.8041
▁Moeder	-11.8043
probleem	-11.8047
brengt	-11.8048
▁diversiteit	-11.807
▁Management	-11.807
▁bestrijden	-11.807
▁signature	-11.807
▁colour	-11.807
▁allereerst	-11.807
lways	-11.808
▁horizon	-11.8099
▁geografisch	-11.8101
▁uitdrukking	-11.8101
▁Denmark	-11.8101
declared	-11.8102
▁ondertekend	-11.8102
▁kunstmatig	-11.8102
▁expir	-11.8104
▁recall	-11.8104
▁artificial	-11.8132
▁champion	-11.8132
▁miracle	-11.8132
▁romantic	-11.8132
▁verrassend	-11.8132
▁stretch	-11.8132
▁maaltijd	-11.8132
▁Guess	-11.8134
▁rijkdom	-11.8134
wetenschapp	-11.8137
ziekte	-11.8163
▁ontsnapt	-11.8163
▁restructuring	-11.8163
▁gestoord	-11.8163
▁visuele	-11.8164
▁architectuur	-11.8164
▁Brita	-11.8167
▁professionele	-11.8173
▁geschied	-11.8194
werkingtred	-11.8194
ô	-11.8194
▁glimlach	-11.8194
▁Argentin	-11.8194
▁prince	-11.8194
▁frank	-11.8197
▁fulfil	-11.8208
▁basketbal	-11.8225
▁bubble	-11.8225
▁concentreren	-11.8225
▁confused	-11.8225
▁decennia	-11.8225
▁evolved	-11.8225
▁extreem	-11.8225
▁Programme	-11.8225
▁Lewis	-11.8225
▁minimal	-11.8226
▁Constitution	-11.8227
▁soldaat	-11.8227
▁defeat	-11.8236
document	-11.8237
Yeah	-11.8237
▁cluster	-11.8256
▁implication	-11.8256
▁worldwide	-11.8256
▁memories	-11.8256
elected	-11.8272
▁Vrouwen	-11.8288
▁brown	-11.8288
gestoken	-11.8292
▁mutati	-11.8293
▁Charlotte	-11.8319
▁multilateral	-11.8319
▁strategisch	-11.8319
▁dwars	-11.8319
▁Ferr	-11.832
▁Hawk	-11.8321
verklaring	-11.8334
▁Lissabon	-11.8351
▁olifant	-11.8351
▁voortvloei	-11.8351
▁bullshit	-11.8351
▁phenomeno	-11.8351
▁Vroeg	-11.8351
▁produktie	-11.8352
▁horizontal	-11.8353
▁BIJLAGE	-11.8382
▁elephant	-11.8382
▁gewelddadig	-11.8382
▁residue	-11.8382
▁fifth	-11.8382
▁macro	-11.8383
▁mannetje	-11.8383
▁betray	-11.8384
▁Berlin	-11.8385
twijfeld	-11.839
institut	-11.8394
▁burgemeester	-11.8414
▁compound	-11.8414
▁inevitabl	-11.8414
▁Marshall	-11.8414
▁vervelend	-11.8416
▁Reglement	-11.8446
▁assault	-11.8446
▁Tyler	-11.8446
▁naked	-11.8449
▁verliet	-11.845
▁discriminatie	-11.8478
▁gecombineerd	-11.8478
▁wraak	-11.8478
▁vaartuig	-11.8478
▁vissers	-11.8479
▁rabbi	-11.8484
▁congratulate	-11.851
▁uncertain	-11.851
▁aanbieden	-11.851
▁vergroten	-11.851
▁mystery	-11.8511
▁beschikt	-11.8511
▁medisch	-11.8539
▁absurd	-11.8542
▁binnenlandse	-11.8542
▁gradual	-11.8542
▁pauze	-11.8542
▁Syria	-11.8542
▁Bijlage	-11.8542
▁Dokter	-11.8542
▁Custom	-11.8574
▁Denemarken	-11.8574
▁reservation	-11.8574
▁1973	-11.8574
▁deskundigen	-11.8574
▁vergoeding	-11.8575
▁Easy	-11.8575
▁Honor	-11.8575
▁premier	-11.8584
▁Volks	-11.8605
▁ceremon	-11.8607
▁iPhone	-11.8607
▁strategic	-11.8607
bespreking	-11.8607
▁smoking	-11.8607
▁verbeelding	-11.8607
▁extinct	-11.8608
▁Congratulat	-11.8639
▁exclude	-11.8639
▁puzzle	-11.8639
▁restitutie	-11.8639
▁verzocht	-11.8639
▁causing	-11.8639
▁verstopt	-11.864
▁radar	-11.864
▁daddy	-11.864
fficiëntie	-11.865
▁cigarette	-11.8672
▁betrouwbaar	-11.8672
▁arbeiders	-11.8672
▁fotograf	-11.8676
▁recruit	-11.8704
▁prosper	-11.8706
▁neuk	-11.8707
▁respons	-11.8708
azol	-11.8734
▁toegediend	-11.8737
geschakeld	-11.8737
▁Vervolgen	-11.8737
▁metaphor	-11.8737
▁voorspelling	-11.8738
▁twist	-11.8738
abiliteit	-11.8739
ê	-11.877
▁concurreren	-11.877
cyclus	-11.877
▁compensation	-11.877
▁dwingen	-11.877
▁broadcast	-11.877
▁Company	-11.877
▁powder	-11.877
kliniek	-11.877
▁initiate	-11.8784
▁typisch	-11.8803
▁domein	-11.8804
▁beetle	-11.8804
▁torture	-11.8804
▁naakt	-11.8809
▁stereo	-11.8829
▁glucose	-11.8836
▁qualified	-11.8836
▁religieuze	-11.8836
▁Colombia	-11.8836
▁cyber	-11.8837
▁Ceram	-11.8838
▁distort	-11.8838
▁Blood	-11.8844
ogether	-11.8846
▁isolate	-11.8857
▁principal	-11.8869
▁respectievelijk	-11.8869
▁verontschuldig	-11.8869
▁Energy	-11.8869
▁lengte	-11.8869
▁distract	-11.8871
▁Olivi	-11.8873
▁specul	-11.8895
▁gedetailleerd	-11.8903
▁wolken	-11.8903
▁CEO	-11.8903
▁Answer	-11.8903
▁derogation	-11.8903
▁gedicht	-11.8903
EIB	-11.8904
omstandigheden	-11.8933
▁Reference	-11.8936
▁sigaret	-11.8936
▁Herinner	-11.8936
▁bleeding	-11.8936
rived	-11.8936
▁accent	-11.8937
▁eieren	-11.8937
▁muzika	-11.8939
▁parameters	-11.8939
▁ugl	-11.894
▁verhuisd	-11.8941
▁enzym	-11.8943
▁ANNEX	-11.897
▁chocolate	-11.897
▁reconstruct	-11.897
▁gezelschap	-11.897
▁counsel	-11.897
▁Balkan	-11.8971
▁dramatisch	-11.8978
▁Close	-11.8987
▁cortex	-11.9003
▁essentiële	-11.9003
▁boerderij	-11.9003
▁fossil	-11.9003
▁ontzettend	-11.9003
▁comparison	-11.9004
▁kelder	-11.9004
schatten	-11.9031
▁Gordon	-11.9037
▁reinforce	-11.9037
▁expense	-11.9037
▁silent	-11.9037
▁Soviet	-11.9038
▁behave	-11.9038
▁overleefd	-11.9042
▁reliabl	-11.9044
pulled	-11.9044
pyr	-11.9066
▁liabilit	-11.9071
α	-11.9071
▁Ombudsman	-11.9071
▁eliminate	-11.9071
▁disagree	-11.9071
▁discharge	-11.9071
▁airplane	-11.9071
▁Serious	-11.9071
▁deelnemers	-11.9071
▁wolf	-11.9071
▁verrast	-11.9075
▁Enkele	-11.909
▁medicijn	-11.9099
▁onvermijdelijk	-11.9105
▁spoedig	-11.9105
IGHT	-11.9105
▁mislukk	-11.9105
▁kussen	-11.9105
▁Gabriel	-11.9105
ploeg	-11.9106
▁Berg	-11.9116
≥	-11.9139
▁phrase	-11.9139
▁province	-11.9139
▁deploy	-11.9139
▁Buiten	-11.914
▁Sahara	-11.9141
▁Volgend	-11.9142
stopping	-11.916
glasses	-11.9173
▁Christopher	-11.9173
▁scratch	-11.9173
▁deficit	-11.9173
▁kloppen	-11.9173
▁dictator	-11.9174
abilities	-11.9183
▁assumption	-11.9208
▁nucleaire	-11.9242
▁Dylan	-11.9242
▁inschrijving	-11.9242
▁eikel	-11.9242
appointed	-11.9271
▁password	-11.9277
▁zorgvuldig	-11.9277
É	-11.9277
▁bewonder	-11.9277
traject	-11.9277
▁transplant	-11.9278
▁gemeld	-11.9281
grensoverschrijd	-11.9312
▁Kapitein	-11.9312
▁ambtenaren	-11.9312
▁beoordeeld	-11.9312
▁champagne	-11.9312
▁veterinar	-11.9312
▁vibrat	-11.9314
▁ontstaa	-11.9337
▁safeguard	-11.9346
▁Subject	-11.9346
▁educate	-11.9346
▁teenager	-11.9347
▁handicap	-11.9347
▁delegatie	-11.9347
▁overtuiging	-11.9347
▁alibi	-11.9347
▁awake	-11.9376
▁gefinancierd	-11.9381
▁identificeren	-11.9381
▁transparent	-11.9381
▁negeren	-11.9382
▁jealous	-11.9382
▁endorse	-11.9389
▁droge	-11.9399
▁Nanc	-11.9414
▁Onderzoek	-11.9417
▁Wikipedia	-11.9417
▁negatief	-11.9417
▁WHAT	-11.9417
▁Hitler	-11.9417
▁raising	-11.9417
▁stunt	-11.9418
veiligheid	-11.9425
gezondheid	-11.9425
▁compose	-11.9427
▁pirate	-11.9427
sprei	-11.9434
gevraagd	-11.9447
▁sergeant	-11.9452
▁jungle	-11.9452
▁Chamber	-11.9452
▁optimal	-11.9452
▁Ethan	-11.9452
▁racism	-11.9456
▁limb	-11.9463
premie	-11.9471
▁vacation	-11.9487
▁terminal	-11.9488
▁Creat	-11.949
▁verbied	-11.9491
estheti	-11.9498
č	-11.9523
▁Taliban	-11.9523
▁comprehensive	-11.9523
▁satisfy	-11.9523
▁symbool	-11.9523
▁stevig	-11.9523
▁clue	-11.9523
percentage	-11.9533
▁honour	-11.9539
opbrengst	-11.9558
▁Through	-11.9558
▁brieven	-11.9558
▁Machine	-11.9558
snelheid	-11.9571
▁servant	-11.9594
▁League	-11.9594
▁zaterdag	-11.9594
▁onverwacht	-11.9594
▁ontvoerd	-11.9594
▁getoond	-11.9595
orwegen	-11.9598
nomic	-11.9603
lliance	-11.9604
geraakt	-11.9607
▁tract	-11.9613
aanvaardbaar	-11.9625
▁humanitarian	-11.963
▁mislukt	-11.963
▁sweetheart	-11.963
▁swimming	-11.963
▁cheque	-11.963
▁disrupt	-11.963
▁ambassade	-11.9666
▁medication	-11.9666
▁renewable	-11.9666
▁Nelson	-11.9666
koorts	-11.9666
▁congres	-11.9669
▁fascinating	-11.9702
▁elegant	-11.9702
▁fantasie	-11.9702
▁Chinees	-11.9702
▁heuvel	-11.9702
▁applaus	-11.9702
▁Pretty	-11.9702
▁Bulgaria	-11.9738
▁Especially	-11.9738
▁rechercheur	-11.9738
▁satisfie	-11.9738
▁schreeuwen	-11.9738
▁vreugde	-11.9738
▁bewaker	-11.9738
rechtvaardigheid	-11.9765
ã	-11.9774
▁Lincoln	-11.9774
▁Oxford	-11.9774
▁onvoldoende	-11.9774
▁overwhelm	-11.9774
▁condemn	-11.9774
▁Ocean	-11.9775
▁Snow	-11.9775
▁woke	-11.9781
▁biodiversit	-11.9804
▁Brittannië	-11.9811
▁Rwanda	-11.9811
▁episode	-11.9811
▁primarily	-11.9811
▁geschenk	-11.9811
▁walvis	-11.9811
▁accumulat	-11.9812
mogelijkheden	-11.9834
▁corporate	-11.9847
▁gedefinieerd	-11.9847
▁immigratie	-11.9847
▁promoting	-11.9847
▁disgust	-11.9848
▁execute	-11.9848
▁vagina	-11.9848
▁modified	-11.9848
▁casino	-11.9848
▁frighten	-11.9848
threatened	-11.9854
certificaten	-11.9856
▁patch	-11.9859
▁bemoei	-11.9867
wereldwijde	-11.9872
▁Thailand	-11.9884
▁immigration	-11.9884
▁tegemoet	-11.9884
▁consolidat	-11.9884
▁overwinning	-11.9884
▁fortune	-11.9884
▁domain	-11.9885
▁securiti	-11.9885
▁telecommunicati	-11.9895
strategie	-11.9905
▁hectare	-11.9921
▁dependent	-11.9921
▁Square	-11.9921
▁amateur	-11.9921
geleefd	-11.9939
▁translation	-11.9958
▁cereal	-11.9958
▁diagram	-11.9958
▁funeral	-11.9958
▁drown	-11.9958
▁Oscar	-11.9959
▁geraken	-11.9959
▁Goedkeuring	-11.9995
▁ingenieurs	-11.9995
▁reglement	-11.9995
▁ancestor	-11.9995
▁Seattl	-11.9996
▁PRODUCT	-12.0033
▁intuïtie	-12.0033
drempel	-12.0033
▁Hannah	-12.0033
▁defensie	-12.0033
▁kritisch	-12.0034
ν	-12.007
и	-12.0183
ा	-12.0531
€	-12.061
·	-12.0689
क	-12.0891
′	-12.1097
е	-12.1435
о	-12.1741
š	-12.1875
¶	-12.192
ι	-12.2334
ø	-12.2524
£	-12.2621
र	-12.2621
н	-12.2669
±	-12.2718
¡	-12.2866
ú	-12.2866
р	-12.3016
&	-12.3031
л	-12.3533
ρ	-12.3693
े	-12.3747
Β	-12.4191
■	-12.4362
å	-12.4774
≤	-12.5203
î	-12.5393
्	-12.5457
η	-12.6054
ि	-12.6122
स	-12.6191
Ö	-12.6261
τ	-12.633
æ	-12.6401
^	-12.6543
Í	-12.6688
×	-12.6688
त	-12.6834
λ	-12.7287
©	-12.7681
в	-12.7681
§	-12.7761
ं	-12.7843
ž	-12.7925
т	-12.8175
Ë	-12.8259
π	-12.8606
न	-12.8694
ā	-12.8784
ò	-12.8874
σ	-12.8874
ß	-12.9056
υ	-12.9149
ð	-12.9242
с	-12.9337
ا	-12.9432
ń	-12.9528
Ã	-12.9528
Ø	-12.9723
ă	-12.9822
ो	-12.9822
ę	-13.0125
ς	-13.0544
χ	-13.0544
Š	-13.0652
ý	-13.087
Ρ	-13.0981
Τ	-13.0981
⁄	-13.0981
д	-13.1207
ल	-13.1439
ह	-13.1556
ε	-13.1675
ل	-13.1675
य	-13.1675
ć	-13.1918
प	-13.1918
κ	-13.1918
ì	-13.2041
ą	-13.2166
↓	-13.2166
ά	-13.2421
ी	-13.2421
म	-13.2682
Á	-13.2816
я	-13.2816
м	-13.2951
Ε	-13.3227
г	-13.3227
व	-13.3952
ś	-13.4103
□	-13.4257
¿	-13.4572
Π	-13.4572
θ	-13.4733
。	-13.4897
Å	-13.5406
Ó	-13.5406
̈	-13.5406
Κ	-13.576
®	-13.576
Ü	-13.576
ै	-13.576
Ł	-13.5942
ί	-13.5942
द	-13.5942
−	-13.5942
ş	-13.6127
ș	-13.6127
ज	-13.6127
ě	-13.6316
ż	-13.6316
ύ	-13.6508
ė	-13.6508
β	-13.6704
ω	-13.6704
у	-13.6704
ō	-13.6704
ț	-13.6704
γ	-13.7108
►	-13.7316
ي	-13.7529
й	-13.7747
ग	-13.7747
ъ	-13.7747
Ä	-13.7969
Ž	-13.7969
↑	-13.7969
δ	-13.8196
ό	-13.8196
О	-13.8196
С	-13.8196
В	-13.8429
Ś	-13.8429
φ	-13.8667
А	-13.8667
Â	-13.8667
ч	-13.8667
م	-13.8667
Α	-13.8911
õ	-13.8911
ū	-13.8911
Д	-13.9161
ن	-13.968
ت	-13.968
ų	-13.995
●	-13.995
ı	-13.995
û	-14.0228
‐	-14.0228
Ñ	-14.0228
ή	-14.0514
ь	-14.1111
Ï	-14.1111
þ	-14.1111
П	-14.1424
ब	-14.1424
¤	-14.1424
ī	-14.1424
Γ	-14.1424
و	-14.1424
ु	-14.1424
έ	-14.1746
ù	-14.1746
Ç	-14.1746
Î	-14.1746
Η	-14.1746
Т	-14.1746
з	-14.2079
Λ	-14.2079
б	-14.2079
ر	-14.2079
¬	-14.2079
Ι	-14.2079
И	-14.2424
ē	-14.2424
п	-14.2424
च	-14.2781
→	-14.2781
Е	-14.3152
ů	-14.3152
È	-14.3152
ő	-14.3152
श	-14.3152
Ż	-14.3536
ľ	-14.3536
ň	-14.3536
Æ	-14.3536
ب	-14.3936
ğ	-14.3936
ध	-14.3936
Μ	-14.4353
Ο	-14.4353
♦	-14.4353
Р	-14.4353
¢	-14.4788
Ν	-14.4788
Þ	-14.4788
ट	-14.4788
इ	-14.5242
ζ	-14.5719
ए	-14.5719
ू	-14.5719
М	-14.6219
ц	-14.6219
Ð	-14.6219
ź	-14.6219
̄	-14.6219
ع	-14.6219
س	-14.6745
ه	-14.6745
भ	-14.6745
थ	-14.7301
ष	-14.7301
Г	-14.7301
Н	-14.7301
Ê	-14.7889
К	-14.7889
À	-14.7889
́	-14.7889
▼	-14.7889
¥	-14.8514
ة	-14.8514
।	-14.8514
↔	-14.8514
Υ	-14.8514
ф	-14.8514
د	-14.918
ţ	-14.918
ж	-14.918
י	-14.918
Ú	-14.9895
ख	-14.9895
़	-14.9895
ف	-15.0664
ح	-15.1497
Ò	-15.1497
ʼ	-15.1497
ق	-15.1497
ك	-15.1497
─	-15.1497
町	-15.1497
Ô	-15.1497
х	-15.2406
Ì	-15.2406
ņ	-15.2406
ط	-15.2406
ण	-15.2406
Ý	-15.2406
Σ	-15.3406
œ	-15.3406
÷	-15.3406
ļ	-15.3406
Х	-15.3406
đ	-15.3406
ز	-15.3406
आ	-15.3406
ξ	-15.4517
ď	-15.4517
อ	-15.4517
ώ	-15.5767
ー	-15.5767
ű	-15.5767
Χ	-15.5767
ओ	-15.5767
ი	-15.5767
ы	-15.5767
ई	-15.5767
ـ	-15.5767
ϊ	-15.7196
ृ	-15.7196
¦	-15.7196
Ί	-15.7196
Я	-15.7196
ш	-15.7196
ա	-15.7196
У	-15.7196
ン	-15.8863
ċ	-15.8863
і	-15.8863
ร	-15.8863
Ć	-15.8863
Ń	-15.8863
Ф	-15.8863
خ	-15.8863
‡	-15.8863
≠	-15.8863
Œ	-15.8863
ް	-15.8863
ަ	-15.8863
Ч	-15.8863
İ	-16.0863
Ξ	-16.0863
ю	-16.0863
た	-16.0863
Õ	-16.0863
ÿ	-16.0863
Ț	-16.0863
ΐ	-16.0863
ב	-16.0863
ל	-16.0863
ר	-16.0863
ת	-16.0863
ظ	-16.0863
छ	-16.0863
ย	-16.0863
ắ	-16.0863
†	-16.0863
‹	-16.0863
›	-16.0863
村	-16.0863
Ψ	-16.0863
社	-16.3363
ა	-16.3363
რ	-16.3363
Û	-16.3363
ŕ	-16.3363
ǂ	-16.3363
Ζ	-16.3363
ћ	-16.3363
ў	-16.3363
ड	-16.3363
ढ	-16.3363
่	-16.3363
ს	-16.3363
ạ	-16.3363
―	-16.3363
‰	-16.3363
∞	-16.3363
シ	-16.3363
別	-16.3363
抄	-16.3363
별	-16.3363
초	-16.3363
Ī	-16.3363
ौ	-16.3363
ު	-16.3363
ו	-16.3363
އ	-16.3363
މ	-16.3363
本	-16.6696
人	-16.6696
ト	-16.6696
إ	-16.6696
ص	-16.6696
ლ	-16.6696
Ù	-16.6696
Ť	-16.6696
ť	-16.6696
ψ	-16.6696
щ	-16.6696
ј	-16.6696
כ	-16.6696
נ	-16.6696
ث	-16.6696
ذ	-16.6696
ش	-16.6696
غ	-16.6696
ނ	-16.6696
ง	-16.6696
พ	-16.6696
თ	-16.6696
∗	-16.6696
し	-16.6696
山	-16.6696
ư	-16.6696
գ	-16.6696
į	-16.6696
ޫ	-16.6696
ო	-16.6696
右	-16.6696
า	-16.6696
一	-17.1696
Ę	-17.1696
Į	-17.1696
祥	-17.1696
პ	-17.1696
蔡	-17.1696
ġ	-17.1696
Ř	-17.1696
Ŷ	-17.1696
ŷ	-17.1696
ƒ	-17.1696
Ș	-17.1696
ə	-17.1696
ʔ	-17.1696
̊	-17.1696
̋	-17.1696
̓	-17.1696
̧	-17.1696
Θ	-17.1696
Ц	-17.1696
ն	-17.1696
ד	-17.1696
ן	-17.1696
ש	-17.1696
،	-17.1696
ً	-17.1696
ی	-17.1696
ބ	-17.1696
ँ	-17.1696
ऊ	-17.1696
झ	-17.1696
फ	-17.1696
ท	-17.1696
ม	-17.1696
ล	-17.1696
ั	-17.1696
ნ	-17.1696
ᑦ	-17.1696
ᓄ	-17.1696
ᓇ	-17.1696
ᕗ	-17.1696
ả	-17.1696
ẻ	-17.1696
ố	-17.1696
≡	-17.1696
◄	-17.1696
➔	-17.1696
く	-17.1696
て	-17.1696
の	-17.1696
み	-17.1696
イ	-17.1696
フ	-17.1696
プ	-17.1696
ョ	-17.1696
ル	-17.1696
亚	-17.1696
会	-17.1696
伝	-17.1696
協	-17.1696
坂	-17.1696
富	-17.1696
左	-17.1696
市	-17.1696
林	-17.1696
氏	-17.1696
海	-17.1696
游	-17.1696
生	-17.1696
田	-17.1696
畅	-17.1696
间	-17.1696
우	-17.1696
좌	-17.1696
Ω	-17.1696
э	-17.1696
ハ	-17.1696
穂	-17.1696
Ъ	-17.1696
Ю	-17.1696
ט	-17.1696
น	-17.1696
ว	-17.1696
ვ	-17.1696
グ	-17.1696
菱	-17.1696
羽	-18.1637
法	-18.1638
日	-18.1639
団	-18.164
劉	-18.1641
ュ	-18.1642
メ	-18.1643
ミ	-18.1644
マ	-18.1645
ズ	-18.1646
ア	-18.1647
も	-18.1648
ํ	-18.1649
ส	-18.165
ต	-18.1651
ދ	-18.1652
گ	-18.1653
آ	-18.1654
פ	-18.1655
מ	-18.1656
ה	-18.1657
Ա	-18.1658
Э	-18.1659
Ό	-18.166
ǀ	-18.1661
Ō	-18.1662
Ġ	-18.1663
三	-18.1664
ệ	-18.1665
א	-18.1666
Ш	-18.1667
ʻ	-18.1668
Ţ	-18.1669
な	-18.167
ე	-18.1671
ր	-18.1672
Ж	-18.1673
Ά	-18.1674
ķ	-18.1675
あ	-18.1676
घ	-18.1677
Ő	-18.1678
Đ	-18.1679
Ā	-18.168
ج	-18.1681
Ş	-18.1682
З	-18.1683
Л	-18.1684
أ	-18.1685
ħ	-18.1686
उ	-18.1687
औ	-18.1688
Δ	-18.1689
अ	-18.169
Φ	-18.1691
ř	-18.1692
Б	-18.1693
Č	-18.1694
к	-18.1695
摡	-18.1696
敇	-18.1696
湷	-18.1696
潤	-18.1696
潬	-18.1696
瘠	-18.1696
般	-18.1696
ހ	-18.1696
ィ	-18.1696
ラ	-18.1696
ヴ	-18.1696
想	-18.1696
Տ	-18.1696
ṃ	-18.1696
に	-18.1696
は	-18.1696
ま	-18.1696
나	-18.1696
Ċ	-18.1696
Ē	-18.1696
Ľ	-18.1696
ˇ	-18.1696
じ	-18.1696
柏	-18.1696
羅	-18.1696
送	-18.1696
顧	-18.1696
송	-18.1696
Ă	-18.1696
ŋ	-18.1696
ŭ	-18.1696
Ÿ	-18.1696
Ə	-18.1696
ơ	-18.1696
ɒ	-18.1696
ɔ	-18.1696
ɛ	-18.1696
ɡ	-18.1696
ɪ	-18.1696
ɫ	-18.1696
ʉ	-18.1696
̀	-18.1696
̃	-18.1696
̇	-18.1696
̌	-18.1696
̣	-18.1696
͡	-18.1696
Ή	-18.1696
ΰ	-18.1696
ϋ	-18.1696
Ј	-18.1696
Њ	-18.1696
ѕ	-18.1696
љ	-18.1696
ի	-18.1696
կ	-18.1696
մ	-18.1696
յ	-18.1696
ս	-18.1696
ח	-18.1696
ס	-18.1696
ץ	-18.1696
צ	-18.1696
ק	-18.1696
ئ	-18.1696
ض	-18.1696
ى	-18.1696
ރ	-18.1696
ވ	-18.1696
ލ	-18.1696
ޑ	-18.1696
ީ	-18.1696
ެ	-18.1696
ऐ	-18.1696
ऑ	-18.1696
ठ	-18.1696
ॉ	-18.1696
ก	-18.1696
ค	-18.1696
ช	-18.1696
ธ	-18.1696
บ	-18.1696
ห	-18.1696
ะ	-18.1696
ิ	-18.1696
ุ	-18.1696
แ	-18.1696
โ	-18.1696
ไ	-18.1696
้	-18.1696
์	-18.1696
ბ	-18.1696
გ	-18.1696
კ	-18.1696
ტ	-18.1696
უ	-18.1696
ḥ	-18.1696
ṣ	-18.1696
ẹ	-18.1696
ế	-18.1696
ọ	-18.1696
ớ	-18.1696
Ἰ	-18.1696
ὖ	-18.1696
ᾶ	-18.1696
ῶ	-18.1696
‣	-18.1696
∀	-18.1696
∂	-18.1696
∆	-18.1696
∙	-18.1696
☤	-18.1696
い	-18.1696
さ	-18.1696
ず	-18.1696
つ	-18.1696
づ	-18.1696
ど	-18.1696
ぽ	-18.1696
ゅ	-18.1696
を	-18.1696
ん	-18.1696
ク	-18.1696
ジ	-18.1696
ゼ	-18.1696
ッ	-18.1696
䈠	-18.1696
上	-18.1696
丘	-18.1696
介	-18.1696
伊	-18.1696
你	-18.1696
光	-18.1696
内	-18.1696
分	-18.1696
勝	-18.1696
匠	-18.1696
原	-18.1696
史	-18.1696
司	-18.1696
吴	-18.1696
学	-18.1696
宇	-18.1696
定	-18.1696
川	-18.1696
工	-18.1696
常	-18.1696
庄	-18.1696
康	-18.1696
弥	-18.1696
形	-18.1696
影	-18.1696
慣	-18.1696
成	-18.1696
所	-18.1696
抯	-18.1696
抰	-18.1696
挮	-18.1696
摲	-18.1696
摶	-18.1696
支	-18.1696
敩	-18.1696
敪	-18.1696
敬	-18.1696
文	-18.1696
明	-18.1696
昱	-18.1696
有	-18.1696
木	-18.1696
業	-18.1696
水	-18.1696
江	-18.1696
波	-18.1696
津	-18.1696
浦	-18.1696
浯	-18.1696
湡	-18.1696
灯	-18.1696
牧	-18.1696
目	-18.1696
直	-18.1696
相	-18.1696
真	-18.1696
瞑	-18.1696
神	-18.1696
科	-18.1696
笛	-18.1696
筑	-18.1696
米	-18.1696
維	-18.1696
美	-18.1696
習	-18.1696
自	-18.1696
良	-18.1696
英	-18.1696
葱	-18.1696
蒲	-18.1696
術	-18.1696
見	-18.1696
貴	-18.1696
身	-18.1696
近	-18.1696
醲	-18.1696
鈞	-18.1696
鈴	-18.1696
長	-18.1696
開	-18.1696
関	-18.1696
陳	-18.1696
頴	-18.1696
高	-18.1696
鶴	-18.1696
龍	-18.1696
과	-18.1696
남	-18.1696
대	-18.1696
밒	-18.1696
상	-18.1696
악	-18.1696
ʊ	-18.1696
ˈ	-18.1696
پ	-18.1696
ښ	-18.1696
ގ	-18.1696
ޔ	-18.1696
เ	-18.1696
ネ	-18.1696
世	-18.1696
大	-18.1696
?	-18.1696
Ս	-18.1696
թ	-18.1696
ղ	-18.1696
だ	-18.1696
タ	-18.1696
七	-18.1696
倉	-18.1696
六	-18.1696
界	-18.1696
衛	-18.1696
門	-18.1696
