<s>	0
<pad>	0
</s>	0
<unk>	0
▁,	-3.34493
s	-3.50239
▁.	-3.61506
▁	-3.64893
▁the	-3.92795
en	-4.25261
▁in	-4.44814
e	-4.47823
▁of	-4.58093
n	-4.60332
▁die	-4.6685
▁and	-4.68758
▁to	-4.71576
▁der	-4.73119
▁und	-4.76337
;	-4.91858
▁a	-4.99497
t	-5.11982
-	-5.13636
▁&	-5.15376
@	-5.25833
d	-5.26049
▁@	-5.30579
ing	-5.35973
▁is	-5.38272
er	-5.39063
ed	-5.55079
▁zu	-5.58213
▁that	-5.62437
▁be	-5.62576
▁for	-5.65862
r	-5.72817
▁den	-5.7364
▁von	-5.76164
quot	-5.78275
▁ist	-5.90077
▁an	-5.93472
▁I	-5.9591
▁on	-5.96048
y	-5.96219
▁für	-5.96542
apos	-5.99066
▁auf	-6.02228
▁mit	-6.04209
▁das	-6.04298
(	-6.04585
)	-6.05365
ly	-6.05637
▁-	-6.08295
▁The	-6.08995
▁with	-6.09297
.	-6.11344
es	-6.15302
▁are	-6.16195
▁des	-6.16337
▁ein	-6.18814
▁eine	-6.21975
▁we	-6.23149
▁im	-6.26375
m	-6.26906
▁this	-6.27979
▁Sie	-6.30472
:	-6.30484
▁nicht	-6.3261
▁as	-6.33504
▁it	-6.33615
ung	-6.40542
▁werden	-6.44332
▁not	-6.44333
▁dem	-6.44526
▁you	-6.4484
▁wir	-6.45808
▁have	-6.46398
al	-6.47142
▁by	-6.47468
▁sich	-6.4931
▁Die	-6.50433
▁dass	-6.50821
▁es	-6.53382
▁In	-6.56954
▁will	-6.57172
▁was	-6.57624
▁S	-6.60697
o	-6.62326
▁which	-6.63492
▁so	-6.64236
st	-6.64248
▁auch	-6.6575
▁from	-6.67559
▁A	-6.70508
▁or	-6.70564
g	-6.7121
k	-6.71343
▁sind	-6.71352
▁über	-6.71402
a	-6.7301
▁at	-6.73494
▁ver	-6.742
▁um	-6.79989
te	-6.80369
▁wird	-6.80563
▁has	-6.80597
▁ich	-6.84351
▁all	-6.85106
ten	-6.85521
▁can	-6.8711
▁aus	-6.87372
an	-6.87926
or	-6.89086
▁als	-6.89448
re	-6.91614
▁oder	-6.93507
l	-6.93907
▁er	-6.94153
▁ge	-6.95874
b	-6.96352
in	-6.96705
▁sie	-6.968
▁E	-6.98357
▁haben	-6.99522
▁also	-6.99572
▁our	-6.99818
w	-7.00113
?	-7.01378
▁European	-7.02154
/	-7.02822
▁de	-7.042
▁Be	-7.0431
ar	-7.0507
▁wie	-7.06107
▁C	-7.06232
ge	-7.06971
▁hat	-7.07272
▁B	-7.07575
▁We	-7.07579
▁K	-7.08963
1	-7.102
▁einer	-7.10377
▁vor	-7.10678
▁!	-7.11308
▁bei	-7.12239
3	-7.12466
it	-7.12543
i	-7.13049
c	-7.15524
be	-7.1728
ch	-7.17725
▁Das	-7.18228
▁&#9	-7.1851
▁zur	-7.18935
z	-7.19919
le	-7.20347
ation	-7.21025
p	-7.21502
▁Ich	-7.22471
▁Union	-7.23622
ur	-7.23668
▁einen	-7.24308
et	-7.24527
▁your	-7.24671
▁F	-7.25571
▁un	-7.25856
▁but	-7.2618
u	-7.26963
▁nach	-7.2752
▁re	-7.27743
▁können	-7.28206
il	-7.29154
ver	-7.3017
de	-7.302
▁Ver	-7.30561
▁An	-7.32444
f	-7.32563
▁durch	-7.33306
▁am	-7.33703
th	-7.33764
▁P	-7.33939
▁Wir	-7.35435
▁would	-7.36008
▁more	-7.36289
on	-7.3707
▁man	-7.37904
▁G	-7.38064
▁diese	-7.38577
▁einem	-7.39315
▁their	-7.39756
▁It	-7.4009
▁do	-7.40707
▁uns	-7.40832
ic	-7.42706
▁one	-7.43422
▁its	-7.44069
ce	-7.44776
▁This	-7.44983
▁nur	-7.4533
▁zum	-7.45513
ion	-7.46424
ter	-7.47319
▁Mr	-7.47559
el	-7.47574
▁Es	-7.48461
▁been	-7.49132
▁kann	-7.49281
la	-7.49717
▁EU	-7.49867
▁Er	-7.49926
▁Re	-7.50981
h	-7.51097
us	-7.51225
▁Ein	-7.51898
▁...	-7.51942
▁should	-7.52049
ieren	-7.52816
▁Der	-7.53038
den	-7.53238
▁T	-7.53471
▁like	-7.55781
▁new	-7.56983
ir	-7.5712
ä	-7.57463
ern	-7.57591
▁war	-7.57778
▁dieser	-7.57876
▁there	-7.5877
P	-7.58852
▁very	-7.58912
▁time	-7.60827
at	-7.61496
▁Kommission	-7.61685
▁noch	-7.61935
▁Commission	-7.62084
▁up	-7.62219
▁no	-7.62284
▁unter	-7.62634
▁other	-7.63531
sch	-7.63581
ra	-7.63609
▁about	-7.63645
▁Hotel	-7.63978
▁they	-7.64297
▁D	-7.6437
▁must	-7.6444
ive	-7.64526
▁M	-7.64619
▁daß	-7.66237
um	-7.66286
ll	-7.66448
▁wurde	-7.6662
▁wenn	-7.6745
ma	-7.67514
der	-7.68108
▁sein	-7.6813
▁aber	-7.6844
▁Herr	-7.68742
ta	-7.68762
gen	-7.69273
▁Ge	-7.7011
▁only	-7.70918
ers	-7.71156
▁H	-7.71168
is	-7.71526
▁out	-7.71834
ist	-7.71876
▁President	-7.72254
ity	-7.72652
▁who	-7.72921
able	-7.7295
to	-7.73001
▁Aus	-7.7328
▁sehr	-7.7379
▁19	-7.73949
▁con	-7.74884
ri	-7.75422
▁O	-7.75763
▁W	-7.76264
▁L	-7.76444
▁he	-7.76706
ne	-7.76807
▁3	-7.7704
iert	-7.77211
D	-7.77684
he	-7.77809
▁müssen	-7.78008
T	-7.78249
lich	-7.78857
ment	-7.79251
▁these	-7.79296
▁1	-7.79305
ia	-7.79734
▁us	-7.80095
▁So	-7.8073
▁work	-7.81121
li	-7.81222
zu	-7.81333
ü	-7.81372
ul	-7.81865
ig	-7.82975
2	-7.82995
▁La	-7.83082
▁if	-7.83568
▁mehr	-7.83853
▁2	-7.84094
▁people	-7.84191
ie	-7.84781
ischen	-7.8497
ein	-7.85407
age	-7.8548
▁me	-7.85564
em	-7.85755
▁ab	-7.8604
ol	-7.86062
▁any	-7.8608
▁alle	-7.86143
▁what	-7.87496
5	-7.87736
C	-7.8784
as	-7.88298
▁diesem	-7.88304
x	-7.88841
▁Vor	-7.88872
▁R	-7.88926
▁De	-7.89022
ate	-7.89286
ro	-7.89421
I	-7.90014
S	-7.90328
▁report	-7.90331
▁my	-7.91156
id	-7.91486
▁bis	-7.91822
▁such	-7.91838
▁were	-7.92476
v	-7.92911
▁pro	-7.9302
▁some	-7.93623
▁Le	-7.93636
ungen	-7.93642
▁into	-7.9371
▁4	-7.94631
%	-7.94888
ut	-7.95108
ke	-7.95181
B	-7.95251
▁Ab	-7.95376
▁da	-7.95552
▁Europäischen	-7.96062
▁Bericht	-7.96334
ck	-7.96925
ad	-7.96986
▁Parliament	-7.97456
▁Europe	-7.97579
▁ihre	-7.97695
ische	-7.98032
▁Sch	-7.98064
▁well	-7.98399
▁hier	-7.98639
F	-7.98779
4	-7.98948
▁möchte	-7.99364
▁la	-7.99828
L	-8.00095
bar	-8.00114
▁c	-8.00164
▁when	-8.00224
ag	-8.00814
▁Präsident	-8.01125
lo	-8.01197
▁b	-8.01233
▁Da	-8.01378
me	-8.01697
▁over	-8.02376
▁take	-8.02505
▁To	-8.02673
▁need	-8.02785
igen	-8.02818
im	-8.03302
▁use	-8.03545
ve	-8.03767
▁5	-8.03802
ner	-8.04123
▁first	-8.04237
▁his	-8.0442
tion	-8.04881
▁make	-8.04926
▁Im	-8.05024
▁than	-8.05089
▁e	-8.05177
un	-8.05559
▁Member	-8.05576
▁part	-8.0558
▁k	-8.05631
▁p	-8.05634
O	-8.05837
▁St	-8.06015
▁most	-8.06201
▁States	-8.0648
▁unsere	-8.06538
ö	-8.06771
▁hotel	-8.06944
est	-8.07376
▁N	-8.07956
▁keine	-8.08369
▁f	-8.08558
▁vom	-8.08931
na	-8.0901
▁countries	-8.09025
▁now	-8.09237
▁just	-8.0999
ant	-8.10048
▁gibt	-8.10145
é	-8.10291
iv	-8.1051
co	-8.10922
▁co	-8.11007
▁Zeit	-8.1129
ci	-8.11917
▁because	-8.12492
▁muss	-8.12583
▁Ma	-8.12892
▁For	-8.12948
ry	-8.13391
▁support	-8.13437
M	-8.13692
▁way	-8.13833
▁Se	-8.14044
▁important	-8.1419
▁st	-8.1423
▁Council	-8.14231
▁sowie	-8.14363
▁many	-8.15355
lu	-8.15723
▁Auf	-8.16339
▁them	-8.16609
di	-8.16747
ft	-8.16772
▁Nach	-8.16955
U	-8.16983
ti	-8.17264
▁And	-8.17344
▁V	-8.17393
▁di	-8.17395
▁Parlament	-8.17499
▁between	-8.17713
amp	-8.17761
om	-8.17828
ste	-8.1895
min	-8.19158
ab	-8.19203
▁dieses	-8.19323
ien	-8.19704
ben	-8.19888
E	-8.2001
▁U	-8.20613
▁He	-8.20869
▁zwischen	-8.20881
▁seine	-8.20915
▁where	-8.21371
▁had	-8.21793
▁ob	-8.22301
▁Zu	-8.22427
▁wo	-8.22558
▁Vi	-8.23426
▁10	-8.23995
hr	-8.23997
7	-8.24117
chen	-8.24201
▁good	-8.24212
▁two	-8.24215
▁place	-8.24896
▁Ihnen	-8.24947
mp	-8.25164
▁world	-8.25544
ine	-8.26088
▁Europa	-8.26437
▁Mit	-8.26563
▁made	-8.26579
ka	-8.26635
▁even	-8.2666
ert	-8.26715
▁eines	-8.26809
▁want	-8.26892
ze	-8.26934
sp	-8.27156
▁Ro	-8.27658
vi	-8.27705
▁years	-8.27796
▁information	-8.27945
6	-8.28079
▁g	-8.28135
▁Welt	-8.28913
sten	-8.29009
tor	-8.29012
▁Mo	-8.29069
ies	-8.29377
▁those	-8.29534
au	-8.29645
mi	-8.30106
▁right	-8.30134
▁anderen	-8.30491
ling	-8.30654
ca	-8.30818
▁Bo	-8.3083
kt	-8.30894
▁As	-8.30945
är	-8.31038
▁immer	-8.31182
▁her	-8.31191
am	-8.31272
▁If	-8.31286
go	-8.31484
▁dann	-8.31503
▁Wenn	-8.31515
mit	-8.31684
mal	-8.31713
fe	-8.31761
ik	-8.31878
lichen	-8.32053
▁per	-8.32551
▁Li	-8.32909
▁Al	-8.32939
▁neue	-8.33076
▁Z	-8.33294
▁Mitgliedstaaten	-8.33392
men	-8.3393
land	-8.33961
▁see	-8.34534
▁system	-8.34601
liche	-8.3534
▁own	-8.35451
ill	-8.35544
aus	-8.3556
▁may	-8.35741
che	-8.35843
va	-8.36091
isch	-8.36141
▁Ha	-8.36142
op	-8.36144
▁You	-8.36174
▁m	-8.36219
ld	-8.36356
▁Ka	-8.36712
▁Pro	-8.36907
▁ex	-8.37109
8	-8.3728
und	-8.37572
▁Do	-8.37747
▁find	-8.37776
▁Menschen	-8.37885
do	-8.38114
▁Ihre	-8.38133
▁year	-8.38184
ance	-8.38217
ber	-8.38256
stand	-8.38288
▁order	-8.38376
▁being	-8.3839
▁Pa	-8.38602
ster	-8.38754
os	-8.38828
▁policy	-8.39168
▁market	-8.39519
▁Ca	-8.39937
▁Diese	-8.40178
▁say	-8.40281
K	-8.4029
▁damit	-8.40569
teil	-8.40894
▁ca	-8.41616
com	-8.41695
mo	-8.41752
cht	-8.41915
▁Rat	-8.4243
▁here	-8.42521
heit	-8.42522
▁Frau	-8.42863
▁andere	-8.4298
ary	-8.43051
▁habe	-8.43069
▁Me	-8.4319
▁real	-8.43539
▁under	-8.43654
▁gegen	-8.4379
▁20	-8.44063
▁ent	-8.44253
▁diesen	-8.44275
▁dis	-8.44524
her	-8.44696
▁pre	-8.44865
▁wurden	-8.45352
rat	-8.45427
tre	-8.45589
R	-8.45643
ler	-8.45653
▁high	-8.45746
V	-8.45749
▁Und	-8.45774
▁how	-8.45925
▁se	-8.45937
▁wieder	-8.46304
▁Entwicklung	-8.4635
man	-8.46468
ga	-8.46514
▁Man	-8.46544
one	-8.46917
ige	-8.46928
tro	-8.46931
A	-8.47362
tal	-8.47436
bi	-8.4748
▁9	-8.47493
ier	-8.475
▁area	-8.47641
▁zwei	-8.47673
kommen	-8.4776
mm	-8.47807
▁No	-8.4785
ence	-8.47877
▁know	-8.48112
no	-8.48236
zeit	-8.48944
▁could	-8.48975
▁comp	-8.49287
gi	-8.49379
▁unserer	-8.49524
▁international	-8.49596
▁development	-8.50241
▁after	-8.50313
▁through	-8.50474
G	-8.50782
▁h	-8.50813
ach	-8.50916
ni	-8.50978
▁sondern	-8.50989
per	-8.51583
▁mich	-8.51788
gr	-8.51958
▁Europäische	-8.51973
ierung	-8.51975
ard	-8.51997
da	-8.52029
▁national	-8.52199
io	-8.5224
▁sch	-8.52352
▁same	-8.52468
▁economic	-8.52652
▁great	-8.52691
▁Lo	-8.52736
gel	-8.52913
ian	-8.52923
▁6	-8.53445
▁think	-8.53453
▁Jahr	-8.53481
▁Sa	-8.53504
j	-8.53519
▁public	-8.53531
▁political	-8.54144
schaft	-8.54335
▁du	-8.54455
tic	-8.54465
▁end	-8.54554
▁point	-8.54857
▁jedoch	-8.55123
▁form	-8.55125
ick	-8.55249
ß	-8.55356
▁Un	-8.55495
▁There	-8.55657
los	-8.55664
▁heute	-8.56146
▁possible	-8.56209
tra	-8.56289
uch	-8.5661
sion	-8.56672
▁Um	-8.56723
▁get	-8.56807
▁free	-8.56896
▁does	-8.56988
sh	-8.57068
▁Kon	-8.57231
▁best	-8.57235
ated	-8.57387
▁Mi	-8.57413
▁much	-8.57445
▁System	-8.57688
▁Teil	-8.5783
▁country	-8.57929
▁Con	-8.57929
▁w	-8.58008
enden	-8.58064
▁number	-8.58191
iz	-8.5901
ho	-8.59177
▁selbst	-8.594
sa	-8.5943
▁process	-8.59477
ial	-8.59503
▁Sp	-8.59589
▁fact	-8.59595
W	-8.59603
▁Unternehmen	-8.59676
ap	-8.5973
pe	-8.59954
ting	-8.60108
▁level	-8.60513
wa	-8.6052
fen	-8.60599
ger	-8.60775
ness	-8.60789
124	-8.6106
▁ohne	-8.61109
▁meine	-8.61195
▁Ba	-8.61219
vor	-8.61441
▁Arbeit	-8.61556
ität	-8.61876
ous	-8.61877
▁within	-8.6225
▁Frage	-8.6251
▁7	-8.62551
▁ganz	-8.62638
▁sollte	-8.62755
▁both	-8.62802
▁&#	-8.62846
▁modern	-8.62913
▁But	-8.63287
▁Bereich	-8.63306
fa	-8.63314
▁viele	-8.63355
ton	-8.63372
▁All	-8.63486
ow	-8.63514
gt	-8.63565
▁8	-8.63659
▁po	-8.64016
tu	-8.64085
▁Art	-8.64149
▁Euro	-8.64155
▁different	-8.6424
▁Co	-8.64264
▁against	-8.64316
▁d	-8.64348
▁Jahren	-8.64415
ure	-8.64418
▁used	-8.64461
▁bereits	-8.64647
▁le	-8.64651
cu	-8.64808
▁last	-8.64939
▁At	-8.65064
▁J	-8.65346
▁help	-8.65357
▁ihrer	-8.65661
ug	-8.65812
zen	-8.65817
▁set	-8.65973
▁welche	-8.65975
ual	-8.65986
▁hand	-8.66113
▁view	-8.66119
ha	-8.66182
ko	-8.66364
▁15	-8.66589
▁therefore	-8.66744
▁Fa	-8.66748
▁vi	-8.66798
▁social	-8.66839
▁18	-8.66985
▁fe	-8.67066
▁long	-8.67378
▁rights	-8.67448
▁believe	-8.67555
zi	-8.67604
▁course	-8.67608
hi	-8.67645
▁still	-8.67721
▁fa	-8.67798
ang	-8.67945
rü	-8.67946
halten	-8.68205
00	-8.68235
▁Land	-8.6835
▁t	-8.68373
nde	-8.68423
recht	-8.6847
▁neuen	-8.68475
▁europäischen	-8.68506
ba	-8.68595
▁12	-8.68756
dem	-8.68899
ight	-8.68954
▁Ta	-8.69146
▁On	-8.69299
ise	-8.69459
▁without	-8.69478
▁pa	-8.69496
bre	-8.69588
▁open	-8.69589
▁möglich	-8.69787
▁viel	-8.70457
▁human	-8.70615
▁einige	-8.70675
▁Fall	-8.70694
▁einfach	-8.70699
▁Mar	-8.70892
ende	-8.71161
and	-8.71185
▁room	-8.71255
▁Ja	-8.71256
▁Über	-8.71503
▁machen	-8.71514
hl	-8.71532
▁ihn	-8.7165
▁Bürger	-8.71855
▁Ex	-8.72035
▁sollten	-8.72323
▁Internet	-8.72352
gehen	-8.72462
ub	-8.72757
ok	-8.7286
▁finden	-8.72946
ip	-8.73002
▁Stadt	-8.73095
▁weil	-8.73097
▁access	-8.73145
▁give	-8.73733
▁mir	-8.73758
▁every	-8.73875
▁US	-8.73897
▁Bei	-8.73903
ph	-8.73914
▁Lage	-8.73941
▁show	-8.74063
ak	-8.74102
ations	-8.74251
▁Ho	-8.74271
▁weiter	-8.74401
ür	-8.74638
son	-8.74832
rä	-8.74867
▁That	-8.7498
nt	-8.75741
▁Zimmer	-8.75757
▁Regierung	-8.75772
▁dazu	-8.75953
sk	-8.75985
▁before	-8.76054
▁business	-8.76087
ven	-8.76181
▁available	-8.76407
▁small	-8.76491
▁services	-8.76622
hn	-8.76627
▁Daten	-8.7667
9	-8.76908
▁large	-8.77043
▁bo	-8.77306
▁global	-8.77384
▁agreement	-8.77421
▁vote	-8.77451
ib	-8.77659
▁day	-8.77736
ite	-8.77777
we	-8.77796
▁go	-8.77906
▁jetzt	-8.77948
▁special	-8.78021
lä	-8.78094
▁back	-8.78108
▁offer	-8.78157
▁future	-8.78276
▁Ar	-8.78462
▁bietet	-8.7853
po	-8.78565
N	-8.78714
▁inter	-8.78837
▁bin	-8.79046
▁today	-8.79055
▁Ra	-8.79263
▁service	-8.7943
▁able	-8.79448
▁liegt	-8.79532
qui	-8.79577
mittel	-8.79706
▁0	-8.79707
▁Wie	-8.79755
ical	-8.79771
ator	-8.79798
our	-8.7989
▁already	-8.7994
▁name	-8.79984
sicht	-8.80287
pi	-8.80301
H	-8.80332
les	-8.80538
enz	-8.80573
fer	-8.80769
ac	-8.80836
hm	-8.80951
▁example	-8.80951
▁Po	-8.81488
ER	-8.81508
▁Y	-8.81581
▁30	-8.81616
▁Unter	-8.81779
▁darauf	-8.81852
▁geht	-8.82011
pa	-8.82042
▁change	-8.82056
tin	-8.82064
▁z	-8.82077
ki	-8.82251
que	-8.82339
▁data	-8.82342
▁schon	-8.82359
▁ihr	-8.82435
▁gut	-8.82443
▁issue	-8.82445
▁debate	-8.82485
▁Grund	-8.82632
▁Ziel	-8.82856
▁start	-8.8302
▁ange	-8.83021
▁case	-8.83128
bo	-8.83155
all	-8.83229
▁said	-8.8341
ex	-8.83432
ium	-8.83437
▁Problem	-8.83686
fin	-8.8374
▁put	-8.83928
▁seiner	-8.83984
▁too	-8.84141
▁question	-8.84214
▁car	-8.84285
,	-8.84402
▁Bar	-8.84897
▁Jahre	-8.8517
▁mo	-8.85214
rt	-8.85267
▁Am	-8.85522
lle	-8.85653
▁situation	-8.85876
▁quality	-8.86018
pt	-8.86125
▁provide	-8.86142
▁Rahmen	-8.86389
▁products	-8.8644
▁cannot	-8.86477
▁Informationen	-8.86688
▁Na	-8.86712
▁zurück	-8.86798
▁Ne	-8.86989
vo	-8.87002
▁sub	-8.87111
▁problem	-8.87125
▁dafür	-8.87189
▁fest	-8.87279
▁sa	-8.87283
▁list	-8.87466
▁pass	-8.87496
▁seit	-8.87543
so	-8.87557
▁Maßnahmen	-8.87559
▁Qu	-8.87625
halt	-8.87628
▁Commissioner	-8.87674
▁law	-8.8775
ell	-8.87758
mb	-8.87778
lang	-8.87785
tag	-8.87801
▁present	-8.87834
serv	-8.87898
▁etwas	-8.88429
ring	-8.88766
keit	-8.88797
si	-8.88877
▁ma	-8.89056
gestellt	-8.89067
▁Ri	-8.89068
ast	-8.89084
▁since	-8.89273
▁Du	-8.89412
▁hin	-8.89554
ör	-8.8961
▁Eine	-8.89787
▁ra	-8.89816
▁Ent	-8.89852
▁city	-8.89866
▁2009	-8.89917
▁Mittel	-8.90173
▁play	-8.90244
bel	-8.90423
▁Tag	-8.90458
nder	-8.9072
▁ba	-8.90962
▁würde	-8.91054
ions	-8.91069
wor	-8.91306
▁Service	-8.91325
▁close	-8.91373
ru	-8.91379
bau	-8.91398
▁clear	-8.916
EN	-8.91621
▁life	-8.9174
▁financial	-8.91921
▁action	-8.91923
ities	-8.91991
wert	-8.92094
▁main	-8.92261
ign	-8.92363
legen	-8.92379
▁tun	-8.92502
▁during	-8.92541
▁found	-8.9299
stellung	-8.9304
▁allen	-8.93248
tern	-8.93289
ative	-8.93474
tter	-8.9354
lin	-8.9374
▁proposal	-8.93889
ud	-8.93934
ration	-8.93966
▁offers	-8.94116
▁wollen	-8.9419
ating	-8.94224
▁allow	-8.94444
▁power	-8.94444
▁allem	-8.94625
▁government	-8.94625
ted	-8.94687
ff	-8.94765
▁ihren	-8.94838
ich	-8.95027
▁means	-8.95039
acht	-8.9504
▁position	-8.95211
▁far	-8.95308
▁Für	-8.95342
▁China	-8.95353
▁11	-8.95402
▁respect	-8.95511
hen	-8.95583
▁Herrn	-8.95589
stellen	-8.95625
▁few	-8.95705
▁including	-8.95818
▁große	-8.95837
▁sagen	-8.95903
igung	-8.9591
▁Bi	-8.95917
▁result	-8.95969
▁three	-8.96019
▁each	-8.96272
ism	-8.96329
▁wäre	-8.96458
led	-8.96746
art	-8.96803
▁Wa	-8.96811
▁regard	-8.96931
wi	-8.96941
mer	-8.96955
▁Kinder	-8.97011
▁zusammen	-8.97173
tain	-8.97447
▁Politik	-8.97559
ition	-8.97625
▁wichtig	-8.97673
▁lo	-8.97714
▁Recht	-8.97788
▁ho	-8.97826
▁Programm	-8.97957
▁did	-8.98173
▁stay	-8.98261
▁Our	-8.98307
▁common	-8.98492
ction	-8.98528
wer	-8.98635
▁look	-8.98718
á	-8.98759
▁drei	-8.98802
▁matter	-8.98839
▁Auto	-8.98941
▁experience	-8.98942
▁come	-8.98976
arbeit	-8.98998
▁based	-8.99029
▁während	-8.99079
▁ensure	-8.99299
▁However	-8.99314
auf	-8.99356
▁particular	-8.99416
▁With	-8.99496
▁nun	-8.99667
port	-8.99708
richt	-8.99737
▁down	-8.99768
▁site	-8.99801
▁next	-8.99828
▁unseren	-8.99924
▁art	-9.0002
▁Arbeits	-9.0003
fi	-9.00296
▁hope	-9.00447
ful	-9.00508
ken	-9.00557
▁call	-9.00624
trag	-9.00848
▁adopt	-9.01114
▁sehen	-9.01176
▁Länder	-9.01184
▁War	-9.01259
▁denn	-9.01289
▁state	-9.01571
less	-9.01574
▁v	-9.01826
ile	-9.01855
▁Committee	-9.0189
▁Ad	-9.02237
cy	-9.02291
▁denen	-9.02347
▁rooms	-9.02381
ef	-9.02531
▁Di	-9.02617
▁doch	-9.02634
mon	-9.027
pf	-9.02705
▁Aber	-9.02738
hol	-9.02766
nis	-9.02807
▁solche	-9.03042
ide	-9.03057
up	-9.03149
▁dr	-9.03173
▁second	-9.03283
▁sicher	-9.033
▁energy	-9.03433
uer	-9.03636
▁Weg	-9.03646
gu	-9.03648
▁line	-9.03844
▁gra	-9.03906
▁become	-9.03936
system	-9.03963
▁li	-9.04316
mission	-9.0435
log	-9.04502
▁Vorschlag	-9.04628
ot	-9.0482
▁again	-9.04879
▁ersten	-9.04892
gang	-9.04939
▁Th	-9.05059
ors	-9.05133
▁su	-9.0535
▁account	-9.05392
▁Energie	-9.05538
lt	-9.05587
▁einmal	-9.05692
cher	-9.05815
▁live	-9.05956
ere	-9.05974
▁waren	-9.05982
▁rec	-9.06207
▁wirklich	-9.06413
▁thank	-9.06429
▁measures	-9.06431
akt	-9.06436
str	-9.06453
▁com	-9.06495
pro	-9.06519
ön	-9.06539
▁Fraktion	-9.06587
▁old	-9.06629
▁further	-9.06814
▁X	-9.06843
▁Dr	-9.06875
▁continue	-9.06877
▁Markt	-9.06906
ally	-9.06932
▁sector	-9.06978
▁natürlich	-9.07006
▁stehen	-9.07069
▁kommen	-9.07136
▁water	-9.07291
▁legal	-9.07378
▁insbesondere	-9.07383
▁erhalten	-9.07457
▁Namen	-9.07483
side	-9.07523
▁citizens	-9.07863
▁San	-9.07996
kl	-9.08008
▁What	-9.08052
tung	-9.08178
▁fr	-9.08194
▁They	-9.08198
▁Form	-9.08199
con	-9.08244
▁private	-9.08286
form	-9.08306
▁Mal	-9.08401
▁Ko	-9.08522
▁why	-9.08566
igkeit	-9.08571
bra	-9.08613
▁Umwelt	-9.08735
▁Ga	-9.0874
▁Was	-9.08763
nahme	-9.08783
▁schnell	-9.08889
▁letzten	-9.08895
▁Unterstützung	-9.09138
▁soll	-9.09315
▁deal	-9.09373
▁wenig	-9.09386
▁taken	-9.0954
▁El	-9.0963
▁Fi	-9.09671
▁Kunden	-9.09684
ible	-9.09754
▁14	-9.09777
▁trade	-9.09791
ish	-9.09827
▁Parlaments	-9.09895
▁16	-9.09934
▁ausge	-9.09938
fall	-9.09968
ty	-9.10131
▁areas	-9.10168
▁health	-9.10177
bu	-9.10185
▁Car	-9.10373
▁New	-9.104
▁besser	-9.1044
▁Beispiel	-9.10513
X	-9.10721
des	-9.10776
line	-9.10792
▁Pi	-9.10809
hin	-9.10935
ierte	-9.10966
än	-9.11026
▁company	-9.11085
ther	-9.11109
▁Group	-9.11452
▁17	-9.11493
▁really	-9.11531
▁group	-9.11625
▁control	-9.11637
ect	-9.11643
▁dar	-9.11804
▁lead	-9.11948
▁beim	-9.11952
ward	-9.12018
▁lassen	-9.12021
▁accept	-9.12174
▁person	-9.12208
isten	-9.12303
▁l	-9.12348
▁voll	-9.12567
gabe	-9.12676
▁direkt	-9.12731
▁str	-9.12757
▁25	-9.12781
▁Zusammenarbeit	-9.12787
▁klar	-9.13
▁Wi	-9.13021
▁around	-9.13134
▁shall	-9.13148
▁geben	-9.13162
▁security	-9.13234
ina	-9.13292
▁centre	-9.13332
▁weitere	-9.13336
ident	-9.13341
za	-9.13375
politik	-9.13458
anz	-9.13467
▁kein	-9.13514
▁Finanz	-9.13632
▁necessary	-9.13686
▁while	-9.1369
ja	-9.13716
▁2008	-9.13763
lic	-9.14032
▁always	-9.14097
ient	-9.14159
▁2010	-9.14331
kon	-9.14406
▁problems	-9.14426
▁Ländern	-9.14429
▁given	-9.14551
▁going	-9.14676
▁better	-9.14715
▁50	-9.1472
net	-9.14959
schließ	-9.14963
qu	-9.15008
▁Richtlinie	-9.15154
weg	-9.15262
▁she	-9.15313
▁design	-9.15584
▁Go	-9.1561
▁achieve	-9.15704
▁sh	-9.15705
▁führen	-9.15713
▁besteht	-9.15859
▁plan	-9.1586
▁fl	-9.15871
▁sea	-9.15879
▁however	-9.15932
▁ja	-9.16114
▁ch	-9.16144
setzen	-9.1616
sse	-9.16258
ock	-9.16364
*	-9.16391
pri	-9.16474
▁Je	-9.1648
▁cooperation	-9.16578
act	-9.167
▁Gu	-9.16873
▁genau	-9.16919
▁wish	-9.17009
red	-9.17111
▁Sicherheit	-9.17121
▁protection	-9.17297
▁individual	-9.17387
geben	-9.17397
▁located	-9.174
▁steht	-9.1749
pp	-9.17557
▁Fe	-9.17606
▁frei	-9.1766
▁dabei	-9.17681
vent	-9.17685
Y	-9.17917
▁United	-9.1792
use	-9.17934
▁House	-9.17983
▁personal	-9.1802
▁Seite	-9.18104
▁home	-9.18139
gleich	-9.18141
ong	-9.18246
▁Sta	-9.18274
▁general	-9.18353
▁i	-9.18454
▁short	-9.18472
▁transport	-9.18515
▁Gegen	-9.18526
▁local	-9.18547
▁Pri	-9.18799
▁Ort	-9.1888
▁Fragen	-9.1892
▁full	-9.18937
▁reach	-9.1923
rate	-9.19283
icht	-9.19332
lichkeit	-9.19333
har	-9.19371
schen	-9.1941
▁13	-9.19418
äng	-9.19654
tri	-9.19677
▁Hier	-9.19737
res	-9.19743
▁inform	-9.19823
vis	-9.19864
ün	-9.19921
▁Pla	-9.19989
▁USA	-9.20032
haus	-9.20166
sta	-9.20214
▁Gra	-9.20253
▁Ihr	-9.20281
▁When	-9.20299
▁Spiel	-9.20407
▁Ru	-9.20523
▁remain	-9.20533
▁create	-9.20549
▁using	-9.20571
▁gleich	-9.20637
▁wissen	-9.20768
isation	-9.20871
berg	-9.20943
▁bitte	-9.2099
▁million	-9.2102
ruf	-9.21036
▁Kollegen	-9.21045
▁working	-9.21119
reich	-9.21155
▁100	-9.2127
▁together	-9.21304
ue	-9.21339
rent	-9.21481
▁pi	-9.21527
▁hatte	-9.21583
▁certain	-9.21596
lei	-9.21685
ou	-9.21759
▁exp	-9.21807
▁Haupt	-9.21894
▁less	-9.21978
▁him	-9.22008
schw	-9.2203
▁Community	-9.22044
hab	-9.22132
AN	-9.22151
▁production	-9.22171
▁Mu	-9.22178
▁another	-9.22234
gar	-9.22348
tur	-9.22364
▁whole	-9.2238
▁24	-9.22476
org	-9.22535
spiel	-9.2264
satz	-9.22677
ces	-9.22708
▁Ni	-9.22793
atur	-9.22929
▁Or	-9.22971
▁effective	-9.22975
programm	-9.23028
▁Neu	-9.23065
▁making	-9.23242
▁worden	-9.23253
▁bi	-9.23271
▁Kommissar	-9.2332
isierung	-9.23498
▁großen	-9.23647
▁non	-9.23654
▁ideal	-9.2378
▁davon	-9.23904
о	-9.23946
cre	-9.24019
▁Entscheidung	-9.2407
▁current	-9.24082
werk	-9.24107
▁Bedeutung	-9.24151
▁These	-9.2417
▁principle	-9.24272
▁week	-9.24387
nden	-9.24392
bt	-9.24557
▁whether	-9.24634
▁muß	-9.24734
▁enjoy	-9.24756
▁Thema	-9.24816
▁children	-9.2486
▁Möglichkeit	-9.2487
▁Schw	-9.24903
▁Dies	-9.24928
▁Alle	-9.24982
pol	-9.24983
▁Gebiet	-9.2507
▁ro	-9.2511
▁2007	-9.25137
▁German	-9.25143
▁something	-9.2515
uß	-9.25156
ture	-9.25259
▁Verfügung	-9.25391
sitz	-9.25397
tel	-9.25547
▁function	-9.25598
▁air	-9.25632
▁mean	-9.25635
IN	-9.25671
▁step	-9.25688
▁darüber	-9.25759
▁Tre	-9.2585
▁Probleme	-9.25853
raum	-9.25929
▁product	-9.26006
▁Jo	-9.26008
▁reason	-9.26011
▁research	-9.26042
▁o	-9.26068
▁force	-9.26086
▁International	-9.262
▁Wo	-9.26226
gg	-9.26321
▁specific	-9.26549
haft	-9.26712
▁Tra	-9.26715
▁aller	-9.26717
▁Ende	-9.26727
▁Schutz	-9.26731
▁seinen	-9.26738
king	-9.2675
▁Her	-9.26824
▁kind	-9.26828
▁del	-9.26866
▁Bank	-9.26967
uell	-9.27011
▁field	-9.27074
▁subject	-9.27144
▁particularly	-9.27217
ank	-9.27269
ana	-9.27298
▁needs	-9.27312
▁könnte	-9.27345
▁location	-9.27399
ay	-9.27405
▁book	-9.27466
▁fi	-9.27477
ov	-9.27549
▁terms	-9.27579
vers	-9.27597
▁Park	-9.27713
▁called	-9.27777
ification	-9.27784
▁budget	-9.2783
▁role	-9.27882
▁bring	-9.27963
ismus	-9.27985
▁2000	-9.28005
press	-9.28064
▁Lu	-9.28119
igt	-9.28161
▁dort	-9.28239
▁fast	-9.28286
▁Meinung	-9.28309
iger	-9.28351
▁Haus	-9.28355
▁trans	-9.28439
▁women	-9.28455
▁Can	-9.28482
▁Staaten	-9.28502
▁richtig	-9.28558
▁Wort	-9.28591
▁Weise	-9.28598
▁bekannt	-9.28694
schutz	-9.28734
bri	-9.28792
▁Zukunft	-9.28796
▁welcome	-9.28815
val	-9.28865
▁glaube	-9.289
▁Als	-9.28959
▁off	-9.28966
▁Bau	-9.28976
sam	-9.28993
_	-9.29029
rd	-9.29037
tten	-9.29039
▁Frauen	-9.29042
▁neu	-9.29131
▁Text	-9.29145
gesetzt	-9.29173
lass	-9.29249
let	-9.29254
▁project	-9.29311
bot	-9.2938
▁Auch	-9.29382
▁visit	-9.29484
▁text	-9.29595
▁Restaurant	-9.29729
ability	-9.29747
▁ask	-9.29753
tan	-9.29778
▁positive	-9.2982
bereich	-9.29824
ons	-9.29826
▁meiner	-9.29869
▁beach	-9.29897
▁je	-9.30036
▁km	-9.30074
way	-9.30129
▁third	-9.30136
▁page	-9.30142
▁things	-9.30231
▁Wert	-9.30234
▁rapporteur	-9.30356
ges	-9.30371
▁speak	-9.30381
plan	-9.30432
▁resolution	-9.30449
▁detail	-9.3049
▁Natur	-9.30572
ron	-9.3058
eb	-9.30615
mark	-9.30641
▁bereit	-9.30685
▁sc	-9.30743
▁Rolle	-9.30849
▁notwendig	-9.30929
▁building	-9.31016
▁turn	-9.3109
ziehen	-9.31272
▁unser	-9.3133
ah	-9.31667
▁bieten	-9.31682
▁eigenen	-9.31684
▁Durch	-9.3175
▁Wahl	-9.31762
▁term	-9.31808
ade	-9.31906
▁bed	-9.31923
▁entfernt	-9.31954
▁regional	-9.31989
stoff	-9.32002
▁address	-9.32026
duc	-9.3215
▁ta	-9.32152
▁Schul	-9.32207
▁Com	-9.32238
▁ski	-9.32243
mor	-9.32306
zahl	-9.32333
ellen	-9.32482
oc	-9.32502
treten	-9.32518
▁gegenüber	-9.32609
▁effect	-9.32629
▁App	-9.32689
▁daher	-9.32739
▁erst	-9.32742
▁stellen	-9.3281
▁gute	-9.32817
▁share	-9.32818
by	-9.32909
▁conditions	-9.33156
mmer	-9.33168
▁erste	-9.33212
▁res	-9.33217
▁abge	-9.33311
▁Software	-9.33329
▁food	-9.33355
▁Qualität	-9.33405
cken	-9.33448
▁idea	-9.33451
wei	-9.33576
▁companies	-9.3358
▁little	-9.3364
▁directive	-9.33705
▁bar	-9.33771
▁erreichen	-9.33837
row	-9.33951
ized	-9.34063
▁Hand	-9.34105
▁done	-9.34109
▁various	-9.34111
▁feel	-9.3416
▁industry	-9.34165
▁test	-9.34385
rit	-9.34433
▁rate	-9.34437
sche	-9.34456
▁gr	-9.345
▁Wasser	-9.34597
▁Haushalts	-9.34603
stell	-9.34679
▁sowohl	-9.3468
▁politische	-9.34825
▁Inter	-9.34978
▁risk	-9.34995
ctor	-9.34997
▁besonders	-9.35062
elle	-9.35166
ified	-9.35336
▁exist	-9.35377
▁especially	-9.35391
tlich	-9.35426
lung	-9.35454
▁issues	-9.35465
▁basis	-9.35469
▁Rechts	-9.35493
▁befindet	-9.35556
▁Den	-9.356
▁Leben	-9.3563
▁guarantee	-9.35682
▁Cha	-9.35691
mat	-9.35794
▁Preis	-9.35865
weit	-9.35947
▁single	-9.35958
sprech	-9.36144
▁Seiten	-9.36222
▁politischen	-9.36285
+	-9.36351
▁regulation	-9.36361
▁europäische	-9.36365
ierten	-9.36489
▁house	-9.36549
▁Te	-9.36631
▁unterstützen	-9.36643
ble	-9.36809
▁Artikel	-9.36838
out	-9.36839
▁Ihrer	-9.36872
zer	-9.36921
▁stellt	-9.36927
▁concern	-9.37083
50	-9.37101
▁final	-9.3716
▁increase	-9.37193
▁weit	-9.37218
▁region	-9.37225
▁Pre	-9.37252
ult	-9.37307
▁period	-9.37349
▁propose	-9.37354
ris	-9.37387
▁Mor	-9.37392
▁Spa	-9.37429
cha	-9.37439
je	-9.37594
if	-9.37774
▁Bu	-9.37793
▁alles	-9.37862
▁verschiedenen	-9.37866
▁el	-9.38002
▁restaurant	-9.38011
▁Situation	-9.38031
pos	-9.38048
cent	-9.38093
tet	-9.38158
sehen	-9.3822
▁Projekt	-9.38233
cor	-9.38243
▁strong	-9.38364
▁innerhalb	-9.3838
▁staff	-9.38384
▁content	-9.3863
weise	-9.38741
ice	-9.38829
▁decision	-9.38838
▁programme	-9.38839
setzt	-9.38894
▁language	-9.39001
=	-9.39024
▁Rück	-9.39088
wand	-9.39124
▁Volk	-9.39141
ists	-9.39171
▁demand	-9.39229
▁pr	-9.39327
ähr	-9.39339
▁1.	-9.39437
▁Anwendung	-9.39549
▁Funktion	-9.39619
▁sei	-9.39621
rain	-9.39669
▁document	-9.39733
▁understand	-9.39737
▁Su	-9.39761
▁systems	-9.3979
▁Dis	-9.39818
▁environment	-9.39833
hält	-9.39877
▁type	-9.39911
▁EUR	-9.3995
fern	-9.39953
nom	-9.39985
▁tra	-9.40012
▁kurz	-9.40135
▁app	-9.4017
▁hard	-9.40207
▁favour	-9.40223
leg	-9.40308
schlag	-9.40355
tation	-9.40357
▁approach	-9.40373
▁sta	-9.40407
▁wide	-9.40407
▁major	-9.40427
▁Geld	-9.40443
▁entsprechend	-9.40498
tz	-9.405
reg	-9.40549
▁zwar	-9.40553
ku	-9.40605
erung	-9.40606
tik	-9.40615
▁Wettbewerb	-9.40624
ments	-9.40662
▁post	-9.40714
fu	-9.40739
▁2006	-9.40788
fass	-9.40792
▁gemeinsam	-9.40833
chte	-9.40847
▁Hilfe	-9.40969
ker	-9.41042
▁Fu	-9.41074
▁Russia	-9.4109
▁complete	-9.41105
▁price	-9.41136
▁Buch	-9.41151
▁walk	-9.41175
▁request	-9.41246
▁Produkt	-9.41299
instrument	-9.41301
▁itself	-9.41368
▁away	-9.41373
▁Produkte	-9.41397
▁Not	-9.41456
hör	-9.41525
▁among	-9.41595
▁reform	-9.41596
▁00	-9.41602
lassen	-9.41698
aff	-9.4175
▁event	-9.41797
▁Germany	-9.41971
llen	-9.4204
▁prevent	-9.42131
▁Bild	-9.42189
▁stand	-9.42282
vision	-9.42339
▁protect	-9.42373
▁vielen	-9.42388
▁material	-9.42414
the	-9.42567
000	-9.42664
▁range	-9.42734
ischer	-9.42742
ize	-9.42805
▁total	-9.42826
ya	-9.42872
ire	-9.42941
▁tax	-9.42981
20	-9.42998
▁several	-9.43038
▁Forschung	-9.43105
ship	-9.43154
▁sign	-9.43172
▁family	-9.43178
ix	-9.432
0	-9.43278
statt	-9.43282
▁side	-9.43309
▁Lösung	-9.43361
▁network	-9.4337
ssen	-9.43375
ose	-9.43398
tar	-9.43439
▁macht	-9.43508
▁happen	-9.43584
lage	-9.43761
▁Va	-9.43768
ack	-9.43776
▁town	-9.43943
▁offen	-9.43944
▁min	-9.44015
▁least	-9.44133
genommen	-9.44149
▁money	-9.4417
▁light	-9.44233
sol	-9.44314
platz	-9.44343
isiert	-9.4436
▁Uhr	-9.44378
ec	-9.44396
len	-9.44417
▁represent	-9.44429
▁Gen	-9.4451
▁gemeinsame	-9.44589
▁etc	-9.44597
schi	-9.44627
▁hinaus	-9.44736
▁hätte	-9.44758
▁care	-9.44867
▁21	-9.44955
van	-9.44971
▁progress	-9.45068
▁Gesellschaft	-9.45088
ette	-9.45175
▁procedure	-9.45337
punkt	-9.45481
▁Schritt	-9.45709
ale	-9.45769
shop	-9.4578
handel	-9.45816
part	-9.45822
▁contact	-9.45824
hy	-9.45838
▁excellent	-9.45906
▁Mrs	-9.46025
▁consider	-9.46065
▁serious	-9.46078
▁ref	-9.46208
▁key	-9.46236
▁UN	-9.46261
▁Frei	-9.46265
▁improve	-9.46305
▁World	-9.46395
▁website	-9.46439
▁Punkt	-9.46469
▁Berlin	-9.46513
▁Kultur	-9.46554
▁Ti	-9.46782
▁sur	-9.46794
▁agree	-9.46815
▁kommt	-9.46817
▁meeting	-9.4684
▁Sol	-9.46848
▁forward	-9.46884
AR	-9.46896
▁recht	-9.46908
▁following	-9.47029
▁einge	-9.47083
geb	-9.47143
▁management	-9.47166
lie	-9.47211
▁Website	-9.47257
ep	-9.47323
nach	-9.47333
▁gentlemen	-9.47336
▁act	-9.47348
▁jeder	-9.47393
▁near	-9.474
▁möchten	-9.47448
▁kon	-9.47549
bor	-9.47595
▁crisis	-9.47595
▁internationalen	-9.47667
▁etwa	-9.47678
chten	-9.47817
▁na	-9.47837
▁benefit	-9.47898
▁Per	-9.48043
Z	-9.48059
möglich	-9.48108
▁opinion	-9.48247
▁Chi	-9.4828
▁follow	-9.48308
wirtschaft	-9.48337
▁online	-9.48378
▁lang	-9.48387
jo	-9.48397
▁once	-9.48553
▁software	-9.48578
ano	-9.48588
ran	-9.48606
▁National	-9.48662
е	-9.48733
▁Region	-9.48751
▁until	-9.4877
▁stark	-9.48801
▁Ihren	-9.48828
▁tri	-9.48888
▁run	-9.48941
zug	-9.49005
▁value	-9.49066
▁keep	-9.49089
meter	-9.49132
▁might	-9.49298
▁natural	-9.49366
▁Plan	-9.49398
ari	-9.4945
▁expect	-9.49462
▁rules	-9.49463
▁pay	-9.49465
essen	-9.49558
udi	-9.49567
▁towards	-9.49658
а	-9.49682
▁version	-9.49821
lau	-9.50141
▁send	-9.50165
▁aufge	-9.50301
ziel	-9.50349
▁Gemeinschaft	-9.50375
tim	-9.50459
▁Monat	-9.50512
▁unserem	-9.50559
iß	-9.50573
▁State	-9.50579
▁game	-9.50587
▁Si	-9.5061
▁Minister	-9.50673
▁four	-9.50675
▁difficult	-9.50688
nc	-9.50693
CH	-9.50693
▁Ebene	-9.50725
▁land	-9.50821
▁Personen	-9.50845
▁Aufgabe	-9.50849
▁don	-9.50945
ral	-9.51001
▁daran	-9.51012
tes	-9.51207
▁al	-9.5134
ó	-9.51455
▁quite	-9.51584
▁Strategie	-9.51733
▁gemacht	-9.51737
gue	-9.51803
ization	-9.5182
ath	-9.51835
▁check	-9.51874
▁lot	-9.51896
hor	-9.51927
▁Partner	-9.52005
▁beiden	-9.52048
▁Zusammenhang	-9.52104
▁program	-9.52242
▁add	-9.52289
▁Steuer	-9.52361
og	-9.52401
▁deutlich	-9.5244
▁Web	-9.52443
falls	-9.52455
▁Madam	-9.52463
lf	-9.52488
▁extreme	-9.52586
▁technology	-9.52597
▁einzu	-9.52614
ständig	-9.52631
▁institutions	-9.52663
▁TV	-9.52776
istic	-9.52842
ute	-9.52972
▁fair	-9.52978
ries	-9.53047
wo	-9.53085
▁Wirtschaft	-9.53086
▁Gesundheit	-9.53137
▁40	-9.53144
▁sogar	-9.53161
▁rather	-9.5319
ised	-9.53198
▁seem	-9.53264
▁Dank	-9.53329
▁weniger	-9.53372
▁gerade	-9.53385
oo	-9.53459
▁weltweit	-9.5361
▁growth	-9.5372
komm	-9.53842
▁express	-9.53879
▁opportunity	-9.53881
▁erforderlich	-9.53908
cra	-9.53925
xi	-9.53935
qua	-9.53956
elt	-9.53973
druck	-9.53986
▁Abstimmung	-9.53988
▁emp	-9.53989
wirk	-9.53995
▁Israel	-9.54033
▁music	-9.54046
▁require	-9.54223
▁Pu	-9.54226
mod	-9.54367
▁image	-9.54408
▁interest	-9.54523
▁Nord	-9.54537
▁left	-9.54566
▁Millionen	-9.54575
▁Deutschland	-9.54598
du	-9.54659
▁known	-9.54914
schl	-9.54942
äch	-9.54945
ins	-9.54966
leistung	-9.54971
▁entwickelt	-9.54995
▁cl	-9.55001
OR	-9.55035
ht	-9.55043
▁pe	-9.5505
▁drive	-9.55061
▁Treaty	-9.55062
ES	-9.55063
▁Entschließung	-9.55235
uf	-9.55241
vol	-9.55246
▁2005	-9.55337
ino	-9.55366
▁days	-9.55436
▁jeden	-9.55439
utz	-9.5544
▁Gi	-9.55443
▁gesagt	-9.55463
▁let	-9.55514
▁night	-9.55557
▁link	-9.55647
и	-9.55692
verkehr	-9.55716
rank	-9.55721
▁West	-9.55802
of	-9.5583
▁23	-9.55869
nehmen	-9.55871
▁aid	-9.56013
▁aim	-9.56032
rück	-9.56053
▁star	-9.56067
▁bringen	-9.56105
▁Kosten	-9.56116
▁ne	-9.56155
▁yet	-9.56209
▁Prozess	-9.56263
▁bzw	-9.5632
▁having	-9.56403
leben	-9.56435
▁Präsidentin	-9.56446
vel	-9.56449
▁activities	-9.56479
▁operation	-9.5648
▁install	-9.56498
▁heart	-9.56511
▁My	-9.56516
▁include	-9.56534
zeug	-9.56562
▁Kar	-9.56636
▁Medi	-9.56674
▁customers	-9.56698
®	-9.5673
win	-9.56859
▁travel	-9.56873
▁resources	-9.5712
▁super	-9.57124
einander	-9.57227
▁indem	-9.57325
▁que	-9.57343
▁Verbraucher	-9.57372
heim	-9.57557
▁Dienst	-9.57621
del	-9.57627
▁cor	-9.57684
▁Unsere	-9.57697
▁Erfahrung	-9.57718
▁meisten	-9.57741
▁unterstützt	-9.57771
▁moment	-9.57776
▁anzu	-9.57831
▁nämlich	-9.57876
ktion	-9.57928
▁Deshalb	-9.57974
▁One	-9.58026
▁Ze	-9.58039
{	-9.58062
▁Mont	-9.58079
▁table	-9.58206
über	-9.58337
ek	-9.58387
gra	-9.58397
af	-9.5841
▁solution	-9.5844
▁besondere	-9.58501
treffen	-9.58503
▁Nicht	-9.58505
haltung	-9.58605
lagen	-9.5861
▁beautiful	-9.58647
▁Mai	-9.58669
partner	-9.58696
▁gilt	-9.58711
isse	-9.5882
▁wichtige	-9.58828
▁past	-9.58833
▁After	-9.58854
▁persönlich	-9.58859
▁actually	-9.58863
è	-9.58916
▁provided	-9.58925
▁nie	-9.58978
▁draw	-9.58995
rop	-9.59117
▁often	-9.59139
▁fully	-9.5916
▁along	-9.59165
▁taking	-9.59203
▁Hu	-9.59205
ada	-9.5922
RO	-9.59257
▁Dar	-9.593
▁easy	-9.59347
markt	-9.59374
▁anti	-9.59385
▁Mon	-9.59477
kan	-9.59534
▁nehmen	-9.5954
▁Industrie	-9.59562
arch	-9.59569
▁cost	-9.59582
▁September	-9.59696
lö	-9.59774
▁Süd	-9.59785
▁ri	-9.59792
▁behalf	-9.59811
▁Tage	-9.59813
▁framework	-9.59815
▁ha	-9.59879
▁face	-9.59897
wie	-9.59955
▁focus	-9.59973
liefer	-9.60009
▁option	-9.60141
▁deliver	-9.60172
▁environmental	-9.6018
▁führt	-9.60196
▁Schl	-9.60204
▁See	-9.60213
▁ihm	-9.60223
bin	-9.60347
deck	-9.60418
▁model	-9.60496
▁2004	-9.60543
tritt	-9.60616
▁Tour	-9.60632
sel	-9.60822
gegeben	-9.60938
unter	-9.61004
prä	-9.61007
▁mehrere	-9.6102
▁Technologie	-9.61043
▁Rates	-9.61119
▁cap	-9.6114
▁Wirtschafts	-9.61164
▁eigene	-9.61193
AL	-9.61205
▁Reform	-9.61273
▁date	-9.61302
▁appear	-9.61408
▁Port	-9.61421
▁Hotels	-9.61437
▁Verfahren	-9.61437
▁Jahres	-9.61456
▁space	-9.61462
▁Zugang	-9.61468
vid	-9.61468
▁wirtschaftliche	-9.61493
▁learn	-9.61506
▁minutes	-9.6152
▁Geschichte	-9.61539
rus	-9.61555
can	-9.61633
iti	-9.61638
▁ladies	-9.61701
▁charge	-9.61783
▁Lebens	-9.61814
▁border	-9.61909
▁stop	-9.61937
▁station	-9.61948
mil	-9.6195
▁economy	-9.61974
▁initiative	-9.62042
▁Tri	-9.62045
▁Datei	-9.62113
Berichterstatter	-9.62123
▁Organisation	-9.62191
▁entire	-9.62205
kehr	-9.62214
▁gehen	-9.62217
▁heraus	-9.62291
▁Meer	-9.62307
▁above	-9.62325
▁fo	-9.62408
▁move	-9.62415
fre	-9.62428
länder	-9.62447
▁mar	-9.62477
minister	-9.6254
▁Design	-9.62636
dauer	-9.62691
▁essential	-9.62777
▁standard	-9.62797
AT	-9.62829
▁Produktion	-9.62833
ON	-9.62851
▁Ste	-9.62907
zt	-9.6298
▁Air	-9.62986
í	-9.6299
▁safety	-9.63003
▁22	-9.63059
▁Aussprache	-9.63117
app	-9.63194
ju	-9.6321
▁Standard	-9.63264
▁Weiter	-9.6332
SE	-9.63321
}	-9.63322
▁Dieses	-9.63396
▁Version	-9.63398
lose	-9.63473
▁normal	-9.63514
▁Nor	-9.6357
pul	-9.63583
folge	-9.63587
▁euro	-9.63607
▁Cu	-9.63611
▁zahlreiche	-9.63646
▁Reise	-9.63684
▁invest	-9.6379
▁Ansicht	-9.63857
▁perfect	-9.63864
▁lange	-9.63865
▁unterschiedlich	-9.63866
н	-9.63913
▁members	-9.63948
▁opt	-9.64003
▁Char	-9.64115
over	-9.64123
ograph	-9.64177
▁application	-9.64277
ound	-9.643
▁central	-9.64344
▁verschiedene	-9.64384
geführt	-9.64393
▁fundamental	-9.64417
▁Tu	-9.64423
▁ebenfalls	-9.64494
tle	-9.64495
▁Fahr	-9.64502
▁Trans	-9.64555
▁statt	-9.64703
▁hoch	-9.6475
▁amendments	-9.64793
▁verbunden	-9.64876
▁return	-9.64899
▁Vertrag	-9.6494
▁vier	-9.64948
preis	-9.65005
▁young	-9.65054
▁reduce	-9.65066
▁2003	-9.65121
▁para	-9.6519
▁bank	-9.65191
▁Leistung	-9.65199
▁Geschäfts	-9.65211
▁sure	-9.65287
▁darin	-9.65342
ete	-9.65376
▁Dieser	-9.65388
▁Mitglieder	-9.65393
▁Vorschläge	-9.6543
▁Rechte	-9.65463
▁practice	-9.65472
voll	-9.65485
fo	-9.65507
industrie	-9.65542
▁Bezug	-9.65563
▁genannt	-9.65616
ves	-9.65665
▁rest	-9.65691
▁dessen	-9.65717
▁read	-9.65742
▁gu	-9.65799
▁enable	-9.65876
weisen	-9.65972
▁allgemein	-9.6601
▁log	-9.66025
▁team	-9.66067
ett	-9.66115
▁Verhandlung	-9.66176
▁brauchen	-9.66212
▁Ost	-9.66242
▁bedeutet	-9.66251
▁verwendet	-9.66253
▁Ve	-9.66268
▁size	-9.66296
.0	-9.66368
▁addition	-9.6642
unt	-9.66434
setzung	-9.66471
baut	-9.66474
▁handelt	-9.66486
ught	-9.66492
hu	-9.66509
▁costs	-9.6652
▁darf	-9.66598
car	-9.66627
▁attention	-9.66649
ativ	-9.66659
RE	-9.66805
▁Mitglied	-9.66831
▁Pe	-9.66894
▁wesentlich	-9.66895
pli	-9.66989
▁legislation	-9.66996
met	-9.67119
▁Cor	-9.67171
ai	-9.67183
▁education	-9.6721
▁Col	-9.67262
▁Instrument	-9.67272
▁Angebot	-9.6729
▁schaffen	-9.67301
▁context	-9.67372
▁freedom	-9.67397
▁Erfolg	-9.67407
▁spa	-9.6741
▁thing	-9.67412
▁Antwort	-9.67436
▁tr	-9.67506
burg	-9.67538
ffer	-9.67553
▁success	-9.67558
▁simply	-9.6761
lock	-9.6776
▁Raum	-9.67763
ify	-9.67789
▁Sicherheits	-9.67809
▁society	-9.67864
▁Val	-9.67877
▁office	-9.67957
sprach	-9.68125
▁East	-9.68151
▁card	-9.6819
▁Verbindung	-9.68293
kauf	-9.68359
▁leben	-9.68366
bei	-9.68374
▁apartment	-9.68381
ants	-9.6846
▁Inhalt	-9.68552
steig	-9.68554
▁aktiv	-9.68598
IS	-9.68726
ica	-9.68755
▁American	-9.68772
for	-9.6882
ox	-9.68905
▁Jahrhundert	-9.68935
▁proposals	-9.68961
▁Reihe	-9.69066
▁responsibility	-9.69092
hof	-9.6914
▁class	-9.69152
rang	-9.69152
▁policies	-9.69304
dienst	-9.69381
ball	-9.69514
▁head	-9.69559
▁answer	-9.69576
▁sport	-9.69587
▁Bri	-9.6961
▁ihrem	-9.69716
▁concerned	-9.69726
▁road	-9.69782
▁erreicht	-9.69803
▁öffentlichen	-9.69928
▁Menschenrechte	-9.69942
▁Bal	-9.69951
▁Such	-9.70053
▁dürfen	-9.70101
▁Japan	-9.70125
pect	-9.70126
▁discuss	-9.70131
din	-9.70155
▁hohe	-9.70156
▁Grundlage	-9.70202
▁port	-9.70219
ähl	-9.70233
▁II	-9.70401
▁due	-9.70419
▁technical	-9.70485
denken	-9.70539
▁equal	-9.70556
▁big	-9.70574
▁unver	-9.70608
▁gehört	-9.70625
▁2001	-9.707
▁clean	-9.70714
▁direct	-9.70718
▁Wohn	-9.70745
▁Wer	-9.70845
▁kleine	-9.70882
low	-9.70885
▁Kunst	-9.70895
▁auto	-9.70902
▁werde	-9.70911
ndung	-9.70938
▁user	-9.71022
▁Komp	-9.71037
▁challenge	-9.71047
▁En	-9.71065
▁importance	-9.71135
▁Richtung	-9.71139
▁weiß	-9.71151
▁Demokratie	-9.71351
▁Abkommen	-9.71357
▁vielleicht	-9.71375
▁einigen	-9.71395
▁projects	-9.71441
▁develop	-9.71442
▁package	-9.71473
reise	-9.71483
▁besten	-9.71531
€	-9.71541
mobil	-9.71549
▁amount	-9.71611
▁Meine	-9.71648
▁ju	-9.71776
▁capital	-9.71838
gew	-9.71894
▁met	-9.71895
mar	-9.7192
tum	-9.71924
▁cover	-9.71943
▁never	-9.71981
cal	-9.71988
▁professional	-9.72004
▁bu	-9.7204
OS	-9.72043
▁würden	-9.72069
▁method	-9.72103
ford	-9.72152
▁Sport	-9.72164
lan	-9.72177
30	-9.72179
▁speziell	-9.72225
▁increasing	-9.72267
kenn	-9.72329
▁Berg	-9.72341
ös	-9.72389
hand	-9.72449
▁words	-9.72464
▁Musik	-9.72484
▁sollen	-9.72489
▁auszu	-9.72587
▁EC	-9.72595
ware	-9.72605
▁training	-9.7261
lon	-9.72627
▁Africa	-9.72637
▁Now	-9.72656
▁strategy	-9.72683
ütz	-9.72734
▁Foto	-9.72739
feld	-9.72752
dro	-9.72772
▁holiday	-9.7289
nimmt	-9.72895
zone	-9.72949
▁pl	-9.72956
steuer	-9.73029
ets	-9.73034
▁communication	-9.7305
▁greater	-9.73096
ties	-9.73105
▁Fra	-9.73118
▁investment	-9.73122
▁century	-9.73125
▁Stelle	-9.73133
▁zusätzlich	-9.73144
▁gesch	-9.73179
▁results	-9.73188
▁Vo	-9.73261
▁Europas	-9.73318
schluss	-9.73471
▁zeigt	-9.73523
▁einzige	-9.73523
▁enough	-9.73584
teile	-9.73617
▁Zahl	-9.73627
cc	-9.73639
scheid	-9.73689
vari	-9.73722
mann	-9.73743
fl	-9.73804
▁Gar	-9.73812
blick	-9.73892
▁Luft	-9.73904
▁Debatte	-9.73963
▁versch	-9.74027
▁weiterhin	-9.74031
antwort	-9.74063
▁internal	-9.7414
▁Mail	-9.74187
▁Verantwortung	-9.74252
▁fight	-9.7434
▁Krise	-9.74363
staat	-9.74462
▁mind	-9.74478
▁cultural	-9.745
▁breakfast	-9.7451
▁groups	-9.74511
▁talk	-9.74551
▁Initiative	-9.74552
▁questions	-9.74559
zimmer	-9.7456
EL	-9.7458
bare	-9.74651
▁Dokument	-9.74663
▁original	-9.74674
▁betrifft	-9.74752
pekt	-9.74786
▁Mil	-9.74793
▁keinen	-9.74794
fragen	-9.74807
pla	-9.7485
▁größere	-9.74954
▁ago	-9.74959
av	-9.75008
ME	-9.75065
test	-9.75094
▁nature	-9.75129
oper	-9.75151
▁Members	-9.75163
▁leicht	-9.75223
▁multi	-9.7523
▁significant	-9.75267
т	-9.75344
▁enter	-9.75396
▁meet	-9.75431
▁May	-9.75443
▁deshalb	-9.75489
wind	-9.75545
▁Sozial	-9.75566
fra	-9.75579
▁provides	-9.75617
abil	-9.75632
laub	-9.75679
▁Bas	-9.75681
▁source	-9.75709
▁arm	-9.75781
mäßig	-9.75802
▁bestimmte	-9.75805
hal	-9.75885
▁makes	-9.75907
verfahren	-9.75937
▁proper	-9.75958
buch	-9.75999
schein	-9.76056
zeichnet	-9.76058
▁required	-9.76098
eln	-9.76108
▁60	-9.76168
▁nutzen	-9.76201
▁via	-9.76239
▁Gesetz	-9.76243
▁history	-9.76244
bringen	-9.76287
fähig	-9.7632
▁machine	-9.76477
▁relat	-9.7649
eu	-9.76498
▁serve	-9.76531
▁Von	-9.76556
▁nächsten	-9.76569
▁suggest	-9.76579
▁clearly	-9.76647
▁points	-9.76672
fertig	-9.7671
▁purpose	-9.76721
▁au	-9.76801
struct	-9.76842
▁recent	-9.76842
ros	-9.76867
Änderungsanträge	-9.76877
▁receive	-9.7694
SS	-9.77052
ular	-9.77063
teilen	-9.77189
▁nationalen	-9.77241
▁aufgrund	-9.77247
AP	-9.77327
▁Umsetzung	-9.77354
grund	-9.77365
▁structure	-9.77378
▁Windows	-9.77417
▁Privat	-9.77419
▁months	-9.77438
▁connection	-9.77441
▁Selbst	-9.77459
▁Betrieb	-9.77474
▁standards	-9.77475
▁competition	-9.7751
▁Nähe	-9.7753
light	-9.77551
lü	-9.77632
▁2002	-9.77638
▁Außen	-9.77656
ati	-9.77677
▁authorities	-9.77694
▁Bevölkerung	-9.77697
▁Ju	-9.77791
zz	-9.778
10	-9.77826
▁First	-9.77882
▁relax	-9.77934
ST	-9.77961
▁November	-9.78008
laden	-9.78053
▁erfolgreich	-9.78063
▁record	-9.78263
▁ten	-9.78357
▁rep	-9.78375
▁aware	-9.7842
▁Struktur	-9.78429
▁peace	-9.78462
▁Gäste	-9.78573
gruppe	-9.78619
▁file	-9.78631
bal	-9.78647
▁Video	-9.78652
▁begrüße	-9.78663
▁according	-9.78668
wal	-9.7875
▁longer	-9.78798
▁hold	-9.78896
fach	-9.78985
ink	-9.79004
fallen	-9.79025
▁Insel	-9.79036
dig	-9.79057
▁sprechen	-9.79058
▁Zusammen	-9.79076
▁findet	-9.79089
▁denke	-9.79091
▁Kur	-9.7916
ux	-9.79166
put	-9.7917
▁Pol	-9.7917
organisation	-9.79177
schau	-9.79211
▁Reg	-9.79274
▁bus	-9.79356
▁affect	-9.79394
▁top	-9.7941
legt	-9.79537
▁civil	-9.79554
▁themselves	-9.79558
regel	-9.79586
▁Interesse	-9.79646
▁Dinge	-9.79682
lauf	-9.79723
▁directly	-9.79776
▁fünf	-9.7981
mut	-9.79884
bro	-9.79889
▁depend	-9.79945
▁organis	-9.79972
▁employment	-9.79993
▁Druck	-9.80037
teilung	-9.80082
gro	-9.80184
▁France	-9.8019
▁responsible	-9.80203
für	-9.80222
bas	-9.80235
▁computer	-9.8024
▁times	-9.80245
roll	-9.80327
▁Mess	-9.8035
▁Wachstum	-9.80375
▁Maß	-9.80391
▁How	-9.80408
▁Har	-9.8052
gal	-9.80528
▁April	-9.80583
▁mal	-9.80595
stein	-9.80622
▁successful	-9.80658
▁profit	-9.80681
▁kleinen	-9.80701
▁Ziele	-9.8073
▁facilities	-9.8074
▁limit	-9.80919
▁element	-9.8097
fahren	-9.8102
▁technische	-9.81035
▁South	-9.81073
▁arbeiten	-9.81088
leit	-9.81097
▁web	-9.81104
▁Ku	-9.81135
fahrt	-9.81191
▁needed	-9.81355
trieb	-9.81357
▁love	-9.81387
▁Paris	-9.81415
tischen	-9.81421
▁maintain	-9.81424
rum	-9.81486
▁Film	-9.81606
▁developed	-9.81607
▁everything	-9.8164
▁vo	-9.81659
▁contain	-9.81701
▁currently	-9.81723
▁Krieg	-9.81731
▁basic	-9.81762
cycl	-9.81808
laufen	-9.81815
▁discussion	-9.81842
▁u	-9.81861
oni	-9.81873
▁ko	-9.81893
stadt	-9.81919
wende	-9.81932
▁provision	-9.81939
▁By	-9.81961
▁hoffe	-9.82074
▁involved	-9.82078
ßt	-9.82097
▁sound	-9.82152
det	-9.82158
▁Che	-9.82183
▁IT	-9.82291
▁school	-9.82297
$	-9.82426
▁cut	-9.82468
▁Team	-9.82483
▁dank	-9.82491
▁culture	-9.82499
▁please	-9.82536
▁Verbesserung	-9.82566
▁General	-9.82586
pass	-9.82636
▁From	-9.82647
▁requirements	-9.82672
lex	-9.8268
▁democracy	-9.82742
▁2.	-9.82744
.00	-9.82766
▁allerding	-9.82783
▁behind	-9.82784
▁soziale	-9.82844
▁tatsächlich	-9.82965
▁Partei	-9.83016
▁looking	-9.83051
▁schwer	-9.8308
▁Handels	-9.83089
ax	-9.83094
▁Fest	-9.83106
▁Bedingungen	-9.83173
wohl	-9.83174
▁though	-9.83183
▁Will	-9.83225
freundlich	-9.83233
▁democratic	-9.83272
▁apply	-9.83314
▁foreign	-9.83356
jahr	-9.83365
▁solutions	-9.83418
▁Please	-9.8346
cker	-9.83612
▁implementation	-9.83632
zo	-9.83649
▁hatten	-9.83686
▁bevor	-9.83746
band	-9.83817
▁commitment	-9.83837
▁Tatsache	-9.83853
▁parties	-9.83866
▁beispielsweise	-9.83889
▁committee	-9.83889
ious	-9.83906
▁acc	-9.83911
stelle	-9.83923
▁Groß	-9.83963
äum	-9.83973
alter	-9.83979
▁Red	-9.84026
▁unbe	-9.84111
▁pages	-9.84122
▁Mitarbeiter	-9.84153
IP	-9.84182
▁picture	-9.84204
▁true	-9.84329
▁digital	-9.84331
▁unique	-9.8435
▁illegal	-9.84405
▁related	-9.84408
▁Beschäftigung	-9.84473
▁tell	-9.84566
▁wohl	-9.84585
▁Aspekt	-9.84642
zig	-9.84749
gebiet	-9.8477
▁contract	-9.84825
▁Liste	-9.84871
▁pool	-9.84878
▁Vereinigte	-9.84917
▁mail	-9.84925
ably	-9.84963
▁könnten	-9.84976
pon	-9.85067
▁guests	-9.85071
▁Au	-9.85076
▁Bad	-9.85108
▁began	-9.85181
▁living	-9.85226
▁later	-9.85318
▁Office	-9.85358
▁low	-9.85396
▁client	-9.85422
ail	-9.85428
temp	-9.85458
IT	-9.85491
▁Kre	-9.85521
▁sozialen	-9.85593
▁either	-9.85646
▁reg	-9.85647
hne	-9.85665
▁plant	-9.85688
▁others	-9.85703
▁Frieden	-9.85732
▁interests	-9.85774
▁views	-9.85793
rac	-9.85833
▁Einsatz	-9.85839
▁Let	-9.85876
▁Nu	-9.85896
▁doing	-9.85958
▁five	-9.85962
▁Sub	-9.85996
▁Auswirkung	-9.86064
▁Verordnung	-9.86084
arbeiten	-9.86104
▁Fri	-9.86106
▁almost	-9.86106
▁Viele	-9.86117
liegen	-9.86126
▁Ihrem	-9.86263
ising	-9.86291
OM	-9.86293
▁zentral	-9.86337
▁friend	-9.8642
▁Platz	-9.86446
▁Fla	-9.86477
tru	-9.86506
▁media	-9.86563
▁gegeben	-9.86594
▁ermöglicht	-9.86602
▁Hoch	-9.86613
▁events	-9.8664
▁Daher	-9.86727
AS	-9.86791
▁release	-9.868
ili	-9.86812
ruh	-9.8682
▁target	-9.86822
▁gab	-9.86852
ät	-9.86932
▁item	-9.86933
▁regions	-9.86986
▁created	-9.86993
verständlich	-9.86995
▁Gal	-9.87008
▁GmbH	-9.87016
unternehmen	-9.87062
▁bleiben	-9.8707
▁choice	-9.87157
qual	-9.87185
▁appropriate	-9.87195
▁enthalten	-9.87355
▁Blick	-9.87386
▁Mark	-9.87396
▁Ob	-9.87434
▁soon	-9.87478
▁AG	-9.87478
▁www	-9.87488
▁cause	-9.8749
▁efforts	-9.87519
▁Angelegenheit	-9.87553
▁additional	-9.87554
▁train	-9.87574
schnitt	-9.8765
pite	-9.87684
greifen	-9.87688
▁schwierig	-9.87689
▁Sal	-9.87721
▁mein	-9.87784
▁comfortable	-9.87806
▁player	-9.87812
cul	-9.87858
▁Hin	-9.87997
▁internationale	-9.88022
▁implement	-9.88023
▁Möglichkeiten	-9.88032
▁previous	-9.88126
▁Damen	-9.88187
komp	-9.88216
▁Benutzer	-9.88252
par	-9.88292
▁alt	-9.88367
kur	-9.88435
▁liegen	-9.88438
kü	-9.88478
cke	-9.88484
▁konnte	-9.8854
▁ground	-9.8855
▁Institutionen	-9.88555
▁friendly	-9.88562
▁carrie	-9.88623
▁Mer	-9.88634
▁developing	-9.88737
▁Erweiterung	-9.88752
▁simple	-9.88763
licher	-9.88781
▁Minuten	-9.88799
▁mark	-9.88815
änderung	-9.88822
RA	-9.88889
▁population	-9.88934
▁select	-9.88935
▁1999	-9.88965
rant	-9.89015
▁Freund	-9.89039
▁Kraft	-9.89055
60	-9.8914
flu	-9.89153
öl	-9.89155
arm	-9.89192
kal	-9.89263
▁Zentrum	-9.89304
▁performance	-9.89343
▁climate	-9.89393
▁broad	-9.89394
▁red	-9.8942
legung	-9.89444
▁comes	-9.89449
AC	-9.89463
▁Kontrolle	-9.8952
▁task	-9.89523
▁negotiations	-9.89524
erweise	-9.89586
▁Sprache	-9.8959
gress	-9.89654
▁situated	-9.8967
▁80	-9.89673
▁Handel	-9.89742
last	-9.89743
▁ever	-9.89805
▁Bur	-9.89919
▁outside	-9.89984
ühl	-9.90027
▁French	-9.90032
lot	-9.9004
gesellschaft	-9.90051
▁Erklärung	-9.90093
▁Tier	-9.90099
▁DE	-9.90173
▁active	-9.90279
lor	-9.90326
▁Programme	-9.90387
volle	-9.90389
hilfe	-9.90449
cia	-9.90506
▁Doch	-9.90509
▁eng	-9.9055
▁höchst	-9.90569
▁verfügt	-9.90569
▁Pf	-9.90598
see	-9.90605
▁stage	-9.90626
▁extra	-9.90636
bericht	-9.9066
▁video	-9.90675
▁prepar	-9.90699
uck	-9.90729
spolitik	-9.90744
▁Stimm	-9.90867
▁000	-9.90886
ender	-9.90897
▁27	-9.90949
▁später	-9.90987
hold	-9.90991
kosten	-9.91005
▁treat	-9.91097
set	-9.91127
▁center	-9.91173
▁sagte	-9.91205
tte	-9.91221
führen	-9.91232
▁knowledge	-9.91272
▁folgende	-9.91294
▁traditional	-9.91313
▁rich	-9.91341
rad	-9.91363
kontroll	-9.91488
▁warm	-9.91557
▁gleichzeitig	-9.916
▁author	-9.9169
▁Room	-9.91698
▁Some	-9.91698
▁produce	-9.91732
▁treatment	-9.91742
▁Best	-9.91831
ians	-9.91842
▁Nutzung	-9.9198
▁statement	-9.9199
▁indicat	-9.92058
▁Herren	-9.92083
▁promote	-9.92085
ically	-9.92092
▁famous	-9.92117
karte	-9.92208
▁CO	-9.92226
▁transfer	-9.92249
▁Hinblick	-9.9226
▁changes	-9.92341
bahn	-9.92373
NG	-9.92402
▁correct	-9.9241
fol	-9.92554
▁et	-9.92559
▁concept	-9.92579
▁Entwicklungs	-9.92582
▁across	-9.92585
▁half	-9.92604
▁vorgeschlagen	-9.92614
▁Presidency	-9.92648
Dienstleistungen	-9.92682
▁Familien	-9.92683
▁Idee	-9.92699
▁Institut	-9.9271
▁Diskussion	-9.92826
▁establish	-9.92826
▁Landes	-9.92885
▁Einzel	-9.92888
▁download	-9.92894
cel	-9.92964
▁Thank	-9.92975
▁Staats	-9.92977
▁darum	-9.92982
▁Bildung	-9.92986
iff	-9.93088
▁sal	-9.93091
▁deine	-9.93101
▁innovative	-9.93153
stimmt	-9.9316
▁held	-9.93161
▁Gruppe	-9.93193
▁Verwaltung	-9.93303
▁Mehr	-9.93318
▁Ergebnis	-9.93386
▁designed	-9.93388
▁floor	-9.93393
unk	-9.93428
▁nahe	-9.93449
▁hervor	-9.93462
▁style	-9.9348
stat	-9.93487
▁America	-9.9359
▁ebenso	-9.93595
80	-9.93633
▁mountain	-9.93643
▁Einrichtung	-9.93686
▁em	-9.93796
▁thus	-9.93821
▁try	-9.93852
kraft	-9.93876
▁Seit	-9.93885
▁CD	-9.93897
▁Para	-9.93903
wood	-9.93903
▁included	-9.93928
▁jede	-9.93951
hä	-9.93955
reichen	-9.94005
▁gar	-9.94007
▁setting	-9.94114
noch	-9.94133
▁early	-9.94144
▁North	-9.94164
▁vollständig	-9.9417
▁halten	-9.942
▁Bro	-9.94203
▁Ä	-9.94205
▁Kontakt	-9.94206
▁lack	-9.94238
▁Fund	-9.94275
▁Star	-9.94372
frage	-9.94377
▁Pra	-9.94403
▁Farb	-9.9443
cho	-9.9444
▁jene	-9.94473
▁schriftlich	-9.94479
▁Iran	-9.94485
kor	-9.94491
▁official	-9.94491
▁wahr	-9.94563
▁Änderungsantrag	-9.94574
char	-9.94596
pu	-9.94628
▁bisher	-9.94707
fund	-9.94724
▁Also	-9.94741
▁tea	-9.94791
▁gestellt	-9.94794
bild	-9.94895
р	-9.95082
▁Prä	-9.95087
sucht	-9.95095
▁impact	-9.95123
▁Dialog	-9.95159
▁Ter	-9.95171
▁front	-9.95178
lement	-9.95191
▁Ausdruck	-9.9523
table	-9.95243
▁London	-9.95287
▁animal	-9.95292
welt	-9.95295
▁Test	-9.9531
▁Ergebnisse	-9.95314
▁gelten	-9.95392
▁ship	-9.95416
CE	-9.95518
▁200	-9.95525
▁join	-9.95556
▁strengthen	-9.95559
▁bestimmt	-9.95619
▁sense	-9.95658
▁eigentlich	-9.95723
heißt	-9.95734
▁abzu	-9.95771
aging	-9.95793
mel	-9.95823
▁deutsche	-9.95849
▁photo	-9.95871
▁hours	-9.95912
с	-9.96025
▁Position	-9.96026
▁took	-9.96113
▁workers	-9.96159
▁Online	-9.96167
▁gas	-9.96191
▁gesamten	-9.96293
wesen	-9.96298
▁funds	-9.96307
▁election	-9.96339
▁Abgeordneten	-9.9636
▁cases	-9.96405
▁consult	-9.96437
▁jedem	-9.96442
▁customer	-9.9646
fü	-9.96474
▁Ausschuss	-9.96482
▁built	-9.96583
tische	-9.96588
▁film	-9.96708
▁einzelnen	-9.96719
▁ganze	-9.96726
▁schöne	-9.96737
ping	-9.9674
▁Interessen	-9.96803
▁weiteren	-9.96835
fangen	-9.96851
▁hinter	-9.96864
▁Bre	-9.96879
▁Regionen	-9.96907
gli	-9.96919
istische	-9.96937
▁code	-9.96953
gelegt	-9.96955
▁Christ	-9.96961
▁stimme	-9.96988
▁majority	-9.97001
▁comment	-9.97019
rau	-9.97143
▁potential	-9.97144
▁condition	-9.97216
▁Tur	-9.97218
IC	-9.97253
istischen	-9.97264
▁states	-9.97282
▁prices	-9.973
kel	-9.97307
▁Herausforderung	-9.97372
▁August	-9.97396
ulation	-9.97426
▁Fisch	-9.97456
▁rund	-9.97482
.2	-9.97544
▁Kolleginne	-9.9761
▁Unser	-9.97685
seitig	-9.97689
▁disc	-9.97714
isieren	-9.97737
▁helfen	-9.9777
▁complex	-9.97786
▁message	-9.97799
Q	-9.9786
▁Freiheit	-9.97878
▁leave	-9.97889
▁throughout	-9.97928
▁Mass	-9.97977
MA	-9.9798
▁Za	-9.98023
▁unit	-9.98043
rig	-9.98046
▁demokratische	-9.98125
▁Personal	-9.98347
upon	-9.9837
▁PC	-9.98473
sicherheit	-9.9848
▁community	-9.98482
zunehmen	-9.98518
▁High	-9.98553
▁wider	-9.98577
▁nothing	-9.98616
▁90	-9.98644
kla	-9.98667
▁seen	-9.9868
▁guest	-9.98715
▁writing	-9.98762
innen	-9.98777
▁Austria	-9.98809
▁print	-9.98843
view	-9.98875
wohn	-9.99005
▁Government	-9.99012
▁danken	-9.99025
pel	-9.99032
▁finanzielle	-9.99054
äre	-9.99083
▁ban	-9.99107
▁Leute	-9.99139
▁tourist	-9.99142
rauch	-9.99162
▁cross	-9.99162
▁payment	-9.99182
▁Außerdem	-9.99189
▁Link	-9.9937
dic	-9.99397
▁English	-9.99433
▁search	-9.99461
▁Computer	-9.99526
ged	-9.99587
▁relativ	-9.99658
▁Arm	-9.99695
▁historische	-9.99708
▁damage	-9.99736
▁angenommen	-9.99739
▁Villa	-9.99746
▁colleague	-9.99746
▁neben	-9.99778
zentrum	-9.998
▁Zi	-9.99817
▁island	-9.99885
▁Court	-9.99887
▁Flo	-9.99919
▁ausgestattet	-9.99931
▁features	-9.99954
durch	-9.9996
▁Beziehungen	-9.99994
▁fort	-9.99994
▁befinden	-10.0001
▁divers	-10.0001
▁Information	-10.0002
LA	-10.0004
ham	-10.0004
▁kam	-10.0009
▁absolut	-10.001
▁character	-10.001
▁Ur	-10.0014
▁extend	-10.0016
frei	-10.0017
griff	-10.002
▁Informations	-10.0021
▁Kern	-10.0021
▁body	-10.0026
lik	-10.0034
eller	-10.0038
ED	-10.0043
▁sent	-10.0043
cient	-10.005
q	-10.0052
▁although	-10.0058
▁completely	-10.0062
▁factor	-10.0062
▁mentioned	-10.0063
▁member	-10.0063
▁Free	-10.0064
▁Konferenz	-10.0065
▁links	-10.0067
pack	-10.0067
▁pla	-10.0075
▁spend	-10.0078
▁introduce	-10.0085
▁Werk	-10.0099
▁Of	-10.0102
▁Zum	-10.0104
▁Server	-10.0105
▁gene	-10.0106
▁draft	-10.012
▁bekommen	-10.0121
▁meinen	-10.0128
▁got	-10.013
tätig	-10.0135
▁exchange	-10.0148
▁Russland	-10.0148
▁völlig	-10.0151
▁Aktion	-10.0162
▁Kampf	-10.017
itz	-10.0171
▁seek	-10.0183
stände	-10.0185
bü	-10.0185
▁Fuß	-10.0188
lieb	-10.0189
▁Förderung	-10.0195
daten	-10.0213
▁sl	-10.0214
merk	-10.0217
▁Verkehrs	-10.0225
LE	-10.0226
▁höher	-10.0236
▁Turkey	-10.0238
mä	-10.0239
cle	-10.0241
▁advance	-10.0244
seite	-10.0245
▁movement	-10.0246
▁Ki	-10.0246
▁bestehen	-10.0247
▁Macht	-10.0251
▁balance	-10.0254
▁threat	-10.0256
▁party	-10.0261
▁existing	-10.0262
▁zeigen	-10.0264
▁direction	-10.0265
ij	-10.0266
▁joint	-10.0268
▁came	-10.0273
▁Jede	-10.0274
anischen	-10.0276
▁Urlaub	-10.0283
▁markets	-10.0284
▁nice	-10.0284
EC	-10.0293
ple	-10.0294
▁Juni	-10.0295
▁mini	-10.0298
▁Flug	-10.0301
▁letzte	-10.0303
▁Bru	-10.0307
▁Augen	-10.0315
▁conflict	-10.0318
lig	-10.0318
▁Gelegenheit	-10.0318
▁Modell	-10.0327
▁Fälle	-10.0331
▁Dritte	-10.0334
sektor	-10.0335
▁Management	-10.0344
▁military	-10.0345
▁contribution	-10.0357
▁leading	-10.0358
▁collect	-10.0365
graf	-10.0366
oli	-10.0368
Ö	-10.0372
▁Beitrag	-10.0375
chi	-10.0376
▁Gefahr	-10.0377
▁relevant	-10.038
uff	-10.0383
▁refer	-10.0385
▁Even	-10.039
▁Deutsch	-10.0394
ott	-10.0396
▁Sache	-10.0397
▁reflect	-10.0398
▁Karte	-10.0399
ique	-10.04
▁Fehler	-10.0401
▁firm	-10.0406
▁wine	-10.0406
▁safe	-10.0407
▁double	-10.0409
werte	-10.0411
▁relations	-10.0411
▁users	-10.0413
▁bit	-10.0421
▁Post	-10.0424
▁Sam	-10.0426
▁alternative	-10.0432
zin	-10.0439
▁Themen	-10.045
▁mass	-10.0462
▁jedes	-10.0467
▁Mobil	-10.0468
▁speed	-10.0472
▁Comp	-10.048
▁spec	-10.0481
▁Wieder	-10.0483
▁Türkei	-10.0485
▁Ph	-10.0496
▁Person	-10.0496
▁fail	-10.0497
führung	-10.0507
▁poor	-10.0507
▁Here	-10.0508
zy	-10.0509
▁Anfrage	-10.0515
box	-10.052
zustellen	-10.0522
▁street	-10.0522
issen	-10.0522
Innen	-10.0522
TE	-10.0525
▁Verpflichtung	-10.0534
▁self	-10.0544
▁objective	-10.0545
▁gering	-10.0548
▁job	-10.0549
▁zweite	-10.0558
▁His	-10.0558
EG	-10.0562
▁begin	-10.0565
▁claim	-10.0565
tisch	-10.0568
▁Februar	-10.0573
▁She	-10.0576
▁setzen	-10.0584
▁concerning	-10.0584
▁Bereichen	-10.0589
▁export	-10.059
▁established	-10.059
schrift	-10.0596
▁gegenwärtig	-10.06
▁Wochen	-10.0603
▁six	-10.0605
▁Museum	-10.0606
▁south	-10.0615
VI	-10.0621
▁internet	-10.0621
▁village	-10.0633
▁mon	-10.0634
▁rule	-10.0641
▁gerne	-10.066
ump	-10.0664
pre	-10.0665
wid	-10.067
▁remov	-10.0679
lli	-10.0682
▁wegen	-10.0683
▁Vertrags	-10.0686
▁Stunden	-10.0689
▁avoid	-10.0691
ziehung	-10.0691
gegangen	-10.0697
sicher	-10.0697
▁bleibt	-10.0703
▁Höhe	-10.0704
▁Studie	-10.0715
RI	-10.0716
▁äußerst	-10.0723
▁Bitte	-10.0728
dia	-10.0733
matic	-10.0734
▁Ski	-10.0735
▁press	-10.0736
▁Hause	-10.0736
mos	-10.0736
▁Transport	-10.0739
ika	-10.0744
bedingungen	-10.0745
▁equipment	-10.0745
▁streng	-10.0746
▁Mac	-10.0746
▁equipped	-10.0747
▁Beitritt	-10.0755
▁Pala	-10.0779
position	-10.0781
▁Since	-10.0781
fried	-10.0781
ley	-10.0781
▁geführt	-10.0787
han	-10.0788
75	-10.079
▁Organ	-10.0793
▁discover	-10.0801
load	-10.0807
▁click	-10.0814
▁York	-10.0819
eva	-10.082
zuführen	-10.082
▁Strand	-10.082
▁advantage	-10.0827
reif	-10.0827
produkt	-10.0828
gebracht	-10.0838
▁beginning	-10.0848
▁huge	-10.0849
▁attack	-10.0852
▁Gemeinschafts	-10.0867
activ	-10.0868
cro	-10.0868
▁quickly	-10.087
▁sun	-10.0879
▁gestimmt	-10.0887
▁Folgen	-10.089
▁reasons	-10.09
fälle	-10.0902
▁thought	-10.091
▁mag	-10.0912
▁tour	-10.0912
▁Staat	-10.0913
▁received	-10.0914
▁word	-10.0915
▁Wein	-10.0919
▁response	-10.0926
▁Fo	-10.0927
▁City	-10.0929
kunft	-10.0932
IM	-10.0935
tract	-10.0936
fonds	-10.094
▁Club	-10.0941
tribu	-10.0948
▁meinem	-10.0949
▁Behörden	-10.0949
▁credit	-10.0951
▁entscheidend	-10.0954
ließ	-10.0955
в	-10.0961
▁partners	-10.0963
rom	-10.0967
▁industrial	-10.097
▁goal	-10.097
▁programmes	-10.098
räume	-10.0984
▁decisions	-10.0985
ney	-10.0986
▁Gewalt	-10.099
▁Damit	-10.0991
til	-10.0991
▁umfassende	-10.0993
▁Bilder	-10.0995
ific	-10.0995
▁unabhängig	-10.1001
▁Lisbon	-10.1011
▁trotz	-10.1011
▁jobs	-10.1011
DA	-10.1019
▁Familie	-10.1021
▁Ben	-10.1023
▁freue	-10.1024
▁spielen	-10.1026
▁efficient	-10.1029
▁Sektor	-10.1031
▁zweiten	-10.1031
▁confirm	-10.1033
schuld	-10.1043
▁Anfang	-10.1048
▁oil	-10.105
jährige	-10.1051
▁Umgebung	-10.1054
▁fit	-10.1057
▁Frankreich	-10.1058
ological	-10.1067
▁Material	-10.1069
▁Anti	-10.107
▁Central	-10.1071
▁wichtigsten	-10.1073
▁includes	-10.1082
▁Verwendung	-10.1086
▁conclusion	-10.109
▁Ol	-10.1094
▁agricultural	-10.1095
▁Off	-10.1099
anten	-10.1099
▁billion	-10.1109
▁Barcelona	-10.1109
schrei	-10.111
▁airport	-10.112
ici	-10.112
▁block	-10.1126
SP	-10.1129
ini	-10.1129
▁elegant	-10.1139
▁conference	-10.1139
systeme	-10.1144
▁verstehen	-10.1148
atory	-10.1151
▁Auswahl	-10.1152
▁object	-10.1159
▁Super	-10.1179
▁display	-10.1189
▁Aufenthalt	-10.1191
▁below	-10.1192
▁difference	-10.1193
▁28	-10.1195
▁wichtigen	-10.1195
12	-10.1201
▁everyone	-10.1204
▁Gebäude	-10.121
▁Juli	-10.1217
▁wobei	-10.1219
▁gelegen	-10.1219
▁measure	-10.122
bat	-10.1227
▁Linie	-10.1228
▁asked	-10.1229
▁foot	-10.1231
▁liberal	-10.1232
lebt	-10.124
▁nor	-10.125
gemäß	-10.1252
▁representative	-10.1252
▁ganzen	-10.1254
▁Fach	-10.1257
▁objectives	-10.1257
▁Integration	-10.126
▁popular	-10.1262
▁Golf	-10.1262
▁mu	-10.1265
▁Lissabon	-10.1268
▁Article	-10.1269
▁Q	-10.1271
▁hinsichtlich	-10.1274
top	-10.1275
▁recently	-10.1276
wirtschaftlichen	-10.1277
▁Lösungen	-10.1279
zeichnung	-10.1285
bereit	-10.1287
▁section	-10.1297
▁separate	-10.1298
▁Cap	-10.1302
▁ermöglichen	-10.1305
ough	-10.1308
▁pressure	-10.1309
▁Forderung	-10.1314
▁series	-10.1316
▁Cre	-10.132
▁Lauf	-10.132
▁regarding	-10.1324
▁indeed	-10.1325
▁values	-10.1327
▁Alp	-10.1327
▁India	-10.1328
▁dialogue	-10.1328
▁Standpunkt	-10.133
▁choose	-10.1333
▁miss	-10.1337
▁keyword	-10.1341
▁Woche	-10.1342
stieg	-10.1353
▁70	-10.1358
▁500	-10.1366
▁Rom	-10.1366
▁Str	-10.1371
▁deep	-10.1373
▁carry	-10.1374
▁enthält	-10.1375
ält	-10.1376
▁board	-10.1377
pat	-10.1379
▁Gesamt	-10.1382
▁Regelung	-10.1382
ament	-10.1386
col	-10.1386
▁Business	-10.1388
stehende	-10.1391
▁Affairs	-10.1391
▁men	-10.1394
▁Pass	-10.1403
▁commercial	-10.1407
tage	-10.1411
▁mobile	-10.1415
▁ausgezeichnet	-10.1415
park	-10.142
▁base	-10.142
▁26	-10.1423
▁Tat	-10.1428
J	-10.1435
▁cur	-10.1443
▁Rechnung	-10.1448
▁Liefer	-10.1454
▁study	-10.1454
▁31	-10.1459
▁Binnenmarkt	-10.1465
▁accommodation	-10.1465
▁grant	-10.1468
ira	-10.1474
struktur	-10.1476
ida	-10.1477
bla	-10.1482
bb	-10.1483
▁lässt	-10.1488
▁update	-10.1496
▁verwenden	-10.1497
▁Jugend	-10.1498
tral	-10.1508
▁independent	-10.1509
▁June	-10.1514
▁geeignet	-10.1516
gericht	-10.1518
▁Fischerei	-10.152
▁gehören	-10.1521
phi	-10.1523
AM	-10.1523
▁Schiff	-10.1528
vil	-10.1544
▁heutige	-10.1546
▁Arch	-10.1558
▁Second	-10.1563
▁allein	-10.1565
▁verbessern	-10.1572
▁Mari	-10.1574
▁Notwendigkeit	-10.1577
▁applications	-10.1582
▁Element	-10.1582
▁started	-10.1588
▁Gold	-10.1588
▁wollte	-10.1591
▁Social	-10.1594
▁Schaffung	-10.1598
▁perhaps	-10.16
effizient	-10.1614
▁garden	-10.1617
▁prove	-10.1618
cast	-10.1625
time	-10.1627
▁fun	-10.1638
▁junge	-10.164
▁Arbeitnehmer	-10.1641
▁Italien	-10.1643
ped	-10.1643
▁Finally	-10.1644
▁Frühstück	-10.1647
▁stärker	-10.1651
▁Tor	-10.1652
▁highly	-10.1653
▁gewisse	-10.1653
trat	-10.1661
▁nu	-10.1668
▁Küche	-10.1668
sprozess	-10.1683
▁similar	-10.1684
▁Zur	-10.1684
tric	-10.1685
▁Last	-10.1687
▁ruhig	-10.1688
▁integration	-10.1693
▁Anzahl	-10.1698
DE	-10.1699
TA	-10.1699
▁Zeitpunkt	-10.1704
migration	-10.1707
▁Preise	-10.1709
▁Amendment	-10.171
polit	-10.1711
▁hinzu	-10.172
▁Ausschusse	-10.1721
PS	-10.1725
sicherung	-10.1726
▁attempt	-10.1728
▁Landwirtschaft	-10.173
▁par	-10.173
▁whose	-10.173
▁derzeit	-10.1732
▁Währung	-10.1733
▁voran	-10.1733
▁Mini	-10.1734
▁coming	-10.1735
▁Sommer	-10.1736
▁erklärt	-10.174
▁traffic	-10.1745
▁Chance	-10.1747
▁green	-10.1747
▁Vertreter	-10.1747
▁Amsterdam	-10.1759
▁Darüber	-10.176
▁Verfassung	-10.176
▁amendment	-10.1763
cri	-10.1769
▁Gericht	-10.1772
▁creation	-10.1776
▁gesamte	-10.1778
politische	-10.1779
▁files	-10.1785
ridge	-10.1785
▁liebe	-10.1793
▁01	-10.1797
▁store	-10.1799
▁Projekte	-10.18
▁à	-10.1802
▁park	-10.1806
▁nuclear	-10.1807
▁Prof	-10.1807
▁supply	-10.1813
ero	-10.1815
▁mode	-10.182
▁Gleich	-10.1828
heben	-10.1828
▁mis	-10.1833
▁encourage	-10.1839
▁häufig	-10.1845
MS	-10.1846
äg	-10.1847
üsse	-10.1852
▁presented	-10.1854
▁Herzen	-10.1854
ET	-10.1858
▁added	-10.1862
▁tradition	-10.1862
EM	-10.1866
grad	-10.1867
▁Bio	-10.1868
▁Finanzierung	-10.1871
▁stress	-10.1873
lav	-10.1886
maßnahmen	-10.189
▁contains	-10.1892
70	-10.1894
▁durchgeführt	-10.1895
▁Hy	-10.1895
▁großer	-10.1899
▁entwickeln	-10.1899
▁contribute	-10.1902
▁Paket	-10.1903
▁Zweck	-10.1905
▁death	-10.1907
▁define	-10.1907
▁Innovation	-10.1908
body	-10.1914
▁perform	-10.1914
▁Green	-10.1918
▁consequence	-10.1919
▁emphasis	-10.1922
SA	-10.1924
▁increased	-10.193
rup	-10.1936
ama	-10.194
▁higher	-10.1943
▁buy	-10.1944
▁suffer	-10.1949
▁recommend	-10.195
▁Gast	-10.1955
ject	-10.1959
▁Mag	-10.1974
▁decided	-10.1976
▁geschlossen	-10.1979
▁Bus	-10.1985
▁bathroom	-10.199
▁verfügen	-10.2001
▁Market	-10.2004
▁Während	-10.2016
▁involve	-10.2017
▁Linux	-10.2017
▁Priorität	-10.202
▁300	-10.2022
▁Tro	-10.2028
aria	-10.2029
▁kulturelle	-10.2037
▁rein	-10.2039
▁Apartment	-10.2041
▁import	-10.2042
▁agreed	-10.2043
▁review	-10.2044
▁fördern	-10.2044
▁vehicle	-10.2047
▁late	-10.2051
▁Mehrheit	-10.2051
board	-10.2052
▁Punkte	-10.2054
sfähigkeit	-10.2057
certainly	-10.2058
▁Einführung	-10.2058
▁court	-10.2068
▁Gipfel	-10.2079
▁zunächst	-10.2081
▁external	-10.2083
▁Site	-10.2087
▁Open	-10.2093
▁summer	-10.2096
▁35	-10.2098
▁break	-10.2099
▁vorher	-10.21
ächtig	-10.2109
▁sofort	-10.211
▁former	-10.2116
▁Konflikt	-10.2121
▁negative	-10.2122
hel	-10.2126
▁Bra	-10.2129
▁compromise	-10.2133
▁lokale	-10.2134
▁host	-10.2136
ination	-10.2142
▁öffentliche	-10.2142
▁device	-10.2145
▁komplett	-10.2147
motiv	-10.2149
UR	-10.215
ulate	-10.2153
PA	-10.2155
▁sustainabl	-10.2157
lev	-10.2157
▁gleichen	-10.2161
stitu	-10.2162
▁Behandlung	-10.2163
▁obtain	-10.2167
▁Arbeitsplätze	-10.2167
▁hear	-10.2168
organ	-10.217
▁considered	-10.2172
▁gebracht	-10.2179
spar	-10.218
▁vorhanden	-10.2181
▁atmosphere	-10.2182
▁aspects	-10.2187
▁consumers	-10.2187
▁Wohl	-10.2188
▁größten	-10.219
▁interessant	-10.2194
▁künftig	-10.2197
bewusst	-10.22
▁sorgen	-10.2201
▁versucht	-10.2202
▁Debian	-10.2202
▁build	-10.2202
▁größte	-10.2205
▁Therefore	-10.2208
▁angemessen	-10.2214
▁Sitzung	-10.2215
▁Neben	-10.2215
▁Lang	-10.222
▁schlecht	-10.2221
▁engine	-10.2225
▁server	-10.2225
richtung	-10.2227
▁possibility	-10.2228
▁Nur	-10.2229
▁Abend	-10.2229
▁Konzept	-10.2234
avi	-10.2234
betrieb	-10.2241
▁29	-10.2244
▁opportunities	-10.2248
▁Veranstaltung	-10.2248
▁restrict	-10.2249
förder	-10.225
▁distance	-10.2254
bett	-10.2254
▁versuchen	-10.2255
▁Kommunikation	-10.2257
▁track	-10.2261
▁student	-10.2264
▁fine	-10.2272
▁Änderungen	-10.2273
▁Mü	-10.2278
▁Flughafen	-10.2281
▁legislative	-10.2281
▁Party	-10.2286
NE	-10.2287
▁Besuch	-10.229
▁Zwei	-10.2295
▁reference	-10.2297
▁eindeutig	-10.2299
▁gain	-10.2308
ante	-10.231
netz	-10.2311
suche	-10.2311
▁Convention	-10.2317
spann	-10.2319
▁register	-10.2326
aktiv	-10.2328
geht	-10.2336
▁Lebensmittel	-10.2347
▁north	-10.2348
▁latest	-10.2348
ausschuss	-10.2356
▁capacity	-10.2358
▁Grenz	-10.2369
getragen	-10.2372
text	-10.2378
▁easily	-10.2379
▁automatisch	-10.2383
▁reviews	-10.2384
voted	-10.239
▁Republic	-10.239
▁shown	-10.2394
▁prepared	-10.2396
▁Dabei	-10.2396
,5	-10.2397
▁origin	-10.24
▁praktisch	-10.2401
▁Spain	-10.2408
▁child	-10.2409
▁Sicht	-10.2418
▁Ratspräsident	-10.2429
▁sw	-10.2432
▁Hol	-10.2434
▁combine	-10.2435
▁Italy	-10.2435
▁individuell	-10.2437
▁providing	-10.2437
▁Camp	-10.2438
▁Log	-10.2441
▁reject	-10.2443
▁guten	-10.2447
fect	-10.2447
▁gross	-10.2448
cip	-10.2448
▁interesting	-10.2449
▁March	-10.2454
▁erfolgt	-10.2458
09	-10.2464
▁kostenlos	-10.2467
▁thousand	-10.2467
▁tragen	-10.247
▁Änderung	-10.2474
л	-10.2483
▁govern	-10.2486
▁verfügbar	-10.2488
anda	-10.2491
▁ständig	-10.2498
▁gerecht	-10.2506
▁Tal	-10.2507
script	-10.251
▁doubt	-10.2511
▁construction	-10.2515
read	-10.2525
▁dritte	-10.2528
▁Anlage	-10.2529
typ	-10.253
▁Gott	-10.2531
▁consumer	-10.2531
99	-10.2531
▁exclusive	-10.2534
▁Gruppen	-10.2538
▁Schlusselwort	-10.2541
▁combat	-10.2542
▁Basis	-10.2544
OL	-10.2552
bildung	-10.2552
▁suite	-10.2559
▁British	-10.2569
▁Medien	-10.2571
▁Ukraine	-10.2573
▁lediglich	-10.2579
▁Aktivitäten	-10.2584
▁regular	-10.2585
▁Sil	-10.2587
alität	-10.2587
▁flow	-10.2589
▁Dur	-10.2591
▁trip	-10.2596
▁comfort	-10.2597
▁enlargement	-10.2598
NA	-10.2598
▁Bundes	-10.2604
▁1998	-10.2608
fla	-10.2609
▁Vereinbarung	-10.2611
▁adapt	-10.2615
▁neuer	-10.262
ella	-10.262
▁Hel	-10.262
▁Stabilität	-10.2623
sagen	-10.2623
wahr	-10.2631
▁Lehr	-10.2634
▁anderer	-10.2635
▁Präsidentschaft	-10.2637
▁Italian	-10.2637
▁entsteh	-10.2638
▁eingesetzt	-10.2641
▁Western	-10.2643
▁Start	-10.2646
▁Sha	-10.2652
▁Fortschritte	-10.2666
▁erneut	-10.2666
▁fire	-10.2676
▁became	-10.2678
▁round	-10.2682
▁instead	-10.2687
▁Amerika	-10.2687
▁save	-10.2689
40	-10.2692
▁gewährleisten	-10.2692
▁Wissenschaft	-10.2701
▁hohen	-10.2704
▁scheint	-10.2705
▁Kom	-10.2705
▁property	-10.2706
▁figure	-10.2708
bul	-10.2709
stimmung	-10.2711
▁creating	-10.272
▁erwähnt	-10.272
ppen	-10.2731
▁crime	-10.2731
nehmer	-10.2734
▁brought	-10.2734
▁Sterne	-10.2737
vin	-10.2742
▁influence	-10.2746
▁Every	-10.2747
wechsel	-10.2753
▁wait	-10.2758
▁Gemeinsam	-10.2761
▁transparent	-10.2761
▁conduct	-10.2763
wart	-10.2773
▁submitted	-10.2777
▁December	-10.2778
▁harm	-10.2779
▁practical	-10.2781
▁breite	-10.2787
▁Klima	-10.2789
▁Bla	-10.2792
▁nachhaltige	-10.2796
▁relationship	-10.28
▁Bekämpfung	-10.28
schlüsse	-10.2803
▁purchase	-10.2805
▁Kosovo	-10.2807
▁WTO	-10.2807
▁paar	-10.2807
▁Sim	-10.2809
aktion	-10.2813
▁hervorragend	-10.2818
▁Zahlung	-10.2819
▁explain	-10.2821
▁Lib	-10.2822
phase	-10.2823
▁month	-10.2823
▁Kommissarin	-10.2829
▁limited	-10.283
▁priority	-10.2831
▁Min	-10.2841
▁exact	-10.2846
▁quiet	-10.2847
▁color	-10.2849
▁Protokoll	-10.2849
▁Grand	-10.2851
▁einschließlich	-10.2864
▁funding	-10.2876
▁arrange	-10.2878
erei	-10.2881
name	-10.2894
fest	-10.2894
▁closed	-10.2896
CA	-10.2905
▁Real	-10.2922
▁Klein	-10.294
▁ändern	-10.2941
▁Part	-10.2943
▁Erachten	-10.2943
▁Booking	-10.2946
▁largest	-10.295
▁Licht	-10.2951
▁spirit	-10.2956
▁laut	-10.2956
itar	-10.2963
▁Prozent	-10.2964
▁früher	-10.2966
strategie	-10.2975
▁Eigen	-10.2979
▁grundlegende	-10.2983
barkeit	-10.2983
▁obvious	-10.2985
sätze	-10.2995
▁sieht	-10.3
▁Wissen	-10.3
▁historical	-10.3001
▁flexible	-10.3001
termin	-10.3011
▁Schi	-10.3011
▁Straf	-10.3013
▁konnten	-10.3014
▁assistance	-10.3018
#	-10.3021
▁Tätigkeit	-10.3036
▁Netz	-10.3041
▁che	-10.3041
ipp	-10.3041
▁Gerät	-10.3043
▁participat	-10.3048
schieden	-10.3051
▁Ger	-10.3057
▁dadurch	-10.3059
▁vorgesehen	-10.3068
▁Bestimmungen	-10.307
lern	-10.3073
▁außerdem	-10.3074
▁Kredit	-10.3079
▁schließlich	-10.308
schreiben	-10.3091
▁reserve	-10.3095
▁echte	-10.3096
▁path	-10.31
▁DVD	-10.3106
kop	-10.3108
▁effort	-10.3108
phy	-10.3115
▁Netzwerk	-10.3117
▁secure	-10.3123
▁FR	-10.3128
selben	-10.3129
▁highlight	-10.3129
▁announce	-10.313
▁disease	-10.313
▁produced	-10.313
ré	-10.3131
▁ourselves	-10.3141
▁Dezember	-10.3142
▁Vertrauen	-10.3147
▁vorgelegt	-10.3152
▁Maschine	-10.3156
▁wirksam	-10.3156
IA	-10.3161
hotel	-10.3163
ology	-10.3167
▁Aufmerksamkeit	-10.317
wissenschaftlich	-10.3171
▁phone	-10.3178
▁article	-10.3179
▁End	-10.3181
▁execut	-10.3185
lanz	-10.3186
▁relation	-10.3192
▁Straßen	-10.3192
ona	-10.3194
▁Del	-10.3198
pot	-10.3208
▁organization	-10.3217
▁January	-10.3219
▁betroffen	-10.3229
▁variety	-10.3229
▁ähnlich	-10.3229
▁innovation	-10.3231
ologie	-10.3236
89	-10.3245
к	-10.3246
▁Stil	-10.3249
▁Herz	-10.325
▁Asia	-10.3253
▁Option	-10.3257
▁eye	-10.3257
▁reduction	-10.3261
staatliche	-10.3268
▁Stra	-10.3278
▁alten	-10.3279
▁festgelegt	-10.3283
▁insgesamt	-10.3288
▁October	-10.3292
▁Schweiz	-10.3293
▁fisher	-10.3298
▁Spieler	-10.3304
▁erster	-10.3308
▁supported	-10.3309
▁Methode	-10.3311
▁Portugal	-10.3312
▁giving	-10.3314
haupt	-10.3315
▁Center	-10.3316
▁Opfer	-10.3316
▁Prinzip	-10.332
▁Nun	-10.3323
65	-10.3324
medi	-10.3331
▁sechs	-10.3331
▁categories	-10.3332
▁Adresse	-10.3333
▁aufgenommen	-10.3334
▁activity	-10.3338
▁kennen	-10.334
▁describe	-10.334
▁chance	-10.3341
▁Webseite	-10.3344
clus	-10.3346
▁bio	-10.3349
▁screen	-10.3357
▁custom	-10.3358
▁eingerichtet	-10.336
▁Today	-10.3363
▁Sea	-10.3367
▁Vorschriften	-10.3368
▁improvement	-10.337
▁optimal	-10.3387
▁farm	-10.3388
pflicht	-10.3389
▁Well	-10.3389
lösung	-10.3389
▁mention	-10.3395
▁pleased	-10.34
▁Haushalt	-10.3406
▁morgen	-10.3408
▁Motor	-10.3409
▁Unterschied	-10.3409
wasser	-10.3413
▁Auffassung	-10.3414
▁erheblich	-10.3422
▁written	-10.3425
▁Folge	-10.343
amt	-10.3432
bindung	-10.3436
▁folgt	-10.3444
DI	-10.3446
▁fishing	-10.3449
▁vergangenen	-10.3453
▁reading	-10.3464
▁status	-10.3465
▁consist	-10.3466
hänge	-10.3467
▁occur	-10.3468
▁Pat	-10.3469
▁worth	-10.347
gesch	-10.3484
▁Mediterranean	-10.3484
geber	-10.3486
▁stability	-10.3489
▁erfahren	-10.3493
▁allowed	-10.3493
▁nächste	-10.35
leih	-10.3501
▁Führung	-10.3502
gänge	-10.3504
▁Beginn	-10.3507
▁Agrar	-10.351
▁Körper	-10.3517
▁Ansatz	-10.352
▁Multi	-10.3525
▁effektiv	-10.3532
▁März	-10.3532
▁medium	-10.3539
ami	-10.3542
▁violence	-10.3545
maschine	-10.3548
▁Anforderungen	-10.3556
öhn	-10.3565
▁coast	-10.3566
lager	-10.3571
▁component	-10.3573
▁distribution	-10.3573
▁genießen	-10.3587
▁Suite	-10.3588
▁Oktober	-10.3589
▁warum	-10.3591
▁Öffentlichkeit	-10.3595
▁desire	-10.3602
▁Grenzen	-10.3602
prüf	-10.3604
museum	-10.3606
▁tief	-10.3609
▁door	-10.3611
▁brand	-10.3612
▁Sinne	-10.3621
▁guide	-10.3627
▁Tradition	-10.3636
kunden	-10.3638
house	-10.3641
▁geworden	-10.3642
▁Spanish	-10.3645
▁Firma	-10.3655
▁leisten	-10.3657
▁Chinese	-10.3659
▁Auftrag	-10.3669
ifi	-10.367
▁erwarten	-10.3677
bli	-10.3677
flo	-10.3679
technik	-10.3682
▁negotiat	-10.3686
▁Rights	-10.3688
▁Development	-10.3689
▁goes	-10.369
hnt	-10.37
point	-10.37
▁pursu	-10.3702
▁vertreten	-10.3703
▁Winter	-10.3705
▁leider	-10.371
▁französische	-10.371
▁konkrete	-10.3712
▁Republik	-10.3717
▁electric	-10.3719
uv	-10.3722
▁constant	-10.3729
▁enterprise	-10.3733
▁growing	-10.3735
olog	-10.374
▁cell	-10.3748
ktor	-10.3753
▁prefer	-10.3753
service	-10.3755
▁Ausbildung	-10.3763
▁determine	-10.3765
▁wichtiger	-10.377
▁reality	-10.3771
▁labour	-10.3771
▁Transparenz	-10.3772
▁behandelt	-10.3772
▁helpful	-10.3774
▁map	-10.3789
▁operate	-10.3791
▁halte	-10.3793
▁Geschäft	-10.3793
▁Human	-10.3793
unch	-10.3795
▁Rede	-10.3797
▁interpret	-10.3804
▁verbessert	-10.3814
▁University	-10.3823
▁Regeln	-10.3827
zog	-10.3828
▁Menge	-10.3832
▁useful	-10.3836
▁diejenige	-10.3838
▁probably	-10.384
▁stock	-10.3842
▁wall	-10.3847
▁dringend	-10.3848
▁gefunden	-10.3849
▁menschliche	-10.3857
▁replace	-10.3862
▁email	-10.3868
breite	-10.3872
ñ	-10.3873
▁lower	-10.3875
öpf	-10.3875
▁eher	-10.3877
▁Tagesordnung	-10.3879
▁Gästebewertung	-10.3882
▁anything	-10.3882
▁täglich	-10.3887
▁zehn	-10.3892
▁1997	-10.3892
gh	-10.3893
▁repeat	-10.3893
hö	-10.3898
▁Untersuchung	-10.39
▁Nationen	-10.3904
64	-10.391
▁July	-10.391
▁Centre	-10.3913
gemeinschaft	-10.3913
rseits	-10.3914
08	-10.3917
▁agenda	-10.3921
▁erzielt	-10.3932
▁criteria	-10.3938
▁Hall	-10.3944
TO	-10.3946
▁recognise	-10.3947
▁Städte	-10.3953
▁generation	-10.3962
▁immediately	-10.3968
▁happy	-10.3971
▁verantwortlich	-10.3971
▁Work	-10.3972
hung	-10.3974
▁niedrig	-10.3976
AD	-10.3976
▁electronic	-10.3979
▁Telefon	-10.3985
▁Enterprise	-10.3987
▁Heute	-10.3988
▁Sorge	-10.399
stehen	-10.3991
▁Spezial	-10.3994
▁traditionelle	-10.3995
▁benötigen	-10.3997
▁window	-10.3997
▁conclude	-10.3998
▁Opera	-10.3999
figur	-10.4
▁trying	-10.4001
▁Iraq	-10.4006
günstig	-10.401
▁mechanism	-10.4019
ado	-10.4025
▁obligation	-10.4029
▁Januar	-10.4031
gerät	-10.4042
▁offering	-10.4043
▁Rad	-10.4043
▁camera	-10.4048
▁Investitionen	-10.4048
▁poverty	-10.405
▁Spanien	-10.4055
lip	-10.4056
urteil	-10.4056
▁Stand	-10.4057
▁Universität	-10.4059
▁unmittelbar	-10.4059
▁piece	-10.4062
▁Aufnahme	-10.4062
▁Code	-10.4064
füll	-10.4064
ova	-10.4073
würdig	-10.4076
м	-10.4087
▁Empfehlung	-10.4087
▁Alter	-10.4092
▁Many	-10.4094
▁Dann	-10.41
▁paid	-10.4103
fang	-10.4105
▁32	-10.4116
▁pra	-10.4117
▁surrounding	-10.4123
▁nation	-10.4124
▁Arab	-10.4128
▁länger	-10.413
▁Afrika	-10.4132
▁beyond	-10.4134
ffi	-10.4135
▁erwartet	-10.4137
▁Your	-10.4139
schloss	-10.4142
willig	-10.4145
▁getan	-10.4145
▁geschaffen	-10.4148
▁ursprünglich	-10.4149
▁Gründen	-10.415
▁Ressourcen	-10.4153
fläche	-10.4158
▁Hinsicht	-10.416
▁harmonis	-10.4164
▁integrated	-10.4166
▁drink	-10.4169
▁Armut	-10.4184
▁morning	-10.4186
▁annual	-10.4187
▁bringt	-10.419
▁aktuellen	-10.4192
▁sometimes	-10.4194
▁transparency	-10.4195
▁Beach	-10.42
▁scale	-10.4203
▁Roman	-10.4206
▁Guest	-10.4206
▁slow	-10.4208
zieh	-10.4208
▁employees	-10.4216
▁Although	-10.4216
▁route	-10.422
zeichnen	-10.4228
▁vergessen	-10.4231
▁Christian	-10.4231
▁paper	-10.4233
▁parking	-10.4239
▁angesicht	-10.4241
▁übrigen	-10.4243
▁Dollar	-10.4244
EA	-10.4255
lief	-10.4262
▁Voraussetzung	-10.4266
▁feature	-10.4267
▁britische	-10.4276
▁Männer	-10.4277
▁bezüglich	-10.4279
US	-10.4286
elektro	-10.4287
▁menu	-10.429
ç	-10.4297
▁Fähigkeit	-10.43
▁kannst	-10.4301
▁daily	-10.4303
ifizierung	-10.4306
▁applied	-10.4307
▁rise	-10.4309
▁scientific	-10.4316
▁Versuch	-10.4316
49	-10.4316
▁regime	-10.4318
▁beide	-10.4321
Rechtsvorschrift	-10.4323
▁Kenntnis	-10.4325
▁europäischer	-10.4326
steck	-10.4328
▁Natürlich	-10.4342
bank	-10.4347
▁Solidarität	-10.4349
pal	-10.4351
▁John	-10.4351
0.000	-10.4351
▁Act	-10.4353
▁victim	-10.436
cla	-10.4361
upp	-10.4369
▁respond	-10.4374
▁occasion	-10.4376
▁Uni	-10.4377
▁remember	-10.4381
▁analysis	-10.4384
▁Installation	-10.4385
▁finance	-10.4389
▁numerous	-10.4394
▁percent	-10.4396
▁farmer	-10.4397
▁Moment	-10.4398
▁Wunsch	-10.4403
▁Gut	-10.4405
▁integriert	-10.4406
▁colour	-10.4414
▁vital	-10.4419
treiben	-10.4419
▁Google	-10.4427
izi	-10.4431
▁Kol	-10.4435
▁rapid	-10.444
▁minute	-10.4443
▁count	-10.4443
▁bedroom	-10.4444
▁session	-10.4448
▁sell	-10.4449
▁Fernseh	-10.4451
▁legitim	-10.4451
▁sufficient	-10.4453
▁Öl	-10.4455
cop	-10.4456
39	-10.4469
▁solidarit	-10.4475
▁Directive	-10.4477
▁Kirche	-10.4478
▁crucial	-10.4494
▁bath	-10.4494
ordnung	-10.4496
▁PL	-10.4497
▁congratulate	-10.4497
▁Kompromiss	-10.4497
▁processes	-10.45
self	-10.4501
▁falsch	-10.4502
▁Furthermor	-10.4503
NI	-10.4505
▁installation	-10.4517
▁charm	-10.4518
entwicklung	-10.4519
▁write	-10.4531
krieg	-10.4537
▁permanent	-10.4538
▁ready	-10.4541
off	-10.4545
▁terrace	-10.4547
schritt	-10.4549
▁überhaupt	-10.455
▁finish	-10.4561
▁Kor	-10.4565
▁ausreichend	-10.4566
▁counter	-10.457
▁sagt	-10.4571
funktion	-10.4572
▁Risiko	-10.4577
stück	-10.4579
▁veröffentlicht	-10.458
▁beitragen	-10.458
▁speech	-10.4591
▁genug	-10.4594
hood	-10.4596
uk	-10.4598
▁flight	-10.4599
▁Serie	-10.4607
▁Termin	-10.4609
▁season	-10.4612
▁gewesen	-10.4612
▁Rule	-10.4613
▁ausschließlich	-10.4615
▁langfristig	-10.462
▁Detail	-10.463
▁Microsoft	-10.4632
▁comprehensive	-10.4638
▁verhindern	-10.4647
geschrieben	-10.4651
▁stabil	-10.4652
▁collection	-10.4653
▁label	-10.4654
▁Doppel	-10.4659
▁Grün	-10.4673
▁drug	-10.4675
cious	-10.4676
▁Atmosphäre	-10.4677
▁Bemühungen	-10.4678
▁sales	-10.4683
größe	-10.4684
▁mix	-10.4687
▁Kapital	-10.4691
▁Technik	-10.4692
▁Bahn	-10.4692
plätze	-10.4701
▁reservation	-10.4703
▁gesehen	-10.4703
▁Garten	-10.4704
▁minimum	-10.4704
▁Security	-10.4711
kräfte	-10.4717
▁Ober	-10.4724
▁infrastructure	-10.4728
▁Download	-10.4732
▁Besucher	-10.4733
▁terrorism	-10.4733
▁Mc	-10.4733
▁historic	-10.4737
▁erlaubt	-10.4738
▁benutzt	-10.475
▁Budget	-10.4753
▁kleiner	-10.4757
back	-10.476
▁Völker	-10.4761
▁degree	-10.4762
▁weak	-10.4764
▁published	-10.4765
▁perfekt	-10.4769
▁Public	-10.477
SI	-10.4776
▁tomorrow	-10.4785
leitung	-10.4785
▁Lassen	-10.4785
55	-10.4791
▁patient	-10.4793
▁TM	-10.4798
▁technologies	-10.4799
▁Fahrzeug	-10.4801
▁shopping	-10.4803
▁operating	-10.4804
▁Roma	-10.4805
▁Gewinn	-10.4811
▁talking	-10.4818
projekt	-10.4822
▁modified	-10.4824
▁grow	-10.4825
▁efficiency	-10.4827
▁wrong	-10.4827
boot	-10.4836
▁interested	-10.4842
fort	-10.4858
▁gewählt	-10.4859
▁recommendation	-10.4861
freiheit	-10.4864
ßerhalb	-10.4866
▁decide	-10.4876
▁partnership	-10.4877
▁motion	-10.4879
▁Firmen	-10.4884
▁beginnen	-10.4889
▁voice	-10.4892
▁organiz	-10.4893
ologische	-10.4893
lish	-10.4896
▁implemented	-10.4921
▁Krankheit	-10.4921
▁Generation	-10.4921
▁Menschenrechts	-10.4924
▁irre	-10.4924
▁organisations	-10.4928
ifiziert	-10.4935
▁hour	-10.4939
▁fear	-10.4942
book	-10.4947
hang	-10.4948
▁campaign	-10.495
▁strategic	-10.495
▁1996	-10.4953
referred	-10.4954
▁anderem	-10.4954
▁Erst	-10.4957
artig	-10.4965
▁Kind	-10.497
▁went	-10.4973
ritt	-10.4974
▁monitoring	-10.4976
▁signal	-10.4979
▁Vergangenheit	-10.4979
▁typical	-10.4984
▁Meter	-10.4991
▁prior	-10.4992
▁remind	-10.5006
▁symbol	-10.5009
▁maximum	-10.5012
▁administrative	-10.5014
▁groß	-10.5014
▁selection	-10.5015
▁Bürgerinnen	-10.5021
▁Islam	-10.5022
▁Verhältnis	-10.5028
▁Praxis	-10.5029
▁initial	-10.5034
▁spielt	-10.5035
▁While	-10.5035
▁caused	-10.5036
▁Tru	-10.5043
▁schützen	-10.5044
▁Stein	-10.5047
▁verpflichtet	-10.505
▁Zeichen	-10.505
▁white	-10.5051
cru	-10.5054
▁Voll	-10.5064
▁camp	-10.5068
▁Costa	-10.507
▁zumindest	-10.5071
▁Airport	-10.5078
▁lost	-10.5079
▁usw	-10.5086
▁watch	-10.5087
▁bill	-10.5092
▁Küste	-10.5099
38	-10.5099
front	-10.5099
▁zunehmend	-10.5102
wahl	-10.5103
▁Einige	-10.5116
▁berücksichtigt	-10.5119
▁Gri	-10.5123
▁Out	-10.5127
▁Conference	-10.5127
ô	-10.5128
▁einzigartige	-10.5131
▁swimming	-10.5137
▁fordern	-10.5137
▁People	-10.5144
▁Vergleich	-10.5145
▁heard	-10.5147
▁Just	-10.5149
ji	-10.5156
▁02	-10.5161
▁erfüllen	-10.5164
▁Feld	-10.5165
melde	-10.5167
▁früh	-10.5168
▁Milliarden	-10.517
▁delay	-10.5171
▁Afghanistan	-10.5172
▁bald	-10.5173
▁kitchen	-10.5184
▁genutzt	-10.519
fäng	-10.5192
Ü	-10.5193
▁Terrorismus	-10.5195
68	-10.5201
▁Reich	-10.5203
stream	-10.5209
▁offiziell	-10.5213
▁Partnerschaft	-10.5216
▁Sonder	-10.5218
▁benötigt	-10.5218
▁accordanc	-10.5223
▁Schlüssel	-10.5225
gezogen	-10.5228
▁yourself	-10.5228
▁Band	-10.5229
▁wählen	-10.5231
problem	-10.5231
▁extent	-10.5234
▁arbeitet	-10.524
▁Durchführung	-10.5242
▁Ausnahme	-10.5242
DS	-10.5243
▁getroffen	-10.5244
▁Annahme	-10.5249
▁getting	-10.5251
▁fulfil	-10.5253
▁worldwide	-10.5255
▁absolutely	-10.5266
š	-10.527
▁erinnern	-10.5277
▁alone	-10.528
▁valid	-10.528
▁Find	-10.5283
▁Dia	-10.5283
▁Sprach	-10.5289
▁hoffen	-10.5292
▁accession	-10.5297
▁Zweitens	-10.5298
▁else	-10.53
▁born	-10.5302
automat	-10.5312
▁Begriff	-10.5314
▁entscheiden	-10.5325
▁black	-10.5329
behörde	-10.5335
europa	-10.5339
05	-10.534
▁Analyse	-10.5345
terie	-10.5347
▁Bewegung	-10.5348
zel	-10.535
▁braucht	-10.5351
asi	-10.5352
SD	-10.5353
bürger	-10.5354
▁wahrscheinlich	-10.5355
▁Shop	-10.536
▁consideration	-10.5366
07	-10.5371
▁voting	-10.538
▁invite	-10.5381
▁wünschen	-10.5381
▁UK	-10.5384
▁Gespräch	-10.5385
▁Swiss	-10.5391
▁fresh	-10.5396
aries	-10.54
▁Abgeordnete	-10.5402
▁Hü	-10.5403
▁betreffend	-10.5408
▁Frankfurt	-10.5409
▁Wind	-10.5413
▁folgen	-10.5416
selbe	-10.5419
▁assessment	-10.5425
▁Mitgliedstaat	-10.5434
▁darstellt	-10.544
▁vorliegende	-10.5445
▁Rund	-10.5454
▁jeweiligen	-10.546
liste	-10.5462
▁Time	-10.5464
FA	-10.5465
▁Verhalten	-10.5468
▁trust	-10.547
▁amerikanische	-10.5477
▁Front	-10.5478
▁sämtliche	-10.5482
,00	-10.5484
▁cities	-10.5487
▁patent	-10.5487
▁administration	-10.549
▁Märkte	-10.549
▁Künstler	-10.5491
д	-10.5498
Tech	-10.5499
▁Mensch	-10.55
0,000	-10.5502
▁urge	-10.5503
▁Island	-10.5508
▁Sitz	-10.5509
▁Größe	-10.5511
CC	-10.5514
abhängig	-10.5517
▁fish	-10.5521
IE	-10.5526
▁150	-10.5529
▁running	-10.5533
▁club	-10.5536
zeichen	-10.5537
▁geändert	-10.5547
▁Einstellung	-10.555
▁critical	-10.5551
▁adjust	-10.5551
▁income	-10.5553
▁Peter	-10.5554
▁Typ	-10.5554
▁Bedürfnisse	-10.5554
▁außer	-10.5564
▁Mitteilung	-10.5571
▁Agentur	-10.558
angebot	-10.5582
▁raised	-10.5585
führer	-10.5592
▁Hinweis	-10.5594
▁neighbour	-10.5596
▁Fol	-10.56
linie	-10.5603
▁director	-10.5603
▁topic	-10.5608
▁Rent	-10.5611
▁Geist	-10.5614
▁argument	-10.5614
▁ernst	-10.5619
▁organisiert	-10.5626
▁wonderful	-10.5626
88	-10.5627
▁Station	-10.5635
▁Schwierigkeiten	-10.5637
▁Objekt	-10.5648
▁erkennen	-10.5648
▁Glück	-10.5658
▁photograph	-10.5666
▁heat	-10.5667
▁Zug	-10.5674
▁Why	-10.5675
▁Ireland	-10.5675
hü	-10.5678
▁powerful	-10.568
▁eben	-10.5682
▁extensive	-10.5685
▁Regel	-10.5685
gesetz	-10.5692
▁syn	-10.5693
▁Dazu	-10.5693
▁Verteidigung	-10.5706
▁moral	-10.5714
▁Kauf	-10.5722
▁Because	-10.5731
▁visitors	-10.5732
zahlung	-10.5734
▁solid	-10.5741
▁criminal	-10.5747
▁genuine	-10.5748
stoß	-10.5749
ibility	-10.5751
▁gezeigt	-10.5758
86	-10.5758
▁Beratung	-10.5764
▁debt	-10.5765
gehörig	-10.5775
▁ausdrücklich	-10.5782
▁Ganz	-10.5791
▁überzeugt	-10.5791
▁hundred	-10.5793
SC	-10.5794
▁shape	-10.5797
▁chair	-10.5815
▁verstärkt	-10.5815
▁Boden	-10.5817
▁Allerdings	-10.5817
▁kill	-10.5822
▁funktioniert	-10.5825
▁tree	-10.5832
▁zukünftig	-10.5834
lässig	-10.5836
schläge	-10.5841
▁defend	-10.5842
▁sitting	-10.5846
▁Österreich	-10.5858
▁resort	-10.5859
▁overall	-10.5866
▁Bewertung	-10.587
läuft	-10.5882
▁Einfluss	-10.5883
▁Ausführung	-10.5884
▁exhibition	-10.5887
trans	-10.5892
▁endlich	-10.591
▁manufacturer	-10.5911
place	-10.5913
▁urgent	-10.5916
stets	-10.5922
▁entgegen	-10.5925
▁Photo	-10.5933
▁Bett	-10.5934
OT	-10.5939
▁Paul	-10.5942
▁Other	-10.5954
▁Erstens	-10.5959
▁übernehmen	-10.596
schalt	-10.5967
▁families	-10.5967
▁1990	-10.5968
▁Moreover	-10.5974
wachsen	-10.5974
▁regelmäßig	-10.5981
▁Martin	-10.5986
▁notice	-10.5988
▁sum	-10.5991
▁voraus	-10.5998
▁Board	-10.5999
▁employ	-10.601
▁plus	-10.6012
▁Hersteller	-10.6024
fäl	-10.6025
п	-10.6027
▁radio	-10.6033
▁Obwohl	-10.6036
▁Modern	-10.6043
▁sight	-10.6043
▁command	-10.6044
▁district	-10.6045
▁micro	-10.6046
▁ehemalige	-10.6048
▁proceed	-10.6052
▁NATO	-10.6053
sammlung	-10.6061
44	-10.6071
LO	-10.6072
▁Trotz	-10.6072
▁kaum	-10.6073
wagen	-10.6075
▁Wann	-10.6077
▁translation	-10.6078
▁resolve	-10.6079
▁erstellt	-10.6081
▁assist	-10.6084
kom	-10.6084
▁Holz	-10.6085
▁hostel	-10.6086
▁spoke	-10.6092
ambi	-10.6093
▁unbedingt	-10.6096
▁story	-10.6103
▁police	-10.6105
util	-10.6108
▁Constitution	-10.6109
fassung	-10.6115
▁candidate	-10.6116
▁Irak	-10.6122
▁Regional	-10.6127
▁intended	-10.6135
▁trend	-10.6135
▁planning	-10.6139
▁Botschaft	-10.6141
▁committed	-10.615
▁Mittelmeer	-10.616
▁channel	-10.6161
▁Hostel	-10.6161
▁beteiligt	-10.6174
▁Verkauf	-10.6175
technologie	-10.6179
▁compare	-10.6183
▁distribut	-10.6184
▁euch	-10.6185
▁Zustimmung	-10.6188
▁Agreement	-10.6195
▁bilden	-10.6196
▁angeboten	-10.6198
▁Antrag	-10.6201
▁justice	-10.6205
▁benutzen	-10.621
▁passenger	-10.6218
▁Shi	-10.6222
fällig	-10.623
▁database	-10.6232
▁Charakter	-10.6235
▁confidence	-10.6236
media	-10.6242
▁enhance	-10.6245
▁Waffen	-10.6246
zza	-10.6247
▁usually	-10.6249
weil	-10.6267
▁jemand	-10.6272
▁Presse	-10.6272
▁promise	-10.6276
ador	-10.6279
▁Abschluss	-10.6284
HO	-10.6286
▁Wander	-10.6286
▁ländliche	-10.6288
▁typisch	-10.6289
▁http	-10.6289
▁substance	-10.6289
▁Economic	-10.6291
▁Studio	-10.6293
▁Power	-10.6297
▁diploma	-10.6297
à	-10.6298
▁Direkt	-10.6304
▁structural	-10.6305
bedarf	-10.6306
▁approved	-10.6307
▁Straße	-10.6309
▁spezifische	-10.6318
▁raise	-10.632
anstalt	-10.632
▁Schau	-10.6325
▁currency	-10.6329
MI	-10.633
▁Allgemein	-10.6332
▁jährlich	-10.634
▁Agenda	-10.634
▁Anerkennung	-10.6342
▁angenehm	-10.6343
▁Ferien	-10.6343
▁Syn	-10.6343
▁science	-10.6352
▁ensur	-10.6354
▁perspective	-10.6361
▁Nutzer	-10.6361
▁fellow	-10.6362
▁entschieden	-10.6371
▁Überwachung	-10.6372
▁Ausschuß	-10.6372
▁erhöht	-10.6374
somit	-10.6382
kultur	-10.6387
▁monitor	-10.6391
72	-10.6394
▁Control	-10.6395
▁Nutzen	-10.6411
▁einheitliche	-10.6412
▁fruit	-10.6418
▁beschlossen	-10.642
▁Kriterien	-10.6423
▁cohesion	-10.6425
▁entspricht	-10.6432
▁Poli	-10.6433
gearbeitet	-10.6435
▁Sonnen	-10.6444
▁expand	-10.6447
geleitet	-10.645
▁erweitert	-10.645
▁emissions	-10.6451
▁nachdem	-10.6452
▁exercise	-10.6452
▁italienische	-10.6452
▁circumstances	-10.6456
▁Warum	-10.6457
▁Anstrengungen	-10.6463
▁Zwischen	-10.6465
pha	-10.6465
▁error	-10.6467
▁Fortschritt	-10.6471
prinzip	-10.6471
▁mid	-10.6474
trifft	-10.648
▁Rand	-10.6494
▁river	-10.65
erfolg	-10.6502
▁gefordert	-10.6506
▁Kritik	-10.6508
▁automatically	-10.651
vertrag	-10.652
▁Minute	-10.6522
▁surface	-10.6524
▁convince	-10.6531
liability	-10.6537
▁solve	-10.6538
NO	-10.6539
▁dimension	-10.6545
santrag	-10.6546
▁mindestens	-10.6548
weisung	-10.6551
▁achiev	-10.656
▁Nations	-10.656
schaffen	-10.6564
▁suitable	-10.6568
▁geleistet	-10.6569
▁unfortunate	-10.6569
▁competitive	-10.6575
▁Game	-10.659
▁2020	-10.6592
01	-10.6592
berechtigt	-10.6594
▁Infrastruktur	-10.66
▁verändert	-10.6601
IG	-10.6607
▁strict	-10.6607
ehrt	-10.6609
▁platform	-10.6611
▁Tür	-10.6614
▁1995	-10.6619
▁seven	-10.6623
▁participation	-10.6625
▁medical	-10.6627
▁Boot	-10.6627
▁positiv	-10.6628
▁Hintergrund	-10.6631
▁institutional	-10.6644
▁Name	-10.6647
▁intention	-10.6655
▁square	-10.6658
▁audio	-10.6659
▁terrorist	-10.6664
region	-10.6665
▁lernen	-10.6667
▁specifically	-10.6667
▁gesprochen	-10.6667
▁Jetzt	-10.6677
▁Palestinian	-10.6683
▁Great	-10.6683
▁coordinat	-10.6684
▁zufrieden	-10.6687
▁Landschaft	-10.6689
IR	-10.6689
▁bedeuten	-10.669
▁reception	-10.669
▁scope	-10.669
▁belong	-10.6693
▁Zweifel	-10.6695
▁Festival	-10.6702
▁Haltung	-10.6703
▁strategische	-10.6706
▁unemployment	-10.6708
▁letter	-10.6712
▁prioritie	-10.6714
▁Übersetzung	-10.6716
miet	-10.6717
▁generate	-10.6719
▁lösen	-10.6719
▁Schluss	-10.6727
wunder	-10.6737
▁Middle	-10.6743
▁Cho	-10.6745
▁Ausgaben	-10.6752
▁massive	-10.6755
▁spread	-10.6756
▁regret	-10.676
▁association	-10.6761
▁Titel	-10.6763
▁400	-10.6764
straße	-10.6768
▁berücksichtigen	-10.6772
▁Casino	-10.6775
▁nötig	-10.6778
mitglied	-10.6781
▁agriculture	-10.6783
▁erfüllt	-10.6787
▁instance	-10.679
▁Stellungnahme	-10.6793
▁geschützt	-10.68
▁Czech	-10.681
▁church	-10.6811
▁cook	-10.6817
▁becoming	-10.6819
▁Teilnehmer	-10.6824
▁establishment	-10.6826
▁forget	-10.6827
▁telephone	-10.6828
▁gave	-10.6832
▁observe	-10.6836
▁failure	-10.6849
▁fuel	-10.685
▁Balkan	-10.6853
▁Gefühl	-10.6856
kenntnis	-10.6861
▁Format	-10.6862
▁Aussicht	-10.6866
▁attend	-10.6866
▁engage	-10.6872
▁Angriff	-10.6879
messe	-10.6879
82	-10.6881
▁Anspruch	-10.6885
träger	-10.6888
▁rural	-10.6892
▁Schaden	-10.6893
märkte	-10.6894
▁Global	-10.6894
47	-10.6899
▁constitution	-10.6899
management	-10.6902
▁winter	-10.6907
▁Minderheit	-10.6913
▁impose	-10.6914
▁extrem	-10.6915
AB	-10.6915
tausend	-10.6916
▁Tool	-10.6922
▁couple	-10.6947
flug	-10.6948
▁average	-10.695
▁parliament	-10.6952
▁rasch	-10.6956
▁Check	-10.6957
GB	-10.6957
▁gegründet	-10.6961
▁disaster	-10.6961
▁Homepage	-10.6963
▁Laught	-10.6963
konferenz	-10.6968
▁jegliche	-10.6975
▁Tele	-10.6976
▁Alternative	-10.6986
▁otherwise	-10.6989
67	-10.6995
▁taste	-10.7002
▁actual	-10.7007
▁hinweisen	-10.7007
▁hit	-10.7009
ündig	-10.701
▁landscape	-10.7011
▁Sinn	-10.7015
▁akzeptieren	-10.7024
gewalt	-10.7027
▁rechtliche	-10.7027
▁myself	-10.7029
▁Terrasse	-10.7031
well	-10.7037
fuhr	-10.7038
у	-10.7043
▁sand	-10.7043
▁Engagement	-10.7045
▁Gründe	-10.7046
erstatterin	-10.7047
▁Kategorie	-10.7048
▁summit	-10.705
▁gold	-10.7056
▁Reaktion	-10.7058
▁ergreifen	-10.707
▁Bush	-10.7071
qualität	-10.7071
▁earlier	-10.7071
▁Kooperation	-10.708
▁Policy	-10.7081
partei	-10.7086
▁angezeigt	-10.7087
▁Sollte	-10.7097
▁Pack	-10.71
▁pleasant	-10.7106
▁precisely	-10.7118
▁bilateral	-10.7123
modell	-10.7124
swegen	-10.7125
▁rock	-10.7127
▁Home	-10.7129
▁Ereignisse	-10.7134
▁transform	-10.7136
▁Zeitraum	-10.7137
▁Herstellung	-10.7137
▁Pakistan	-10.714
▁According	-10.7141
▁möglicherweise	-10.7143
▁angesprochen	-10.7144
institutionelle	-10.7148
▁promotion	-10.7149
▁entry	-10.715
▁launch	-10.7154
flüge	-10.7155
▁Ausstellung	-10.7159
▁ISO	-10.716
▁Komfort	-10.7162
energie	-10.7167
wandel	-10.7169
▁sicherzustellen	-10.7172
▁Wellness	-10.7173
▁Korea	-10.7181
▁anerkannt	-10.7182
▁Schließlich	-10.7184
▁Kopf	-10.7185
▁peaceful	-10.7201
▁sym	-10.7203
▁Nieder	-10.7204
▁Hoffnung	-10.7205
▁Zunächst	-10.7208
BA	-10.7212
Ã	-10.7213
scrib	-10.7214
▁convention	-10.7215
forderung	-10.7218
▁controll	-10.7223
rahmen	-10.7225
▁Status	-10.7227
▁Street	-10.7228
▁gefährlich	-10.7232
▁Phase	-10.724
▁Research	-10.7244
▁Denk	-10.7248
▁cheap	-10.7254
GE	-10.7263
▁Lizenz	-10.7263
▁title	-10.7269
▁Zivil	-10.7269
▁introduction	-10.7271
▁Werkzeug	-10.7277
▁militärische	-10.7283
norm	-10.7288
▁Indien	-10.7292
▁einzelne	-10.7293
▁coffee	-10.7295
▁president	-10.7297
▁budgetary	-10.7299
▁Schengen	-10.73
▁railway	-10.7303
RT	-10.7311
▁bestehenden	-10.7312
▁middle	-10.7322
▁Anpassung	-10.7324
ING	-10.7328
bodies	-10.7328
bruch	-10.733
▁tut	-10.7334
▁correspond	-10.7335
▁Switzerland	-10.7338
▁Bemerkung	-10.7341
▁combination	-10.7345
▁Hafen	-10.735
▁definition	-10.7356
▁tourism	-10.7367
▁Garantie	-10.7373
▁spacious	-10.7375
▁bedeutende	-10.7382
▁zuletzt	-10.7385
▁offensichtlich	-10.7385
geschäft	-10.7385
raub	-10.7395
▁Vielfalt	-10.7398
person	-10.7399
spiegel	-10.7403
▁prüfen	-10.7404
▁Wirkung	-10.7404
▁Vorbereitung	-10.7415
▁Datenbank	-10.7417
▁operator	-10.7418
▁match	-10.742
▁derzeitige	-10.7423
▁Click	-10.7424
▁König	-10.7428
▁herzlich	-10.7428
▁näher	-10.7432
▁teilweise	-10.7435
▁Kurz	-10.7437
▁Prüfung	-10.7439
schicht	-10.7439
EX	-10.7441
▁Modul	-10.7444
jenige	-10.7447
▁Pflicht	-10.7447
▁guidelines	-10.7449
▁metres	-10.7457
▁race	-10.7458
▁Mutter	-10.7459
▁Gesetzgebung	-10.7461
▁Büro	-10.7469
▁Aufbau	-10.7474
▁vermeiden	-10.7485
▁entweder	-10.7486
▁institution	-10.7488
▁wild	-10.7489
versorgung	-10.7492
▁discrimination	-10.7503
č	-10.7504
▁Patienten	-10.7505
▁bequem	-10.7508
▁interface	-10.7512
79	-10.7512
▁darunter	-10.7515
▁destroy	-10.7518
78	-10.7521
▁boat	-10.7521
▁Santa	-10.7523
▁intend	-10.7527
ía	-10.7534
66	-10.7534
züglich	-10.7539
▁Fonds	-10.7541
TH	-10.7548
▁riesige	-10.7558
gesundheit	-10.7559
▁Früh	-10.7559
▁Unterkategorie	-10.756
▁Saint	-10.7561
▁Vorstellung	-10.7562
▁Fremd	-10.7563
▁Liebe	-10.7566
▁improving	-10.7576
▁nennen	-10.7582
▁facilitat	-10.7584
▁Ruhe	-10.7587
▁jederzeit	-10.7593
▁sicherlich	-10.7605
▁Wall	-10.7605
▁blue	-10.7606
▁brief	-10.7608
▁Patent	-10.7615
▁Hamburg	-10.762
institut	-10.7621
▁Belarus	-10.7622
▁convert	-10.7626
▁Update	-10.7638
▁Speicher	-10.7642
▁Großbritannien	-10.7643
▁umfangreiche	-10.7643
MB	-10.7654
▁cuisine	-10.7658
▁architecture	-10.7659
▁facing	-10.7666
▁duty	-10.7666
material	-10.7668
▁exploit	-10.7669
▁Black	-10.7672
▁saving	-10.7674
▁verfolgt	-10.7678
▁gelangen	-10.7684
▁hochwertige	-10.7685
▁root	-10.7686
▁presence	-10.7689
meister	-10.7689
▁Greece	-10.7691
▁Kamera	-10.7707
▁Signal	-10.7709
▁betrachtet	-10.771
▁Faktor	-10.7711
▁Klimawandel	-10.7711
▁spot	-10.7712
▁hart	-10.7712
▁derartige	-10.7715
NS	-10.7723
▁erklären	-10.7723
richtlinie	-10.7731
▁jeweils	-10.7732
▁Schrift	-10.7739
▁stattfinden	-10.774
▁substantial	-10.7746
69	-10.7752
▁Vol	-10.7758
▁intervention	-10.7761
▁Export	-10.777
▁verloren	-10.7773
▁Health	-10.7782
▁Trade	-10.7786
loc	-10.7797
▁garantiert	-10.7799
krise	-10.7804
▁Vereint	-10.7808
▁parliamentar	-10.7811
▁Kontroll	-10.7813
▁grand	-10.7813
▁scene	-10.7814
▁2011	-10.7817
▁oppose	-10.7817
covered	-10.7818
▁pension	-10.7824
▁considerable	-10.7826
▁Grundsatz	-10.7827
▁estate	-10.7833
zugehen	-10.7837
▁besuchen	-10.7842
▁hören	-10.7854
▁evidence	-10.7856
▁erzielen	-10.7857
▁Stück	-10.7857
meldung	-10.7871
sländern	-10.7874
▁Entwurf	-10.7882
▁destination	-10.7882
▁erhöhen	-10.7884
▁dynamic	-10.7891
▁convenient	-10.7895
frist	-10.7897
▁sauber	-10.7899
▁empfehlen	-10.7917
ú	-10.7928
▁lift	-10.7937
paket	-10.7938
▁Madrid	-10.7942
▁authority	-10.7944
▁gewünscht	-10.7945
▁Militär	-10.7948
▁domestic	-10.7951
▁Griechenland	-10.7952
▁Gemeinde	-10.7961
▁appreciate	-10.7962
46	-10.7963
▁Welche	-10.797
Г	-10.7972
▁bestätigt	-10.7972
▁handeln	-10.7974
90	-10.7976
▁secret	-10.7977
▁coordination	-10.7988
▁Europäer	-10.7989
▁supplier	-10.7998
▁connected	-10.8006
▁chinesische	-10.8013
▁physical	-10.8021
▁Environment	-10.8026
elected	-10.8031
▁Brussels	-10.8032
▁paragraph	-10.8035
▁niemand	-10.8041
▁Abschließend	-10.8051
▁classic	-10.8055
▁continent	-10.8059
gültig	-10.807
▁übernachten	-10.8073
▁Poker	-10.8075
▁spent	-10.8075
▁prison	-10.8078
▁Beschreibung	-10.8078
▁competitiveness	-10.8078
▁England	-10.808
▁Digital	-10.8082
▁recognize	-10.8082
▁Effekt	-10.8083
▁hair	-10.8085
▁dagegen	-10.8089
▁Poland	-10.8091
▁adult	-10.8092
▁Terror	-10.8096
▁beliebt	-10.8098
▁Palm	-10.8099
▁presidency	-10.8102
gelassen	-10.8107
▁temperature	-10.8109
▁politics	-10.8116
▁darstellen	-10.8121
▁Leider	-10.8121
▁aufmerksam	-10.8122
▁hospital	-10.8127
▁difficulties	-10.8127
▁television	-10.813
▁betonen	-10.8131
▁license	-10.8133
▁financing	-10.8141
▁basiert	-10.8142
▁Dorf	-10.8147
▁length	-10.8152
drücke	-10.8154
▁Blue	-10.8166
▁Unfortunately	-10.817
nummer	-10.8172
▁Hav	-10.8175
▁enormous	-10.8182
▁Dimension	-10.8187
▁consistent	-10.8187
ifikation	-10.819
▁Irland	-10.8191
▁Strom	-10.8192
▁Glas	-10.8195
▁Realität	-10.8196
▁Immobilien	-10.8198
▁PHP	-10.82
▁spät	-10.8203
▁Elektro	-10.8207
▁Halb	-10.8208
▁succeed	-10.821
▁expression	-10.821
▁defence	-10.8211
▁Mindest	-10.8211
▁Standort	-10.8213
▁attractive	-10.8233
▁surround	-10.8234
produktion	-10.8235
▁Association	-10.8236
▁Absatz	-10.8238
▁Flugzeug	-10.8242
▁Player	-10.8243
▁characteristic	-10.8244
▁funktionieren	-10.8246
zweck	-10.8256
▁accident	-10.8259
▁ultimate	-10.8261
▁appeal	-10.8262
▁Übergang	-10.8263
▁umfasst	-10.8263
▁easier	-10.8269
verhältnis	-10.8269
▁publish	-10.8271
▁dangerous	-10.8272
kräftig	-10.8274
schreibung	-10.8278
körper	-10.8278
▁spring	-10.8282
geteilt	-10.8284
▁opposition	-10.829
▁Michael	-10.8294
rühr	-10.8299
▁Director	-10.83
▁Beweis	-10.8307
▁Support	-10.8308
▁Bestandteil	-10.8311
▁Fenster	-10.832
▁competence	-10.8326
▁Regulation	-10.8331
▁applies	-10.8332
▁ernsthaft	-10.8336
▁studies	-10.8345
▁EADS	-10.8346
▁frequent	-10.8353
▁arrival	-10.8368
▁urban	-10.8372
▁Angaben	-10.8378
▁technique	-10.8385
▁trägt	-10.8385
kreis	-10.8386
▁halb	-10.8388
▁Grundsätze	-10.839
▁konzentrieren	-10.84
▁Königreich	-10.841
▁erfolgen	-10.8411
▁wunderschöne	-10.8413
▁stärken	-10.8419
dorf	-10.8422
▁Regime	-10.8427
▁flexibility	-10.8428
▁Breakfast	-10.8433
▁gewährleistet	-10.8435
häuser	-10.8439
▁Katastrophe	-10.8443
▁glass	-10.8453
▁impossible	-10.8458
▁Radio	-10.8462
▁übertragen	-10.8463
▁Liberal	-10.8464
▁Ratsvorsitz	-10.8469
speicher	-10.8472
▁Jahrzehnt	-10.8484
▁THE	-10.8484
▁collaborat	-10.8485
▁erscheint	-10.8485
▁emerge	-10.8489
▁Original	-10.8492
▁Brüssel	-10.8496
▁associated	-10.8499
▁Polizei	-10.8501
▁gegenseitig	-10.8502
▁Romania	-10.8511
▁Manager	-10.8514
▁1994	-10.8525
•	-10.8527
▁truly	-10.8529
▁Beteiligung	-10.8531
▁concrete	-10.8534
▁promoting	-10.854
▁verfolgen	-10.8543
▁assume	-10.8546
▁Übereinkommen	-10.8564
▁sinnvoll	-10.857
▁revolution	-10.8572
▁outcome	-10.8573
▁klein	-10.8587
▁Lesung	-10.8595
▁abgeschlossen	-10.8598
analyse	-10.8608
zwischen	-10.8608
wickel	-10.8611
▁adequate	-10.8618
▁module	-10.8624
▁Asyl	-10.8626
▁fordert	-10.8642
hundert	-10.8648
▁Klasse	-10.8652
▁PDF	-10.8656
▁dream	-10.8657
amerikanischen	-10.8661
▁moving	-10.8664
▁Zugriff	-10.8676
▁politisch	-10.8676
▁Kingdom	-10.868
▁Achtung	-10.8684
▁Klicken	-10.8696
▁Wichtig	-10.8697
▁Aktiv	-10.8698
▁Verträge	-10.8701
▁surprise	-10.8705
Sehenswürdigkeit	-10.8716
▁satellite	-10.8719
▁klicken	-10.8719
▁verursacht	-10.8721
▁background	-10.8736
▁humanitarian	-10.8736
â	-10.8737
▁carefully	-10.875
▁transition	-10.8755
▁Show	-10.8761
sozial	-10.8762
▁Heimat	-10.8762
▁commun	-10.8767
▁Schwerpunkt	-10.8776
▁species	-10.8777
▁Globalisierung	-10.8786
я	-10.8792
▁komplexe	-10.8792
▁attach	-10.8793
rmaßen	-10.8797
▁Argument	-10.8802
▁Spitze	-10.8807
▁eliminat	-10.8807
▁Drogen	-10.8808
▁beginnt	-10.8818
▁withdraw	-10.8823
▁earth	-10.8826
▁Quelle	-10.8828
▁recognition	-10.8831
▁reducing	-10.8832
▁Unterkunft	-10.8834
▁Irish	-10.8837
▁immediate	-10.8838
▁Tourismus	-10.884
▁zahlen	-10.8845
▁constitute	-10.8857
▁diskutieren	-10.8862
▁calculat	-10.8863
▁kept	-10.8867
▁religious	-10.8878
▁Foundation	-10.8878
▁Count	-10.8879
▁Nachfolgend	-10.8886
▁professionelle	-10.8894
▁Kompetenz	-10.8895
▁experiment	-10.8896
▁safeguard	-10.8896
▁agencies	-10.8908
▁Angesicht	-10.8908
▁endgültig	-10.8913
▁producers	-10.8927
▁enorme	-10.8931
▁consumption	-10.8937
▁befürworte	-10.894
▁examine	-10.8943
▁condemn	-10.8943
▁Handlung	-10.8946
▁Architektur	-10.8949
▁ziemlich	-10.8949
▁Justice	-10.895
▁Greek	-10.8951
▁Treffen	-10.8951
hebung	-10.8956
▁mittlere	-10.896
gebühr	-10.8966
▁feststellen	-10.8968
▁intelligent	-10.8969
▁declare	-10.8969
▁geöffnet	-10.8972
▁humanitäre	-10.8981
▁gewinnen	-10.8982
▁beauty	-10.8982
▁Stärkung	-10.8988
▁White	-10.899
▁Umfang	-10.8991
▁Delegation	-10.8994
▁Verlust	-10.8996
▁interessiert	-10.8996
AV	-10.9006
▁possibilities	-10.9008
▁Investition	-10.9009
▁memory	-10.9014
▁Music	-10.9017
▁geplant	-10.9027
▁Wechsel	-10.9034
▁trading	-10.9055
züge	-10.9061
▁Niveau	-10.907
▁danger	-10.9075
▁Gleichzeitig	-10.908
▁Brand	-10.909
▁Where	-10.9099
▁availability	-10.9099
▁copy	-10.9101
▁Bedarf	-10.9102
▁geschehen	-10.9102
rechnung	-10.9105
▁insurance	-10.911
▁Training	-10.911
▁scheme	-10.9111
▁Vielzahl	-10.9112
▁territory	-10.9115
▁russische	-10.9115
▁Product	-10.9117
▁überprüfen	-10.912
▁Eigentum	-10.912
▁manchmal	-10.9125
▁monetary	-10.9128
▁blood	-10.9136
▁Zentral	-10.9137
▁Bahnhof	-10.9142
Geschäftsordnung	-10.9148
▁volume	-10.9155
▁ausgewählt	-10.9156
schneid	-10.9157
▁push	-10.9161
▁Branche	-10.9175
beschäftig	-10.9196
▁biggest	-10.9196
▁günstige	-10.9196
temporary	-10.9198
▁nearby	-10.9199
▁Ticket	-10.9199
▁Wünsche	-10.9201
▁Papier	-10.9206
Arbeitslosigkeit	-10.9209
schätze	-10.9216
▁Barroso	-10.9218
▁membership	-10.9223
▁buffet	-10.923
▁beschäftigt	-10.9238
▁golf	-10.9242
▁kritisch	-10.9243
▁unacceptable	-10.9244
▁chemical	-10.9252
▁sensitive	-10.9257
▁vernünftig	-10.9261
▁attitude	-10.9268
▁diskutiert	-10.9268
▁Turkish	-10.9272
▁Good	-10.9274
▁betrachten	-10.9275
▁restore	-10.9276
▁mother	-10.9283
▁hingewiesen	-10.9286
▁Flexibilität	-10.9288
▁dollar	-10.93
▁changing	-10.9302
▁Einkaufs	-10.9313
▁Another	-10.9313
▁Verständnis	-10.9319
▁beinhaltet	-10.9328
▁gesetzlich	-10.9329
▁Justiz	-10.933
▁citizen	-10.9336
▁affair	-10.9338
▁bildet	-10.9342
▁Democrats	-10.9349
▁burden	-10.9354
▁englisch	-10.9357
▁Vienna	-10.937
▁entstanden	-10.9374
▁Theater	-10.9387
▁Englisch	-10.9388
▁quick	-10.9391
▁economies	-10.9391
zugeben	-10.9397
▁gestalten	-10.9399
▁Robert	-10.9399
▁transaction	-10.9401
▁Ordnung	-10.9407
▁Diskriminierung	-10.9412
▁graphic	-10.9422
studie	-10.943
▁earn	-10.9432
▁Special	-10.944
▁nützlich	-10.9442
▁entitled	-10.9453
▁dedicated	-10.9455
▁Altstadt	-10.9458
▁besitzt	-10.9467
▁Drei	-10.9474
▁mutual	-10.9477
▁mistake	-10.9491
▁movie	-10.9495
▁advice	-10.9496
▁prospect	-10.9507
TION	-10.9512
leucht	-10.9523
▁2013	-10.9528
▁unterstütze	-10.9529
▁hauptsächlich	-10.9529
▁maximal	-10.9536
▁Kräfte	-10.9537
prob	-10.9542
tätigkeit	-10.9547
▁Überprüfung	-10.955
▁attractions	-10.9553
▁proportion	-10.9558
▁betont	-10.9559
▁bewegen	-10.9562
▁advertising	-10.9569
▁Third	-10.9574
▁Formular	-10.9575
information	-10.958
▁Koordinierung	-10.9582
▁Zuständigkeit	-10.9587
▁komfortable	-10.9592
▁Vorsitzende	-10.9602
▁exclud	-10.9608
▁asylum	-10.9611
▁storage	-10.9613
ã	-10.9616
▁damals	-10.9618
▁privat	-10.9619
å	-10.9619
▁konkret	-10.9619
▁Federal	-10.9624
▁eröffnet	-10.9631
▁corporate	-10.9635
▁entsprechen	-10.9636
▁Journal	-10.9639
▁complain	-10.9639
▁externe	-10.965
▁fashion	-10.9656
▁reliable	-10.9656
▁Gerichtshof	-10.9661
▁concert	-10.9661
▁Definition	-10.9663
▁Landwirte	-10.9677
▁luxury	-10.9699
▁Kandidat	-10.9703
▁assure	-10.9704
▁Revolution	-10.9705
technisch	-10.9709
▁manufacture	-10.9715
gerufen	-10.972
▁expenditure	-10.9723
▁delegation	-10.9723
▁Bulgaria	-10.9725
▁Einwanderung	-10.9725
▁contrar	-10.9728
▁Zoll	-10.9728
▁Company	-10.9728
▁Muslim	-10.973
▁Foreign	-10.9736
▁überzeugen	-10.9755
▁Fitness	-10.9761
▁ökologisch	-10.9765
▁Gebrauch	-10.9772
▁grundsätzlich	-10.9777
▁Grundrechte	-10.9782
▁Klar	-10.9793
▁herrliche	-10.9798
ê	-10.9813
▁Netherlands	-10.9816
▁üblich	-10.9816
▁Audio	-10.9831
▁pleasure	-10.9834
▁journey	-10.9839
▁girl	-10.9842
▁Obama	-10.9855
gebildet	-10.9859
▁chain	-10.9865
▁fiscal	-10.9866
▁Liberalisierung	-10.9867
wettbewerb	-10.9867
▁verehrte	-10.9872
▁Nevertheless	-10.9874
▁garantieren	-10.9876
▁Rezeption	-10.9882
▁profile	-10.9904
▁Schreib	-10.9906
▁chosen	-10.9906
▁Symbol	-10.9911
▁afford	-10.9912
▁department	-10.9922
▁Royal	-10.9938
▁maintenance	-10.9952
▁switch	-10.9952
assembl	-10.9964
▁geschieht	-10.997
▁communities	-10.9974
▁identify	-10.9979
▁judge	-10.9981
▁akzeptiert	-10.9984
▁neither	-10.9985
▁declaration	-10.9989
▁multiple	-10.9996
▁truth	-10.9996
▁Mikro	-11.0002
▁wealth	-11.0003
▁Hälfte	-11.0007
▁Kombination	-11.0012
▁umfassen	-11.0012
▁parallel	-11.0021
schränke	-11.0024
▁sleep	-11.0024
▁agency	-11.0026
▁Appartement	-11.0041
▁extension	-11.0046
▁teilnehmen	-11.0049
▁Unabhängigkeit	-11.0056
▁Croatia	-11.0058
▁evaluation	-11.0068
gewinn	-11.0077
▁verabschiedet	-11.01
▁detect	-11.0109
geordnet	-11.011
▁quarter	-11.0117
▁Konzert	-11.0117
▁Religion	-11.0125
▁Know	-11.0133
▁Schwarz	-11.0136
▁Streit	-11.0141
▁definiert	-11.0142
▁Wahrheit	-11.0146
▁ambitious	-11.0149
\	-11.0154
▁Freude	-11.0154
schätzung	-11.0159
▁Vielleicht	-11.0161
▁erfordert	-11.0161
▁category	-11.0164
▁Verletzung	-11.0169
▁müsste	-11.0173
▁Klimaanlage	-11.0175
▁yesterday	-11.0183
▁Einwohner	-11.0185
▁wachsende	-11.0185
▁universal	-11.019
▁aircraft	-11.0192
▁medicine	-11.0192
▁undertake	-11.0192
aimed	-11.0204
▁distinct	-11.0205
▁estimate	-11.0207
▁kürzlich	-11.0209
▁klassische	-11.0209
▁Blut	-11.0211
▁Menü	-11.0214
▁korrekt	-11.0217
▁spricht	-11.0219
ь	-11.0227
▁George	-11.0234
▁Sym	-11.0236
▁selten	-11.0251
▁ausgewogen	-11.0251
▁registration	-11.0253
▁outstanding	-11.0257
▁assess	-11.0259
▁eingereicht	-11.0265
reinigung	-11.0268
▁continuous	-11.0281
▁gelungen	-11.0293
▁Locate	-11.0295
▁Kontinent	-11.0296
▁Pflanzen	-11.0298
▁School	-11.0298
ы	-11.03
▁browser	-11.03
▁continuing	-11.03
з	-11.0305
▁violation	-11.0307
▁approximately	-11.0312
▁criticism	-11.0315
honourable	-11.0319
▁grüne	-11.0326
▁ältere	-11.0337
▁zugänglich	-11.0343
▁explore	-11.0348
▁deficit	-11.0348
▁worse	-11.0349
▁Fluss	-11.0359
▁dinner	-11.0367
▁Beihilfen	-11.0373
▁steel	-11.0382
▁Square	-11.0395
▁Risiken	-11.0397
strahl	-11.0403
shalb	-11.0405
▁independence	-11.0406
▁Agency	-11.0414
▁Anbieter	-11.0416
forschung	-11.0416
▁fraud	-11.042
▁exklusiv	-11.0432
▁Kranken	-11.0441
▁Automat	-11.0444
▁furnished	-11.0444
▁sorgfältig	-11.0454
▁deposit	-11.0456
▁reveal	-11.0456
▁identity	-11.0459
▁Earth	-11.0469
▁battle	-11.0472
▁binding	-11.0473
▁Kaffee	-11.0479
▁zählen	-11.0479
▁Hilfs	-11.0481
▁Summit	-11.0481
▁Kohle	-11.0486
dreh	-11.0489
▁sanction	-11.049
▁preserve	-11.0491
▁Erhöhung	-11.05
▁integrat	-11.0509
▁endorse	-11.0518
▁außerordentlich	-11.0521
▁technological	-11.0522
▁psycho	-11.0523
▁Energy	-11.0532
spruch	-11.054
▁default	-11.0546
▁einverstanden	-11.0551
▁Client	-11.056
▁multilateral	-11.0564
▁Ursache	-11.0569
▁Brenn	-11.0582
▁planned	-11.0584
gebunden	-11.0589
▁beglückwünsche	-11.059
▁Geburt	-11.0592
verbrauch	-11.06
▁glad	-11.0602
▁enforce	-11.0605
▁supplement	-11.0606
▁expensive	-11.0619
▁ausländische	-11.062
ström	-11.062
▁Gewicht	-11.0626
▁disposal	-11.0628
▁fällt	-11.0628
läufig	-11.0628
▁snow	-11.0629
▁password	-11.0631
▁subsequent	-11.0637
afrika	-11.0644
eignet	-11.066
▁overlook	-11.0663
▁Tibet	-11.0667
▁Alliance	-11.0674
▁jüngsten	-11.0676
▁unternommen	-11.068
▁Nahrungsmittel	-11.0683
▁manufacturing	-11.0685
▁Überzeugung	-11.0687
▁übernommen	-11.0699
▁visual	-11.0704
▁sovereign	-11.0705
▁Plattform	-11.0705
▁gestaltet	-11.0712
▁Sweden	-11.0714
methode	-11.0714
telefon	-11.0717
▁Pension	-11.0731
▁Ebenso	-11.0732
▁kostenfrei	-11.0735
▁Erholung	-11.0735
▁Betracht	-11.0741
▁produziert	-11.0748
▁anbieten	-11.0753
▁compliance	-11.0755
▁1993	-11.0757
▁straight	-11.0759
▁opposite	-11.0761
▁Effizienz	-11.0764
▁Niederlande	-11.0765
ffentlich	-11.0771
Point	-11.0774
▁medizinische	-11.0788
▁schedule	-11.0791
▁Dutch	-11.0797
▁verändern	-11.08
▁Browser	-11.08
gefügt	-11.08
▁Enjoy	-11.0808
▁birth	-11.081
▁Speise	-11.081
▁deserve	-11.0812
▁Stunde	-11.0821
film	-11.0822
▁responsibiliti	-11.0846
▁Angst	-11.0849
▁präsentiert	-11.085
▁primary	-11.0853
musik	-11.0854
▁whatever	-11.0855
▁reagieren	-11.0857
▁öffentlich	-11.0866
▁ungefähr	-11.0868
▁Brazil	-11.0877
▁erscheinen	-11.0877
▁concentrate	-11.0886
▁miles	-11.0903
▁smoking	-11.0912
▁schwarz	-11.0914
▁verlieren	-11.0916
▁Chamber	-11.0919
▁vorschlagen	-11.0925
wässer	-11.0931
▁behandeln	-11.0937
▁qualitativ	-11.0941
▁JavaScript	-11.0952
▁Satellit	-11.0961
▁impression	-11.0962
▁Schei	-11.0967
▁Hände	-11.097
▁horse	-11.0973
▁broke	-11.0975
▁consensus	-11.0995
▁Kilometer	-11.0996
▁primarily	-11.1006
▁album	-11.1008
г	-11.1026
▁outdoor	-11.1026
▁filter	-11.1028
▁sensible	-11.103
▁creative	-11.1032
▁Zentralbank	-11.1034
▁Dienstleistungs	-11.1037
einrichtungen	-11.1058
▁qualified	-11.1071
▁Financial	-11.1088
▁begonnen	-11.1093
schmutz	-11.1094
▁renewable	-11.1097
▁leiden	-11.1116
▁Perspektive	-11.1125
stätte	-11.1128
▁Ferienwohnung	-11.1138
▁gather	-11.1144
▁vielfältig	-11.1146
▁settlement	-11.1148
▁Dublin	-11.1148
schrieb	-11.115
▁Schloss	-11.1151
▁Network	-11.1153
▁Eigenschaften	-11.1155
▁Mountain	-11.1157
nähe	-11.116
▁fantastic	-11.1161
▁leadership	-11.1176
Veröffentlichung	-11.1178
▁Rotary	-11.1193
▁frame	-11.1194
▁grenzüberschrei	-11.12
▁Egypt	-11.1202
▁Haftung	-11.1202
▁consolidat	-11.1204
▁Oberfläche	-11.1208
▁Church	-11.1212
▁valley	-11.1217
▁gefördert	-11.1218
führt	-11.1218
▁territorial	-11.1229
▁heavy	-11.1231
▁dauerhaft	-11.1238
▁Gründung	-11.1238
sieht	-11.1241
▁wunderbar	-11.1265
▁Identität	-11.1276
▁shift	-11.1288
▁fühlen	-11.1291
▁beschränkt	-11.1295
▁architect	-11.1301
▁erhielt	-11.1301
▁Tarif	-11.1315
▁München	-11.132
▁branch	-11.132
▁interior	-11.132
▁acquire	-11.1322
▁schafft	-11.133
▁renoviert	-11.1333
▁dispute	-11.1334
▁Gleichgewicht	-11.1335
▁schlimm	-11.1339
▁Eisenbahn	-11.1341
▁Erwachsene	-11.1342
▁attraktiv	-11.1343
▁pattern	-11.1343
▁sorgt	-11.1344
▁engineering	-11.1347
▁ausführlich	-11.1351
▁catch	-11.1352
ł	-11.1375
▁beliebig	-11.1377
▁Versorgung	-11.1379
niveau	-11.138
▁Temperatur	-11.1385
prozess	-11.1386
deutsch	-11.1398
onciliation	-11.1401
▁Michel	-11.1401
kapital	-11.1402
▁Fläche	-11.1403
▁residence	-11.1404
▁Erzeugnisse	-11.1406
▁Johann	-11.1414
▁approval	-11.1416
▁Umständen	-11.1416
▁vielmehr	-11.142
▁privacy	-11.1422
▁Question	-11.1424
▁sexual	-11.1431
▁Before	-11.1436
▁Kyoto	-11.1441
▁critic	-11.1442
▁beschrieben	-11.1447
▁diesbezüglich	-11.1449
▁castle	-11.1453
▁mandate	-11.1455
▁Rumänien	-11.1458
entwurf	-11.1472
▁Kollege	-11.1479
▁kompliziert	-11.148
▁dürfte	-11.1484
▁unterstreich	-11.1485
▁Einklang	-11.1486
▁expense	-11.1489
▁zustimmen	-11.1493
orientierte	-11.1513
▁discharge	-11.1528
▁reaction	-11.1529
▁furniture	-11.1532
▁Bedrohung	-11.1534
▁Führer	-11.1552
▁advise	-11.1553
objekt	-11.1564
▁kontextuell	-11.1577
▁exceed	-11.158
▁Skype	-11.1585
▁imagine	-11.1585
▁Reservierung	-11.1591
▁Munich	-11.1595
▁Verfügbarkeit	-11.1599
▁konstruktiv	-11.1599
▁türkische	-11.1605
Berücksichtigung	-11.1607
▁Schlafzimmer	-11.1607
▁ideolog	-11.1609
datei	-11.1614
wünsche	-11.163
▁zuverlässig	-11.1634
▁intellectual	-11.1642
▁außergewöhnlich	-11.1654
▁dynamisch	-11.1656
▁Sauna	-11.1656
dokument	-11.1672
▁bottom	-11.1678
▁entdeckt	-11.1678
▁valuable	-11.168
▁verlangt	-11.169
▁expertise	-11.1694
▁südlich	-11.1696
▁Summe	-11.1699
▁constructive	-11.17
▁wave	-11.1704
▁entdecken	-11.1708
▁Wirklichkeit	-11.1712
▁Schäden	-11.1714
drückt	-11.172
▁compensation	-11.1722
▁leisure	-11.1724
▁Badezimmer	-11.1724
▁familiar	-11.173
▁entertainment	-11.1733
▁erzeugt	-11.1737
▁entspannen	-11.1738
▁ergriffen	-11.1738
▁Strecke	-11.174
▁Beiträge	-11.1742
▁contrast	-11.1744
▁Erinnerung	-11.1769
▁Schönheit	-11.1777
▁Optim	-11.1781
▁Übernachtung	-11.1787
▁Technology	-11.1793
▁barrier	-11.1798
▁Salzburg	-11.1799
▁wiederholt	-11.18
▁Ausstattung	-11.1802
▁gespeichert	-11.1816
direct	-11.1816
▁Gebühr	-11.1828
б	-11.1922
ž	-11.2074
î	-11.2557
й	-11.2952
¤	-11.3228
ý	-11.3665
⁄	-11.3893
ч	-11.4012
С	-11.4113
§	-11.4146
·	-11.4382
ı	-11.446
ć	-11.4846
α	-11.5139
ě	-11.5212
♫	-11.5492
©	-11.5588
Ä	-11.5956
ø	-11.5958
ò	-11.6093
х	-11.6099
і	-11.6602
Š	-11.667
ř	-11.6838
ń	-11.7567
ę	-11.7621
ж	-11.799
ë	-11.8136
ο	-11.8312
ð	-11.8401
ï	-11.8451
ι	-11.9021
τ	-11.9025
Č	-11.934
ј	-11.9348
¶	-11.9382
ε	-11.9511
ц	-11.9568
ş	-11.962
æ	-11.978
μ	-12.0179
ą	-12.0423
ś	-12.0438
£	-12.0495
ю	-12.0747
É	-12.1265
ù	-12.1916
ш	-12.2083
ā	-12.2293
ż	-12.2489
ν	-12.266
ă	-12.2702
β	-12.2888
ň	-12.3222
ì	-12.3652
ا	-12.3665
σ	-12.4033
Á	-12.415
†	-12.4317
ő	-12.4493
~	-12.4594
ρ	-12.4695
π	-12.5081
ÿ	-12.5495
¿	-12.553
̈	-12.5609
κ	-12.5665
ğ	-12.5746
ل	-12.5811
В	-12.5901
õ	-12.61
щ	-12.6243
Â	-12.6269
Å	-12.6269
λ	-12.6329
ф	-12.6372
û	-12.6642
Ž	-12.7132
♪	-12.7715
η	-12.7794
υ	-12.7904
Ç	-12.8015
đ	-12.8025
œ	-12.8096
ĺ	-12.8179
э	-12.8314
Р	-12.8419
ů	-12.8525
ς	-12.8536
ŕ	-12.8939
→	-12.9302
ن	-12.9406
ί	-12.963
−	-12.9726
ō	-12.9811
ī	-12.9908
Ø	-13.0019
İ	-13.0069
Ђ	-13.0106
П	-13.0119
ر	-13.036
ي	-13.0686
^	-13.0941
ά	-13.1189
›	-13.1529
ū	-13.1659
ό	-13.1733
Ó	-13.1866
م	-13.1866
±	-13.2123
×	-13.2215
ű	-13.2246
δ	-13.2339
Н	-13.2481
ė	-13.2497
¡	-13.312
О	-13.3154
К	-13.3256
γ	-13.329
џ	-13.329
‐	-13.3342
ت	-13.3605
ţ	-13.3658
و	-13.3802
Í	-13.3856
ї	-13.4208
А	-13.4341
ή	-13.4418
έ	-13.4553
ب	-13.4711
М	-13.4931
Ÿ	-13.5136
‹	-13.5136
Ł	-13.5157
ľ	-13.5366
ē	-13.5387
Ñ	-13.5515
Т	-13.5602
Ś	-13.5602
′	-13.5689
Ú	-13.571
¬	-13.6045
ω	-13.6067
ď	-13.6113
θ	-13.6181
&	-13.6269
د	-13.6437
Ε	-13.6508
ع	-13.6651
Ћ	-13.7094
ъ	-13.7094
À	-13.7531
Д	-13.7558
Б	-13.7611
ك	-13.7825
س	-13.7852
น	-13.8127
χ	-13.8211
า	-13.8672
÷	-13.888
Ѓ	-13.894
И	-13.8971
Ê	-13.9247
ź	-13.9342
َ	-13.9405
¥	-13.95
Ï	-13.9597
ť	-13.9629
Л	-13.9826
י	-14.0026
Α	-14.0094
ة	-14.0196
È	-14.023
ύ	-14.051
Î	-14.0724
ه	-14.076
อ	-14.0833
่	-14.0907
Ý	-14.1093
ف	-14.113
φ	-14.1206
̇	-14.1244
أ	-14.1712
І	-14.1752
Ż	-14.1792
З	-14.1792
¢	-14.1832
Ќ	-14.1954
У	-14.1954
є	-14.2078
Е	-14.2119
Ş	-14.2287
ร	-14.2372
Ô	-14.2415
ม	-14.2763
Τ	-14.2763
เ	-14.2808
Ð	-14.2808
þ	-14.2808
พ	-14.2942
ו	-14.3263
ง	-14.3643
●	-14.3643
Ţ	-14.379
ก	-14.379
א	-14.3888
年	-14.445
ศ	-14.4662
ج	-14.4716
ی	-14.4879
ר	-14.4879
‟	-14.527
Ő	-14.5327
ƒ	-14.5327
้	-14.5385
ِ	-14.5442
¦	-14.5618
년	-14.5618
ว	-14.5736
Ф	-14.5978
Э	-14.6163
ش	-14.6226
ל	-14.6289
خ	-14.648
ώ	-14.6675
←	-14.6675
ั	-14.6675
下	-14.6675
ح	-14.674
的	-14.6873
Љ	-14.7008
إ	-14.7008
ה	-14.7076
Ν	-14.7145
ล	-14.7353
њ	-14.7423
图	-14.7423
ย	-14.7566
Ω	-14.7638
ע	-14.7638
ี	-14.7638
Ι	-14.771
Ο	-14.7783
‡	-14.7783
ق	-14.7857
ส	-14.8005
Þ	-14.8005
ξ	-14.8005
ค	-14.808
Њ	-14.808
中	-14.808
Я	-14.8233
※	-14.8309
ะ	-14.8387
Х	-14.8465
⇒	-14.8623
ด	-14.8703
‰	-14.8784
Đ	-14.8784
ņ	-14.8865
。	-14.8865
Û	-14.903
ё	-14.9113
ห	-14.9367
ー	-14.9367
Ì	-14.9454
Μ	-14.9541
Æ	-14.9628
►	-14.9717
套	-14.9717
ב	-14.9896
ิ	-14.9987
Õ	-14.9987
ص	-14.9987
载	-14.9987
ə	-15.0079
日	-15.0079
ˈ	-15.0359
ד	-15.0454
̧	-15.0648
Ч	-15.0746
Ш	-15.0845
ท	-15.0845
ّ	-15.1046
Џ	-15.1046
【	-15.1046
נ	-15.1046
い	-15.1046
ى	-15.1251
】	-15.1251
Π	-15.146
Η	-15.1567
ض	-15.1567
』	-15.1783
ط	-15.1783
Ц	-15.1893
Ř	-15.1893
ز	-15.2004
ļ	-15.2116
Ė	-15.223
本	-15.223
文	-15.223
บ	-15.2461
ט	-15.2461
和	-15.2461
ų	-15.2698
ა	-15.2698
غ	-15.2818
ת	-15.2818
ป	-15.294
―	-15.294
ი	-15.3064
،	-15.3315
Δ	-15.3315
מ	-15.3315
Ґ	-15.3443
ื	-15.3573
、	-15.3573
大	-15.3705
新	-15.3705
ไ	-15.3973
ѓ	-15.3973
ג	-15.3973
舞	-15.3973
一	-15.3973
て	-15.3973
ː	-15.411
食	-15.411
ต	-15.4249
ζ	-15.439
แ	-15.4533
Κ	-15.4533
ْ	-15.4678
ข	-15.4678
ე	-15.4678
Ё	-15.4825
ุ	-15.4825
工	-15.4974
人	-15.4974
ש	-15.4974
ン	-15.4974
Ų	-15.5126
ў	-15.5126
厂	-15.528
פ	-15.528
ן	-15.5436
雷	-15.5436
ק	-15.5595
国	-15.5595
Ń	-15.5595
の	-15.5595
ช	-15.5756
ķ	-15.5756
Œ	-15.592
ѕ	-15.592
√	-15.592
可	-15.592
̄	-15.6086
电	-15.6256
Ľ	-15.6256
ใ	-15.6256
ң	-15.6256
ϋ	-15.6256
上	-15.6428
Ò	-15.6604
्	-15.6604
צ	-15.6604
จ	-15.6782
迅	-15.6782
Ć	-15.6782
た	-15.6964
↑	-15.6964
♥	-15.6964
影	-15.7149
Γ	-15.7149
核	-15.7338
ُ	-15.7338
็	-15.7338
र	-15.753
Ď	-15.753
海	-15.753
ם	-15.7726
市	-15.7726
ा	-15.7926
ŏ	-15.7926
・	-15.7926
天	-15.7926
な	-15.7926
ǎ	-15.8131
爱	-15.8131
し	-15.8339
ث	-15.8339
語	-15.8339
山	-15.8339
る	-15.8339
■	-15.8552
月	-15.8552
区	-15.8552
آ	-15.8552
っ	-15.8769
̊	-15.8769
艳	-15.8769
Ě	-15.8769
Ō	-15.8769
不	-15.8769
网	-15.8769
在	-15.8769
̃	-15.8991
克	-15.8991
简	-15.8991
出	-15.8991
是	-15.9218
̋	-15.9219
ذ	-15.9219
は	-15.9219
三	-15.9451
语	-15.9451
რ	-15.9451
『	-15.9451
で	-15.9451
片	-15.9451
物	-15.9689
れ	-15.9689
ệ	-15.9689
╚	-15.9689
╩	-15.9689
ŭ	-15.9933
Β	-15.9933
Ж	-15.9933
ќ	-15.9933
站	-15.9933
色	-15.9933
生	-16.0183
ɐ	-16.0183
★	-16.0183
く	-16.0183
ス	-16.0183
Ą	-16.0439
ģ	-16.0439
̍	-16.0439
Є	-16.0439
‛	-16.0439
ら	-16.0439
ғ	-16.0439
と	-16.044
五	-16.044
か	-16.0703
就	-16.0703
ɪ	-16.0703
ณ	-16.0703
Ρ	-16.0703
ู	-16.0973
ک	-16.0973
西	-16.0973
́	-16.0973
ํ	-16.0973
女	-16.0973
イ	-16.0973
ラ	-16.0973
ψ	-16.1251
ま	-16.1251
南	-16.1251
が	-16.1251
す	-16.1251
北	-16.1251
有	-16.1251
に	-16.1251
ლ	-16.1536
ო	-16.1536
Σ	-16.1536
台	-16.183
̤	-16.1831
ء	-16.1831
ს	-16.1831
მ	-16.1831
刘	-16.1831
我	-16.1831
名	-16.2134
り	-16.2134
Ă	-16.2134
ĕ	-16.2134
道	-16.2134
用	-16.2134
を	-16.2134
ト	-16.2134
ル	-16.2134
子	-16.2134
产	-16.2446
Ę	-16.2446
Į	-16.2446
ư	-16.2446
ǔ	-16.2446
Ю	-16.2446
≥	-16.2446
寺	-16.2446
来	-16.2446
Φ	-16.2769
○	-16.2769
路	-16.2769
म	-16.2769
伦	-16.2769
了	-16.2769
越	-16.3102
全	-16.3102
原	-16.3102
水	-16.3102
理	-16.3102
美	-16.3102
ạ	-16.3102
能	-16.3102
颖	-16.3102
体	-16.3102
婷	-16.3102
情	-16.3447
う	-16.3447
ɛ	-16.3447
小	-16.3447
̨	-16.3447
ס	-16.3447
্	-16.3447
ế	-16.3447
≤	-16.3447
手	-16.3447
这	-16.3804
Ū	-16.3804
ơ	-16.3804
Й	-16.3804
ә	-16.3804
ả	-16.3804
‒	-16.3804
⇢	-16.3804
─	-16.3804
東	-16.3804
量	-16.3804
ๆ	-16.4174
字	-16.4174
漢	-16.4174
დ	-16.4174
გ	-16.4174
博	-16.4174
去	-16.4559
家	-16.4559
त	-16.4559
会	-16.4559
思	-16.4559
木	-16.4559
以	-16.4559
ち	-16.4959
ț	-16.4959
Θ	-16.4959
白	-16.4959
כ	-16.4959
地	-16.5376
Ë	-16.5376
金	-16.5376
ɑ	-16.5376
ˆ	-16.5376
Ў	-16.5376
ộ	-16.5376
≈	-16.5376
▒	-16.5376
比	-16.5376
ผ	-16.5376
ึ	-16.5376
合	-16.5376
安	-16.5376
正	-16.5376
亚	-16.581
つ	-16.581
为	-16.581
直	-16.581
而	-16.581
ĝ	-16.581
Λ	-16.581
ח	-16.581
क	-16.581
口	-16.581
島	-16.581
更	-16.581
き	-16.581
高	-16.581
Χ	-16.6265
こ	-16.6265
Ї	-16.6265
ً	-16.6265
۰	-16.6265
۱	-16.6265
ớ	-16.6265
∞	-16.6265
▪	-16.6265
ん	-16.6265
场	-16.6265
京	-16.6265
入	-16.6265
动	-16.6265
都	-16.6265
ү	-16.6265
も	-16.6265
ッ	-16.6265
明	-16.6265
模	-16.6265
音	-16.6265
レ	-16.6741
民	-16.6741
Ů	-16.6741
Ű	-16.6741
ʃ	-16.6741
ז	-16.6741
ถ	-16.6741
☆	-16.6741
司	-16.6741
成	-16.6741
李	-16.6741
杨	-16.6741
乐	-16.6741
ֿ	-16.7241
โ	-16.7241
元	-16.7241
常	-16.7241
种	-16.7241
空	-16.7241
里	-16.7241
ș	-16.7241
ʒ	-16.7241
ұ	-16.7241
ბ	-16.7241
」	-16.7241
み	-16.7241
加	-16.7241
江	-16.7241
过	-16.7241
性	-16.7241
田	-16.7767
Ī	-16.7767
分	-16.7767
多	-16.7767
心	-16.7767
ǐ	-16.7767
Υ	-16.7767
Ы	-16.7767
љ	-16.7767
һ	-16.7767
य	-16.7767
ნ	-16.7767
ḥ	-16.7767
「	-16.7767
ジ	-16.7767
メ	-16.7767
东	-16.7767
事	-16.7767
十	-16.7767
免	-16.7767
当	-16.7767
方	-16.7767
面	-16.7767
カ	-16.8323
ˌ	-16.8323
ґ	-16.8323
お	-16.8323
州	-16.8323
知	-16.8323
管	-16.8323
ɾ	-16.8323
র	-16.8323
ṭ	-16.8323
到	-16.8323
寿	-16.8323
見	-16.8323
한	-16.8323
取	-16.8323
吗	-16.8323
洲	-16.8323
バ	-16.8323
あ	-16.8911
ば	-16.8911
学	-16.8911
Ā	-16.8911
农	-16.8911
松	-16.8911
法	-16.8911
ħ	-16.8911
į	-16.8911
प	-16.8911
ồ	-16.8911
≪	-16.8911
≫	-16.8911
♦	-16.8911
二	-16.8911
球	-16.8911
神	-16.8911
酒	-16.8911
Ь	-16.8911
ָ	-16.8911
स	-16.8911
შ	-16.8911
ナ	-16.8911
言	-16.8911
定	-16.8911
吉	-16.9536
よ	-16.9536
ह	-16.9536
Ù	-16.9536
ћ	-16.9536
ि	-16.9536
八	-16.9536
匿	-16.9536
平	-16.9536
机	-16.9536
王	-16.9536
石	-16.9536
頂	-16.9536
顶	-16.9536
馬	-16.9536
Ğ	-16.9536
ĩ	-16.9536
Ĺ	-16.9536
Ň	-16.9536
ṳ	-16.9536
◆	-16.9536
◊	-16.9536
◎	-16.9536
コ	-16.9536
テ	-16.9536
切	-16.9536
易	-16.9536
武	-16.9536
風	-16.9536
국	-16.9536
어	-16.9536
े	-16.9536
だ	-16.9536
ア	-16.9536
ვ	-16.9536
じ	-17.0203
前	-17.0203
土	-17.0203
國	-17.0203
清	-17.0203
自	-17.0203
Ά	-17.0203
Ј	-17.0203
ु	-17.0203
ธ	-17.0203
ữ	-17.0203
但	-17.0203
岛	-17.0203
最	-17.0203
林	-17.0203
茶	-17.0203
见	-17.0203
论	-17.0203
重	-17.0203
青	-17.0203
题	-17.0203
ġ	-17.0203
ʿ	-17.0203
ტ	-17.0203
リ	-17.0203
式	-17.0203
雄	-17.0203
さ	-17.0203
如	-17.0203
ּ	-17.0203
交	-17.0203
你	-17.0917
ल	-17.0917
え	-17.0917
发	-17.0917
相	-17.0917
行	-17.0917
也	-17.0917
仁	-17.0917
қ	-17.0917
ֳ	-17.0917
ִ	-17.0917
۲	-17.0917
்	-17.0917
ề	-17.0917
ố	-17.0917
ờ	-17.0917
品	-17.0917
城	-17.0917
娱	-17.0917
淫	-17.0917
禅	-17.0917
运	-17.0917
न	-17.0917
フ	-17.0917
け	-17.0917
增	-17.0917
少	-17.0917
料	-17.0917
内	-17.0917
应	-17.0917
オ	-17.0917
タ	-17.0917
赌	-17.0917
科	-17.1686
得	-17.1686
پ	-17.1686
ワ	-17.1686
公	-17.1686
要	-17.1686
ɔ	-17.1686
ɨ	-17.1686
۹	-17.1686
์	-17.1686
ረ	-17.1686
ዓ	-17.1686
│	-17.1686
♣	-17.1686
个	-17.1686
参	-17.1686
啦	-17.1686
四	-17.1686
士	-17.1686
引	-17.1686
持	-17.1686
枫	-17.1686
楽	-17.1686
社	-17.1686
線	-17.1686
问	-17.1686
이	-17.1686
せ	-17.1686
マ	-17.1686
愛	-17.1686
通	-17.1686
め	-17.1686
わ	-17.1686
ド	-17.1686
容	-17.1686
ַ	-17.1686
プ	-17.1687
于	-17.252
崎	-17.252
ҡ	-17.252
开	-17.252
此	-17.252
解	-17.252
部	-17.252
Ť	-17.252
ʊ	-17.252
ʼ	-17.252
Ѕ	-17.252
利	-17.252
回	-17.252
马	-17.252
Ĉ	-17.252
ি	-17.252
ษ	-17.252
ຸ	-17.252
በ	-17.252
ỹ	-17.252
♀	-17.252
キ	-17.252
ク	-17.252
サ	-17.252
剥	-17.252
将	-17.252
広	-17.252
敏	-17.252
深	-17.252
県	-17.252
羅	-17.252
花	-17.252
近	-17.252
降	-17.252
ญ	-17.252
የ	-17.252
チ	-17.252
建	-17.252
ө	-17.252
ְ	-17.252
अ	-17.252
エ	-17.252
落	-17.252
业	-17.3429
香	-17.3429
作	-17.3429
村	-17.3429
ব	-17.3429
ম	-17.3429
്	-17.3429
฿	-17.3429
უ	-17.3429
ይ	-17.3429
ầ	-17.3429
ễ	-17.3429
ổ	-17.3429
ビ	-17.3429
井	-17.3429
从	-17.3429
减	-17.3429
器	-17.3429
客	-17.3429
对	-17.3429
帝	-17.3429
时	-17.3429
湖	-17.3429
谷	-17.3429
非	-17.3429
駅	-17.3429
로	-17.3429
ন	-17.3429
თ	-17.3429
湯	-17.3429
華	-17.3429
長	-17.3429
然	-17.3429
世	-17.3429
界	-17.3429
经	-17.3429
ฎ	-17.4429
页	-17.4429
无	-17.4429
द	-17.4429
只	-17.4429
目	-17.4429
信	-17.4429
屋	-17.4429
Ħ	-17.4429
ئ	-17.4429
尽	-17.4429
干	-17.4429
ĉ	-17.4429
Ē	-17.4429
ɫ	-17.4429
Ζ	-17.4429
ظ	-17.4429
۴	-17.4429
०	-17.4429
া	-17.4429
ር	-17.4429
▼	-17.4429
《	-17.4429
》	-17.4429
へ	-17.4429
セ	-17.4429
使	-17.4429
修	-17.4429
娜	-17.4429
川	-17.4429
德	-17.4429
所	-17.4429
治	-17.4429
浦	-17.4429
脱	-17.4429
讨	-17.4429
鋘	-17.4429
電	-17.4429
风	-17.4429
館	-17.4429
گ	-17.4429
ภ	-17.4429
კ	-17.4429
ხ	-17.4429
シ	-17.4429
余	-17.4429
后	-17.4429
腹	-17.4429
ウ	-17.4429
反	-17.4429
特	-17.4429
疫	-17.4429
ϊ	-17.4429
几	-17.4429
收	-17.4429
記	-17.4429
提	-17.4429
表	-17.554
头	-17.554
进	-17.554
気	-17.554
些	-17.554
其	-17.554
因	-17.554
外	-17.554
太	-17.554
步	-17.554
流	-17.554
阿	-17.554
ब	-17.554
ユ	-17.554
力	-17.554
ŝ	-17.554
ɹ	-17.554
ʀ	-17.554
̆	-17.554
۞	-17.554
ी	-17.554
ু	-17.554
ซ	-17.554
ተ	-17.554
ṛ	-17.554
ủ	-17.554
ἰ	-17.554
✿	-17.554
ズ	-17.554
ツ	-17.554
デ	-17.554
ハ	-17.554
优	-17.554
化	-17.554
吧	-17.554
址	-17.554
宿	-17.554
庆	-17.554
氣	-17.554
港	-17.554
湾	-17.554
玲	-17.554
珠	-17.554
皇	-17.554
第	-17.554
込	-17.554
选	-17.554
门	-17.554
需	-17.554
구	-17.554
አ	-17.554
保	-17.554
线	-17.554
藤	-17.554
功	-17.554
看	-17.554
ቀ	-17.554
支	-17.554
真	-17.554
肥	-17.554
较	-17.554
ニ	-17.554
板	-17.554
パ	-17.554
医	-17.554
竹	-17.554
已	-17.679
关	-17.679
没	-17.679
ょ	-17.679
传	-17.679
居	-17.679
立	-17.679
釉	-17.679
乗	-17.679
华	-17.679
张	-17.679
株	-17.679
测	-17.679
舖	-17.679
読	-17.679
ĵ	-17.679
ũ	-17.679
ΐ	-17.679
ҙ	-17.679
ـ	-17.679
च	-17.679
श	-17.679
ो	-17.679
ক	-17.679
ট	-17.679
་	-17.679
ም	-17.679
ṃ	-17.679
ợ	-17.679
₤	-17.679
⋅	-17.679
█	-17.679
♠	-17.679
➲	-17.679
ひ	-17.679
ふ	-17.679
゚	-17.679
ケ	-17.679
之	-17.679
円	-17.679
別	-17.679
屄	-17.679
广	-17.679
意	-17.679
戴	-17.679
拉	-17.679
求	-17.679
灣	-17.679
米	-17.679
者	-17.679
臺	-17.679
舫	-17.679
街	-17.679
说	-17.679
质	-17.679
鄉	-17.679
黄	-17.679
Щ	-17.679
师	-17.679
店	-17.679
教	-17.679
話	-17.679
郎	-17.679
ֹ	-17.679
や	-17.679
必	-17.679
长	-17.679
ゆ	-17.679
变	-17.679
画	-17.679
蛋	-17.679
他	-17.679
们	-17.679
绪	-17.8218
亿	-17.8218
稻	-17.8218
获	-17.8218
足	-17.8218
げ	-17.8218
养	-17.8218
园	-17.8218
实	-17.8218
福	-17.8218
送	-17.8218
Ό	-17.8218
义	-17.8218
价	-17.8218
呼	-17.8218
廣	-17.8218
志	-17.8218
書	-17.8218
牙	-17.8218
瓶	-17.8218
配	-17.8218
ɒ	-17.8218
ץ	-17.8218
ھ	-17.8218
۷	-17.8218
ं	-17.8218
ज	-17.8218
్	-17.8218
መ	-17.8218
ኣ	-17.8218
ገ	-17.8218
ጽ	-17.8218
ậ	-17.8218
₩	-17.8218
ず	-17.8218
ろ	-17.8218
ャ	-17.8218
主	-17.8218
九	-17.8218
伯	-17.8218
六	-17.8218
哈	-17.8218
場	-17.8218
奥	-17.8218
妻	-17.8218
宝	-17.8218
急	-17.8218
技	-17.8218
未	-17.8218
架	-17.8218
歌	-17.8218
沙	-17.8218
漫	-17.8218
焼	-17.8218
素	-17.8218
统	-17.8218
角	-17.8218
计	-17.8218
鋓	-17.8218
鋜	-17.8218
門	-17.8218
関	-17.8218
雪	-17.8218
龙	-17.8218
서	-17.8218
ክ	-17.8219
同	-17.8219
握	-17.8219
援	-17.8219
果	-17.8219
系	-17.8219
赤	-17.8219
间	-17.8219
向	-17.8219
む	-17.8219
ロ	-17.8219
動	-17.8219
ダ	-17.8219
位	-17.8219
ペ	-17.8219
巴	-17.9885
紧	-17.9885
植	-17.9885
派	-17.9885
约	-17.9885
翠	-17.9885
起	-17.9885
检	-17.9885
许	-17.9885
达	-17.9885
样	-17.9885
ど	-17.9885
与	-17.9885
商	-17.9885
次	-17.9885
由	-17.9885
ђ	-17.9885
ソ	-17.9885
宁	-17.9885
良	-17.9885
ʻ	-17.9885
ত	-17.9885
য	-17.9885
ን	-17.9885
Ḥ	-17.9885
ṇ	-17.9885
づ	-17.9885
ィ	-17.9885
ゴ	-17.9885
凄	-17.9885
局	-17.9885
术	-17.9885
死	-17.9885
箱	-17.9885
英	-17.9885
ŋ	-17.9885
Ɲ	-17.9885
۵	-17.9885
व	-17.9885
হ	-17.9885
೧	-17.9885
๑	-17.9885
ນ	-17.9885
ວ	-17.9885
ღ	-17.9885
ህ	-17.9885
ሻ	-17.9885
እ	-17.9885
ኦ	-17.9885
ው	-17.9885
ጨ	-17.9885
፣	-17.9885
ấ	-17.9885
ắ	-17.9885
ọ	-17.9885
ứ	-17.9885
₪	-17.9885
↓	-17.9885
⇗	-17.9885
⌘	-17.9885
┐	-17.9885
▸	-17.9885
◙	-17.9885
ぐ	-17.9885
ぢ	-17.9885
ゲ	-17.9885
ネ	-17.9885
ヒ	-17.9885
丹	-17.9885
乱	-17.9885
儀	-17.9885
唐	-17.9885
圓	-17.9885
处	-17.9885
存	-17.9885
宣	-17.9885
寶	-17.9885
左	-17.9885
幹	-17.9885
応	-17.9885
拳	-17.9885
旅	-17.9885
族	-17.9885
晏	-17.9885
欢	-17.9885
母	-17.9885
每	-17.9885
激	-17.9885
点	-17.9885
町	-17.9885
秀	-17.9885
義	-17.9885
舅	-17.9885
航	-17.9885
血	-17.9885
術	-17.9885
资	-17.9885
車	-17.9885
车	-17.9885
迎	-17.9885
陳	-17.9885
黵	-17.9885
Ņ	-17.9885
ɡ	-17.9885
ې	-17.9885
ザ	-17.9885
ブ	-17.9885
卓	-17.9885
実	-17.9885
维	-17.9885
钧	-17.9885
ქ	-17.9885
宜	-17.9885
靳	-17.9885
Έ	-17.9885
ׁ	-17.9885
グ	-17.9885
ホ	-17.9885
升	-17.9885
始	-17.9885
晨	-17.9885
益	-17.9885
章	-17.9885
ェ	-17.9885
气	-17.9885
济	-17.9885
确	-17.9885
闻	-17.9885
ベ	-17.9885
設	-17.9885
受	-17.9885
度	-17.9885
让	-17.9885
景	-17.9885
背	-17.9885
并	-18.1885
そ	-18.1885
两	-18.1885
代	-18.1885
朝	-18.1885
联	-18.1885
热	-18.1885
Ҡ	-18.1885
洪	-18.1885
先	-18.1885
微	-18.1885
想	-18.1885
指	-18.1885
挑	-18.1885
揃	-18.1885
旱	-18.1885
疆	-18.1885
该	-18.1885
担	-18.1885
整	-18.1885
臘	-18.1885
ण	-18.1885
々	-18.1885
ぎ	-18.1885
奶	-18.1885
很	-18.1885
念	-18.1885
氏	-18.1885
粮	-18.1885
裂	-18.1885
试	-18.1885
飲	-18.1885
鵜	-18.1885
黚	-18.1885
ḍ	-18.1885
折	-18.1885
报	-18.1885
波	-18.1885
注	-18.1885
訓	-18.1885
김	-18.1885
ǒ	-18.1885
ʔ	-18.1885
̯	-18.1885
ध	-18.1885
প	-18.1885
ன	-18.1885
ம	-18.1885
ర	-18.1885
๊	-18.1885
ງ	-18.1885
ັ	-18.1885
ც	-18.1885
ṣ	-18.1885
ẽ	-18.1885
ị	-18.1885
ở	-18.1885
ῆ	-18.1885
┌	-18.1885
◇	-18.1885
ご	-18.1885
ね	-18.1885
ミ	-18.1885
云	-18.1885
亜	-18.1885
住	-18.1885
健	-18.1885
光	-18.1885
共	-18.1885
列	-18.1885
吴	-18.1885
周	-18.1885
喜	-18.1885
委	-18.1885
宮	-18.1885
岭	-18.1885
府	-18.1885
張	-18.1885
徐	-18.1885
徳	-18.1885
忻	-18.1885
放	-18.1885
故	-18.1885
星	-18.1885
春	-18.1885
杏	-18.1885
梁	-18.1885
梅	-18.1885
樱	-18.1885
毛	-18.1885
氷	-18.1885
汉	-18.1885
消	-18.1885
涩	-18.1885
済	-18.1885
溥	-18.1885
版	-18.1885
状	-18.1885
甜	-18.1885
百	-18.1885
皮	-18.1885
眼	-18.1885
着	-18.1885
称	-18.1885
羽	-18.1885
老	-18.1885
胡	-18.1885
臓	-18.1885
致	-18.1885
若	-18.1885
莉	-18.1885
衣	-18.1885
許	-18.1885
费	-18.1885
跳	-18.1885
身	-18.1885
辑	-18.1885
适	-18.1885
遝	-18.1885
野	-18.1885
际	-18.1885
陵	-18.1885
隆	-18.1885
饮	-18.1885
验	-18.1885
黨	-18.1885
나	-18.1885
라	-18.1885
르	-18.1885
신	-18.1885
월	-18.1885
일	-18.1885
주	-18.1885
Ź	-18.1885
ぶ	-18.1885
置	-18.1885
排	-18.1885
翻	-18.1885
育	-18.1885
设	-18.1885
那	-18.1885
飛	-18.1885
ቶ	-18.1885
季	-18.1885
乎	-18.1885
采	-18.1885
温	-18.1885
何	-18.1885
效	-18.1885
病	-18.1885
示	-18.1885
付	-18.1885
凉	-18.1885
超	-18.1885
達	-18.1885
換	-18.1885
迫	-18.4385
ฉ	-18.4385
属	-18.4385
ެ	-18.4385
够	-18.4385
铃	-18.4385
Ʀ	-18.4385
决	-18.4385
吨	-18.4385
巨	-18.4385
改	-18.4385
标	-18.4385
彩	-18.4385
视	-18.4385
ฝ	-18.4385
刚	-18.4385
短	-18.4385
锋	-18.4385
飼	-18.4385
ʁ	-18.4385
ર	-18.4385
க	-18.4385
举	-18.4385
形	-18.4385
徒	-18.4385
快	-18.4385
振	-18.4385
掻	-18.4385
格	-18.4385
濟	-18.4385
無	-18.4385
私	-18.4385
続	-18.4385
难	-18.4385
드	-18.4385
佐	-18.4385
Ċ	-18.4385
Ģ	-18.4385
ĸ	-18.4385
Ŕ	-18.4385
ŷ	-18.4385
ǘ	-18.4385
ǵ	-18.4385
̀	-18.4385
̣	-18.4385
͡	-18.4385
ҳ	-18.4385
ٌ	-18.4385
۩	-18.4385
आ	-18.4385
२	-18.4385
ই	-18.4385
ল	-18.4385
়	-18.4385
ৰ	-18.4385
ક	-18.4385
ય	-18.4385
ા	-18.4385
્	-18.4385
૦	-18.4385
ட	-18.4385
த	-18.4385
ர	-18.4385
ರ	-18.4385
್	-18.4385
೦	-18.4385
೯	-18.4385
എ	-18.4385
ക	-18.4385
ฐ	-18.4385
ฟ	-18.4385
ຄ	-18.4385
ດ	-18.4385
ຖ	-18.4385
ມ	-18.4385
ོ	-18.4385
პ	-18.4385
ሕ	-18.4385
ባ	-18.4385
ት	-18.4385
ዲ	-18.4385
ẩ	-18.4385
ẵ	-18.4385
ỉ	-18.4385
ụ	-18.4385
ừ	-18.4385
ự	-18.4385
↔	-18.4385
┘	-18.4385
◦	-18.4385
☎	-18.4385
☺	-18.4385
☼	-18.4385
♂	-18.4385
➔	-18.4385
〔	-18.4385
〕	-18.4385
び	-18.4385
ぼ	-18.4385
ゃ	-18.4385
ヌ	-18.4385
ム	-18.4385
モ	-18.4385
ュ	-18.4385
ヨ	-18.4385
久	-18.4385
乾	-18.4385
今	-18.4385
仍	-18.4385
仮	-18.4385
伐	-18.4385
便	-18.4385
俊	-18.4385
倍	-18.4385
储	-18.4385
兵	-18.4385
创	-18.4385
割	-18.4385
县	-18.4385
右	-18.4385
号	-18.4385
吃	-18.4385
吸	-18.4385
吹	-18.4385
員	-18.4385
嘉	-18.4385
坛	-18.4385
堆	-18.4385
宗	-18.4385
寸	-18.4385
布	-18.4385
帥	-18.4385
師	-18.4385
幣	-18.4385
幸	-18.4385
庫	-18.4385
康	-18.4385
弁	-18.4385
彼	-18.4385
戸	-18.4385
打	-18.4385
投	-18.4385
抜	-18.4385
摩	-18.4385
显	-18.4385
普	-18.4385
材	-18.4385
柴	-18.4385
楠	-18.4385
業	-18.4385
横	-18.4385
段	-18.4385
汇	-18.4385
泉	-18.4385
洛	-18.4385
活	-18.4385
渋	-18.4385
源	-18.4385
溪	-18.4385
熟	-18.4385
牌	-18.4385
畿	-18.4385
疑	-18.4385
盖	-18.4385
紂	-18.4385
胖	-18.4385
膚	-18.4385
舩	-18.4385
芝	-18.4385
茂	-18.4385
菜	-18.4385
葉	-18.4385
蒸	-18.4385
蓋	-18.4385
螨	-18.4385
裕	-18.4385
谢	-18.4385
贫	-18.4385
还	-18.4385
郑	-18.4385
鄭	-18.4385
鈴	-18.4385
鋝	-18.4385
银	-18.4385
間	-18.4385
陀	-18.4385
陶	-18.4385
駄	-18.4385
體	-18.4385
黃	-18.4385
龍	-18.4385
루	-18.4385
벌	-18.4385
사	-18.4385
수	-18.4385
스	-18.4385
에	-18.4385
인	-18.4385
치	-18.4385
单	-18.4385
危	-18.4385
友	-18.4385
斗	-18.4385
油	-18.4385
洋	-18.4385
痴	-18.4385
豆	-18.4385
鋍	-18.4385
雲	-18.4385
革	-18.4385
预	-18.4385
태	-18.4385
ʌ	-18.4385
ټ	-18.4385
१	-18.4385
ᐊ	-18.4385
ざ	-18.4385
ガ	-18.4385
包	-18.4385
员	-18.4385
困	-18.4385
巻	-18.4385
惧	-18.4385
才	-18.4385
根	-18.4385
熨	-18.4385
牛	-18.4385
舁	-18.4385
钱	-18.4385
冷	-18.4385
务	-18.4385
巧	-18.4385
强	-18.4385
撮	-18.4385
止	-18.4385
篇	-18.4385
证	-18.4385
转	-18.4385
透	-18.4385
饲	-18.4385
바	-18.4385
ֲ	-18.4385
親	-18.4385
造	-18.4385
丸	-18.4385
听	-18.4385
壊	-18.4385
夹	-18.4385
好	-18.4385
極	-18.4385
父	-18.4385
护	-18.4385
严	-18.7718
禽	-18.7718
复	-18.7718
べ	-18.7718
数	-18.7718
购	-18.7718
ؤ	-18.7718
基	-18.7718
律	-18.7718
復	-18.7718
极	-18.7718
磨	-18.7718
等	-18.7718
耕	-18.7718
脑	-18.7718
观	-18.7718
销	-18.7718
臣	-18.7718
關	-18.7718
際	-18.7718
ǣ	-18.7718
ֶ	-18.7718
味	-18.7718
差	-18.7718
异	-18.7718
据	-18.7718
施	-18.7718
浙	-18.7718
缺	-18.7718
罗	-18.7718
速	-18.7718
Ṭ	-18.7718
ோ	-18.7718
വ	-18.7718
ᐃ	-18.7718
七	-18.7718
千	-18.7718
唸	-18.7718
寧	-18.7718
屈	-18.7718
届	-18.7718
汤	-18.7718
満	-18.7718
溢	-18.7718
総	-18.7718
耳	-18.7718
遠	-18.7718
鋒	-18.7718
陈	-18.7718
首	-18.7718
鰊	-18.7718
대	-18.7718
Ġ	-18.7718
ĥ	-18.7718
ĭ	-18.7718
Ļ	-18.7718
Ơ	-18.7718
ʦ	-18.7718
؛	-18.7718
ٍ	-18.7718
ۇ	-18.7718
۶	-18.7718
ई	-18.7718
ञ	-18.7718
ப	-18.7718
ு	-18.7718
ூ	-18.7718
ం	-18.7718
യ	-18.7718
ീ	-18.7718
္	-18.7718
ራ	-18.7718
ሰ	-18.7718
ካ	-18.7718
ዋ	-18.7718
ằ	-18.7718
ẻ	-18.7718
ỏ	-18.7718
ử	-18.7718
₵	-18.7718
∀	-18.7718
∈	-18.7718
▲	-18.7718
ぞ	-18.7718
ぷ	-18.7718
ほ	-18.7718
ァ	-18.7718
ノ	-18.7718
ピ	-18.7718
ヘ	-18.7718
ョ	-18.7718
万	-18.7718
乙	-18.7718
仲	-18.7718
伝	-18.7718
侍	-18.7718
依	-18.7718
凍	-18.7718
刀	-18.7718
剣	-18.7718
勢	-18.7718
卦	-18.7718
即	-18.7718
古	-18.7718
否	-18.7718
呂	-18.7718
嘛	-18.7718
圳	-18.7718
垣	-18.7718
堂	-18.7718
売	-18.7718
备	-18.7718
夷	-18.7718
威	-18.7718
密	-18.7718
富	-18.7718
尔	-18.7718
嶼	-18.7718
希	-18.7718
庁	-18.7718
弄	-18.7718
役	-18.7718
後	-18.7718
慣	-18.7718
括	-18.7718
接	-18.7718
政	-18.7718
望	-18.7718
札	-18.7718
查	-18.7718
校	-18.7718
機	-18.7718
永	-18.7718
汴	-18.7718
泰	-18.7718
泽	-18.7718
浮	-18.7718
渝	-18.7718
溜	-18.7718
熊	-18.7718
爪	-18.7718
率	-18.7718
珍	-18.7718
班	-18.7718
盛	-18.7718
礼	-18.7718
税	-18.7718
稲	-18.7718
粤	-18.7718
粵	-18.7718
精	-18.7718
紅	-18.7718
級	-18.7718
索	-18.7718
续	-18.7718
群	-18.7718
羲	-18.7718
考	-18.7718
臧	-18.7718
舐	-18.7718
草	-18.7718
藏	-18.7718
装	-18.7718
請	-18.7718
諸	-18.7718
讯	-18.7718
販	-18.7718
資	-18.7718
货	-18.7718
赵	-18.7718
辛	-18.7718
返	-18.7718
邱	-18.7718
郷	-18.7718
鄂	-18.7718
酎	-18.7718
鏡	-18.7718
阳	-18.7718
险	-18.7718
陽	-18.7718
集	-18.7718
頭	-18.7718
馆	-18.7718
黒	-18.7718
鼻	-18.7718
단	-18.7718
미	-18.7718
성	-18.7718
시	-18.7718
영	-18.7718
으	-18.7718
지	-18.7718
체	-18.7718
호	-18.7718
報	-18.7719
拼	-18.7719
智	-18.7719
秦	-18.7719
ग	-18.7719
བ	-18.7719
书	-18.7719
佑	-18.7719
则	-18.7719
君	-18.7719
央	-18.7719
斯	-18.7719
昭	-18.7719
納	-18.7719
ʾ	-18.7719
ἀ	-18.7719
伸	-18.7719
低	-18.7719
双	-18.7719
均	-18.7719
火	-18.7719
瞳	-18.7719
𢥲	-18.7719
欧	-18.7719
申	-18.7719
留	-18.7719
临	-18.7719
承	-18.7719
決	-18.7719
浴	-18.7719
開	-18.7719
底	-18.7719
染	-18.7719
細	-18.7719
限	-18.7719
它	-18.7719
!	-19.246
束	-19.2718
互	-19.2718
判	-19.2718
码	-19.2718
程	-19.2718
谈	-19.2718
链	-19.2718
估	-19.2718
ރ	-19.2718
މ	-19.2718
ި	-19.2718
具	-19.2718
劳	-19.2718
吾	-19.2718
壳	-19.2718
妨	-19.2718
恢	-19.2718
感	-19.2718
或	-19.2718
散	-19.2718
混	-19.2718
潢	-19.2718
砂	-19.2718
碍	-19.2718
签	-19.2718
署	-19.2718
般	-19.2718
視	-19.2718
耀	-19.2718
Ƒ	-19.2718
ڠ	-19.2718
ڬ	-19.2718
ሊ	-19.2718
叫	-19.2718
園	-19.2718
崩	-19.2718
带	-19.2718
怡	-19.2718
总	-19.2718
按	-19.2718
桃	-19.2718
歩	-19.2718
照	-19.2718
痛	-19.2718
監	-19.2718
祖	-19.2718
終	-19.2718
製	-19.2718
覧	-19.2718
调	-19.2718
豊	-19.2718
輪	-19.2718
静	-19.2718
須	-19.2718
맨	-19.2718
淹	-19.2718
ʕ	-19.2718
ˇ	-19.2718
ல	-19.2718
ா	-19.2718
ఆ	-19.2718
న	-19.2718
າ	-19.2718
ẋ	-19.2718
ἠ	-19.2718
ⲉ	-19.2718
丽	-19.2718
乏	-19.2718
冤	-19.2718
咬	-19.2718
嚴	-19.2718
埔	-19.2718
奸	-19.2718
损	-19.2718
沪	-19.2718
洞	-19.2718
献	-19.2718
腰	-19.2718
薔	-19.2718
赖	-19.2718
铭	-19.2718
黡	-19.2718
퍼	-19.2718
伴	-19.2718
卡	-19.2718
吳	-19.2718
呀	-19.2718
奉	-19.2718
嶺	-19.2718
悩	-19.2718
損	-19.2718
橿	-19.2718
湘	-19.2718
类	-19.2718
蒋	-19.2718
試	-19.2718
跆	-19.2718
跨	-19.2718
[	-19.2718
Ķ	-19.2718
ŵ	-19.2718
Ɠ	-19.2718
Ɩ	-19.2718
Ƙ	-19.2718
ƛ	-19.2718
Ƭ	-19.2718
Ǻ	-19.2718
Ȥ	-19.2718
ɕ	-19.2718
ɜ	-19.2718
ɣ	-19.2718
ɬ	-19.2718
ʐ	-19.2718
͘	-19.2718
Ώ	-19.2718
Ъ	-19.2718
Ҳ	-19.2718
ֵ	-19.2718
ځ	-19.2718
ڭ	-19.2718
۳	-19.2718
۸	-19.2718
ކ	-19.2718
އ	-19.2718
ާ	-19.2718
ट	-19.2718
थ	-19.2718
ष	-19.2718
़	-19.2718
ृ	-19.2718
ॐ	-19.2718
३	-19.2718
५	-19.2718
९	-19.2718
আ	-19.2718
এ	-19.2718
গ	-19.2718
চ	-19.2718
শ	-19.2718
ষ	-19.2718
ো	-19.2718
ં	-19.2718
અ	-19.2718
જ	-19.2718
ત	-19.2718
મ	-19.2718
િ	-19.2718
ુ	-19.2718
ે	-19.2718
૧	-19.2718
ச	-19.2718
ய	-19.2718
ி	-19.2718
ெ	-19.2718
ை	-19.2718
ద	-19.2718
ధ	-19.2718
ప	-19.2718
శ	-19.2718
ా	-19.2718
ಐ	-19.2718
ಯ	-19.2718
ವ	-19.2718
ಶ	-19.2718
ಾ	-19.2718
ೈ	-19.2718
೨	-19.2718
೩	-19.2718
೫	-19.2718
೬	-19.2718
೮	-19.2718
ദ	-19.2718
ന	-19.2718
പ	-19.2718
മ	-19.2718
ല	-19.2718
ഷ	-19.2718
സ	-19.2718
ി	-19.2718
ു	-19.2718
ฏ	-19.2718
ฒ	-19.2718
๋	-19.2718
ຽ	-19.2718
ད	-19.2718
མ	-19.2718
ᅥ	-19.2718
ᅳ	-19.2718
ል	-19.2718
ሜ	-19.2718
ሪ	-19.2718
ቐ	-19.2718
ቢ	-19.2718
ፈ	-19.2718
ᑲ	-19.2718
ᒥ	-19.2718
ᓄ	-19.2718
ᓕ	-19.2718
ṉ	-19.2718
Ẳ	-19.2718
ể	-19.2718
ὁ	-19.2718
ὶ	-19.2718
ῖ	-19.2718
ῥ	-19.2718
‵	-19.2718
₣	-19.2718
₴	-19.2718
℮	-19.2718
⇔	-19.2718
∃	-19.2718
∑	-19.2718
∴	-19.2718
∶	-19.2718
∼	-19.2718
≠	-19.2718
⌃	-19.2718
└	-19.2718
┴	-19.2718
╞	-19.2718
░	-19.2718
□	-19.2718
◈	-19.2718
☏	-19.2718
☑	-19.2718
☻	-19.2718
➚	-19.2718
Ⰶ	-19.2718
〜	-19.2718
ぃ	-19.2718
ぜ	-19.2718
ぬ	-19.2718
ゑ	-19.2718
゙	-19.2718
ゥ	-19.2718
ギ	-19.2718
ゼ	-19.2718
ゾ	-19.2718
ボ	-19.2718
ヴ	-19.2718
ㄅ	-19.2718
ㄆ	-19.2718
ㄇ	-19.2718
ㄈ	-19.2718
ㄤ	-19.2718
丘	-19.2718
丨	-19.2718
丼	-19.2718
乌	-19.2718
什	-19.2718
介	-19.2718
仙	-19.2718
仪	-19.2718
件	-19.2718
任	-19.2718
伊	-19.2718
伏	-19.2718
佗	-19.2718
佰	-19.2718
俄	-19.2718
倉	-19.2718
倒	-19.2718
做	-19.2718
傳	-19.2718
像	-19.2718
僕	-19.2718
兴	-19.2718
冰	-19.2718
况	-19.2718
刑	-19.2718
刨	-19.2718
别	-19.2718
制	-19.2718
刺	-19.2718
則	-19.2718
剑	-19.2718
剧	-19.2718
劇	-19.2718
助	-19.2718
势	-19.2718
區	-19.2718
半	-19.2718
协	-19.2718
却	-19.2718
史	-19.2718
吊	-19.2718
含	-19.2718
呆	-19.2718
呉	-19.2718
呑	-19.2718
响	-19.2718
售	-19.2718
喫	-19.2718
囧	-19.2718
坐	-19.2718
坡	-19.2718
塊	-19.2718
塔	-19.2718
塾	-19.2718
変	-19.2718
夕	-19.2718
夢	-19.2718
夫	-19.2718
娃	-19.2718
婁	-19.2718
媛	-19.2718
孴	-19.2718
學	-19.2718
宇	-19.2718
官	-19.2718
室	-19.2718
寻	-19.2718
尘	-19.2718
尾	-19.2718
屏	-19.2718
展	-19.2718
屿	-19.2718
岩	-19.2718
岸	-19.2718
崔	-19.2718
帯	-19.2718
幡	-19.2718
库	-19.2718
庚	-19.2718
废	-19.2718
座	-19.2718
弔	-19.2718
彻	-19.2718
征	-19.2718
徽	-19.2718
态	-19.2718
怒	-19.2718
怪	-19.2718
悟	-19.2718
悠	-19.2718
您	-19.2718
惑	-19.2718
慈	-19.2718
慢	-19.2718
慶	-19.2718
憎	-19.2718
憾	-19.2718
截	-19.2718
房	-19.2718
扈	-19.2718
找	-19.2718
押	-19.2718
拓	-19.2718
择	-19.2718
拿	-19.2718
挡	-19.2718
捷	-19.2718
探	-19.2718
搅	-19.2718
搜	-19.2718
搞	-19.2718
携	-19.2718
摂	-19.2718
摆	-19.2718
摇	-19.2718
旧	-19.2718
暂	-19.2718
曌	-19.2718
會	-19.2718
末	-19.2718
条	-19.2718
杭	-19.2718
构	-19.2718
柔	-19.2718
柱	-19.2718
树	-19.2718
桂	-19.2718
框	-19.2718
桩	-19.2718
械	-19.2718
森	-19.2718
楼	-19.2718
標	-19.2718
款	-19.2718
殊	-19.2718
殿	-19.2718
沈	-19.2718
沛	-19.2718
況	-19.2718
洒	-19.2718
溝	-19.2718
溶	-19.2718
潜	-19.2718
澄	-19.2718
澤	-19.2718
灯	-19.2718
灰	-19.2718
灾	-19.2718
為	-19.2718
煙	-19.2718
爛	-19.2718
狐	-19.2718
独	-19.2718
狭	-19.2718
猛	-19.2718
玄	-19.2718
玉	-19.2718
环	-19.2718
琢	-19.2718
璐	-19.2718
男	-19.2718
甸	-19.2718
番	-19.2718
疗	-19.2718
癌	-19.2718
省	-19.2718
砕	-19.2718
硝	-19.2718
硬	-19.2718
票	-19.2718
祸	-19.2718
祿	-19.2718
禪	-19.2718
秋	-19.2718
租	-19.2718
积	-19.2718
稼	-19.2718
筆	-19.2718
答	-19.2718
策	-19.2718
箍	-19.2718
箕	-19.2718
紋	-19.2718
純	-19.2718
経	-19.2718
統	-19.2718
經	-19.2718
網	-19.2718
繁	-19.2718
織	-19.2718
纸	-19.2718
纽	-19.2718
细	-19.2718
罪	-19.2718
翁	-19.2718
耐	-19.2718
耶	-19.2718
聖	-19.2718
聞	-19.2718
肉	-19.2718
胁	-19.2718
胞	-19.2718
腕	-19.2718
臂	-19.2718
臨	-19.2718
至	-19.2718
舊	-19.2718
舣	-19.2718
节	-19.2718
苑	-19.2718
茜	-19.2718
茨	-19.2718
莹	-19.2718
萄	-19.2718
营	-19.2718
萧	-19.2718
萬	-19.2718
葡	-19.2718
葱	-19.2718
蔓	-19.2718
蔚	-19.2718
薇	-19.2718
薬	-19.2718
蘇	-19.2718
虑	-19.2718
號	-19.2718
螳	-19.2718
蟲	-19.2718
衆	-19.2718
衡	-19.2718
訊	-19.2718
詠	-19.2718
詩	-19.2718
誓	-19.2718
說	-19.2718
談	-19.2718
謑	-19.2718
议	-19.2718
记	-19.2718
识	-19.2718
译	-19.2718
话	-19.2718
请	-19.2718
课	-19.2718
豫	-19.2718
貌	-19.2718
貮	-19.2718
貴	-19.2718
貸	-19.2718
賀	-19.2718
賢	-19.2718
贊	-19.2718
贞	-19.2718
负	-19.2718
贱	-19.2718
赛	-19.2718
赞	-19.2718
跋	-19.2718
転	-19.2718
辞	-19.2718
辭	-19.2718
辱	-19.2718
途	-19.2718
連	-19.2718
逸	-19.2718
遇	-19.2718
遊	-19.2718
運	-19.2718
過	-19.2718
遗	-19.2718
郡	-19.2718
鉋	-19.2718
銀	-19.2718
銭	-19.2718
鍋	-19.2718
鐵	-19.2718
针	-19.2718
钦	-19.2718
错	-19.2718
镜	-19.2718
队	-19.2718
阪	-19.2718
防	-19.2718
院	-19.2718
除	-19.2718
雅	-19.2718
雛	-19.2718
露	-19.2718
項	-19.2718
頑	-19.2718
題	-19.2718
顷	-19.2718
顾	-19.2718
颐	-19.2718
颜	-19.2718
飞	-19.2718
騜	-19.2718
鬼	-19.2718
鰃	-19.2718
鲁	-19.2718
麩	-19.2718
麺	-19.2718
고	-19.2718
뀌	-19.2718
녀	-19.2718
누	-19.2718
는	-19.2718
니	-19.2718
다	-19.2718
당	-19.2718
도	-19.2718
레	-19.2718
마	-19.2718
막	-19.2718
문	-19.2718
번	-19.2718
베	-19.2718
보	-19.2718
블	-19.2718
비	-19.2718
세	-19.2718
셀	-19.2718
셔	-19.2718
습	-19.2718
아	-19.2718
었	-19.2718
엠	-19.2718
요	-19.2718
울	-19.2718
웅	-19.2718
유	-19.2718
정	-19.2718
조	-19.2718
천	-19.2718
터	-19.2718
턴	-19.2718
티	-19.2718
￼	-19.2718
𐌽	-19.2718
𐍃	-19.2718
ɤ	-19.2719
چ	-19.2719
ḫ	-19.2719
ἄ	-19.2719
休	-19.2719
勿	-19.2719
姦	-19.2719
暫	-19.2719
樹	-19.2719
瞎	-19.2719
赶	-19.2719
鋖	-19.2719
霊	-19.2719
鰄	-19.2719
भ	-19.2719
ฤ	-19.2719
Ἀ	-19.2719
ォ	-19.2719
喂	-19.2719
岐	-19.2719
態	-19.2719
救	-19.2719
朱	-19.2719
検	-19.2719
檀	-19.2719
河	-19.2719
泊	-19.2719
泥	-19.2719
煮	-19.2719
秉	-19.2719
紙	-19.2719
纹	-19.2719
遽	-19.2719
郝	-19.2719
離	-19.2719
雨	-19.2719
順	-19.2719
제	-19.2719
छ	-19.2719
સ	-19.2719
૨	-19.2719
ฆ	-19.2719
ኤ	-19.2719
ድ	-19.2719
Ἔ	-19.2719
么	-19.2719
候	-19.2719
及	-19.2719
召	-19.2719
圆	-19.2719
敦	-19.2719
浜	-19.2719
潭	-19.2719
眩	-19.2719
纷	-19.2719
耸	-19.2719
躇	-19.2719
逃	-19.2719
鈍	-19.2719
𐌰	-19.2719
庄	-19.2719
荣	-19.2719
潮	-19.2719
ӳ	-19.2719
ە	-19.2719
假	-19.2719
嘟	-19.2719
患	-19.2719
操	-19.2719
映	-19.2719
某	-19.2719
溉	-19.2719
移	-19.2719
级	-19.2719
跟	-19.2719
钢	-19.2719
麗	-19.2719
載	-19.2719
推	-19.2719
兽	-19.2719
告	-19.2719
払	-19.2719
控	-19.2719
旋	-19.2719
渲	-19.2719
滞	-19.2719
灌	-19.2719
盗	-19.2719
螺	-19.2719
逆	-19.2719
锈	-19.2719
键	-19.2719
階	-19.2719
忽	-20.2717
杂	-20.2717
疏	-20.2717
远	-20.2717
冊	-20.2718
勧	-20.2718
峻	-20.2718
惠	-20.2718
战	-20.2718
拟	-20.2718
沌	-20.2718
猪	-20.2718
糸	-20.2718
詳	-20.2718
贸	-20.2718
క	-20.2718
జ	-20.2718
ు	-20.2718
個	-20.2718
悪	-20.2718
採	-20.2718
析	-20.2718
瘤	-20.2718
稅	-20.2718
競	-20.2718
驗	-20.2718
魔	-20.2718
Ɔ	-20.2718
ɲ	-20.2718
ड	-20.2718
ਚ	-20.2718
ਡ	-20.2718
ੀ	-20.2718
ੰ	-20.2718
න	-20.2718
ු	-20.2718
ལ	-20.2718
ས	-20.2718
ཱ	-20.2718
ደ	-20.2718
ស	-20.2718
ហ	-20.2718
ḇ	-20.2718
ⲟ	-20.2718
Ⲡ	-20.2718
ⲣ	-20.2718
习	-20.2718
亞	-20.2718
側	-20.2718
喀	-20.2718
喇	-20.2718
嗣	-20.2718
寄	-20.2718
掛	-20.2718
撫	-20.2718
氮	-20.2718
浄	-20.2718
渡	-20.2718
澳	-20.2718
環	-20.2718
瓊	-20.2718
芦	-20.2718
變	-20.2718
豐	-20.2718
貢	-20.2718
逢	-20.2718
鸭	-20.2718
겜	-20.2718
딩	-20.2718
ȃ	-20.2718
Ȼ	-20.2718
ˁ	-20.2718
ؒ	-20.2718
അ	-20.2718
ത	-20.2718
ລ	-20.2718
ḳ	-20.2718
ṅ	-20.2718
Ṯ	-20.2718
Ọ	-20.2718
ἦ	-20.2718
啤	-20.2718
宋	-20.2718
溫	-20.2718
端	-20.2718
红	-20.2718
绍	-20.2718
舍	-20.2718
蔣	-20.2718
飯	-20.2718
鹿	-20.2718
黷	-20.2718
별	-20.2718
]	-20.2718
ċ	-20.2718
ǜ	-20.2718
ǝ	-20.2718
ǫ	-20.2718
Ǵ	-20.2718
Ȣ	-20.2718
ɚ	-20.2718
ɢ	-20.2718
ɯ	-20.2718
ɴ	-20.2718
ɵ	-20.2718
ʋ	-20.2718
ʎ	-20.2718
ʤ	-20.2718
ʺ	-20.2718
̂	-20.2718
̡	-20.2718
̱	-20.2718
̶	-20.2718
Ί	-20.2718
Ѳ	-20.2718
ѳ	-20.2718
Ӓ	-20.2718
ٲ	-20.2718
ٹ	-20.2718
ڤ	-20.2718
ہ	-20.2718
ۂ	-20.2718
ۆ	-20.2718
ߖ	-20.2718
ߧ	-20.2718
߮	-20.2718
उ	-20.2718
ढ	-20.2718
ॉ	-20.2718
ॡ	-20.2718
ং	-20.2718
ঙ	-20.2718
ਗ	-20.2718
ਹ	-20.2718
੍	-20.2718
ੜ	-20.2718
ங	-20.2718
ஷ	-20.2718
గ	-20.2718
డ	-20.2718
ె	-20.2718
ే	-20.2718
ొ	-20.2718
ౕ	-20.2718
ോ	-20.2718
ම	-20.2718
ර	-20.2718
ව	-20.2718
හ	-20.2718
ฑ	-20.2718
ฮ	-20.2718
ฯ	-20.2718
ຂ	-20.2718
ຈ	-20.2718
ບ	-20.2718
ຫ	-20.2718
ົ	-20.2718
ເ	-20.2718
້	-20.2718
ཏ	-20.2718
ན	-20.2718
ཚ	-20.2718
འ	-20.2718
ི	-20.2718
ྔ	-20.2718
ླ	-20.2718
န	-20.2718
ရ	-20.2718
ဝ	-20.2718
သ	-20.2718
ဟ	-20.2718
ေ	-20.2718
ზ	-20.2718
ძ	-20.2718
ჯ	-20.2718
ᅦ	-20.2718
ᅧ	-20.2718
ᅨ	-20.2718
ᅵ	-20.2718
ሓ	-20.2718
ሙ	-20.2718
ሴ	-20.2718
ስ	-20.2718
ሽ	-20.2718
ነ	-20.2718
ዕ	-20.2718
ጋ	-20.2718
ፅ	-20.2718
ፍ	-20.2718
Ꭰ	-20.2718
Ꭲ	-20.2718
Ꮊ	-20.2718
ᑦ	-20.2718
ᒃ	-20.2718
ដ	-20.2718
ឋ	-20.2718
រ	-20.2718
្	-20.2718
ḏ	-20.2718
ḗ	-20.2718
Ḫ	-20.2718
ḷ	-20.2718
ḿ	-20.2718
ặ	-20.2718
ỡ	-20.2718
ỳ	-20.2718
ἁ	-20.2718
ἐ	-20.2718
ἑ	-20.2718
ἔ	-20.2718
ἡ	-20.2718
Ἥ	-20.2718
Ἱ	-20.2718
ὄ	-20.2718
ὺ	-20.2718
ῑ	-20.2718
ῦ	-20.2718
‖	-20.2718
‽	-20.2718
₠	-20.2718
⃛	-20.2718
℔	-20.2718
↧	-20.2718
∙	-20.2718
∫	-20.2718
≡	-20.2718
┬	-20.2718
△	-20.2718
☯	-20.2718
➟	-20.2718
ⲩ	-20.2718
ぁ	-20.2718
ぇ	-20.2718
ゅ	-20.2718
ゐ	-20.2718
ゔ	-20.2718
ポ	-20.2718
ヤ	-20.2718
ㄧ	-20.2718
䟩	-20.2718
丈	-20.2718
专	-20.2718
丰	-20.2718
乘	-20.2718
乡	-20.2718
买	-20.2718
亨	-20.2718
仝	-20.2718
伎	-20.2718
众	-20.2718
伟	-20.2718
似	-20.2718
例	-20.2718
值	-20.2718
備	-20.2718
傷	-20.2718
働	-20.2718
儉	-20.2718
內	-20.2718
兩	-20.2718
兰	-20.2718
册	-20.2718
写	-20.2718
军	-20.2718
凶	-20.2718
凸	-20.2718
函	-20.2718
剩	-20.2718
副	-20.2718
創	-20.2718
劉	-20.2718
努	-20.2718
勝	-20.2718
勞	-20.2718
匠	-20.2718
匡	-20.2718
匹	-20.2718
卍	-20.2718
卐	-20.2718
卖	-20.2718
卫	-20.2718
印	-20.2718
參	-20.2718
叡	-20.2718
另	-20.2718
各	-20.2718
命	-20.2718
咆	-20.2718
哥	-20.2718
哮	-20.2718
哲	-20.2718
問	-20.2718
善	-20.2718
噌	-20.2718
噛	-20.2718
団	-20.2718
固	-20.2718
圍	-20.2718
圏	-20.2718
圖	-20.2718
坂	-20.2718
坊	-20.2718
块	-20.2718
坝	-20.2718
坤	-20.2718
坪	-20.2718
型	-20.2718
域	-20.2718
堤	-20.2718
堰	-20.2718
塗	-20.2718
塩	-20.2718
増	-20.2718
墟	-20.2718
墩	-20.2718
壮	-20.2718
壹	-20.2718
壽	-20.2718
夏	-20.2718
夛	-20.2718
夜	-20.2718
奄	-20.2718
奇	-20.2718
奈	-20.2718
奘	-20.2718
奚	-20.2718
妖	-20.2718
妤	-20.2718
娄	-20.2718
娣	-20.2718
娥	-20.2718
婦	-20.2718
宏	-20.2718
宰	-20.2718
實	-20.2718
寨	-20.2718
寳	-20.2718
専	-20.2718
尿	-20.2718
屯	-20.2718
岗	-20.2718
岡	-20.2718
岳	-20.2718
岷	-20.2718
峽	-20.2718
崖	-20.2718
嵥	-20.2718
己	-20.2718
席	-20.2718
幌	-20.2718
幾	-20.2718
序	-20.2718
庭	-20.2718
弓	-20.2718
弦	-20.2718
彭	-20.2718
彰	-20.2718
待	-20.2718
御	-20.2718
循	-20.2718
忆	-20.2718
忍	-20.2718
忠	-20.2718
恋	-20.2718
恩	-20.2718
息	-20.2718
悬	-20.2718
惯	-20.2718
慎	-20.2718
憨	-20.2718
憩	-20.2718
憶	-20.2718
應	-20.2718
戒	-20.2718
戶	-20.2718
户	-20.2718
戻	-20.2718
抵	-20.2718
抹	-20.2718
拒	-20.2718
招	-20.2718
挂	-20.2718
挠	-20.2718
掉	-20.2718
措	-20.2718
揂	-20.2718
揚	-20.2718
撒	-20.2718
撤	-20.2718
播	-20.2718
敬	-20.2718
旨	-20.2718
旭	-20.2718
昇	-20.2718
昌	-20.2718
時	-20.2718
暨	-20.2718
暴	-20.2718
曹	-20.2718
曾	-20.2718
朔	-20.2718
朗	-20.2718
期	-20.2718
枡	-20.2718
栽	-20.2718
桓	-20.2718
桜	-20.2718
桥	-20.2718
桶	-20.2718
梨	-20.2718
棒	-20.2718
棲	-20.2718
椅	-20.2718
樓	-20.2718
橋	-20.2718
歳	-20.2718
歸	-20.2718
殷	-20.2718
毓	-20.2718
氧	-20.2718
汁	-20.2718
汕	-20.2718
池	-20.2718
沢	-20.2718
沱	-20.2718
沿	-20.2718
洁	-20.2718
洗	-20.2718
涂	-20.2718
渐	-20.2718
減	-20.2718
渴	-20.2718
游	-20.2718
湄	-20.2718
溯	-20.2718
滇	-20.2718
滨	-20.2718
滬	-20.2718
潟	-20.2718
澎	-20.2718
濱	-20.2718
炎	-20.2718
炯	-20.2718
烏	-20.2718
烦	-20.2718
烧	-20.2718
焦	-20.2718
煩	-20.2718
熱	-20.2718
燃	-20.2718
燕	-20.2718
燗	-20.2718
爆	-20.2718
爻	-20.2718
爾	-20.2718
狗	-20.2718
獄	-20.2718
獲	-20.2718
现	-20.2718
珈	-20.2718
琲	-20.2718
瑠	-20.2718
瑩	-20.2718
璃	-20.2718
甲	-20.2718
畢	-20.2718
略	-20.2718
癪	-20.2718
発	-20.2718
登	-20.2718
盆	-20.2718
盐	-20.2718
盧	-20.2718
睛	-20.2718
睦	-20.2718
瞻	-20.2718
矢	-20.2718
矿	-20.2718
破	-20.2718
碁	-20.2718
碧	-20.2718
碳	-20.2718
確	-20.2718
磁	-20.2718
磷	-20.2718
礱	-20.2718
祝	-20.2718
祭	-20.2718
禁	-20.2718
禹	-20.2718
稀	-20.2718
稱	-20.2718
稳	-20.2718
稿	-20.2718
穷	-20.2718
竞	-20.2718
筑	-20.2718
節	-20.2718
簡	-20.2718
粉	-20.2718
糖	-20.2718
紀	-20.2718
紹	-20.2718
結	-20.2718
絞	-20.2718
継	-20.2718
綺	-20.2718
縣	-20.2718
縮	-20.2718
终	-20.2718
绝	-20.2718
绞	-20.2718
缓	-20.2718
缩	-20.2718
習	-20.2718
翼	-20.2718
聼	-20.2718
股	-20.2718
胜	-20.2718
脖	-20.2718
脚	-20.2718
腔	-20.2718
腺	-20.2718
興	-20.2718
艮	-20.2718
芋	-20.2718
苏	-20.2718
荷	-20.2718
莞	-20.2718
莨	-20.2718
菩	-20.2718
菱	-20.2718
著	-20.2718
董	-20.2718
蓟	-20.2718
蓮	-20.2718
蕭	-20.2718
蕴	-20.2718
薊	-20.2718
藍	-20.2718
藕	-20.2718
蜀	-20.2718
蝦	-20.2718
融	-20.2718
観	-20.2718
覺	-20.2718
觉	-20.2718
触	-20.2718
討	-20.2718
訳	-20.2718
詰	-20.2718
詹	-20.2718
説	-20.2718
調	-20.2718
論	-20.2718
證	-20.2718
譯	-20.2718
護	-20.2718
讃	-20.2718
讣	-20.2718
认	-20.2718
讼	-20.2718
评	-20.2718
诉	-20.2718
详	-20.2718
谋	-20.2718
財	-20.2718
貰	-20.2718
費	-20.2718
賈	-20.2718
贡	-20.2718
贤	-20.2718
贳	-20.2718
贷	-20.2718
趋	-20.2718
趙	-20.2718
蹟	-20.2718
躍	-20.2718
軍	-20.2718
轮	-20.2718
轻	-20.2718
農	-20.2718
连	-20.2718
述	-20.2718
迷	-20.2718
追	-20.2718
遣	-20.2718
適	-20.2718
遪	-20.2718
遭	-20.2718
遲	-20.2718
遷	-20.2718
避	-20.2718
還	-20.2718
邊	-20.2718
邑	-20.2718
酉	-20.2718
酸	-20.2718
鉄	-20.2718
鋑	-20.2718
鋞	-20.2718
鋟	-20.2718
録	-20.2718
鎚	-20.2718
钓	-20.2718
钟	-20.2718
铁	-20.2718
閣	-20.2718
閥	-20.2718
閩	-20.2718
闽	-20.2718
阜	-20.2718
阶	-20.2718
阻	-20.2718
陰	-20.2718
隊	-20.2718
障	-20.2718
雙	-20.2718
難	-20.2718
霖	-20.2718
霜	-20.2718
韓	-20.2718
韻	-20.2718
領	-20.2718
顗	-20.2718
顯	-20.2718
额	-20.2718
験	-20.2718
騙	-20.2718
骨	-20.2718
髄	-20.2718
鮨	-20.2718
鮮	-20.2718
鯨	-20.2718
鰀	-20.2718
鰈	-20.2718
鰎	-20.2718
鱲	-20.2718
鱼	-20.2718
鳩	-20.2718
鳳	-20.2718
鴻	-20.2718
鸡	-20.2718
鸯	-20.2718
鸳	-20.2718
鹈	-20.2718
鹤	-20.2718
點	-20.2718
黮	-20.2718
齋	-20.2718
齡	-20.2718
검	-20.2718
경	-20.2718
계	-20.2718
곡	-20.2718
군	-20.2718
권	-20.2718
글	-20.2718
널	-20.2718
노	-20.2718
닌	-20.2718
님	-20.2718
돌	-20.2718
동	-20.2718
디	-20.2718
딘	-20.2718
려	-20.2718
령	-20.2718
류	-20.2718
린	-20.2718
면	-20.2718
목	-20.2718
무	-20.2718
박	-20.2718
백	-20.2718
뱅	-20.2718
법	-20.2718
변	-20.2718
빅	-20.2718
빌	-20.2718
빛	-20.2718
산	-20.2718
선	-20.2718
셜	-20.2718
소	-20.2718
승	-20.2718
싱	-20.2718
ǟ	-20.2719
ʚ	-20.2719
ˑ	-20.2719
寤	-20.2719
廃	-20.2719
恵	-20.2719
臈	-20.2719
訃	-20.2719
釣	-20.2719
闵	-20.2719
鲞	-20.2719
Ŝ	-20.2719
வ	-20.2719
წ	-20.2719
ሥ	-20.2719
ἅ	-20.2719
Ἡ	-20.2719
Ὑ	-20.2719
仅	-20.2719
准	-20.2719
塞	-20.2719
姆	-20.2719
宫	-20.2719
攻	-20.2719
曝	-20.2719
枚	-20.2719
案	-20.2719
殻	-20.2719
涌	-20.2719
笠	-20.2719
莲	-20.2719
诘	-20.2719
負	-20.2719
踌	-20.2719
躊	-20.2719
較	-20.2719
鷹	-20.2719
반	-20.2719
争	-20.2719
供	-20.2719
再	-20.2719
净	-20.2719
嫌	-20.2719
完	-20.2719
忘	-20.2719
毁	-20.2719
淡	-20.2719
纪	-20.2719
讲	-20.2719
锦	-20.2719
鹅	-20.2719
抗	-20.2719
泄	-20.2719
烈	-20.2719
监	-20.2719
组	-20.2719
薯	-20.2719
虫	-20.2719
诺	-20.2719
靠	-20.2719
须	-20.2719
黎	-20.2719
徹	-20.2719
服	-20.2719
警	-20.2719
°	-20.272
毎	-20.272
