<s>	0
<pad>	0
</s>	0
<unk>	0
▁,	-3.30937
▁	-3.43379
▁.	-3.60399
s	-3.85041
▁the	-4.24792
;	-4.57671
и	-4.66238
▁&	-4.66562
▁of	-4.72294
е	-4.75057
▁в	-4.77613
▁to	-4.81488
▁and	-4.82308
а	-4.94561
▁и	-4.9599
-	-5.00129
@	-5.03299
▁@	-5.09438
▁in	-5.10922
quot	-5.12263
▁a	-5.12705
▁с	-5.27869
й	-5.28426
м	-5.34729
у	-5.36814
ed	-5.47163
ing	-5.47432
▁на	-5.49753
х	-5.55682
ы	-5.5705
▁is	-5.61442
apos	-5.7395
d	-5.76783
t	-5.78273
▁по	-5.82457
▁-	-5.82712
▁for	-5.83501
я	-5.8427
(	-5.90655
)	-5.9172
▁не	-5.92122
▁The	-5.93131
e	-5.94694
▁you	-5.95198
y	-5.96238
▁that	-5.98434
ов	-6.03187
r	-6.04013
.	-6.16543
о	-6.18758
▁I	-6.1955
ly	-6.19804
:	-6.25201
▁are	-6.257
▁with	-6.27552
▁что	-6.29449
▁as	-6.30003
ся	-6.30691
▁к	-6.31565
▁on	-6.31841
▁за	-6.35504
n	-6.37912
▁у	-6.38153
го	-6.3868
ю	-6.40013
▁by	-6.42834
▁it	-6.44203
ом	-6.45346
в	-6.48759
▁для	-6.50622
▁be	-6.52211
er	-6.53732
▁В	-6.57182
al	-6.6197
▁have	-6.6333
▁от	-6.64084
▁was	-6.65637
▁this	-6.67985
es	-6.69248
▁we	-6.70456
▁or	-6.7063
▁о	-6.71112
a	-6.7191
▁из	-6.72142
▁from	-6.726
m	-6.74919
▁can	-6.75087
ь	-6.76155
▁not	-6.76528
re	-6.77231
▁так	-6.77872
▁при	-6.78425
ет	-6.81313
▁то	-6.81938
o	-6.83073
▁A	-6.84854
▁как	-6.85643
ть	-6.85758
ой	-6.86682
▁S	-6.87277
▁вы	-6.87715
ми	-6.88837
▁at	-6.88858
но	-6.88875
д	-6.90265
?	-6.90822
/	-6.91048
с	-6.92175
ных	-6.97617
▁lyric	-6.9983
▁это	-7.00311
▁an	-7.00513
▁или	-7.00881
▁de	-7.01573
▁если	-7.02012
▁will	-7.02433
▁С	-7.03421
▁Вы	-7.04773
ли	-7.05669
л	-7.05877
▁your	-7.06072
ем	-7.06892
ами	-7.08329
▁а	-7.08456
ия	-7.09327
ной	-7.09435
in	-7.09807
▁In	-7.09902
▁We	-7.10746
▁...	-7.11219
▁есть	-7.11462
▁all	-7.12479
т	-7.13659
▁C	-7.13814
▁our	-7.14119
ки	-7.14212
▁has	-7.14285
i	-7.16388
▁до	-7.18304
ла	-7.18869
ка	-7.1897
▁их	-7.19042
ные	-7.20546
or	-7.20749
▁чтобы	-7.21182
le	-7.21605
▁them	-7.24088
ей	-7.24221
▁же	-7.2512
▁мы	-7.25537
▁можете	-7.272
l	-7.27794
▁песни	-7.2814
н	-7.28585
▁я	-7.28975
▁if	-7.3128
g	-7.315
▁which	-7.32012
▁про	-7.32593
ного	-7.33235
▁Lyrics	-7.34407
ation	-7.34549
ах	-7.34959
▁Keeper	-7.35345
▁any	-7.35984
ный	-7.36141
ить	-7.36151
p	-7.37697
en	-7.37699
ll	-7.3806
качать	-7.38287
▁And	-7.38661
▁!	-7.39
c	-7.3954
▁И	-7.3969
▁текста	-7.39863
▁B	-7.40318
▁one	-7.40458
р	-7.40672
ur	-7.41521
th	-7.41664
▁Мы	-7.43221
il	-7.43224
ую	-7.43466
▁re	-7.4359
ar	-7.43811
▁об	-7.4393
u	-7.44315
ам	-7.44433
ic	-7.44928
▁they	-7.45613
▁so	-7.45789
▁us	-7.46161
▁their	-7.47316
▁со	-7.48414
ers	-7.48651
на	-7.48716
▁раз	-7.49658
▁make	-7.50133
▁but	-7.50145
▁It	-7.50301
▁P	-7.507
к	-7.51189
▁more	-7.51669
▁можно	-7.51841
ч	-7.52133
ion	-7.52147
▁E	-7.52676
on	-7.53329
st	-7.53816
b	-7.53977
▁about	-7.54256
▁3	-7.54888
▁были	-7.54916
ая	-7.55467
▁do	-7.55689
▁free	-7.55797
z	-7.56606
3	-7.57478
▁под	-7.57743
ce	-7.58218
▁F	-7.59012
f	-7.59575
ve	-7.59705
▁нам	-7.60397
да	-7.60603
б	-7.62104
ж	-7.62139
▁1	-7.62743
ш	-7.62814
▁но	-7.63129
▁its	-7.63474
▁D	-7.64628
▁So	-7.64729
▁вам	-7.64765
ется	-7.65748
▁This	-7.66055
че	-7.66315
▁2	-7.66787
an	-7.66805
ri	-7.66983
ло	-7.67233
▁were	-7.67281
ого	-7.67918
it	-7.68182
ная	-7.68319
1	-7.687
▁также	-7.68958
▁no	-7.68961
2	-7.69582
▁На	-7.69623
k	-7.69969
▁there	-7.70329
la	-7.70385
з	-7.72103
▁которые	-7.72876
▁up	-7.73493
▁new	-7.73927
▁А	-7.73947
▁time	-7.74173
▁also	-7.74802
▁все	-7.74898
г	-7.74988
▁его	-7.7529
te	-7.75671
ти	-7.75809
▁very	-7.76171
▁19	-7.76538
п	-7.76831
ок	-7.77497
▁G	-7.7793
ro	-7.77993
▁hotel	-7.78268
▁использовать	-7.78294
ют	-7.78476
li	-7.78897
▁возможность	-7.7911
▁other	-7.79128
▁вас	-7.79197
▁people	-7.79345
ra	-7.79398
ive	-7.79489
▁К	-7.79643
h	-7.8
▁out	-7.80824
▁like	-7.81129
ра	-7.81189
x	-7.81457
▁possible	-7.81574
ф	-7.81639
▁what	-7.81835
ит	-7.82344
ле	-7.82653
▁сделать	-7.82868
▁un	-7.82964
ne	-7.82967
able	-7.83278
ir	-7.83411
ен	-7.83457
▁L	-7.83842
ст	-7.83948
▁здесь	-7.84296
at	-7.84663
ным	-7.84801
▁me	-7.85571
▁he	-7.86766
ad	-7.87089
▁con	-7.87348
▁feel	-7.87719
▁who	-7.87832
ment	-7.87973
та	-7.88224
ity	-7.88561
▁been	-7.88696
▁во	-7.88938
▁T	-7.8926
▁Если	-7.89491
%	-7.89786
▁M	-7.89984
▁время	-7.90332
▁only	-7.9044
ку	-7.90489
▁K	-7.90673
S	-7.9108
▁По	-7.9111
▁слова	-7.91438
na	-7.91784
C	-7.92097
▁качестве	-7.92192
▁than	-7.92335
ate	-7.92463
▁пере	-7.92748
D	-7.92749
▁Я	-7.92799
ри	-7.92803
ное	-7.92809
▁О	-7.93009
▁У	-7.93121
us	-7.93346
▁You	-7.93478
▁Г	-7.93733
▁кар	-7.94027
не	-7.94165
▁г	-7.94442
▁перевод	-7.94609
▁Это	-7.94661
▁If	-7.95105
is	-7.95152
ения	-7.95173
▁они	-7.95197
▁наиболее	-7.95288
ia	-7.9541
ent	-7.95441
▁W	-7.95623
el	-7.95984
▁please	-7.96198
он	-7.96366
ma	-7.96421
му	-7.96432
▁brough	-7.96831
сти	-7.97136
lo	-7.97346
▁world	-7.97503
▁более	-7.97885
▁e	-7.97913
вер	-7.98279
▁would	-7.98499
▁будет	-7.9851
▁Т	-7.98673
▁my	-7.98864
T	-7.98879
▁Re	-7.99591
ко	-7.99667
ies	-7.99801
ci	-7.99977
▁O	-7.99992
▁5	-8.00041
▁when	-8.00041
▁To	-8.00085
amp	-8.00377
▁most	-8.0051
▁только	-8.00677
▁П	-8.01027
id	-8.01158
ля	-8.01291
ор	-8.01332
ых	-8.01415
▁бы	-8.01511
▁может	-8.0155
ва	-8.02082
ную	-8.0218
▁c	-8.02198
▁just	-8.02534
▁Hotel	-8.02642
I	-8.02683
P	-8.02802
▁4	-8.02818
▁correct	-8.03391
▁use	-8.03897
▁Но	-8.03911
ре	-8.03921
ни	-8.04529
ta	-8.04532
ter	-8.04575
▁But	-8.04986
▁того	-8.05045
▁какие	-8.05076
▁H	-8.05089
B	-8.05261
me	-8.05346
▁some	-8.05637
▁Б	-8.05906
4	-8.05978
um	-8.06005
▁howeve	-8.06013
▁had	-8.0602
ck	-8.06056
ться	-8.06397
▁tried	-8.06779
ар	-8.07075
ol	-8.07128
▁поэтом	-8.07655
▁into	-8.08037
ль	-8.0807
▁Flash	-8.08122
to	-8.0817
▁пожалуйста	-8.0826
▁он	-8.08601
▁года	-8.09014
▁la	-8.09195
▁10	-8.0971
▁over	-8.09805
▁является	-8.10314
▁these	-8.10354
▁submit	-8.11011
▁этой	-8.11148
же	-8.11765
▁представлена	-8.1272
▁well	-8.12993
▁offer	-8.13126
▁старае	-8.13144
▁correction	-8.13213
▁De	-8.13284
▁see	-8.1346
ul	-8.13568
▁песне	-8.13784
▁his	-8.13833
аоке	-8.13903
▁For	-8.14039
▁корректировк	-8.141
▁фич	-8.14186
▁точным	-8.14245
▁first	-8.14494
▁отправляйте	-8.14568
▁минусовк	-8.14779
ма	-8.14845
▁лет	-8.15652
ni	-8.15694
▁R	-8.15905
▁Песня	-8.16056
ан	-8.16092
▁co	-8.16175
M	-8.16536
ian	-8.16537
ch	-8.16558
▁work	-8.16687
un	-8.17345
ход	-8.17649
ил	-8.17989
ые	-8.18058
ать	-8.18238
ый	-8.18285
ry	-8.18709
com	-8.18732
▁Ma	-8.18982
ал	-8.18994
as	-8.19106
age	-8.19179
▁years	-8.1932
▁было	-8.19419
é	-8.20075
▁d	-8.20622
▁быть	-8.21012
щ	-8.21094
об	-8.21908
▁когда	-8.21927
▁ре	-8.2269
E	-8.22729
▁20	-8.22759
ge	-8.22824
tic	-8.22825
im	-8.22879
ном	-8.2319
или	-8.232
de	-8.23252
во	-8.23282
ди	-8.23505
сть	-8.23943
et	-8.24223
га	-8.24234
ными	-8.2457
ются	-8.24623
по	-8.25534
ци	-8.25539
ны	-8.25723
те	-8.267
ist	-8.2677
est	-8.26782
▁чем	-8.27321
▁list	-8.27365
ков	-8.27372
ят	-8.27389
ca	-8.27545
▁том	-8.2756
F	-8.27573
ты	-8.27847
жд	-8.27851
ti	-8.27914
за	-8.28073
▁pro	-8.28176
▁form	-8.28402
ke	-8.28647
ance	-8.28747
mo	-8.2904
▁way	-8.2904
▁ли	-8.29355
▁get	-8.2958
A	-8.29832
▁good	-8.30029
▁де	-8.30105
▁two	-8.30427
▁U	-8.30775
tion	-8.31033
no	-8.31282
G	-8.31309
▁where	-8.31371
▁был	-8.31387
▁который	-8.31476
▁many	-8.31726
мен	-8.31774
ев	-8.31861
am	-8.32021
ния	-8.32128
ine	-8.32326
▁part	-8.32559
▁system	-8.32594
▁N	-8.32834
ц	-8.32994
ат	-8.33222
ности	-8.33313
▁because	-8.33876
▁ни	-8.33897
▁Me	-8.34123
▁п	-8.34467
тор	-8.34515
00	-8.34752
▁now	-8.34953
ут	-8.35188
▁en	-8.35438
▁after	-8.35467
▁how	-8.358
nd	-8.35859
ос	-8.36095
С	-8.36129
▁may	-8.37232
ver	-8.37586
▁нас	-8.37665
чи	-8.3783
ской	-8.3799
▁St	-8.38118
▁рас	-8.38391
▁пре	-8.38622
▁go	-8.38898
▁этом	-8.38991
v	-8.39413
▁room	-8.39457
ши	-8.39479
▁очень	-8.39858
▁even	-8.39924
▁после	-8.40049
▁could	-8.40125
▁such	-8.40483
ant	-8.40511
▁Le	-8.40823
ое	-8.40924
w	-8.40983
▁information	-8.4106
ty	-8.41088
ше	-8.4121
co	-8.41461
▁Ф	-8.41621
7	-8.4191
▁know	-8.41958
▁p	-8.42017
▁&#9	-8.42158
ке	-8.4218
▁больше	-8.42205
▁году	-8.42218
▁мо	-8.42567
▁La	-8.42569
▁year	-8.42786
K	-8.43073
▁пред	-8.43087
ча	-8.43269
▁Не	-8.4339
0	-8.43645
ence	-8.43707
▁без	-8.43774
▁per	-8.44124
ut	-8.44201
▁di	-8.44233
▁этого	-8.44282
▁present	-8.45054
▁should	-8.45231
де	-8.45303
вед	-8.45537
ние	-8.45803
ду	-8.46149
ин	-8.46623
▁Russian	-8.46903
ру	-8.46948
ского	-8.47145
be	-8.47208
▁Pa	-8.47292
▁take	-8.475
pe	-8.47796
▁pre	-8.48556
ность	-8.48661
ги	-8.48741
▁He	-8.48932
ним	-8.48946
min	-8.49003
▁М	-8.49243
▁then	-8.49432
ро	-8.49575
▁стран	-8.49894
▁помощью	-8.50123
▁тем	-8.50322
▁place	-8.50882
O	-8.50978
▁find	-8.51129
▁high	-8.51173
ение	-8.51177
▁новы	-8.51188
5	-8.51356
▁under	-8.51454
▁h	-8.51768
▁нет	-8.51867
▁Так	-8.52001
ary	-8.52115
сто	-8.52138
став	-8.52163
▁No	-8.52299
вы	-8.52402
▁т	-8.52432
mp	-8.52851
▁need	-8.52887
ness	-8.53002
▁t	-8.53097
▁При	-8.53111
▁За	-8.53368
▁dis	-8.53373
ство	-8.53551
▁6	-8.53784
▁могут	-8.538
▁right	-8.53864
▁Д	-8.53959
vo	-8.5406
▁company	-8.54429
мер	-8.54596
ip	-8.54837
жи	-8.55073
▁countries	-8.55101
▁se	-8.55143
▁Ð	-8.55553
▁w	-8.55609
ill	-8.5568
▁кон	-8.55867
▁All	-8.56022
lu	-8.56022
U	-8.5604
va	-8.56134
▁всех	-8.56225
▁business	-8.56404
ie	-8.56489
▁Bo	-8.56799
▁think	-8.56826
▁Be	-8.56855
і	-8.56918
▁Al	-8.5692
j	-8.56979
▁want	-8.57031
ous	-8.57129
▁po	-8.57472
ще	-8.57571
▁Mo	-8.58055
тер	-8.58177
▁own	-8.58179
▁Ro	-8.58408
ting	-8.5844
ard	-8.58602
▁Con	-8.59182
▁7	-8.59339
ту	-8.59484
ap	-8.59492
▁On	-8.59522
▁Ha	-8.60016
ня	-8.60266
И	-8.60565
▁here	-8.6065
ga	-8.60769
али	-8.61127
di	-8.61173
▁уже	-8.61267
▁made	-8.61632
▁США	-8.6166
лен	-8.61715
из	-8.62213
Р	-8.62224
▁Se	-8.62279
ial	-8.62509
▁18	-8.62529
до	-8.62547
ба	-8.62548
▁V	-8.62732
▁где	-8.62853
▁those	-8.62988
▁ма	-8.63523
ите	-8.63634
ями	-8.63652
R	-8.63726
▁through	-8.63934
ель	-8.63973
▁ш	-8.64136
ым	-8.64231
нов	-8.64231
▁Co	-8.64251
ировать	-8.64379
po	-8.64402
▁used	-8.64438
▁Э	-8.64474
▁б	-8.64534
vi	-8.6455
N	-8.64794
om	-8.64854
▁help	-8.65096
ред	-8.65201
▁support	-8.65403
▁service	-8.65465
▁much	-8.65495
▁market	-8.65555
pa	-8.65561
сь	-8.65579
▁between	-8.65771
ka	-8.65804
les	-8.6581
▁просто	-8.65898
от	-8.65906
V	-8.65942
▁15	-8.65949
▁different	-8.65983
▁те	-8.66147
op	-8.66292
вод	-8.66367
mi	-8.66619
ский	-8.6665
go	-8.66745
8	-8.66783
▁много	-8.66908
▁всего	-8.67043
▁Об	-8.67308
про	-8.67384
ает	-8.67448
▁sub	-8.67537
ё	-8.67556
каз	-8.67685
▁day	-8.67873
ских	-8.67945
▁Do	-8.68063
▁add	-8.68363
ник	-8.68456
▁8	-8.68518
▁real	-8.68732
▁As	-8.68844
▁Ba	-8.6914
лись	-8.69198
▁l	-8.69321
▁b	-8.6952
ста	-8.69647
▁There	-8.69819
▁была	-8.69947
ступ	-8.70075
▁number	-8.70117
▁g	-8.70141
кт	-8.70156
▁э	-8.70251
▁great	-8.70264
▁30	-8.70295
sh	-8.70391
К	-8.70409
▁Ка	-8.70451
▁12	-8.70507
ер	-8.7066
▁US	-8.70661
▁back	-8.70686
ber	-8.7079
▁Р	-8.70931
сс	-8.71092
ld	-8.71438
▁government	-8.71753
▁ме	-8.71757
▁которая	-8.71816
дел	-8.72083
▁An	-8.72088
▁0	-8.72095
▁life	-8.7234
ten	-8.7246
ho	-8.72566
ak	-8.72583
os	-8.72659
Е	-8.72777
▁city	-8.72937
▁car	-8.73118
зи	-8.73136
▁bo	-8.73285
О	-8.73501
▁process	-8.73652
per	-8.73718
▁Про	-8.73881
тра	-8.74224
▁ra	-8.74316
▁Н	-8.74331
he	-8.74354
▁меня	-8.74367
▁Li	-8.74455
э	-8.74519
▁добавить	-8.74618
▁J	-8.74635
▁rooms	-8.7469
ight	-8.74848
▁every	-8.7515
стан	-8.75327
▁Ваше	-8.75396
▁end	-8.75437
ated	-8.75669
▁людей	-8.75729
▁same	-8.75734
▁country	-8.75746
ot	-8.75795
▁программ	-8.75844
си	-8.75893
L	-8.761
▁don	-8.76345
▁going	-8.76688
▁services	-8.76777
▁Po	-8.7679
▁прав	-8.76844
em	-8.76871
▁Pro	-8.76877
▁pa	-8.76913
▁look	-8.77217
П	-8.77257
▁Для	-8.77365
▁она	-8.77393
▁They	-8.7746
▁international	-8.77586
▁Te	-8.77683
ions	-8.77702
ors	-8.77754
М	-8.77872
▁really	-8.77978
▁свои	-8.78055
▁long	-8.7808
ise	-8.7814
▁ко	-8.78182
ph	-8.78228
▁воз	-8.7824
▁Все	-8.78304
tro	-8.78476
▁один	-8.78517
è	-8.78782
▁эти	-8.7905
дер	-8.7922
▁say	-8.79447
▁результат	-8.79459
▁между	-8.79722
▁being	-8.80106
ключ	-8.80346
▁компании	-8.80517
ster	-8.80567
▁Как	-8.80582
▁вер	-8.80616
лож	-8.80708
ig	-8.80742
▁access	-8.80816
▁9	-8.80883
▁mo	-8.81255
▁должны	-8.81367
са	-8.81495
W	-8.81507
▁им	-8.81568
▁даже	-8.81575
гр	-8.81682
ever	-8.81874
▁2009	-8.82014
▁Отель	-8.8208
▁ba	-8.82151
▁m	-8.82206
ну	-8.82282
ства	-8.82339
▁comp	-8.82433
ba	-8.82534
gu	-8.8254
ction	-8.82665
hi	-8.82673
▁stay	-8.82752
man	-8.82761
▁Sa	-8.82762
кон	-8.82767
▁страниц	-8.83125
one	-8.83214
▁Mar	-8.8335
▁set	-8.83559
▁цен	-8.83577
▁development	-8.83741
sion	-8.83815
cu	-8.8383
ure	-8.83897
ции	-8.83904
î	-8.84149
бор	-8.84191
▁Е	-8.84205
and	-8.84272
ают	-8.84343
▁name	-8.84674
ven	-8.84771
▁вид	-8.84773
ha	-8.85009
▁order	-8.85033
▁close	-8.85098
ow	-8.85116
▁et	-8.85118
▁her	-8.85137
▁At	-8.85344
▁state	-8.85432
▁себя	-8.85474
▁k	-8.85965
▁best	-8.85972
ac	-8.85982
ism	-8.86033
▁Vi	-8.86055
ком	-8.86099
tor	-8.86142
то	-8.86163
бо	-8.86309
ang	-8.86615
ations	-8.86635
ish	-8.86905
▁small	-8.87011
ления	-8.87101
ости	-8.87107
▁Russia	-8.87167
▁ее	-8.87224
▁allow	-8.87295
do	-8.87334
▁ma	-8.87343
tra	-8.87407
ца	-8.87492
▁други	-8.8771
▁public	-8.87759
пи	-8.87894
▁economic	-8.87976
ling	-8.8803
▁ин	-8.88127
▁show	-8.88134
ств	-8.88265
▁power	-8.88453
▁расположен	-8.88656
au	-8.88696
цион	-8.88766
▁еще	-8.88836
▁fa	-8.88883
▁found	-8.88933
che	-8.88938
нию	-8.88962
▁способ	-8.89238
tel	-8.89342
Y	-8.89363
▁Lo	-8.89741
би	-8.89854
der	-8.89926
▁будут	-8.9007
прав	-8.90617
▁both	-8.90685
í	-8.91303
▁area	-8.91344
▁location	-8.91394
▁доступ	-8.9145
▁Ма	-8.91568
6	-8.91752
ша	-8.9184
ации	-8.91899
mit	-8.91948
жа	-8.92091
▁English	-8.92114
ск	-8.92308
▁design	-8.92348
wa	-8.92437
▁2008	-8.92611
ур	-8.92649
ран	-8.92745
▁оста	-8.92777
бл	-8.92888
▁этот	-8.92926
ok	-8.92973
ющие	-8.93
фи	-8.93106
▁либо	-8.93116
ист	-8.93141
ально	-8.93235
▁песен	-8.93311
▁open	-8.93401
▁Th	-8.93477
▁Europe	-8.93727
▁each	-8.93758
пер	-8.938
mon	-8.93803
▁last	-8.93942
ally	-8.93994
▁European	-8.9403
▁le	-8.94191
▁ди	-8.94234
ении	-8.94242
od	-8.94272
▁интерес	-8.94306
ice	-8.94309
работ	-8.94361
sk	-8.94439
ev	-8.9447
▁quality	-8.94484
▁fl	-8.94513
▁страны	-8.94553
▁своей	-8.94631
▁X	-8.94762
▁around	-8.94932
стро	-8.94956
▁i	-8.95039
▁language	-8.95044
port	-8.95134
▁said	-8.9528
ual	-8.9549
mb	-8.95685
пре	-8.95693
▁работы	-8.95725
ag	-8.9574
ская	-8.95765
▁man	-8.95798
▁site	-8.95827
▁vi	-8.95918
ite	-8.95927
▁которых	-8.95979
со	-8.96114
иться	-8.96121
▁Он	-8.96219
▁hand	-8.96232
▁du	-8.96237
▁Fi	-8.96384
▁Со	-8.96564
▁collection	-8.96572
▁них	-8.96642
В	-8.96662
▁important	-8.96771
нес	-8.968
▁experience	-8.96919
▁нов	-8.96962
▁кто	-8.96999
пол	-8.97036
▁над	-8.97083
па	-8.97098
▁main	-8.97165
▁ключевым	-8.97197
▁using	-8.972
▁оп	-8.97243
▁without	-8.97268
▁keyword	-8.97278
▁через	-8.97333
▁staff	-8.97423
ирован	-8.97426
▁down	-8.97503
▁must	-8.97565
▁мне	-8.9761
124	-8.97631
▁bi	-8.97641
▁available	-8.97654
▁before	-8.97762
▁д	-8.97786
лся	-8.97816
тов	-8.97833
йте	-8.97886
ast	-8.97914
▁start	-8.9807
Т	-8.98166
▁three	-8.9824
▁2010	-8.98254
bu	-8.98343
ze	-8.98437
тив	-8.98567
nt	-8.98652
лось	-8.98678
▁случае	-8.98752
ner	-8.98754
оз	-8.98956
ость	-8.98974
▁Now	-8.99002
▁всем	-8.9918
А	-8.99192
ъ	-8.99231
▁modern	-8.99251
▁Of	-8.99255
end	-8.99328
лов	-8.99343
▁water	-8.99401
▁page	-8.99443
▁Ta	-8.99576
ров	-8.99726
▁Our	-8.99737
▁My	-8.99745
ff	-8.99759
▁pages	-8.99779
▁case	-8.99788
▁пол	-8.99807
▁st	-8.99842
раж	-8.9986
ний	-8.99973
▁24	-9.00023
бер	-9.0005
ция	-9.00058
стр	-9.00145
▁level	-9.00154
wi	-9.00216
▁пос	-9.00235
▁ра	-9.00348
лет	-9.00365
▁data	-9.00396
▁New	-9.00413
▁old	-9.0042
▁human	-9.00461
▁What	-9.00524
▁&#	-9.00785
ab	-9.00854
▁Mi	-9.00961
од	-9.00966
ture	-9.00978
▁she	-9.01091
▁11	-9.01232
▁sp	-9.01237
▁50	-9.01382
ub	-9.01425
▁during	-9.01464
▁Z	-9.01495
овых	-9.01556
ек	-9.01577
less	-9.0159
▁вопрос	-9.0169
qu	-9.01727
za	-9.01966
▁located	-9.01982
▁потому	-9.02154
ide	-9.02272
ating	-9.02503
▁including	-9.02586
▁образом	-9.02641
ление	-9.02867
пад	-9.02974
our	-9.03101
ак	-9.03181
▁special	-9.03259
▁Ш	-9.03335
▁products	-9.03339
▁point	-9.03398
gi	-9.03414
ские	-9.03515
ex	-9.03631
▁имеет	-9.03745
▁centre	-9.03791
итель	-9.03822
▁До	-9.03834
▁mi	-9.04118
▁стар	-9.04152
▁person	-9.0418
▁des	-9.04292
▁Ca	-9.04302
▁change	-9.04373
▁100	-9.04442
▁did	-9.04491
ach	-9.04519
▁пар	-9.04625
▁всё	-9.0467
▁Во	-9.04715
▁банк	-9.04719
▁off	-9.04771
H	-9.04851
▁Ra	-9.04956
gen	-9.04995
ical	-9.0508
ition	-9.05089
▁v	-9.05112
▁системы	-9.05154
▁building	-9.05169
▁выбор	-9.05207
стоя	-9.05213
кой	-9.05248
▁within	-9.0534
▁little	-9.0547
▁kind	-9.05471
▁мир	-9.05484
▁Ch	-9.05494
tal	-9.05541
ирует	-9.05598
▁Na	-9.05661
▁create	-9.05692
▁global	-9.0572
que	-9.0574
▁home	-9.05809
тельно	-9.05902
▁перед	-9.05947
ship	-9.05954
▁видео	-9.06008
▁жизни	-9.06062
се	-9.06081
▁large	-9.06148
гу	-9.06211
▁That	-9.06349
way	-9.06351
ден	-9.06397
▁Х	-9.06468
▁закон	-9.06489
▁control	-9.06524
лась	-9.0656
овой	-9.06563
▁album	-9.06624
ёт	-9.06654
▁глав	-9.06823
атор	-9.07151
X	-9.07183
▁Y	-9.0722
▁things	-9.07235
▁become	-9.07236
нер	-9.07274
ong	-9.07286
▁нашу	-9.07432
иль	-9.0747
▁air	-9.07514
ud	-9.07593
▁China	-9.07641
à	-9.0792
ест	-9.08011
▁pi	-9.08062
ща	-9.08183
▁play	-9.08213
io	-9.08392
раз	-9.08412
line	-9.08459
fi	-9.08468
▁необходимо	-9.08485
▁Ar	-9.08605
▁does	-9.08729
▁lot	-9.08857
▁Windows	-9.08963
▁come	-9.09
▁With	-9.09156
▁si	-9.09157
еж	-9.09166
▁give	-9.09193
lar	-9.09313
Б	-9.0934
▁How	-9.09515
▁ос	-9.09575
ском	-9.09602
стра	-9.09611
▁line	-9.09621
▁списк	-9.09629
cy	-9.09644
чен	-9.09809
▁political	-9.09837
up	-9.09861
▁этих	-9.09966
▁Da	-9.09977
зна	-9.10178
аль	-9.10463
ете	-9.10523
ществ	-9.10847
ила	-9.10859
ru	-9.10933
▁25	-9.1103
▁Wa	-9.11095
▁центр	-9.11231
овать	-9.11261
▁человек	-9.1138
ton	-9.1157
▁Мо	-9.11598
▁отеля	-9.11732
ny	-9.11754
▁war	-9.11792
▁сер	-9.11808
å	-9.1181
▁course	-9.11898
▁project	-9.11904
ды	-9.11942
▁процесс	-9.11946
ko	-9.11983
▁example	-9.12414
▁ex	-9.12697
▁2007	-9.12833
Д	-9.1298
▁Ukraine	-9.13084
ron	-9.13205
ible	-9.13221
▁song	-9.13267
формы	-9.13282
▁bar	-9.13385
▁production	-9.13404
▁Ne	-9.13414
ала	-9.1347
▁book	-9.13504
▁Вам	-9.13632
енных	-9.1367
▁любо	-9.13755
▁несколько	-9.1383
▁favorite	-9.13987
▁коллекци	-9.14033
▁первы	-9.14041
▁provide	-9.14218
9	-9.14233
лы	-9.14348
land	-9.14366
ization	-9.14398
▁fi	-9.14446
con	-9.14529
▁based	-9.1458
▁люб	-9.14616
ki	-9.14752
tu	-9.14893
лин	-9.14956
_	-9.15086
▁мест	-9.15105
▁Car	-9.15288
tre	-9.15337
▁program	-9.1543
▁since	-9.15499
ож	-9.15522
▁non	-9.15532
▁while	-9.15536
ание	-9.15538
▁находит	-9.15547
ических	-9.15553
нос	-9.15599
▁созда	-9.15777
bo	-9.15811
▁Они	-9.15914
▁put	-9.15939
▁кор	-9.15996
ел	-9.16003
pp	-9.16113
ент	-9.16125
пл	-9.16147
▁still	-9.16191
дав	-9.16279
род	-9.16282
▁actually	-9.16296
▁поддержк	-9.16887
ес	-9.17038
▁few	-9.1742
▁само	-9.17495
▁turn	-9.17812
ений	-9.17905
бр	-9.18039
▁времени	-9.18141
ep	-9.18159
▁От	-9.18305
▁мире	-9.18377
ству	-9.18433
▁songs	-9.18443
▁When	-9.18497
▁something	-9.18551
ыми	-9.18552
AN	-9.18574
▁страница	-9.18605
▁value	-9.18684
▁14	-9.18741
*	-9.1892
▁account	-9.19034
▁function	-9.1923
▁second	-9.19254
▁момент	-9.19327
▁fact	-9.19336
▁свою	-9.19428
▁16	-9.19435
сси	-9.1946
▁local	-9.19497
▁области	-9.19615
▁нужно	-9.19616
▁бо	-9.19692
▁called	-9.19783
ized	-9.19841
▁города	-9.19852
ov	-9.19907
▁next	-9.19952
▁fe	-9.19977
ическ	-9.20056
▁обще	-9.20101
▁место	-9.20182
▁visit	-9.20231
▁Ме	-9.20337
бы	-9.20344
$	-9.20676
we	-9.20696
ован	-9.20701
рит	-9.20724
▁люди	-9.20735
су	-9.20867
▁па	-9.20931
▁день	-9.20967
▁view	-9.20972
iv	-9.21026
▁today	-9.21074
▁region	-9.21326
▁En	-9.21336
ose	-9.21439
▁Ре	-9.21478
▁sh	-9.21565
oc	-9.21598
▁Si	-9.21644
ниц	-9.21649
▁Di	-9.21849
▁город	-9.21911
Л	-9.2197
▁law	-9.22008
инг	-9.22014
ры	-9.22243
lin	-9.2228
уд	-9.22283
▁да	-9.22296
▁house	-9.22462
▁children	-9.22475
tch	-9.22495
вид	-9.22546
▁тех	-9.22611
це	-9.22673
▁direct	-9.22716
da	-9.22731
лю	-9.22739
▁альбома	-9.22742
▁возможно	-9.22955
пу	-9.22972
000	-9.22992
ü	-9.22996
▁Go	-9.23018
ника	-9.23036
▁too	-9.23043
▁pu	-9.23055
ress	-9.23059
▁American	-9.23073
▁less	-9.23092
▁International	-9.23144
▁him	-9.23305
лу	-9.2335
▁17	-9.23371
▁любимо	-9.23384
рос	-9.23441
▁Wi	-9.23585
fa	-9.23864
ä	-9.23911
out	-9.23994
▁Ex	-9.23998
▁ответ	-9.24073
▁companies	-9.24101
▁год	-9.24178
ников	-9.24306
действ	-9.24404
▁открыт	-9.24439
▁got	-9.24491
ER	-9.24509
▁гостей	-9.24527
▁financial	-9.24543
ец	-9.24594
ания	-9.24703
тро	-9.24749
▁план	-9.24867
▁million	-9.24896
▁мира	-9.24993
▁sa	-9.25047
▁hard	-9.25053
▁World	-9.25057
led	-9.25138
ile	-9.25393
▁услуг	-9.25501
дет	-9.25537
▁One	-9.25541
▁которой	-9.25563
ik	-9.25618
▁Service	-9.25778
ман	-9.25779
▁там	-9.25808
den	-9.25884
ян	-9.26017
ug	-9.26019
▁call	-9.26021
▁su	-9.2606
▁Ad	-9.26071
▁род	-9.26122
son	-9.26131
▁again	-9.26132
жив	-9.26346
tri	-9.26459
▁свой	-9.26491
▁другие	-9.26509
nes	-9.26806
мет	-9.2681
▁странице	-9.26866
кан	-9.26903
row	-9.26941
gra	-9.27113
овые	-9.27198
▁report	-9.27476
ments	-9.2748
▁idea	-9.27495
▁Internet	-9.2757
men	-9.27583
▁another	-9.27586
▁increase	-9.27659
нут	-9.27695
ue	-9.27788
ris	-9.27789
ants	-9.27833
▁Са	-9.27879
▁alway	-9.27923
ft	-9.27944
ска	-9.27966
ина	-9.28123
▁человека	-9.28175
▁13	-9.28181
▁проект	-9.28279
▁com	-9.28564
част	-9.28667
ней	-9.28788
вин	-9.28968
▁Да	-9.29012
шего	-9.29038
▁full	-9.29206
крас	-9.29239
▁problem	-9.293
▁иде	-9.29366
ез	-9.29372
▁Booking	-9.29379
▁гор	-9.29438
▁working	-9.29569
▁near	-9.29593
ich	-9.29634
pl	-9.29654
раст	-9.29657
▁самы	-9.29768
▁Ин	-9.29871
▁Can	-9.29874
▁Or	-9.29876
▁national	-9.29893
▁space	-9.30142
▁Laughte	-9.30189
tur	-9.30198
▁высоко	-9.30226
act	-9.3027
▁customers	-9.30274
▁better	-9.30309
▁away	-9.30349
▁Ц	-9.305
ун	-9.30525
▁game	-9.30639
езд	-9.30698
▁З	-9.30729
▁проблем	-9.3076
ons	-9.30847
▁sign	-9.30861
ющих	-9.30876
gg	-9.3107
▁live	-9.31129
рен	-9.31137
ья	-9.31225
ём	-9.31254
gue	-9.31327
вал	-9.31393
▁money	-9.31465
+	-9.31509
ели	-9.31524
▁receive	-9.31531
▁отель	-9.31577
ант	-9.31731
▁talk	-9.31839
▁Ho	-9.3186
▁sea	-9.31894
▁своих	-9.31925
▁Fa	-9.31957
▁pri	-9.31972
чита	-9.32062
дж	-9.32142
▁social	-9.32149
ющий	-9.32202
рат	-9.32331
▁перво	-9.32663
▁night	-9.32689
▁United	-9.32747
▁ле	-9.32747
▁функци	-9.32816
▁компьютер	-9.32834
▁опыт	-9.33018
ительно	-9.33131
ator	-9.33179
▁нашей	-9.33218
ja	-9.3323
nn	-9.33251
ью	-9.33299
У	-9.33352
sta	-9.33394
ler	-9.33446
▁части	-9.33473
lic	-9.335
▁бесплатно	-9.33679
▁clean	-9.33758
▁gr	-9.33824
king	-9.33832
tin	-9.33877
▁download	-9.33911
▁всегда	-9.33955
▁sur	-9.33959
ические	-9.33987
след	-9.3408
ning	-9.34151
▁America	-9.34167
щих	-9.34193
▁Смех	-9.34221
▁компания	-9.34274
á	-9.3442
знач	-9.34452
▁пл	-9.3447
▁информации	-9.34564
▁trade	-9.34656
▁расс	-9.3472
▁России	-9.34731
▁image	-9.34776
лив	-9.34793
▁related	-9.34855
▁з	-9.34856
ell	-9.34873
▁которое	-9.34927
mer	-9.35003
▁данных	-9.35031
50	-9.35077
ир	-9.35122
говор	-9.35147
▁etc	-9.35243
▁самом	-9.35258
ory	-9.35359
▁ж	-9.35414
▁means	-9.35509
фик	-9.35523
▁номер	-9.35548
гла	-9.35662
ены	-9.3572
ward	-9.35753
si	-9.35811
дар	-9.35828
▁thing	-9.35904
▁price	-9.35958
▁раздел	-9.35959
▁эта	-9.35993
▁наших	-9.36042
▁station	-9.36071
▁сам	-9.36104
▁культур	-9.36122
ò	-9.36167
ful	-9.36192
ским	-9.36332
▁ha	-9.36347
az	-9.36404
▁result	-9.36426
▁ch	-9.36499
▁health	-9.3653
qui	-9.3656
▁reason	-9.36564
пис	-9.36583
▁interest	-9.36587
mm	-9.36634
har	-9.36667
eg	-9.36718
▁женщин	-9.36745
▁short	-9.36747
▁Ли	-9.36758
▁Ti	-9.36827
▁group	-9.36901
нии	-9.36916
▁include	-9.36968
▁am	-9.3711
▁Де	-9.37118
кс	-9.37139
ид	-9.37188
▁Su	-9.37207
ещё	-9.37254
▁center	-9.37301
cent	-9.37376
ect	-9.37391
▁network	-9.3751
вести	-9.37513
mark	-9.37542
доб	-9.37608
▁2006	-9.37641
▁reviews	-9.37659
ins	-9.37661
лег	-9.37669
▁друг	-9.37724
▁дом	-9.37725
cre	-9.37777
▁словам	-9.37803
бе	-9.37888
ват	-9.37957
bi	-9.37962
ick	-9.37995
▁орган	-9.38041
▁version	-9.38122
▁40	-9.38131
ration	-9.38178
обра	-9.38335
▁ста	-9.38399
▁себе	-9.384
▁love	-9.38475
ya	-9.38647
ост	-9.38693
при	-9.38734
▁Че	-9.38769
▁сейчас	-9.38772
▁breakfast	-9.39091
▁являют	-9.39132
▁categories	-9.39161
▁клиент	-9.39184
аем	-9.39186
ier	-9.39202
▁em	-9.39213
ед	-9.39218
▁systems	-9.39225
▁карт	-9.39241
▁far	-9.39294
ической	-9.39475
▁сайт	-9.39558
ó	-9.39639
▁Ja	-9.3965
ению	-9.39715
▁star	-9.39721
▁family	-9.39721
uch	-9.39759
▁политик	-9.39795
ther	-9.39857
ah	-9.39866
▁r	-9.39903
фер	-9.40016
▁течение	-9.40088
▁bu	-9.40203
▁стать	-9.40279
ee	-9.40314
ряд	-9.40382
side	-9.40391
▁сил	-9.40488
ика	-9.40499
▁баз	-9.40506
▁цел	-9.40514
▁Ар	-9.40585
▁Hi	-9.40677
ена	-9.40691
▁pass	-9.407
▁тре	-9.40718
▁Bar	-9.40736
▁minutes	-9.40754
дать	-9.4077
ger	-9.40777
кры	-9.40894
ием	-9.40916
▁Однако	-9.40988
int	-9.40996
▁future	-9.41065
▁Com	-9.41097
▁право	-9.41195
▁personal	-9.4122
▁лучше	-9.41276
▁computer	-9.41291
▁read	-9.41321
▁term	-9.41352
▁policy	-9.41374
▁связанны	-9.41378
Г	-9.41495
цы	-9.41528
бу	-9.41532
ec	-9.41573
▁состав	-9.41574
▁Ро	-9.41628
нят	-9.41708
ium	-9.41769
лог	-9.41796
▁professional	-9.41881
▁номера	-9.41945
ге	-9.42005
лей	-9.42046
▁already	-9.42114
▁force	-9.42133
▁её	-9.42185
сп	-9.42187
▁art	-9.42274
▁два	-9.42292
пе	-9.42352
▁систем	-9.42352
ится	-9.42361
▁acc	-9.42373
оль	-9.42489
▁двух	-9.42512
▁сказал	-9.42517
▁plan	-9.42525
▁Вас	-9.42547
ung	-9.42661
чет	-9.42678
▁technology	-9.42692
▁сегодня	-9.42714
▁individual	-9.42716
▁office	-9.42722
ries	-9.42763
ities	-9.42795
▁th	-9.42809
cing	-9.42892
▁Ю	-9.42913
▁big	-9.42986
▁машин	-9.43034
льные	-9.43043
ks	-9.43045
ON	-9.4305
▁президент	-9.43139
▁software	-9.43262
ному	-9.43267
▁игр	-9.4327
mor	-9.43283
крат	-9.43322
▁foreign	-9.43479
▁top	-9.43484
▁cha	-9.43495
ient	-9.43562
▁wide	-9.43571
▁test	-9.43618
▁together	-9.43637
▁команд	-9.43665
â	-9.43722
енные	-9.43762
реш	-9.43811
net	-9.43914
▁able	-9.43958
av	-9.43959
▁форм	-9.43962
ability	-9.4418
▁Love	-9.44216
▁система	-9.44253
▁da	-9.44277
▁class	-9.44323
пас	-9.44324
day	-9.44436
▁причин	-9.44438
мат	-9.44531
ou	-9.44553
▁После	-9.44632
▁ис	-9.44662
▁care	-9.44719
ina	-9.44857
▁против	-9.4491
ste	-9.44911
дов	-9.45012
▁enjoy	-9.45096
▁check	-9.45146
Н	-9.45152
▁heart	-9.45176
щи	-9.45261
▁food	-9.45343
▁Ru	-9.45377
▁стол	-9.4539
wn	-9.45517
ative	-9.45591
стью	-9.45599
▁развития	-9.45634
▁таких	-9.45645
▁изображение	-9.45654
▁программы	-9.45689
▁ge	-9.45705
▁mean	-9.45722
▁tra	-9.45747
ement	-9.45756
▁remain	-9.45828
▁Man	-9.45868
▁agains	-9.45871
▁например	-9.45879
tain	-9.45885
▁web	-9.45957
▁Интернет	-9.45965
ker	-9.46248
▁might	-9.46303
ash	-9.46308
▁Ga	-9.46412
by	-9.46456
▁card	-9.46532
pi	-9.46659
▁imp	-9.46748
▁music	-9.46785
▁content	-9.46867
цен	-9.46877
▁суд	-9.46946
▁range	-9.47029
lit	-9.47071
уз	-9.47084
▁left	-9.47087
▁growth	-9.47185
▁understand	-9.47244
dia	-9.47307
форм	-9.47309
уль	-9.47369
IN	-9.47376
▁o	-9.47507
▁particular	-9.4756
уш	-9.47617
▁нашим	-9.4762
▁machine	-9.47623
▁week	-9.47629
▁post	-9.47654
bl	-9.47667
▁Jo	-9.47677
рев	-9.47737
▁pay	-9.47752
▁ru	-9.4794
▁light	-9.47959
лан	-9.48044
вен	-9.4813
▁направлен	-9.48203
▁private	-9.48272
▁основ	-9.48334
▁Дж	-9.48377
serv	-9.48509
▁цвет	-9.48514
▁why	-9.48553
▁application	-9.48569
▁язык	-9.48661
нее	-9.48669
мин	-9.48676
▁four	-9.48697
▁head	-9.48794
▁school	-9.48821
▁beautiful	-9.48847
▁equipment	-9.48847
▁These	-9.48884
▁Когда	-9.48886
ус	-9.48908
▁days	-9.48925
▁file	-9.48932
куп	-9.4894
val	-9.48964
вар	-9.49074
ён	-9.49133
fer	-9.4916
tan	-9.49182
▁capital	-9.49194
ñ	-9.4922
▁energy	-9.49258
▁operat	-9.49292
ists	-9.49437
▁тур	-9.49487
▁таким	-9.49494
▁часть	-9.49512
lan	-9.49535
▁comfortable	-9.49552
▁счет	-9.49576
▁bank	-9.49577
▁образ	-9.49585
cor	-9.49591
▁Qu	-9.4968
▁Dr	-9.4968
▁address	-9.49745
жен	-9.49807
▁информацию	-9.4984
▁Ñ	-9.49883
▁run	-9.49885
том	-9.49896
▁три	-9.49908
▁lo	-9.49922
use	-9.49944
▁Sp	-9.50071
▁бес	-9.50112
▁пе	-9.50122
▁Этот	-9.50199
иров	-9.50307
вали	-9.50331
▁str	-9.5034
▁share	-9.50385
нять	-9.50404
ize	-9.50562
▁позволяет	-9.50726
▁Tra	-9.50782
чер	-9.50883
вля	-9.50914
▁стороны	-9.50973
▁период	-9.50986
▁side	-9.51248
▁key	-9.51265
▁never	-9.51295
▁website	-9.51315
ис	-9.51342
▁фа	-9.51389
▁файл	-9.51421
▁этим	-9.5152
▁подкатегори	-9.51525
слов	-9.51583
ющей	-9.51596
казать	-9.51635
▁экономическо	-9.51678
▁номеров	-9.51783
твор	-9.51834
кра	-9.51845
▁whole	-9.51894
гра	-9.51896
▁рук	-9.51941
альной	-9.5196
зы	-9.51967
▁пока	-9.52079
▁rec	-9.52128
▁менее	-9.5215
▁текст	-9.52188
AR	-9.52196
спе	-9.52216
▁sta	-9.52224
nch	-9.52276
▁field	-9.52332
▁easy	-9.52346
las	-9.52349
▁Ни	-9.52393
▁предлагает	-9.52425
vision	-9.52446
lk	-9.52537
▁Ka	-9.52695
▁21	-9.5271
▁начал	-9.52731
▁team	-9.5287
▁Ri	-9.52892
дал	-9.5297
▁fr	-9.52981
ог	-9.53178
lf	-9.53187
▁стандарт	-9.53279
▁телефон	-9.53375
▁Та	-9.53489
▁After	-9.53562
▁можем	-9.53602
▁li	-9.53658
▁газ	-9.53668
▁минут	-9.53729
ич	-9.53747
▁known	-9.53751
▁document	-9.53817
▁2005	-9.53895
▁Л	-9.53911
чу	-9.53928
▁Ч	-9.53946
рак	-9.53951
tter	-9.53984
nc	-9.53993
▁making	-9.54134
▁своим	-9.54135
▁apartment	-9.54196
▁вот	-9.54216
▁странах	-9.54222
nder	-9.54262
▁tell	-9.54394
ious	-9.54425
вая	-9.54443
она	-9.5447
▁walk	-9.54496
▁Lu	-9.54552
▁Gu	-9.54559
▁President	-9.54602
ром	-9.54662
▁реально	-9.54693
▁exp	-9.54716
учи	-9.54748
▁several	-9.54806
▁такие	-9.54815
▁одной	-9.54824
ван	-9.54826
tes	-9.54828
▁детей	-9.54851
▁security	-9.54915
ct	-9.54933
▁link	-9.54934
ому	-9.54982
рон	-9.55016
▁period	-9.55133
▁наш	-9.55136
▁получа	-9.55211
vel	-9.55218
▁кол	-9.55233
▁школ	-9.55254
▁актив	-9.5532
cle	-9.55328
ается	-9.55373
▁War	-9.55397
lor	-9.55437
ux	-9.55438
▁risk	-9.55443
▁сторон	-9.55456
▁unique	-9.55473
▁см	-9.55474
▁соответствующих	-9.55477
▁Эта	-9.55702
▁century	-9.55736
▁model	-9.55842
▁Ж	-9.55859
▁Some	-9.55867
▁history	-9.55887
▁должен	-9.55929
▁ta	-9.55932
gin	-9.55943
▁central	-9.55984
▁лидер	-9.56021
▁Ge	-9.56041
▁among	-9.56083
▁problems	-9.56097
▁называ	-9.56105
▁имеют	-9.56115
кор	-9.56127
печат	-9.56236
▁va	-9.56241
cer	-9.56263
ера	-9.56296
тар	-9.56304
▁та	-9.56314
▁reach	-9.5638
▁пор	-9.56412
▁котором	-9.56417
ана	-9.56551
▁que	-9.56623
ывает	-9.56745
вели	-9.56767
ова	-9.56782
zi	-9.56808
ware	-9.56811
пуст	-9.56866
▁создать	-9.56912
образ	-9.57019
рез	-9.57058
▁current	-9.57088
▁бу	-9.57097
дин	-9.57105
ники	-9.5713
ственн	-9.57138
▁face	-9.57163
▁подход	-9.57202
▁ла	-9.57212
▁собой	-9.57234
▁размер	-9.57242
нтер	-9.5728
▁town	-9.57289
▁эту	-9.57382
▁количество	-9.57384
▁зал	-9.57393
▁дела	-9.57438
пут	-9.57495
▁started	-9.57508
▁TV	-9.57569
мент	-9.57723
ai	-9.57775
▁needs	-9.57832
▁seem	-9.57846
▁pe	-9.57882
▁By	-9.57883
RE	-9.57946
mission	-9.57956
тен	-9.58066
▁Совет	-9.58085
▁жизнь	-9.581
▁чувств	-9.58134
▁связи	-9.58213
▁продаж	-9.58301
▁ho	-9.58358
▁Bu	-9.58408
▁keep	-9.58425
▁women	-9.58494
лишь	-9.58533
▁Guest	-9.58592
▁отеле	-9.58638
▁одно	-9.58762
енно	-9.58779
▁fo	-9.58819
▁ski	-9.58867
▁безопасности	-9.58924
Z	-9.58934
стер	-9.58977
ult	-9.58984
бир	-9.58987
▁research	-9.59032
▁economy	-9.59061
тесь	-9.59139
▁часто	-9.5923
▁Что	-9.5938
▁каждо	-9.59393
▁продукт	-9.59431
ð	-9.59502
▁обои	-9.59581
II	-9.59645
▁total	-9.59732
tar	-9.5974
чт	-9.5984
ral	-9.59868
ании	-9.59951
▁метод	-9.59961
▁al	-9.60104
▁своего	-9.6022
▁Col	-9.60222
▁собственны	-9.60246
▁Пред	-9.60334
▁complete	-9.60336
▁believe	-9.60408
for	-9.60416
▁2000	-9.60563
▁получить	-9.6058
bre	-9.6059
▁product	-9.60607
vis	-9.60609
▁Am	-9.60642
тр	-9.6066
един	-9.6067
▁быстро	-9.60671
▁cat	-9.6071
gan	-9.60732
▁кредит	-9.60752
▁education	-9.60803
▁продолжа	-9.60853
▁operation	-9.60883
дан	-9.60885
▁trans	-9.60981
▁Un	-9.60998
▁задач	-9.61016
▁par	-9.61066
▁often	-9.6109
чение	-9.61108
тур	-9.61122
скую	-9.61183
▁свет	-9.61186
▁район	-9.61193
▁Pi	-9.61195
gar	-9.61215
▁cr	-9.6126
▁отдел	-9.61342
light	-9.61367
ового	-9.61459
рок	-9.61484
▁ju	-9.61502
▁лучши	-9.61535
▁guest	-9.61543
ток	-9.61575
▁clear	-9.61639
▁bit	-9.6165
▁Rooms	-9.61845
▁60	-9.61858
▁investment	-9.61959
ving	-9.62033
▁Room	-9.6212
ация	-9.62128
▁около	-9.62134
▁deal	-9.62136
▁документ	-9.62184
йти	-9.62266
▁let	-9.62309
▁major	-9.62419
▁деле	-9.62426
▁Из	-9.62446
▁решения	-9.62458
▁территории	-9.6246
лит	-9.62499
▁каждый	-9.62507
▁клип	-9.62516
▁деятельности	-9.6253
▁труд	-9.62556
▁took	-9.62561
▁собственн	-9.62566
▁She	-9.6258
▁работа	-9.62583
нь	-9.62586
▁проблемы	-9.62599
знаком	-9.62612
▁cost	-9.62689
чных	-9.62712
▁групп	-9.62766
istic	-9.62901
▁именно	-9.63018
жива	-9.63036
ятся	-9.63046
▁continue	-9.63078
▁жела	-9.63123
▁UN	-9.63146
▁Republic	-9.63209
J	-9.63218
стей	-9.63233
OR	-9.63264
▁nice	-9.63275
▁restaurant	-9.63281
пит	-9.63335
▁learn	-9.63368
▁Ба	-9.63409
▁природ	-9.63424
▁size	-9.63442
▁комплекс	-9.63446
▁риск	-9.63517
let	-9.63523
▁sc	-9.63533
ade	-9.63557
du	-9.63566
вяз	-9.63603
ble	-9.6361
▁cl	-9.63634
ива	-9.63659
▁наши	-9.63739
rent	-9.63784
уют	-9.63857
▁engine	-9.63877
▁position	-9.63893
▁поддержива	-9.63907
▁Ni	-9.63942
▁ссылк	-9.63953
▁meeting	-9.63983
IS	-9.63984
▁адрес	-9.64101
▁happen	-9.64323
log	-9.64344
ики	-9.64378
▁Добави	-9.64418
fe	-9.64427
10	-9.64431
spec	-9.64517
ense	-9.64519
▁могл	-9.64542
▁complex	-9.64565
▁friendly	-9.64582
ирования	-9.64612
нт	-9.64697
атель	-9.64723
▁tax	-9.64742
▁занима	-9.64783
▁necessary	-9.64791
▁general	-9.64798
▁del	-9.64801
▁экономически	-9.64827
▁Du	-9.64838
▁inter	-9.64843
▁step	-9.64854
▁курс	-9.64858
▁given	-9.64909
round	-9.64936
ink	-9.64979
▁режим	-9.65003
мот	-9.65084
van	-9.65111
енный	-9.65115
low	-9.65225
▁management	-9.65266
▁industry	-9.65288
ore	-9.65328
▁official	-9.65364
▁Cha	-9.65379
▁single	-9.65475
iz	-9.65481
chi	-9.65513
▁средств	-9.65523
▁назад	-9.65578
▁question	-9.65578
▁move	-9.65716
▁times	-9.65728
щие	-9.65861
▁Ра	-9.65906
▁search	-9.65928
▁котор	-9.66091
▁past	-9.66118
ake	-9.66119
▁appear	-9.66154
▁получил	-9.6622
▁Па	-9.66231
сы	-9.66292
реб	-9.66303
чные	-9.66362
▁el	-9.66382
▁партнер	-9.66383
полне	-9.66384
▁video	-9.66409
▁лиц	-9.66429
▁Ко	-9.66435
▁управления	-9.66522
▁Your	-9.66528
ясь	-9.6653
▁expect	-9.66545
▁travel	-9.66547
ило	-9.66604
▁natural	-9.66612
▁песням	-9.66628
рем	-9.66654
▁То	-9.66673
▁Кон	-9.66695
мон	-9.66705
▁ситуаци	-9.66766
oo	-9.66811
▁hours	-9.66828
▁особенно	-9.66829
▁семь	-9.66829
▁пример	-9.66843
®	-9.67058
rus	-9.67087
▁многих	-9.67119
▁проживания	-9.67134
екс	-9.67169
▁гарант	-9.67243
▁2004	-9.67245
▁pictures	-9.67284
▁вместе	-9.67335
lay	-9.67362
▁bring	-9.67454
▁contact	-9.6749
ень	-9.6749
▁condition	-9.67498
▁plant	-9.67547
▁сервер	-9.67643
енной	-9.67667
▁среди	-9.67724
par	-9.67729
▁mail	-9.67771
▁facilities	-9.67876
▁demand	-9.67878
писан	-9.67895
▁внимание	-9.67954
cation	-9.67998
▁Pre	-9.68032
▁регион	-9.68073
rt	-9.68138
▁участие	-9.68344
▁тысяч	-9.68408
▁Украины	-9.6858
▁oil	-9.6858
mal	-9.6862
ran	-9.6862
▁bed	-9.6862
▁mar	-9.68641
цев	-9.68696
▁отправ	-9.68911
▁looking	-9.6892
▁online	-9.68987
▁India	-9.68994
▁услуги	-9.6902
▁mass	-9.69031
▁производства	-9.69033
ками	-9.69063
▁пакет	-9.69065
▁ресторан	-9.69125
▁Linux	-9.69141
зов	-9.69144
уча	-9.69213
▁участник	-9.69241
▁вод	-9.69246
З	-9.69292
▁works	-9.69318
▁Per	-9.69323
▁excellent	-9.6933
▁speak	-9.6933
went	-9.69368
▁измен	-9.6943
низ	-9.69534
▁бизнес	-9.69536
▁rights	-9.69631
аются	-9.69654
IT	-9.69697
лок	-9.69711
▁решение	-9.69714
▁created	-9.69733
▁структур	-9.69835
ign	-9.69894
▁Pri	-9.6993
▁effective	-9.69934
▁suggest	-9.69946
▁хотел	-9.69962
▁die	-9.69999
ica	-9.70008
▁разработк	-9.70018
arch	-9.70073
ew	-9.70087
zy	-9.70203
og	-9.70219
▁various	-9.70275
▁unit	-9.70287
▁которого	-9.70311
▁rate	-9.70361
▁нескольки	-9.70374
▁многие	-9.70406
▁объект	-9.70454
▁na	-9.70485
▁percent	-9.70501
▁strong	-9.70535
▁stop	-9.70547
ителей	-9.70586
▁важно	-9.70608
▁Ис	-9.70656
▁ago	-9.70664
▁Раз	-9.70688
▁Bank	-9.70857
ctor	-9.70889
je	-9.70949
▁найти	-9.70952
▁author	-9.70957
▁возможности	-9.70957
dra	-9.70966
▁Те	-9.71005
▁музык	-9.71045
рог	-9.71047
▁одного	-9.71065
▁некоторые	-9.71104
▁две	-9.71181
▁Ст	-9.71189
▁San	-9.71193
▁From	-9.71254
▁которым	-9.7129
этому	-9.71411
▁Мар	-9.71439
having	-9.71444
▁места	-9.7158
ek	-9.71582
▁Bi	-9.71614
кр	-9.71616
изм	-9.71662
▁одна	-9.71707
др	-9.71828
▁perfect	-9.71834
альный	-9.71842
нг	-9.71894
вой	-9.71905
▁22	-9.7191
▁свобод	-9.71925
▁option	-9.71952
iti	-9.71996
▁тепер	-9.72007
▁port	-9.7208
▁deliver	-9.72158
ES	-9.72211
hu	-9.7236
▁style	-9.72498
▁уровне	-9.7253
▁character	-9.72545
ay	-9.72561
аться	-9.72668
▁cause	-9.72679
▁другой	-9.7276
▁рост	-9.72799
und	-9.72847
▁установк	-9.72854
▁Вот	-9.72864
▁Кр	-9.72893
▁ro	-9.72906
▁определен	-9.72939
bra	-9.7294
▁detail	-9.72969
▁рынка	-9.72982
han	-9.72996
▁Well	-9.73026
▁80	-9.73123
▁El	-9.73155
▁Ko	-9.73173
gent	-9.73173
pro	-9.73196
▁May	-9.73206
смотря	-9.7323
▁ri	-9.7326
▁инструмент	-9.73312
▁времен	-9.73367
▁members	-9.73442
теля	-9.73468
▁qua	-9.73478
▁im	-9.73508
▁huge	-9.73559
tive	-9.73608
▁помощи	-9.73624
▁living	-9.73634
▁provides	-9.7366
ç	-9.73706
▁2003	-9.73731
▁дизайн	-9.73755
чив	-9.73775
almost	-9.73806
ический	-9.73835
AS	-9.7398
альных	-9.73993
▁everything	-9.7402
▁граждан	-9.74036
CE	-9.74037
ê	-9.74052
▁Sha	-9.74057
▁Пол	-9.74069
ö	-9.74201
▁права	-9.74312
лез	-9.74322
▁thought	-9.74401
▁сайта	-9.74453
▁EU	-9.74453
AT	-9.74477
lie	-9.74535
▁оказа	-9.74536
ировал	-9.7455
▁создан	-9.74573
провод	-9.7459
ren	-9.74604
▁return	-9.74665
struc	-9.74676
служ	-9.74678
▁ваш	-9.74759
зер	-9.74768
▁source	-9.74781
▁below	-9.7481
ились	-9.74837
▁until	-9.74837
кл	-9.74851
▁ver	-9.74869
▁Sta	-9.74928
▁Spa	-9.74931
▁процент	-9.74934
мор	-9.75025
▁areas	-9.75034
era	-9.75056
the	-9.75083
▁Mu	-9.7509
▁text	-9.75118
ением	-9.7519
▁Not	-9.75203
▁crisis	-9.75214
▁National	-9.7522
len	-9.75315
▁disc	-9.75346
▁Ан	-9.75354
▁настоящ	-9.7536
▁бар	-9.75375
▁дел	-9.75377
▁environment	-9.75395
шен	-9.75473
▁produce	-9.75497
▁held	-9.75527
▁came	-9.7554
Ф	-9.75574
овая	-9.75589
▁represent	-9.75591
знать	-9.75646
сел	-9.75713
▁release	-9.75716
OS	-9.7575
tern	-9.75797
▁политически	-9.75824
рад	-9.75827
▁Она	-9.75938
▁выход	-9.75945
cri	-9.75948
▁select	-9.75965
▁площад	-9.76053
▁cannot	-9.76054
▁user	-9.76062
ско	-9.76064
▁начина	-9.76065
▁Кроме	-9.76071
▁cap	-9.7611
▁работает	-9.76115
гер	-9.76254
▁действительно	-9.76262
▁States	-9.76276
▁act	-9.76286
▁Fe	-9.76324
▁package	-9.76371
▁low	-9.76392
▁всей	-9.76393
▁ne	-9.76396
MS	-9.76415
▁hold	-9.7644
коп	-9.76453
▁государств	-9.7647
потреб	-9.76502
▁защит	-9.76507
▁South	-9.76533
▁German	-9.76538
▁Mon	-9.76555
▁Ха	-9.76594
▁Group	-9.76643
альная	-9.76651
▁хорошо	-9.7666
▁conditions	-9.76667
▁enough	-9.76677
▁land	-9.76708
jo	-9.76761
▁современны	-9.76765
▁buy	-9.76785
▁член	-9.76798
чь	-9.76876
▁постоянно	-9.76881
▁Услуги	-9.76898
▁bus	-9.76906
▁type	-9.76915
клад	-9.76915
gt	-9.76918
ита	-9.76937
чно	-9.77019
▁doing	-9.77026
▁sound	-9.77096
олог	-9.77154
▁action	-9.77223
▁server	-9.77376
lect	-9.77398
▁developed	-9.77449
ase	-9.77534
сколько	-9.77566
CO	-9.77585
▁five	-9.7759
анс	-9.77593
▁enter	-9.77604
▁amount	-9.77613
▁изменения	-9.77633
▁установлен	-9.77682
▁мирово	-9.77741
▁транспорт	-9.77822
▁moment	-9.77859
▁некоторы	-9.77875
▁конечно	-9.77881
▁exc	-9.77937
▁финансовы	-9.77976
▁job	-9.78009
.1	-9.78021
▁полностью	-9.78093
ился	-9.78127
▁проекта	-9.78156
▁done	-9.78165
▁различных	-9.78221
▁simple	-9.7842
▁диск	-9.7843
пан	-9.78443
▁данные	-9.78536
луч	-9.78568
lt	-9.78571
▁работу	-9.78576
▁капитал	-9.78609
▁internet	-9.7862
▁decision	-9.78645
▁develop	-9.78649
▁clients	-9.78661
▁issue	-9.78707
бра	-9.78722
емых	-9.78732
▁центре	-9.78755
▁send	-9.78798
▁ваше	-9.78823
▁common	-9.78825
▁gas	-9.78924
▁произ	-9.78963
▁log	-9.79047
чик	-9.79084
▁прос	-9.79225
▁app	-9.79229
ального	-9.7924
▁che	-9.79278
▁treatment	-9.79286
▁tri	-9.79293
▁Pu	-9.79346
▁military	-9.79373
▁можеш	-9.79381
▁народ	-9.79416
ball	-9.79466
ющим	-9.79491
ляет	-9.79491
▁rest	-9.79498
▁Го	-9.7953
AL	-9.79592
▁политическ	-9.79606
▁перв	-9.79609
▁member	-9.79635
▁него	-9.79836
▁multi	-9.79845
▁делать	-9.79847
▁класс	-9.7991
sch	-9.79914
ify	-9.79932
▁floor	-9.79932
ителя	-9.79935
Й	-9.79984
▁record	-9.79985
▁specific	-9.80057
▁basic	-9.80146
когда	-9.80241
енного	-9.80439
▁built	-9.80546
ген	-9.80637
lat	-9.80647
▁ниже	-9.80649
nic	-9.80653
▁construction	-9.80712
▁au	-9.80749
сад	-9.80797
▁международно	-9.808
▁принят	-9.80818
плат	-9.80853
ef	-9.80937
дает	-9.81021
sky	-9.81029
▁предприяти	-9.81047
fin	-9.81142
nger	-9.81364
yn	-9.81375
▁terms	-9.81388
▁km	-9.81534
str	-9.81561
ney	-9.81588
▁protect	-9.81641
▁concern	-9.81644
ym	-9.81653
uit	-9.81659
▁23	-9.8167
▁provided	-9.81695
▁least	-9.81698
вших	-9.81716
охран	-9.81765
ическая	-9.81767
▁effect	-9.81835
▁экономик	-9.81837
▁sal	-9.81839
▁почти	-9.81848
▁follow	-9.81902
▁further	-9.81911
▁designed	-9.81926
▁достаточно	-9.82018
20	-9.82051
▁фотографии	-9.82106
▁min	-9.82116
ert	-9.82152
ключая	-9.8217
▁phone	-9.82182
▁street	-9.82252
▁ten	-9.82257
▁легко	-9.82347
▁spa	-9.82351
чный	-9.82408
cket	-9.8241
▁Moscow	-9.8243
ское	-9.82468
▁мод	-9.82526
▁itself	-9.82593
art	-9.82678
RO	-9.82687
▁Ла	-9.82687
▁числе	-9.8271
▁Germany	-9.82722
кажет	-9.82734
руш	-9.82754
▁использует	-9.8279
рис	-9.82814
▁pla	-9.82826
ology	-9.82841
▁mis	-9.82991
▁standard	-9.82996
ë	-9.8306
▁third	-9.83079
VI	-9.83113
жу	-9.8315
▁according	-9.83205
▁использование	-9.83257
▁веб	-9.83289
метр	-9.83291
▁sure	-9.83301
▁situated	-9.8335
арт	-9.83384
ук	-9.83436
ound	-9.8345
▁accept	-9.83459
▁Dis	-9.83466
▁extra	-9.83472
▁famous	-9.83477
▁sites	-9.83544
tle	-9.83549
оп	-9.83563
▁half	-9.83617
▁долларов	-9.83625
ans	-9.83685
▁legal	-9.83747
▁сети	-9.83797
▁body	-9.83804
▁специал	-9.83842
▁activities	-9.83876
where	-9.83886
▁young	-9.83946
ющего	-9.84006
▁конце	-9.8401
кро	-9.84017
▁views	-9.84051
нуть	-9.84061
ome	-9.84089
рь	-9.84166
ющая	-9.84189
▁prices	-9.84192
▁след	-9.84225
▁super	-9.84233
▁данно	-9.84247
ada	-9.84283
ana	-9.843
▁hope	-9.84303
▁организации	-9.84331
ple	-9.84383
▁000	-9.84403
гран	-9.8441
fully	-9.84421
▁relate	-9.84424
stitution	-9.84426
▁method	-9.84461
ille	-9.84481
щий	-9.84555
▁сделал	-9.84626
▁device	-9.84664
pt	-9.84666
▁Here	-9.8469
▁поскольк	-9.84699
▁рынке	-9.847
▁difficult	-9.84754
▁color	-9.8476
▁cut	-9.84782
▁тот	-9.84822
▁became	-9.84883
sis	-9.84897
▁необходимы	-9.84936
▁require	-9.84947
▁ему	-9.84972
▁stand	-9.84973
▁community	-9.85016
дель	-9.85027
ID	-9.85058
▁others	-9.85091
▁following	-9.85113
▁popular	-9.85159
▁происходит	-9.8527
▁второ	-9.8527
▁date	-9.85386
лек	-9.85496
▁политики	-9.85525
▁structure	-9.85547
wer	-9.8557
▁200	-9.85584
▁свое	-9.85617
▁cover	-9.85619
▁Ри	-9.85676
▁установить	-9.85714
▁исполн	-9.85716
▁уровня	-9.85788
▁истории	-9.85876
▁especiall	-9.85881
▁книг	-9.85889
▁choice	-9.85918
▁порт	-9.85924
▁anti	-9.85941
▁later	-9.86068
▁00	-9.86127
тел	-9.86135
▁Bal	-9.86155
▁www	-9.8616
▁connection	-9.8616
▁didn	-9.86181
cast	-9.86238
▁ген	-9.86266
EC	-9.8637
.5	-9.86384
▁once	-9.86406
▁отношени	-9.86435
▁auto	-9.86465
▁tru	-9.86468
▁ever	-9.86469
▁важны	-9.86473
нул	-9.86481
▁drive	-9.86484
ул	-9.86502
кий	-9.86504
cra	-9.86515
vent	-9.86547
▁компаний	-9.86568
▁начала	-9.86594
бил	-9.86603
▁срок	-9.8661
▁заяв	-9.86693
▁Бо	-9.86713
RA	-9.86729
▁serve	-9.86789
▁прод	-9.8681
▁Велик	-9.86821
▁try	-9.86849
▁комнат	-9.86853
ось	-9.86892
енным	-9.86939
▁answer	-9.86966
▁Out	-9.86991
рас	-9.86993
her	-9.87021
▁буду	-9.87047
ix	-9.87057
▁Поэтому	-9.87081
▁successful	-9.8712
▁une	-9.87129
▁парти	-9.87131
▁Web	-9.87136
▁полно	-9.87192
▁projects	-9.87193
rop	-9.87213
▁transfer	-9.87219
▁Ukrainian	-9.87302
▁ваши	-9.87314
▁Европы	-9.87321
▁выполнен	-9.87334
▁должно	-9.87354
▁North	-9.87391
leading	-9.87421
▁земл	-9.87447
▁власти	-9.87458
▁player	-9.87502
ban	-9.87529
▁ты	-9.87551
q	-9.87592
▁зап	-9.87688
▁tu	-9.87698
▁Кор	-9.87723
▁игра	-9.87751
▁para	-9.87755
кого	-9.87765
30	-9.87834
▁значит	-9.87927
▁основан	-9.88026
▁мед	-9.88034
▁mu	-9.88092
▁доход	-9.88181
АО	-9.88187
глас	-9.88206
sco	-9.88223
▁yet	-9.88255
▁интернет	-9.88268
▁sector	-9.88272
rat	-9.88302
▁guests	-9.88319
сов	-9.88346
▁media	-9.88352
▁materials	-9.88384
▁магазин	-9.8842
▁искусств	-9.8844
гл	-9.88468
бан	-9.88514
▁качества	-9.88516
▁Компания	-9.88535
▁авто	-9.8861
kh	-9.88635
ough	-9.8865
▁Art	-9.88657
▁billion	-9.88707
предел	-9.88711
▁уровень	-9.88764
▁results	-9.88768
▁organiz	-9.88784
▁ЕС	-9.8882
▁conference	-9.88898
▁Asia	-9.88917
щего	-9.88968
▁клиентов	-9.88969
▁final	-9.8903
▁depend	-9.8909
ez	-9.89098
▁traditional	-9.89101
▁Ab	-9.89103
▁perform	-9.89103
▁sent	-9.89104
▁использования	-9.89149
▁train	-9.89168
тся	-9.89201
▁cur	-9.8923
ложен	-9.89237
▁благодаря	-9.89281
ying	-9.8931
ьте	-9.89311
bit	-9.89359
▁achieve	-9.89397
ps	-9.89405
▁мере	-9.8943
▁host	-9.89432
▁технологии	-9.89455
▁Fo	-9.8958
▁Эти	-9.89646
▁устройств	-9.89671
=	-9.89724
дор	-9.89729
▁manufacture	-9.89763
▁принцип	-9.89782
▁civil	-9.89802
press	-9.89822
vous	-9.89861
▁br	-9.89861
▁cell	-9.89888
▁тому	-9.89909
▁property	-9.89918
nda	-9.89934
▁quite	-9.89941
▁costs	-9.8995
три	-9.89962
▁выставк	-9.89985
▁thousand	-9.90014
▁entire	-9.90015
▁предоставля	-9.90022
▁helpful	-9.90039
SA	-9.90049
ируют	-9.90095
▁users	-9.90108
ley	-9.90111
▁credit	-9.90209
▁along	-9.90274
▁пыта	-9.90282
▁Ver	-9.90292
▁op	-9.90388
▁предоставляет	-9.90424
▁группы	-9.90479
▁дома	-9.90505
▁fast	-9.90534
▁прямо	-9.90578
зв	-9.90624
▁matter	-9.90698
▁contextual	-9.90699
▁fund	-9.90699
▁whether	-9.90753
ало	-9.90771
▁quick	-9.90794
▁Ком	-9.90819
▁Paris	-9.9092
▁тип	-9.90931
▁window	-9.90934
▁затем	-9.90935
▁жил	-9.90951
▁Union	-9.90966
▁код	-9.90985
фт	-9.91006
▁содержит	-9.91008
▁целью	-9.9101
ведения	-9.91039
ank	-9.91041
▁масс	-9.91046
▁shall	-9.91071
#	-9.91082
▁benefit	-9.91124
▁автор	-9.91146
▁Inter	-9.91191
▁lead	-9.91196
▁nu	-9.91236
aw	-9.91265
виду	-9.9129
тель	-9.91316
▁обо	-9.91321
▁Min	-9.91398
▁хотя	-9.91432
▁request	-9.91457
▁дня	-9.91518
исты	-9.91545
▁заказ	-9.91556
▁большой	-9.91652
кто	-9.91655
▁Си	-9.9166
gr	-9.91741
аз	-9.91755
ственно	-9.9177
мп	-9.91778
▁фирм	-9.91781
rit	-9.91783
ku	-9.91788
.2	-9.91795
▁technical	-9.91812
▁mode	-9.91934
▁photos	-9.91962
▁France	-9.91967
▁contains	-9.91975
беж	-9.91987
TA	-9.92
▁Park	-9.92017
▁State	-9.92018
▁представлен	-9.92081
▁certain	-9.92094
▁focus	-9.92108
▁les	-9.9217
een	-9.9218
ители	-9.92199
нем	-9.9226
▁источник	-9.92286
▁Gi	-9.92305
▁East	-9.92383
сл	-9.9244
bb	-9.92491
креп	-9.92531
ическим	-9.92542
▁Part	-9.92543
▁Centre	-9.92564
▁регистрации	-9.92603
▁above	-9.92604
тин	-9.92611
тон	-9.92637
▁условия	-9.92672
▁работать	-9.92711
▁Ми	-9.9272
▁needed	-9.9274
cal	-9.92789
тан	-9.92793
▁стали	-9.92819
▁Western	-9.92825
▁совет	-9.9293
▁meet	-9.92948
▁markets	-9.93016
▁success	-9.93035
▁Comp	-9.93075
▁значени	-9.93114
▁months	-9.93136
▁70	-9.93138
▁одним	-9.93143
▁consider	-9.93184
▁front	-9.93192
▁age	-9.93231
▁culture	-9.93241
AC	-9.93241
win	-9.93272
тек	-9.93285
▁Thank	-9.93294
▁Debian	-9.93301
▁enable	-9.93333
EN	-9.93337
▁early	-9.93362
дол	-9.93449
uc	-9.93458
▁improve	-9.93466
▁words	-9.93511
▁pool	-9.93581
мысл	-9.93583
▁Ke	-9.93585
▁Наш	-9.93711
▁factor	-9.9378
▁purpose	-9.93802
▁....	-9.93813
▁French	-9.93822
▁men	-9.93825
числ	-9.93836
▁клиентами	-9.93969
очно	-9.93974
▁сайте	-9.9398
▁Je	-9.94015
ju	-9.94033
▁продукции	-9.94165
▁election	-9.94221
▁Ph	-9.9423
▁rather	-9.94235
▁Win	-9.94252
set	-9.94254
▁event	-9.94322
▁Ле	-9.94395
▁мое	-9.94437
▁features	-9.94458
порт	-9.94463
▁build	-9.94474
ological	-9.94478
ped	-9.94508
▁makes	-9.94572
▁der	-9.94593
ктив	-9.9461
▁Ju	-9.94635
▁Central	-9.94671
вания	-9.94679
▁red	-9.94701
▁Free	-9.94717
▁taken	-9.94718
▁Cor	-9.9474
▁норм	-9.94742
▁West	-9.94764
▁measure	-9.94813
ute	-9.94866
▁ideal	-9.94883
град	-9.94918
▁Под	-9.94943
▁poor	-9.9495
bel	-9.94994
▁Кар	-9.95002
▁IP	-9.95052
▁должна	-9.95077
▁across	-9.95097
fu	-9.95113
of	-9.95115
▁рамках	-9.95159
▁отзыв	-9.9517
▁Европе	-9.9521
▁role	-9.95265
▁bathroom	-9.95283
▁проведени	-9.95298
▁God	-9.95314
▁Good	-9.9535
▁обычно	-9.95396
▁Бар	-9.95465
▁Nor	-9.95528
▁пят	-9.95533
▁фонд	-9.95622
▁z	-9.95642
пуска	-9.95659
овый	-9.95679
▁обслуживания	-9.95699
▁und	-9.95711
uk	-9.95727
▁mini	-9.95791
▁стал	-9.95811
готов	-9.95819
клон	-9.95823
▁элемент	-9.95833
▁est	-9.95844
▁финансово	-9.95852
▁message	-9.95854
▁правительства	-9.95892
▁скоро	-9.95908
▁самым	-9.95944
▁met	-9.96002
▁товар	-9.96004
▁Day	-9.96016
▁договор	-9.96036
▁развива	-9.96094
▁проблема	-9.96142
SS	-9.96171
тол	-9.96219
▁Port	-9.96282
▁expert	-9.96337
▁Му	-9.9642
рабатыва	-9.96472
▁спа	-9.96473
тик	-9.96514
▁beach	-9.96621
ённы	-9.96689
кур	-9.96715
▁charge	-9.96741
нк	-9.96772
▁тогда	-9.96782
▁population	-9.96803
▁средне	-9.96818
▁Company	-9.96823
▁населения	-9.96824
▁effort	-9.96844
▁значительно	-9.96846
▁настоящее	-9.96853
▁ask	-9.96866
▁prevent	-9.96874
▁base	-9.96942
▁sl	-9.96963
▁успех	-9.9697
▁mind	-9.96999
hor	-9.97011
них	-9.97021
юсь	-9.97046
▁организаци	-9.97101
▁стране	-9.97106
▁зон	-9.97123
лять	-9.97166
▁changes	-9.97211
▁борьб	-9.97218
wor	-9.97238
брос	-9.97246
анд	-9.9727
▁client	-9.97313
▁получения	-9.97332
▁safe	-9.97353
▁enterprise	-9.97384
▁думаю	-9.97408
▁performance	-9.97474
SC	-9.97517
▁spend	-9.97544
▁dollar	-9.97552
fect	-9.97713
▁изменени	-9.97728
cc	-9.97734
▁Номера	-9.97761
▁возник	-9.97776
▁training	-9.97779
▁exchange	-9.97802
лер	-9.97816
▁различ	-9.97852
пр	-9.9786
▁час	-9.97879
bor	-9.979
▁шаг	-9.9794
▁child	-9.97943
▁execut	-9.97949
шин	-9.97975
вит	-9.97999
▁комп	-9.98022
ien	-9.98032
▁Google	-9.98074
▁Перв	-9.9812
изации	-9.98124
▁situation	-9.98158
▁EUR	-9.98239
avi	-9.98266
▁events	-9.9828
▁Sc	-9.98364
rac	-9.98378
▁purchase	-9.9839
▁cor	-9.98391
Э	-9.98411
▁плат	-9.98533
▁известны	-9.98603
▁interesting	-9.98638
лиз	-9.98677
▁original	-9.98721
▁submitted	-9.98757
▁opportunity	-9.98769
пор	-9.98771
▁exhibition	-9.98844
▁Sun	-9.98845
нич	-9.9886
▁largest	-9.9894
яет	-9.98949
▁rich	-9.98954
NA	-9.98969
▁click	-9.99014
▁due	-9.99055
енная	-9.99056
▁готов	-9.99072
▁выпуск	-9.99223
▁Tu	-9.99233
▁Up	-9.99371
▁служб	-9.99371
cho	-9.994
▁society	-9.99405
put	-9.99411
раб	-9.99489
▁Chinese	-9.99533
▁Банк	-9.99563
af	-9.99583
body	-9.99586
▁study	-9.99618
▁сервис	-9.99626
ёр	-9.99661
▁меньше	-9.99831
aging	-9.99906
▁ja	-9.99922
▁approach	-9.99938
bin	-9.99971
▁leg	-10
▁весь	-10.0003
▁действия	-10.0009
lthough	-10.0016
▁store	-10.0016
▁exist	-10.002
▁activity	-10.0022
▁экономики	-10.0022
▁relax	-10.0024
▁CD	-10.0024
▁27	-10.0024
▁Ki	-10.0026
if	-10.0028
▁sense	-10.003
▁огромно	-10.0034
▁кажд	-10.0038
▁students	-10.0038
time	-10.004
form	-10.0041
▁resources	-10.0043
▁90	-10.0044
▁систему	-10.0052
MA	-10.0053
▁code	-10.0055
▁маленьк	-10.006
ping	-10.0061
▁центра	-10.0069
lock	-10.0072
▁электро	-10.0081
▁Здес	-10.0085
▁photo	-10.0089
▁recommend	-10.0093
0,000	-10.0101
▁кров	-10.0104
дра	-10.0104
▁обеспечения	-10.0106
▁pr	-10.0107
ets	-10.0109
▁Китай	-10.0112
▁ensure	-10.0115
▁fire	-10.0118
шел	-10.0122
сол	-10.0125
▁оно	-10.0127
▁story	-10.0128
▁Сегодня	-10.0129
des	-10.0131
μ	-10.0132
▁Business	-10.0132
▁questions	-10.0134
▁knowledge	-10.0136
тельных	-10.0138
gl	-10.0139
▁files	-10.0139
▁table	-10.0141
▁vote	-10.0142
▁евро	-10.0142
▁нашем	-10.0143
бъедин	-10.0146
▁полу	-10.0146
▁leave	-10.0147
▁реклам	-10.0149
▁sort	-10.0152
▁экс	-10.0165
▁deep	-10.0167
ывают	-10.0167
▁иметь	-10.0176
эн	-10.0184
▁ряд	-10.0187
эт	-10.019
Я	-10.0195
▁issues	-10.0196
▁правительство	-10.0198
▁except	-10.02
▁министр	-10.0202
▁вопросы	-10.0205
чёт	-10.0212
▁основе	-10.0219
ique	-10.0222
▁potential	-10.0223
▁City	-10.0224
▁article	-10.023
▁section	-10.0231
▁leaders	-10.0232
под	-10.0233
▁рабочи	-10.0236
▁создания	-10.0236
▁факт	-10.0239
bar	-10.0241
mate	-10.0244
▁благо	-10.0245
▁Don	-10.0245
▁respect	-10.0245
суд	-10.0251
▁hear	-10.0252
ните	-10.0256
▁выше	-10.0264
bil	-10.0271
▁средства	-10.0273
щая	-10.0279
▁Shi	-10.0281
лом	-10.0285
▁операци	-10.0287
ата	-10.0292
▁press	-10.0293
пон	-10.0296
▁object	-10.0307
означает	-10.0312
▁строительств	-10.0313
вест	-10.0315
▁Gra	-10.032
илась	-10.0329
▁collect	-10.0332
▁outside	-10.0339
▁вне	-10.0344
get	-10.0346
▁Japan	-10.0346
rk	-10.0351
12	-10.0352
▁choose	-10.0357
▁translation	-10.0362
▁общественно	-10.0364
11	-10.0365
▁reduce	-10.0367
▁print	-10.038
▁последние	-10.038
grad	-10.0388
▁mountain	-10.0393
▁соответствии	-10.0395
▁роста	-10.0398
ируем	-10.0398
uck	-10.0405
▁Америк	-10.0405
будь	-10.0407
▁higher	-10.0412
▁слишком	-10.0415
▁Хо	-10.0416
илл	-10.0424
mar	-10.0424
▁месяц	-10.0424
▁спор	-10.0428
▁solution	-10.0435
ностью	-10.0437
▁сектор	-10.0438
▁attack	-10.0444
▁wish	-10.0446
▁self	-10.0448
▁28	-10.0451
▁говорит	-10.0454
▁month	-10.0463
▁continu	-10.0469
▁fall	-10.0469
▁Just	-10.0469
▁beginning	-10.0479
▁500	-10.048
тельный	-10.0482
▁долг	-10.0484
▁появи	-10.0487
hr	-10.0487
овым	-10.049
▁Следующи	-10.0491
▁сумм	-10.0497
▁месте	-10.0498
ette	-10.0504
▁though	-10.0504
▁годы	-10.0507
▁собира	-10.0508
▁guarantee	-10.0509
ident	-10.0509
▁бед	-10.051
▁technologies	-10.0512
▁представлены	-10.0513
▁близ	-10.0514
▁transport	-10.0523
▁nature	-10.0532
▁introduc	-10.0534
▁developing	-10.0539
fra	-10.0545
▁gene	-10.0547
▁propos	-10.0549
▁2001	-10.0551
▁challenge	-10.0556
▁торгов	-10.0557
▁состоит	-10.0557
▁ground	-10.0558
▁Applaus	-10.0566
▁завод	-10.057
ходят	-10.0575
▁bad	-10.0585
referred	-10.0591
истов	-10.0603
▁смерт	-10.0604
▁equipped	-10.0604
бит	-10.0609
▁Star	-10.061
▁Бр	-10.061
▁делает	-10.0617
▁позици	-10.0618
щей	-10.0624
▁contain	-10.0625
▁пресс	-10.0625
ались	-10.0625
IC	-10.0627
▁работе	-10.063
▁material	-10.0638
ования	-10.064
▁possibilit	-10.0641
mat	-10.0644
▁comfort	-10.0646
▁reform	-10.065
▁provid	-10.0657
▁Vista	-10.066
ular	-10.0662
▁First	-10.0664
фон	-10.0665
хотите	-10.0666
Х	-10.067
▁предложить	-10.0673
рет	-10.0673
▁eye	-10.0674
телей	-10.0675
руб	-10.0676
▁предприятия	-10.068
▁26	-10.0685
ляр	-10.0692
pen	-10.0694
▁современно	-10.0696
▁представляет	-10.0696
▁flow	-10.0696
воз	-10.0697
чной	-10.0703
ridge	-10.0712
▁double	-10.0712
▁Str	-10.072
NE	-10.0721
▁Bel	-10.0721
▁party	-10.0722
cha	-10.0726
▁объем	-10.0728
▁quiet	-10.0728
€	-10.0737
▁обмен	-10.0738
▁пр	-10.0739
▁Every	-10.0739
▁международн	-10.0741
▁Тепер	-10.0746
hold	-10.0747
▁почему	-10.0749
▁Запад	-10.0752
быт	-10.0753
▁спрос	-10.0755
изма	-10.0757
▁Vo	-10.076
▁Iran	-10.076
▁save	-10.0761
▁др	-10.0764
▁знаю	-10.0764
▁следующи	-10.0768
альным	-10.0769
TO	-10.0771
▁integrat	-10.0772
▁setting	-10.0776
ib	-10.0777
▁ограничен	-10.0779
▁общи	-10.0779
▁наук	-10.0783
ешь	-10.0783
тельные	-10.0788
ken	-10.0789
▁parts	-10.079
▁памят	-10.079
ost	-10.0791
▁payment	-10.0794
▁Ser	-10.0796
▁true	-10.0797
▁village	-10.08
▁улиц	-10.0801
SP	-10.0801
▁практически	-10.0804
▁distance	-10.0806
▁inform	-10.0809
чист	-10.081
▁широко	-10.0811
▁Africa	-10.0819
▁лес	-10.0827
▁Пре	-10.083
▁either	-10.0831
▁accommodation	-10.0836
▁Аплодисмент	-10.0839
▁Отзыв	-10.0841
▁дней	-10.0842
▁taking	-10.0845
фа	-10.0852
ставить	-10.0856
▁существует	-10.0856
▁produc	-10.086
iff	-10.0863
▁appli	-10.0864
org	-10.0865
▁groups	-10.0865
▁ним	-10.0865
▁stage	-10.0868
▁встреч	-10.0868
▁мало	-10.0871
▁Таким	-10.0874
▁Африк	-10.0876
▁одном	-10.089
▁subject	-10.0894
нет	-10.0894
▁road	-10.0897
spir	-10.0897
▁Ал	-10.0898
▁Пар	-10.0903
▁London	-10.0904
▁Сер	-10.0909
▁XP	-10.0914
▁pen	-10.0915
▁comes	-10.0918
нц	-10.0925
▁Facilit	-10.0928
▁производств	-10.0928
строй	-10.0929
оставлены	-10.0935
dom	-10.0936
▁исследовани	-10.0938
script	-10.094
▁rep	-10.094
▁rates	-10.0943
▁airport	-10.0945
ированны	-10.0946
▁нового	-10.0947
▁Time	-10.0948
▁анализ	-10.0949
▁additional	-10.0954
▁государства	-10.0966
75	-10.0977
▁ком	-10.0979
▁recent	-10.098
view	-10.0988
▁Ваши	-10.0988
тическо	-10.0989
▁сказать	-10.0992
ган	-10.0997
▁attention	-10.0998
▁basis	-10.1001
AD	-10.1003
▁je	-10.1006
▁границ	-10.1008
над	-10.1014
вать	-10.1017
▁heat	-10.1017
▁высоки	-10.102
▁управля	-10.1021
няя	-10.1035
▁word	-10.1035
▁валют	-10.1039
ties	-10.1039
clu	-10.104
▁Ваш	-10.1042
▁кризис	-10.1049
▁warm	-10.106
▁break	-10.106
▁increasing	-10.1062
▁son	-10.1067
мир	-10.1068
емые	-10.1069
SE	-10.1069
▁следует	-10.1069
▁дополнительны	-10.1077
▁consist	-10.108
▁характер	-10.1084
matic	-10.1084
nov	-10.1087
▁какой	-10.1096
▁Tri	-10.1097
▁явля	-10.1099
▁sell	-10.1099
▁Desk	-10.1101
пар	-10.1102
▁agreement	-10.1105
▁seen	-10.1111
▁последни	-10.1117
ì	-10.112
ush	-10.1126
▁лично	-10.1131
▁соответствующ	-10.1131
ющее	-10.1132
▁мои	-10.1135
▁Чтобы	-10.1138
▁Har	-10.1139
zo	-10.1139
▁president	-10.1141
▁мозг	-10.1142
▁Great	-10.1144
▁solutions	-10.1148
▁atmosphere	-10.1148
ош	-10.115
кая	-10.115
▁Trans	-10.1151
▁персонал	-10.1159
▁General	-10.1163
gre	-10.1167
▁employ	-10.1167
▁2002	-10.1168
▁doesn	-10.1168
овал	-10.1168
▁уверен	-10.1171
▁Inde	-10.1173
▁Val	-10.1176
▁случа	-10.1183
▁находят	-10.1185
▁express	-10.1195
▁discover	-10.1195
▁300	-10.1196
▁поиск	-10.1206
пал	-10.1207
▁pour	-10.1208
▁университет	-10.1208
▁elect	-10.1211
▁отношения	-10.1212
▁демократи	-10.1215
▁register	-10.1221
▁гостиниц	-10.1224
▁нашли	-10.1232
AM	-10.1237
▁firm	-10.1238
▁industrial	-10.1242
▁shop	-10.1244
▁programs	-10.1246
▁protection	-10.125
TI	-10.1251
▁наблюда	-10.1252
▁goal	-10.1256
▁Please	-10.1257
▁institutions	-10.1261
▁Friend	-10.1262
▁Let	-10.1263
▁ООН	-10.1273
roll	-10.1274
ified	-10.1278
▁active	-10.128
▁commercial	-10.1286
▁death	-10.1287
▁Fu	-10.1288
▁большинство	-10.1292
▁имею	-10.1293
▁former	-10.1294
▁prop	-10.1297
▁news	-10.1297
▁исключ	-10.1298
▁Sch	-10.1303
▁themselves	-10.1305
▁ничего	-10.1306
▁film	-10.1308
▁Q	-10.1311
▁brain	-10.1318
чная	-10.1323
▁nuclear	-10.1325
▁similar	-10.1325
▁помога	-10.1328
▁regard	-10.1328
ьер	-10.1328
ï	-10.133
▁специально	-10.1333
▁истори	-10.1344
▁Black	-10.1345
▁screen	-10.1345
▁могу	-10.1357
PA	-10.1359
ged	-10.1366
▁probabl	-10.1367
▁threat	-10.1369
▁display	-10.1372
▁государственны	-10.1372
▁качество	-10.1374
▁parking	-10.1376
▁получен	-10.1378
▁кос	-10.1382
▁изображения	-10.1384
▁else	-10.1385
▁organization	-10.1386
▁чего	-10.139
▁direction	-10.1391
▁reception	-10.1394
бель	-10.1395
бол	-10.1397
марк	-10.1397
▁количеств	-10.1399
кол	-10.1399
▁указан	-10.14
щим	-10.1401
▁simply	-10.1406
▁science	-10.1408
▁March	-10.1409
▁виде	-10.1417
изу	-10.1417
▁Япони	-10.1419
▁places	-10.1424
▁социально	-10.1426
▁голов	-10.143
▁рынк	-10.1437
▁fee	-10.1439
▁required	-10.144
▁роль	-10.1444
▁euro	-10.1449
▁название	-10.1449
▁six	-10.1452
▁Are	-10.1456
▁edit	-10.1458
vol	-10.146
▁write	-10.1463
▁Евро	-10.1463
ably	-10.1468
▁выполня	-10.1468
RI	-10.1473
▁миллиард	-10.1475
▁Air	-10.148
lov	-10.1481
вшие	-10.1484
cept	-10.1493
▁войны	-10.1493
▁Au	-10.1496
▁contract	-10.1498
▁ob	-10.15
▁practice	-10.1505
▁Center	-10.1505
▁распространен	-10.1507
▁communication	-10.1507
▁Char	-10.1508
слав	-10.1512
сер	-10.1519
▁usual	-10.1523
▁via	-10.1524
▁вариант	-10.1527
▁хороши	-10.153
▁Dur	-10.1531
льно	-10.1542
▁kill	-10.155
mic	-10.1559
▁директор	-10.156
▁хочу	-10.1562
▁облада	-10.1563
▁Tre	-10.1565
TE	-10.1568
▁wall	-10.1573
▁draw	-10.1575
▁à	-10.1577
udi	-10.1582
▁Hol	-10.1583
▁longer	-10.1586
▁тоже	-10.1588
▁Пере	-10.1589
▁оборудования	-10.159
▁программа	-10.1592
rel	-10.1594
▁Dan	-10.1604
▁court	-10.1604
▁картинк	-10.1606
ирование	-10.1611
▁friends	-10.1611
ню	-10.1613
▁категори	-10.1617
09	-10.1618
▁significant	-10.162
▁определя	-10.1623
▁install	-10.1625
▁element	-10.1627
▁rule	-10.1629
▁included	-10.1631
xi	-10.1635
▁established	-10.1635
▁развитие	-10.1636
▁сообществ	-10.1638
тельным	-10.1639
▁своем	-10.1648
▁треть	-10.1648
ically	-10.1655
миллионов	-10.166
▁paint	-10.167
▁исследования	-10.1675
ecause	-10.1678
▁стоит	-10.1678
rup	-10.1679
вил	-10.1681
рус	-10.1684
ification	-10.1684
▁Фран	-10.169
движ	-10.1695
▁35	-10.1696
правлен	-10.1697
вший	-10.1702
▁manage	-10.1703
▁disease	-10.1706
▁requirements	-10.1707
▁технологий	-10.1711
car	-10.1712
чин	-10.1718
▁fair	-10.1722
▁wood	-10.1723
▁какую	-10.1724
▁дело	-10.1727
▁Belarus	-10.1731
▁реформ	-10.1732
рожден	-10.1739
▁fit	-10.1739
▁Ча	-10.1741
▁Euro	-10.1741
▁фото	-10.1741
▁App	-10.1746
gh	-10.1747
ski	-10.1747
▁artist	-10.175
▁watch	-10.1752
▁требовани	-10.1756
▁Китая	-10.1762
▁door	-10.1763
▁важн	-10.1764
▁vari	-10.1765
▁Iraq	-10.1767
▁compar	-10.177
▁самое	-10.177
▁стратеги	-10.1779
▁extreme	-10.178
▁долго	-10.1784
тв	-10.1789
▁sun	-10.179
PS	-10.179
▁map	-10.1791
▁Today	-10.1792
чат	-10.1793
stone	-10.1803
▁Even	-10.1803
ham	-10.1804
▁эффект	-10.1805
60	-10.1807
▁влия	-10.1807
▁помочь	-10.181
нные	-10.1811
LE	-10.1814
ование	-10.1818
▁brand	-10.182
▁limit	-10.1823
CH	-10.1824
ограф	-10.1827
▁nothing	-10.1829
чным	-10.183
зу	-10.1831
▁запрос	-10.1833
▁foot	-10.1834
▁четыре	-10.1836
стран	-10.1839
▁управлени	-10.1844
▁park	-10.1847
▁electric	-10.1847
▁Grand	-10.185
▁национально	-10.1851
▁общества	-10.1859
▁wanted	-10.186
▁Non	-10.1863
ейши	-10.1866
temp	-10.1866
rew	-10.1869
Q	-10.1869
▁недо	-10.1873
▁снова	-10.1873
▁remov	-10.1876
▁decade	-10.1877
▁относительно	-10.1882
▁Ста	-10.1883
▁addition	-10.1885
▁оценк	-10.1892
▁квартир	-10.1893
kov	-10.1897
▁отвеча	-10.1897
▁Minister	-10.1898
▁growing	-10.1899
▁Uni	-10.1899
зор	-10.1905
▁знает	-10.1907
▁пользу	-10.1908
▁Sea	-10.1909
▁circ	-10.1909
▁соглашени	-10.1911
▁grow	-10.1911
▁update	-10.1912
▁точно	-10.1916
стру	-10.1917
▁однако	-10.1921
▁customer	-10.1922
▁игрок	-10.1924
▁транс	-10.1926
▁применя	-10.1927
▁block	-10.1929
▁banks	-10.1935
▁деньги	-10.1947
▁launch	-10.195
▁предлагаем	-10.1957
тивно	-10.196
▁Pet	-10.1963
▁версии	-10.1969
▁coming	-10.197
жение	-10.1971
ющихся	-10.1974
▁игры	-10.1978
нев	-10.1979
Ы	-10.1984
▁воздух	-10.1984
▁противо	-10.1986
▁отношении	-10.1988
▁fail	-10.1989
енд	-10.199
▁последне	-10.1993
▁крупны	-10.1994
▁export	-10.1998
gor	-10.1999
▁June	-10.1999
poli	-10.2006
•	-10.2007
▁citizen	-10.201
▁45	-10.201
▁installation	-10.2011
▁trip	-10.2011
▁вес	-10.2015
▁эффективно	-10.2016
▁воды	-10.2018
▁новой	-10.2019
▁ресурс	-10.202
▁предназначен	-10.202
ED	-10.2025
▁Armenia	-10.2026
▁welcome	-10.2028
▁достиг	-10.2028
▁бизнеса	-10.203
▁мнени	-10.2031
лик	-10.2037
▁требованиям	-10.2037
izing	-10.2043
▁Arab	-10.2044
роз	-10.2046
▁join	-10.2051
▁офис	-10.2052
▁holiday	-10.2068
rov	-10.207
▁фильм	-10.207
▁arm	-10.207
▁speed	-10.2076
▁Hu	-10.2084
spite	-10.2085
▁аэропорт	-10.2099
▁круг	-10.2106
щем	-10.2108
▁государственно	-10.2109
▁fill	-10.2113
▁Mer	-10.2114
▁типа	-10.2116
▁Центр	-10.2118
▁условиях	-10.2119
▁peace	-10.2119
▁размещени	-10.2121
▁task	-10.2122
▁31	-10.2124
ati	-10.2125
▁Due	-10.2126
▁began	-10.2127
▁standards	-10.213
▁fight	-10.2137
▁Мин	-10.2139
▁параметр	-10.2139
▁treat	-10.214
medi	-10.2144
▁lives	-10.2144
столько	-10.2145
▁Airport	-10.2153
▁Microsoft	-10.2155
▁HIV	-10.2155
▁won	-10.2155
ox	-10.2156
▁maintain	-10.2157
▁хранения	-10.216
▁находи	-10.2169
▁cooperation	-10.2173
MP	-10.2179
ita	-10.2179
nom	-10.2183
▁техник	-10.2186
▁Roman	-10.2186
эр	-10.2189
▁September	-10.2192
▁Since	-10.2195
▁Bra	-10.2203
бал	-10.2207
▁patient	-10.2216
yo	-10.2223
▁York	-10.2224
▁деятельность	-10.2227
▁Check	-10.2232
▁решил	-10.2234
▁построен	-10.2235
▁часов	-10.2236
tant	-10.2238
▁inside	-10.2239
▁финанс	-10.2242
▁tourist	-10.2243
▁cultural	-10.2248
▁системе	-10.2251
полага	-10.2253
▁serious	-10.2253
шеств	-10.2254
▁стен	-10.226
▁провер	-10.2262
▁Mil	-10.2263
▁анти	-10.2264
▁More	-10.2265
Ц	-10.2272
▁обратите	-10.2278
▁мужчин	-10.228
▁shown	-10.2283
uv	-10.2294
▁Her	-10.2295
▁restaurants	-10.2297
▁миллион	-10.2297
▁green	-10.2298
▁TM	-10.2298
▁продуктов	-10.2301
▁климат	-10.2302
▁становит	-10.2304
▁нуж	-10.2305
cur	-10.2313
▁множество	-10.2315
ole	-10.2317
▁Bro	-10.2319
▁века	-10.2322
▁fun	-10.2323
▁regional	-10.2324
▁успешно	-10.2329
▁большо	-10.2329
▁производит	-10.2331
альную	-10.2335
▁объясн	-10.2337
▁смысл	-10.2346
▁помощь	-10.2347
ME	-10.2354
nel	-10.2358
▁states	-10.2362
mmer	-10.2366
▁Fran	-10.2368
▁Israel	-10.2379
ланд	-10.2379
EL	-10.2383
▁trying	-10.2384
точ	-10.2386
▁коллекции	-10.239
▁студент	-10.2394
▁phrase	-10.2394
▁потом	-10.2395
▁внутри	-10.2397
▁Exchange	-10.2399
▁walking	-10.2407
▁ВИЧ	-10.2407
▁representative	-10.2409
▁types	-10.2411
▁scale	-10.2418
руч	-10.2422
▁getting	-10.2429
лон	-10.243
▁заключается	-10.2432
пример	-10.2435
▁convenient	-10.2451
▁black	-10.2451
▁suite	-10.2453
▁University	-10.2454
▁advantage	-10.2454
▁пункт	-10.2454
craft	-10.2455
▁дев	-10.2459
▁Tur	-10.246
▁cities	-10.2461
▁System	-10.2467
▁combine	-10.2474
▁списка	-10.2474
▁стоимость	-10.2487
▁проводит	-10.249
▁институт	-10.2495
clo	-10.2497
Ь	-10.2498
▁white	-10.2498
▁Более	-10.2498
ично	-10.2503
▁похож	-10.2504
.3	-10.2506
▁emerg	-10.251
▁расшир	-10.2512
▁равно	-10.2513
▁fish	-10.252
▁пользовател	-10.252
▁душ	-10.2522
▁asked	-10.2526
▁значение	-10.2529
▁связан	-10.2536
▁PC	-10.2538
ought	-10.2541
▁преимуществ	-10.2544
▁Итак	-10.2547
▁атмосфер	-10.255
фр	-10.256
▁Chi	-10.2563
пт	-10.2564
▁soon	-10.2567
ano	-10.2569
▁piece	-10.2572
lot	-10.2577
▁1990	-10.2577
▁Ди	-10.2577
▁recently	-10.2582
hen	-10.2584
▁остров	-10.2584
part	-10.2589
▁крайне	-10.2591
алл	-10.2595
▁implement	-10.2599
▁bigge	-10.2605
▁medical	-10.2605
▁debt	-10.2607
▁gain	-10.2611
▁completely	-10.2614
евой	-10.2615
lav	-10.2616
▁контрол	-10.2624
ваться	-10.2626
▁broad	-10.2628
лага	-10.2629
▁October	-10.263
.20	-10.263
▁мини	-10.2631
нской	-10.2634
▁separate	-10.2639
▁протяжени	-10.2641
бин	-10.2643
▁vot	-10.2643
▁shar	-10.2648
▁track	-10.2649
материал	-10.2652
▁easily	-10.2652
▁garden	-10.2653
▁оборудование	-10.2654
▁прошло	-10.2655
▁Open	-10.2659
дро	-10.2662
▁точки	-10.2666
способ	-10.2672
▁Public	-10.2672
▁conduct	-10.2677
звон	-10.2679
▁historical	-10.2682
▁известно	-10.2682
▁бог	-10.2683
▁difference	-10.2689
▁anything	-10.2689
▁надо	-10.2691
▁shopping	-10.2692
▁box	-10.2692
▁grand	-10.2696
ã	-10.2697
▁здоровь	-10.27
64	-10.27
▁парк	-10.2706
▁цены	-10.2712
▁agree	-10.2723
▁теле	-10.2727
▁связаны	-10.2727
▁metal	-10.2732
▁Council	-10.2737
▁информация	-10.2739
▁High	-10.274
▁profit	-10.2742
▁сфере	-10.2743
▁series	-10.2744
рыв	-10.2745
▁previous	-10.2745
▁owner	-10.2746
▁Республики	-10.2746
▁29	-10.2749
▁Америки	-10.2752
▁пользователя	-10.2756
вес	-10.2757
▁powerful	-10.2758
▁подпис	-10.2761
▁угроз	-10.2762
▁сильно	-10.2775
▁summer	-10.2775
▁Mor	-10.2785
▁Che	-10.2785
▁begin	-10.2792
▁практик	-10.2793
▁увидеть	-10.2796
ā	-10.2799
▁distribut	-10.2806
рин	-10.2806
▁mobile	-10.2807
▁target	-10.281
▁lower	-10.2811
▁независимо	-10.2811
▁Kar	-10.2822
могут	-10.2826
▁миру	-10.283
▁сбор	-10.283
verse	-10.2834
▁сообщени	-10.2836
▁рядом	-10.284
▁House	-10.2841
hood	-10.2843
zen	-10.2843
▁список	-10.2847
▁wait	-10.2848
▁другими	-10.2849
нского	-10.2852
▁command	-10.2855
▁небольш	-10.2855
▁capacity	-10.2861
▁трех	-10.2862
▁стала	-10.2862
▁Киев	-10.2864
▁conflict	-10.2867
▁существова	-10.2867
▁dans	-10.2873
овсем	-10.2878
▁мог	-10.2889
▁Play	-10.2892
▁supply	-10.2892
tric	-10.29
ama	-10.29
▁используют	-10.29
▁силы	-10.2904
▁independent	-10.291
▁Find	-10.2911
▁пути	-10.2915
▁paper	-10.2917
поль	-10.292
▁ready	-10.2922
▁movement	-10.2923
asse	-10.2924
kin	-10.2926
▁зрения	-10.293
AB	-10.2931
OM	-10.2942
мед	-10.2942
▁английск	-10.2947
ency	-10.295
▁ошибку	-10.295
▁пост	-10.2967
вор	-10.2968
▁составляет	-10.2971
▁hot	-10.2972
вол	-10.2973
▁charm	-10.2974
▁отдыха	-10.2977
▁отдельны	-10.2978
▁акци	-10.298
▁figure	-10.2981
чного	-10.2982
▁микро	-10.2982
ставлен	-10.2986
▁hundred	-10.2987
▁highly	-10.2988
▁конфликт	-10.3007
мещен	-10.3014
рел	-10.3017
▁Tour	-10.3028
▁экспорт	-10.3028
▁Use	-10.3028
bri	-10.3033
▁сильн	-10.3036
lia	-10.3038
▁exact	-10.3039
рование	-10.304
▁груз	-10.3049
нная	-10.3057
▁Иран	-10.306
▁огранич	-10.3062
▁award	-10.3063
▁ставк	-10.3064
olog	-10.3064
▁реализаци	-10.3068
ji	-10.3068
▁Restaurant	-10.3068
▁масштаб	-10.307
▁climate	-10.3071
▁стало	-10.3079
▁generation	-10.3081
▁Тем	-10.3081
65	-10.3084
▁tools	-10.3085
▁hour	-10.3086
гляд	-10.3089
шла	-10.3094
ацию	-10.3095
▁следующе	-10.3098
rant	-10.3102
▁другом	-10.3105
▁board	-10.3106
▁income	-10.3111
▁Mr	-10.3114
▁Bulgaria	-10.3115
▁переговор	-10.3118
▁сделан	-10.3118
▁drug	-10.3121
▁бассейн	-10.3129
▁бюджет	-10.3129
▁открыва	-10.313
▁отлича	-10.3135
▁rules	-10.3139
bro	-10.3143
РА	-10.3151
▁осуществля	-10.3155
CA	-10.3157
85	-10.3157
▁Основ	-10.3158
▁Above	-10.3171
▁Cas	-10.3172
▁December	-10.3173
▁drink	-10.3173
top	-10.318
раг	-10.319
▁stock	-10.3191
▁consult	-10.32
▁Red	-10.3202
▁кухн	-10.3207
пуск	-10.3208
▁Why	-10.3209
▁email	-10.3215
▁January	-10.3218
▁Программ	-10.3224
▁передач	-10.3225
▁Breakfast	-10.3229
▁3⁄	-10.3229
atory	-10.3235
▁лица	-10.3236
▁немного	-10.3244
▁parties	-10.3247
▁picture	-10.3248
▁вероятно	-10.325
▁district	-10.3253
▁принял	-10.3253
▁звук	-10.3268
▁страх	-10.3276
▁Die	-10.3277
▁director	-10.3278
кер	-10.3283
▁animal	-10.3286
▁component	-10.3292
▁Best	-10.3295
▁электронно	-10.3296
stitu	-10.3304
сон	-10.331
conf	-10.3312
▁domestic	-10.3312
▁Союз	-10.3314
▁любы	-10.3317
кус	-10.3318
▁normal	-10.3318
▁энергии	-10.332
▁мол	-10.3321
▁предста	-10.3327
▁tradition	-10.3329
▁канал	-10.3332
▁girl	-10.3337
▁гос	-10.3339
▁define	-10.334
▁everyone	-10.334
▁принадлеж	-10.3342
▁показател	-10.335
▁July	-10.3352
▁div	-10.3355
ї	-10.3357
▁den	-10.3362
nie	-10.3362
▁север	-10.3363
▁policies	-10.3363
▁музе	-10.3367
▁larger	-10.3369
uff	-10.337
▁исход	-10.3373
▁выгод	-10.3374
▁Front	-10.3375
одерж	-10.3377
▁April	-10.3378
ющими	-10.3379
▁organizations	-10.3385
▁tree	-10.3385
▁supplie	-10.339
▁вклад	-10.3394
▁sw	-10.3399
▁Gold	-10.3401
▁scientific	-10.3402
▁модели	-10.3402
▁цифр	-10.3405
▁Page	-10.3409
▁latest	-10.3411
▁partners	-10.3427
▁progress	-10.3429
▁имя	-10.3434
▁глобальн	-10.344
щик	-10.3445
▁клуб	-10.3445
elle	-10.3446
▁realize	-10.3453
▁equal	-10.346
▁decided	-10.346
▁Вер	-10.3467
head	-10.3473
▁вопросам	-10.3477
vil	-10.348
ивает	-10.3493
▁Many	-10.3494
▁Act	-10.3496
▁изменить	-10.3498
овали	-10.3505
▁потребител	-10.3507
▁международных	-10.3507
▁1⁄	-10.3508
▁видим	-10.3513
umb	-10.352
▁Korea	-10.3522
▁November	-10.3523
▁специальны	-10.3527
▁guide	-10.3533
▁Em	-10.3537
шки	-10.3539
▁Blue	-10.3539
▁экономи	-10.3542
фор	-10.3547
▁используем	-10.3548
▁commun	-10.3549
▁обеспечива	-10.3551
▁число	-10.3554
▁menu	-10.3555
▁правительств	-10.3555
▁особ	-10.3556
uf	-10.3556
ведение	-10.3557
▁carry	-10.3559
▁правила	-10.3562
▁sens	-10.3565
▁sum	-10.357
▁беспо	-10.3575
▁мой	-10.3577
▁приз	-10.3584
▁labor	-10.3595
▁архитектур	-10.3603
▁organis	-10.3604
▁Благодар	-10.3606
▁Его	-10.3607
▁национальны	-10.361
▁nation	-10.3613
▁32	-10.3621
▁Международн	-10.3621
АН	-10.3622
ject	-10.3625
▁reflect	-10.363
▁border	-10.363
▁Ya	-10.3632
zh	-10.3634
dan	-10.364
▁конференц	-10.3645
vin	-10.3648
▁замеча	-10.3649
▁комфорт	-10.3649
▁защиты	-10.3651
▁улучшен	-10.3651
▁wine	-10.3656
▁Pol	-10.3659
лот	-10.3661
▁middle	-10.3661
▁damage	-10.3661
▁loss	-10.3661
▁рек	-10.3664
слуша	-10.3666
▁path	-10.3672
viv	-10.3674
▁Mag	-10.3674
чить	-10.3675
▁concept	-10.3675
▁ради	-10.3677
▁комфортабельны	-10.368
▁разрешен	-10.3682
house	-10.3694
▁Германии	-10.3695
▁sales	-10.3697
▁principle	-10.3698
avec	-10.3701
▁материалов	-10.3705
ическое	-10.3706
▁торговы	-10.3706
▁развити	-10.3711
▁Whil	-10.3714
▁багаж	-10.3717
▁Ирак	-10.3719
▁самый	-10.3725
▁recognize	-10.3726
tech	-10.3727
▁обработк	-10.3728
▁late	-10.3729
▁говорил	-10.3733
▁матери	-10.3735
▁предостави	-10.3736
▁instead	-10.3736
▁fine	-10.3738
▁saw	-10.3742
ato	-10.3745
▁influence	-10.3751
▁сравнени	-10.3751
▁номерах	-10.3768
▁вкус	-10.3771
▁August	-10.3773
▁тако	-10.3773
▁changed	-10.3776
▁Экс	-10.3777
▁пользователей	-10.3779
▁перспектив	-10.3779
pre	-10.378
▁побед	-10.378
▁автомобилей	-10.3785
▁зависимости	-10.3785
▁горазд	-10.3786
▁сохрани	-10.379
▁формат	-10.379
▁кнопк	-10.3792
▁Va	-10.3796
▁подготовк	-10.3805
40	-10.3805
▁американски	-10.381
СТ	-10.3812
▁проектов	-10.3815
▁estate	-10.3817
▁Right	-10.3819
▁Ku	-10.3819
▁прежде	-10.3823
мар	-10.3825
▁рыб	-10.3825
▁written	-10.3835
▁variety	-10.3839
▁Bri	-10.3841
▁Ber	-10.3848
▁Украин	-10.3852
▁семей	-10.3855
пат	-10.3857
▁добав	-10.3858
▁relationship	-10.3861
IA	-10.3873
▁reserve	-10.3875
▁throughout	-10.3879
▁конкурс	-10.3879
▁обновлен	-10.3886
▁символ	-10.3886
08	-10.3886
▁широки	-10.3889
ающих	-10.389
▁имеется	-10.3894
▁Del	-10.3895
▁Gentoo	-10.3895
ado	-10.3902
цией	-10.3904
95	-10.3905
LL	-10.3907
▁Plan	-10.3907
ращен	-10.3908
▁Click	-10.3917
▁150	-10.3919
86	-10.392
▁Over	-10.3921
▁distribution	-10.3922
▁Sal	-10.3923
▁звезд	-10.3924
▁существу	-10.3928
▁chance	-10.3929
Smoking	-10.393
▁Mont	-10.3931
▁двига	-10.3934
▁подробн	-10.3936
▁status	-10.3936
▁Азии	-10.3937
▁переход	-10.3944
▁позволит	-10.3944
▁People	-10.3949
ющую	-10.3955
▁micro	-10.3957
▁стабильно	-10.3959
▁Earth	-10.3959
▁оплат	-10.396
▁highest	-10.3963
▁relative	-10.3965
щение	-10.3967
▁Рас	-10.3969
▁учет	-10.3975
▁традици	-10.3977
pet	-10.3979
▁Deposit	-10.3982
▁рассматрива	-10.3984
▁разработан	-10.3987
▁minute	-10.3989
▁sometimes	-10.399
эконом	-10.3993
▁According	-10.3994
▁европейски	-10.3995
▁vehicle	-10.3997
self	-10.4003
▁feature	-10.4005
▁приобрет	-10.401
▁городе	-10.4011
▁длин	-10.4013
▁cru	-10.402
▁response	-10.4035
телем	-10.4038
▁твое	-10.4038
▁месяцев	-10.4042
▁большинств	-10.4043
▁budget	-10.4045
▁совершенно	-10.4046
▁regular	-10.4048
▁behind	-10.4051
▁daily	-10.4051
▁вашего	-10.4055
▁потенциал	-10.4056
вис	-10.4062
EX	-10.4062
▁Life	-10.4064
▁Каждый	-10.4064
▁competition	-10.4072
▁социальны	-10.4074
▁Locat	-10.4076
▁внутренни	-10.4077
68	-10.4078
▁глобально	-10.4078
š	-10.408
▁Ос	-10.4081
▁технически	-10.4081
‐	-10.4086
▁resort	-10.4087
ა	-10.409
▁forward	-10.4096
▁восстановлен	-10.4103
▁группа	-10.4103
char	-10.4103
▁класса	-10.4106
▁Also	-10.4117
▁bedroom	-10.4126
▁slow	-10.4126
▁finish	-10.4129
▁Islam	-10.4132
▁одну	-10.4132
▁transform	-10.4133
Ð	-10.4135
\	-10.4138
ивают	-10.4139
▁производство	-10.4142
▁дух	-10.4148
▁союз	-10.4148
▁bath	-10.4149
▁lost	-10.4152
читыва	-10.4154
▁occur	-10.4154
▁Бел	-10.4156
▁Saint	-10.4162
жал	-10.4162
казан	-10.4165
LA	-10.4165
▁engag	-10.417
▁describe	-10.4171
руд	-10.4171
▁порядк	-10.4172
▁фактор	-10.4173
▁рынок	-10.4174
▁поколени	-10.4175
▁added	-10.4179
▁Like	-10.418
▁примерно	-10.4185
▁Прав	-10.4186
▁custom	-10.4186
▁цели	-10.4198
▁Аль	-10.4199
▁Ven	-10.4202
▁поле	-10.4207
aught	-10.4215
▁democracy	-10.4216
hal	-10.4219
▁farm	-10.422
▁remember	-10.4226
▁Бер	-10.4233
▁Italy	-10.4234
▁John	-10.4239
NT	-10.4239
▁rise	-10.424
ambi	-10.4242
▁Кол	-10.4244
▁Most	-10.4248
▁wonderful	-10.4253
AP	-10.426
▁сможет	-10.426
▁совместно	-10.4265
▁Club	-10.4269
▁фотографи	-10.4269
▁помещени	-10.427
▁начале	-10.4271
▁database	-10.4272
▁контакт	-10.4275
▁chambre	-10.4282
▁Спасибо	-10.4285
▁pack	-10.4286
ывать	-10.4291
.4	-10.4293
онных	-10.4293
▁1999	-10.4295
▁Only	-10.4298
давать	-10.4306
▁Президент	-10.4311
▁пациент	-10.4318
▁currency	-10.4324
▁efficient	-10.4324
▁блок	-10.4337
▁raise	-10.4341
▁prove	-10.4345
▁огромны	-10.4347
▁considered	-10.4348
burg	-10.4357
▁balance	-10.4357
▁фе	-10.4358
сможете	-10.4362
▁leader	-10.4363
▁Ду	-10.4363
▁http	-10.4367
чную	-10.4374
▁relations	-10.4377
▁принять	-10.4382
▁предоставлени	-10.4384
десят	-10.4386
▁Ve	-10.4386
йтесь	-10.4387
uggage	-10.4388
gro	-10.4389
▁планет	-10.4391
▁годов	-10.4391
LI	-10.4391
пыт	-10.4394
▁interested	-10.44
▁towards	-10.4406
▁fear	-10.4407
▁meaningful	-10.441
▁большим	-10.441
▁хозяйств	-10.441
ET	-10.4414
алист	-10.4423
▁average	-10.4424
▁Soviet	-10.4427
lip	-10.4428
▁Box	-10.4431
▁другим	-10.4431
eath	-10.4438
▁непосредственно	-10.4444
▁фл	-10.4444
▁button	-10.4446
▁thus	-10.4446
нести	-10.4446
▁холод	-10.4454
▁opened	-10.4454
▁данны	-10.4456
▁частны	-10.4457
▁Турци	-10.4461
▁running	-10.4466
▁demonstrat	-10.4467
▁whose	-10.4468
▁ошибк	-10.4469
изирован	-10.447
80	-10.4473
▁усили	-10.4476
▁invite	-10.4478
wel	-10.4481
строить	-10.4481
▁основном	-10.4489
▁plus	-10.449
ивать	-10.4491
▁процедур	-10.4494
▁hair	-10.4497
▁wrong	-10.4497
▁движени	-10.4504
▁налогов	-10.4506
ison	-10.4506
44	-10.451
▁police	-10.4511
vic	-10.4515
▁создание	-10.4518
▁creation	-10.4519
▁Turkey	-10.4521
▁Auto	-10.4521
▁различные	-10.4523
α	-10.4524
▁вызыва	-10.4528
▁Villa	-10.4529
▁недвижимости	-10.4531
▁форму	-10.4535
▁промышленности	-10.454
чек	-10.4541
dding	-10.4551
▁currently	-10.4553
TP	-10.4554
▁обеспечение	-10.4562
▁предмет	-10.4562
дневн	-10.4564
▁couple	-10.4565
▁Design	-10.4565
▁creating	-10.4565
▁kitchen	-10.4568
▁всю	-10.4573
▁yourself	-10.4574
ulation	-10.4574
▁Штат	-10.4579
РО	-10.4581
Ю	-10.4581
емой	-10.4583
▁impact	-10.4587
▁format	-10.4587
▁очередь	-10.459
▁pressure	-10.4594
пп	-10.4595
▁department	-10.4595
▁эксперт	-10.4595
place	-10.4602
▁Egypt	-10.4605
▁половин	-10.461
эк	-10.461
▁станет	-10.4616
▁подобны	-10.4619
15	-10.462
▁стреми	-10.462
▁вечер	-10.4622
▁водо	-10.4632
▁invest	-10.4634
▁physical	-10.4636
▁фирмы	-10.4638
▁Украине	-10.4644
▁arrange	-10.4646
▁Возможно	-10.4646
▁Москв	-10.4648
▁surface	-10.4649
топ	-10.4651
▁кризиса	-10.4652
граф	-10.4657
▁правильно	-10.4657
▁контроля	-10.4658
▁трудно	-10.4658
▁administration	-10.466
▁решений	-10.466
▁журнал	-10.4662
▁самого	-10.4664
▁lack	-10.4668
рг	-10.4676
прияти	-10.4679
▁процесса	-10.4682
▁mother	-10.4685
▁blog	-10.4688
▁степени	-10.4699
▁предела	-10.4703
▁работник	-10.4704
шение	-10.4709
▁mention	-10.4712
tag	-10.4714
▁активно	-10.4717
▁готовы	-10.4717
▁learning	-10.4725
▁Any	-10.4728
▁Некоторы	-10.4731
▁частью	-10.4735
▁Server	-10.4735
▁existing	-10.4737
▁будущем	-10.4739
▁shape	-10.4741
Ч	-10.4742
рн	-10.4744
ı	-10.4749
▁determine	-10.4749
▁hall	-10.475
upon	-10.4753
▁членов	-10.4753
ектор	-10.4755
▁организация	-10.476
▁Hour	-10.4761
▁channel	-10.4762
▁authorities	-10.4767
▁включен	-10.4769
▁региона	-10.4776
board	-10.4781
▁procedure	-10.4783
рег	-10.4787
▁образования	-10.4788
зин	-10.4788
▁вещи	-10.4789
▁Old	-10.4789
▁заключен	-10.4789
▁happy	-10.479
▁Security	-10.4793
▁flight	-10.4794
▁отчет	-10.4796
▁Italian	-10.4797
▁волн	-10.4799
▁заболевани	-10.48
▁Get	-10.4804
бег	-10.4805
▁агентств	-10.4808
▁автоматически	-10.4819
07	-10.4821
▁explain	-10.4821
▁кандидат	-10.4824
▁square	-10.4828
▁someone	-10.4834
▁сразу	-10.4839
▁shower	-10.4841
▁corporate	-10.4842
▁Итали	-10.4842
▁случая	-10.4847
▁Бог	-10.4847
mod	-10.4849
▁listen	-10.485
▁некурящи	-10.4856
▁Tru	-10.4857
▁путь	-10.4858
▁январ	-10.4859
стор	-10.4863
▁club	-10.4866
▁deposit	-10.4868
06	-10.4869
▁стимул	-10.487
носит	-10.487
▁born	-10.4874
▁хочет	-10.488
▁возможны	-10.4891
▁скорее	-10.4893
48	-10.4894
▁сложно	-10.4898
▁взгляд	-10.4898
▁cross	-10.4898
гар	-10.4901
▁ночь	-10.4902
чит	-10.4908
DA	-10.4908
bul	-10.4913
▁Мне	-10.4917
▁annual	-10.4933
КА	-10.4939
▁производитель	-10.4942
▁крупн	-10.4943
▁меню	-10.4946
▁людям	-10.4947
▁дат	-10.495
НИ	-10.4952
▁каждом	-10.4955
▁повтор	-10.4961
▁exclusive	-10.4964
room	-10.4964
▁Буд	-10.4965
▁Bur	-10.4966
▁hospital	-10.4968
▁файлов	-10.4968
▁avoid	-10.4971
▁море	-10.4972
▁compet	-10.4972
▁бумаг	-10.4975
▁экран	-10.4975
▁языка	-10.4981
▁advanced	-10.499
ейчас	-10.499
▁teach	-10.4993
▁модель	-10.4993
▁safety	-10.4996
плот	-10.4997
position	-10.4998
▁больш	-10.4999
▁сотрудник	-10.5
PE	-10.5009
▁видов	-10.5012
▁пляж	-10.5019
▁workers	-10.5022
▁Потом	-10.5022
▁Safety	-10.5024
▁traffic	-10.5024
▁среды	-10.5025
▁expand	-10.5028
ami	-10.5032
НО	-10.5034
aire	-10.5037
▁вокруг	-10.5038
скр	-10.5043
▁блюд	-10.5046
ific	-10.5046
▁campaign	-10.5052
LO	-10.5053
опасн	-10.5054
▁Op	-10.5059
bird	-10.5062
▁отсутстви	-10.5063
▁Very	-10.5063
▁довольно	-10.5081
99	-10.5086
▁partner	-10.5087
▁morning	-10.5095
▁paid	-10.5098
▁обеспечить	-10.5099
▁obtain	-10.5103
▁мастер	-10.5107
▁apply	-10.5113
▁включает	-10.5118
▁животны	-10.5127
▁selection	-10.5128
земн	-10.513
жин	-10.5132
пир	-10.5133
ý	-10.5134
▁вывод	-10.5136
dict	-10.5137
chan	-10.515
▁звездочны	-10.5156
▁letter	-10.5165
▁connected	-10.5166
▁прошлом	-10.5171
нки	-10.5171
▁load	-10.5176
▁Skype	-10.5177
▁необходим	-10.5179
▁совершен	-10.518
▁manager	-10.5182
▁этап	-10.5187
▁расширени	-10.5191
▁essential	-10.5192
▁limited	-10.5197
бел	-10.5199
▁Institute	-10.5202
шка	-10.5203
▁начать	-10.5204
▁planet	-10.5205
мышлен	-10.5207
▁glass	-10.521
фф	-10.5213
▁обеспечивает	-10.5213
▁Ministry	-10.5213
▁British	-10.5213
▁spread	-10.5224
▁снижени	-10.5229
▁признан	-10.5233
▁monitor	-10.5235
▁visitors	-10.5238
ура	-10.5239
88	-10.524
▁THE	-10.5245
▁greater	-10.5249
▁лицензи	-10.5249
▁начало	-10.5253
▁военны	-10.5256
▁Development	-10.5256
▁charged	-10.5257
▁Ze	-10.5258
▁notice	-10.5259
▁Ben	-10.526
▁Latvia	-10.526
▁constant	-10.526
▁выбрать	-10.5264
▁одновременно	-10.5268
▁Storage	-10.5278
▁республик	-10.5282
▁получает	-10.5284
▁Многи	-10.5293
▁Ltd	-10.5294
▁Program	-10.5296
▁занимает	-10.5298
▁научно	-10.5301
оветуем	-10.5302
▁sale	-10.5304
▁покупк	-10.5306
▁Gal	-10.5316
▁comment	-10.5321
▁техническо	-10.5328
▁картин	-10.5331
▁published	-10.5332
▁Tip	-10.5338
39	-10.5338
▁штат	-10.5342
▁будем	-10.5348
▁голос	-10.5351
нюю	-10.5351
▁adopt	-10.5351
тверд	-10.5353
▁имел	-10.5354
▁сообщения	-10.5358
блик	-10.5363
▁master	-10.5364
▁открыты	-10.5364
▁February	-10.5366
▁считает	-10.5377
▁руководител	-10.538
OL	-10.5384
▁responsibl	-10.5384
▁приглаш	-10.5385
дорож	-10.5386
▁Real	-10.5394
▁joint	-10.5394
▁voice	-10.5395
▁Japanese	-10.5399
▁испыта	-10.5399
▁guy	-10.54
▁аренд	-10.54
ализаци	-10.5402
▁river	-10.5402
▁useful	-10.5403
▁ancient	-10.5406
енную	-10.5406
▁statistic	-10.541
▁seek	-10.541
▁идея	-10.5412
▁programme	-10.5413
berg	-10.5417
▁относящие	-10.5421
▁worth	-10.5421
▁согласи	-10.5427
▁высоким	-10.5428
▁основных	-10.5428
▁основны	-10.543
▁therefore	-10.5439
▁друга	-10.5439
влекательн	-10.5441
леп	-10.5446
▁точк	-10.5449
▁путем	-10.5458
▁observ	-10.5462
писать	-10.5465
▁Apart	-10.5465
▁taste	-10.5466
▁Конечно	-10.5469
▁денег	-10.5476
▁photograph	-10.5476
▁механизм	-10.548
▁богаты	-10.5484
▁поиска	-10.5486
техн	-10.5486
▁JavaScript	-10.5491
▁десятилети	-10.5491
▁сеть	-10.5497
▁happened	-10.5499
▁fan	-10.5501
▁крупнейши	-10.5502
▁Two	-10.5503
работают	-10.5503
chen	-10.5506
▁металл	-10.5508
.6	-10.5513
▁каб	-10.552
var	-10.552
▁seven	-10.5521
ёл	-10.5521
▁Who	-10.5523
▁Will	-10.5524
▁форум	-10.5528
▁потеря	-10.5536
▁cuisine	-10.5547
▁радио	-10.5548
▁влияние	-10.555
▁Street	-10.5554
work	-10.5557
▁resident	-10.5562
▁fundamental	-10.5573
▁employees	-10.5573
▁Наша	-10.5575
▁Gay	-10.5576
▁температур	-10.5576
▁gave	-10.5578
▁weak	-10.5579
▁жизне	-10.5588
вшим	-10.5595
▁требу	-10.5598
ні	-10.56
▁торговли	-10.5602
▁Court	-10.5603
▁закрыт	-10.5605
▁Ресторан	-10.5606
▁окруж	-10.5608
▁refer	-10.5609
▁kids	-10.5611
▁Данны	-10.5611
▁соединен	-10.5611
night	-10.5612
▁Moreover	-10.5614
цеп	-10.5614
▁предложения	-10.5615
стал	-10.5616
фин	-10.5617
▁telephone	-10.5618
▁grammatical	-10.5621
▁pleasant	-10.5621
▁аппарат	-10.5621
словом	-10.5621
▁Земл	-10.5628
цер	-10.5628
▁museum	-10.5629
▁spacious	-10.5629
▁област	-10.5629
▁electronic	-10.5633
▁прекрасно	-10.5633
▁назначен	-10.5636
▁показан	-10.5638
▁regime	-10.5641
▁rapid	-10.5644
▁революци	-10.5648
▁fuel	-10.5652
▁цель	-10.5667
зон	-10.567
▁dream	-10.5678
̧	-10.5682
▁Найти	-10.5682
▁replace	-10.5685
▁недавно	-10.5685
NO	-10.569
▁контроль	-10.5691
▁берег	-10.5701
meter	-10.5706
▁здравоохранени	-10.5712
▁убеди	-10.5712
▁Лу	-10.5715
▁Европейско	-10.5716
▁окружающе	-10.572
думать	-10.5721
▁регистраци	-10.5727
изаци	-10.5727
RT	-10.5728
истическ	-10.5733
▁positive	-10.5735
▁необходимости	-10.5736
▁radio	-10.5747
▁satellite	-10.5754
▁attempt	-10.5754
▁Party	-10.5754
▁negotiat	-10.5757
▁проведен	-10.5761
▁strategy	-10.5765
fold	-10.577
плав	-10.577
▁coffee	-10.5773
шедш	-10.5782
▁Middle	-10.5784
▁degree	-10.5788
lig	-10.579
▁бюро	-10.5792
▁обраща	-10.5793
▁400	-10.5794
▁Китае	-10.5796
▁состоянии	-10.5803
▁состоял	-10.5816
▁грамматически	-10.5818
▁driver	-10.5822
▁adult	-10.5823
▁Rome	-10.5823
▁zone	-10.5823
ova	-10.5825
▁лиш	-10.5832
▁листинг	-10.5834
▁branch	-10.5834
▁journal	-10.5845
ô	-10.5845
▁внешне	-10.5849
▁count	-10.5851
▁neighbor	-10.5853
▁Почему	-10.5853
▁находишь	-10.5853
▁Garden	-10.5853
IM	-10.5854
▁revolution	-10.5857
▁temperature	-10.5857
▁сосед	-10.5857
▁route	-10.5859
aries	-10.586
▁mix	-10.5862
▁solve	-10.5862
▁Director	-10.5863
двиг	-10.5864
aimed	-10.5865
▁согласно	-10.5872
▁USD	-10.5874
▁swimming	-10.5876
▁стиле	-10.588
▁registration	-10.588
▁Home	-10.5885
▁internal	-10.5885
♫	-10.5888
▁license	-10.5888
▁произошл	-10.5892
▁Game	-10.5894
▁статус	-10.5895
▁привел	-10.5896
▁уме	-10.5903
▁конференции	-10.5908
▁позвол	-10.591
▁freedom	-10.5912
▁сложны	-10.5913
▁перечисленным	-10.5915
▁consumer	-10.5922
▁suffer	-10.5926
▁carried	-10.5926
▁завтрак	-10.593
▁хороше	-10.593
▁фразо	-10.593
▁иногда	-10.5934
▁volume	-10.5938
▁instrument	-10.5949
▁season	-10.595
▁Under	-10.5953
RS	-10.5959
67	-10.5961
▁match	-10.5964
тельств	-10.5964
є	-10.5965
▁говорят	-10.5966
▁opportunities	-10.5969
▁Mac	-10.5971
point	-10.5972
▁Bush	-10.5973
▁имени	-10.5973
▁Pan	-10.598
▁события	-10.5984
▁fresh	-10.5984
олько	-10.5991
▁Private	-10.5996
▁кроме	-10.5997
▁своё	-10.6008
▁ответственность	-10.601
▁действий	-10.6012
▁terrace	-10.6016
▁committ	-10.6023
gli	-10.6024
пущен	-10.6029
▁слыш	-10.6032
▁recover	-10.6035
▁делают	-10.6038
▁installed	-10.6042
▁сохраня	-10.6043
▁trust	-10.6044
▁вооруж	-10.6047
▁tend	-10.6049
▁территори	-10.6054
BC	-10.606
▁уникальн	-10.606
змож	-10.6063
▁эксплуатаци	-10.607
▁пользова	-10.6078
▁discuss	-10.6082
▁absolute	-10.6082
▁просмотр	-10.6083
▁AIDS	-10.6086
▁моря	-10.6098
ТО	-10.61
▁получит	-10.61
▁spirit	-10.6102
▁контекстуальны	-10.6106
▁валюты	-10.6106
▁Пер	-10.6108
▁сигнал	-10.611
ологии	-10.6111
смотрите	-10.6111
▁Express	-10.6116
commerce	-10.6122
TS	-10.6122
esse	-10.6123
IL	-10.6123
▁Power	-10.6125
▁военно	-10.6129
▁Other	-10.6133
▁Круглосуточны	-10.6133
ł	-10.6137
▁DVD	-10.6137
▁extend	-10.6137
▁движения	-10.614
▁prett	-10.6141
▁общественны	-10.6142
gel	-10.6142
▁француз	-10.6145
▁контекстуально	-10.6149
▁architecture	-10.6154
▁ценност	-10.6159
EM	-10.616
▁компонент	-10.6161
▁технология	-10.6165
▁1998	-10.6165
ложение	-10.6167
VE	-10.6167
▁товаров	-10.6168
ი	-10.6169
05	-10.617
▁cool	-10.6175
▁saving	-10.6176
▁основани	-10.6176
▁Vol	-10.618
25	-10.6184
вместо	-10.6186
▁secure	-10.619
▁automatically	-10.6194
▁спец	-10.6195
▁оформлен	-10.6201
▁territory	-10.6201
ING	-10.621
▁rock	-10.6212
ÿ	-10.6213
нец	-10.6213
▁приходит	-10.6215
▁устанавлива	-10.6217
▁typical	-10.6221
▁данным	-10.6224
▁инвестор	-10.6229
НА	-10.6229
▁responsibility	-10.6233
▁Za	-10.6242
▁профессиональны	-10.6244
▁собран	-10.6246
box	-10.6251
▁band	-10.6252
▁friend	-10.6254
▁автомобиль	-10.6257
▁разум	-10.6267
▁билет	-10.627
▁convert	-10.6278
▁interact	-10.6278
▁комисси	-10.6281
▁попытк	-10.6283
▁Российск	-10.6289
▁резерв	-10.6289
▁Именно	-10.6293
▁услугам	-10.6296
▁combination	-10.6297
▁worldwide	-10.6297
▁российски	-10.6297
▁celebrat	-10.6297
▁термин	-10.6305
▁pick	-10.6309
▁молоды	-10.6309
▁распредел	-10.631
▁объединен	-10.6312
▁Latin	-10.6314
кру	-10.6315
▁reality	-10.6327
▁знаем	-10.633
▁посредство	-10.6333
▁рабоче	-10.6333
▁осозна	-10.6334
▁гости	-10.6335
▁David	-10.6337
лежа	-10.6345
▁Сейф	-10.6345
▁elegant	-10.6349
гиб	-10.635
▁автомат	-10.6352
TH	-10.6355
▁верси	-10.636
▁blood	-10.6361
▁невозможно	-10.6361
▁мировы	-10.6365
▁digital	-10.6369
▁symbol	-10.6369
NG	-10.6375
▁interface	-10.6377
▁environmental	-10.6378
▁оборудован	-10.6379
▁кафе	-10.6381
▁бесплатны	-10.6382
▁знания	-10.6382
▁import	-10.6385
▁platform	-10.6385
▁violence	-10.6385
▁ресурсов	-10.6398
gun	-10.6401
▁doctor	-10.6403
▁Мир	-10.6405
▁тест	-10.6409
▁курорт	-10.641
▁удобно	-10.6413
▁свободно	-10.6414
▁practical	-10.6414
▁специалистов	-10.6415
bon	-10.6416
▁взаимо	-10.6418
▁обязательств	-10.6422
tended	-10.6423
▁онлайн	-10.6426
▁научны	-10.6428
▁promote	-10.643
оборот	-10.643
▁restor	-10.6435
US	-10.6435
▁stuff	-10.6436
▁Suite	-10.6436
▁ISO	-10.6443
▁Clean	-10.6455
kept	-10.6463
TR	-10.6465
▁Индии	-10.6467
SL	-10.6469
▁прекрасны	-10.6472
▁ошиб	-10.6474
▁hit	-10.6475
▁компанией	-10.6478
▁correspond	-10.6479
▁общество	-10.6486
▁USA	-10.6486
▁тепло	-10.6487
▁местны	-10.649
▁dynamic	-10.6495
▁govern	-10.6496
▁Германи	-10.6503
▁parameter	-10.6504
▁involved	-10.6505
▁Square	-10.6508
▁democratic	-10.6508
▁movie	-10.6508
▁participate	-10.6519
▁virtual	-10.652
▁инвестиционн	-10.652
▁Ор	-10.6528
▁trend	-10.6533
▁Сан	-10.6533
доволь	-10.6535
▁изготовлен	-10.6535
▁teacher	-10.6541
▁motor	-10.6542
unk	-10.6543
▁настройк	-10.6546
▁sheet	-10.6548
▁blue	-10.6549
щает	-10.6551
▁Нью	-10.6551
▁analysis	-10.6553
▁insurance	-10.6553
▁amazing	-10.6569
▁удобств	-10.6571
▁каталог	-10.6573
▁сотрудничества	-10.6573
ulate	-10.6576
▁appropriate	-10.6578
98	-10.6583
▁целом	-10.6585
▁alternative	-10.6586
▁church	-10.6586
▁prison	-10.6587
▁говорить	-10.6588
▁drop	-10.659
▁attract	-10.6592
▁встреча	-10.6596
▁пять	-10.6602
срочн	-10.6608
▁ведь	-10.6619
titude	-10.662
back	-10.6621
ставляют	-10.6622
бав	-10.6624
▁частност	-10.6627
▁людьми	-10.6627
▁1997	-10.6627
ард	-10.6628
▁historic	-10.6629
▁СПИД	-10.6631
▁Камера	-10.6633
▁majority	-10.6638
▁luxury	-10.664
▁достижения	-10.6641
▁используя	-10.6648
▁dedicat	-10.6649
▁поводу	-10.6657
▁alone	-10.666
▁perhaps	-10.6661
▁власть	-10.6662
▁проч	-10.6663
▁Poland	-10.667
▁prefer	-10.6671
▁secret	-10.6686
▁adapt	-10.6686
▁диплом	-10.669
▁каким	-10.669
▁версия	-10.6691
▁работал	-10.6696
▁американско	-10.6698
▁Государств	-10.6706
▁администраци	-10.6706
▁Nation	-10.6715
▁история	-10.6716
▁знал	-10.6717
▁довери	-10.6718
▁выступа	-10.6722
▁находя	-10.6728
▁стоимости	-10.6732
▁Восток	-10.6732
▁innovation	-10.674
▁дальнейше	-10.674
хотят	-10.6741
▁gold	-10.6761
▁увеличива	-10.6761
UR	-10.6762
▁Heating	-10.6764
▁эксперимент	-10.6765
▁modifi	-10.6767
▁Elevator	-10.6769
▁tea	-10.677
▁Аб	-10.6772
▁поддержа	-10.6775
▁материалы	-10.678
graph	-10.6781
▁коллектив	-10.6782
▁Южно	-10.6785
▁добро	-10.6789
▁оцени	-10.679
▁root	-10.6792
▁scientist	-10.6795
▁требует	-10.6798
▁удален	-10.6799
▁усилия	-10.6801
▁интерфейс	-10.6803
▁сегодняшни	-10.6808
▁гео	-10.681
▁counter	-10.6811
▁Association	-10.6812
▁сих	-10.6814
▁сотрудников	-10.6815
▁возраста	-10.682
▁1000	-10.6821
нимания	-10.6822
▁смогл	-10.6824
pot	-10.6825
▁иностранных	-10.6831
▁платеж	-10.6832
▁секрет	-10.6837
▁голосов	-10.6837
▁кампани	-10.6841
OT	-10.6843
▁затрат	-10.6844
47	-10.6847
▁предполага	-10.6849
▁маршрут	-10.685
регулиров	-10.685
▁столиц	-10.6854
▁Конференц	-10.6858
▁finance	-10.6858
зависим	-10.6859
quip	-10.6872
▁colour	-10.6875
▁immediately	-10.6877
▁начинает	-10.688
▁Вмест	-10.6886
▁specialists	-10.6888
▁красот	-10.6893
▁произведен	-10.6894
▁eat	-10.6894
▁Law	-10.6897
▁двор	-10.6899
IR	-10.6901
▁показал	-10.6901
мимо	-10.6902
CP	-10.6904
▁Yu	-10.6907
▁desire	-10.6916
▁specializ	-10.6918
78	-10.6918
▁сентября	-10.6922
MO	-10.6936
▁видеть	-10.6948
õ	-10.6952
▁woman	-10.6956
▁Word	-10.6957
▁Back	-10.6958
▁остальны	-10.6962
▁Лифт	-10.6962
известн	-10.6972
▁участк	-10.6975
▁вперв	-10.6977
▁surrounding	-10.6982
▁марта	-10.6982
▁здания	-10.6986
вшись	-10.699
▁инфраструктур	-10.6991
▁Kazakhstan	-10.6995
▁strategic	-10.6995
▁oblig	-10.6996
77	-10.6996
▁Palestinian	-10.6999
▁manufacturing	-10.6999
▁Восточно	-10.6999
▁перемен	-10.7002
▁Франции	-10.7002
ивается	-10.7002
▁south	-10.7005
ТЕ	-10.7006
▁представить	-10.7008
скоре	-10.7008
льц	-10.7012
bili	-10.7013
▁experiment	-10.7017
▁правило	-10.7017
▁предложение	-10.7018
КО	-10.7021
▁возможностей	-10.7024
▁пес	-10.7024
ологическ	-10.703
▁default	-10.7034
▁pra	-10.7036
▁эффективны	-10.7038
▁нужда	-10.7042
▁журналист	-10.7044
smoking	-10.7047
▁Count	-10.7048
▁зависит	-10.7051
▁Commission	-10.7054
▁видите	-10.7055
▁оригинал	-10.706
▁последствия	-10.7063
▁Moldova	-10.7068
▁дополнительно	-10.7069
▁положение	-10.7071
▁Можно	-10.7073
Ж	-10.7077
▁максимально	-10.7089
пиш	-10.7089
▁спектр	-10.709
▁создал	-10.7094
▁beyond	-10.7095
▁обслуживание	-10.7096
▁низки	-10.7101
шт	-10.7111
49	-10.7111
▁Shop	-10.7112
▁cheap	-10.7114
▁Department	-10.7116
ibility	-10.7116
▁ПО	-10.7116
▁assistance	-10.7119
ЕН	-10.7121
▁уникальны	-10.7123
▁Ло	-10.7124
▁dark	-10.7128
▁coast	-10.7129
ī	-10.7129
▁obvious	-10.7129
▁промышленно	-10.7133
▁мероприятия	-10.7138
▁требуется	-10.7145
▁technique	-10.7147
▁био	-10.7153
функциональн	-10.7154
▁affect	-10.716
trading	-10.7162
▁skin	-10.7165
▁Авто	-10.7165
▁исключительно	-10.7166
▁Super	-10.7167
таль	-10.7174
▁привлек	-10.7175
▁infrastructure	-10.7178
▁энерги	-10.7184
▁Head	-10.7185
▁рассмотре	-10.7191
▁театр	-10.7191
▁giving	-10.7195
▁предложен	-10.7199
ОН	-10.7203
▁Czech	-10.7204
▁generate	-10.721
▁pattern	-10.7213
▁1980	-10.7214
▁imagine	-10.7217
▁учитыва	-10.722
book	-10.7221
FA	-10.7225
▁подобно	-10.7225
▁раньше	-10.7226
▁Product	-10.7228
▁Year	-10.7235
▁интеллект	-10.7239
▁announced	-10.7241
▁ядерно	-10.7244
▁дети	-10.7245
▁Ново	-10.7251
▁высот	-10.7259
physi	-10.726
▁Global	-10.7261
▁species	-10.7266
коммун	-10.7269
▁внешни	-10.727
▁Рус	-10.7272
тяж	-10.7283
▁Соединенны	-10.7283
▁посвящен	-10.7292
ворот	-10.7301
хождени	-10.7309
▁парламент	-10.731
▁approv	-10.7312
▁external	-10.7314
▁transaction	-10.7314
▁eight	-10.7322
▁распространя	-10.7331
▁investigat	-10.7333
▁линии	-10.7334
▁investors	-10.7334
▁роскош	-10.7341
▁новое	-10.7343
▁нельзя	-10.7346
û	-10.735
▁сердце	-10.735
▁father	-10.7355
▁birth	-10.7359
▁Фонд	-10.736
▁meters	-10.7364
▁domain	-10.7364
▁опасно	-10.7371
▁sleep	-10.7372
▁подверг	-10.7373
РЕ	-10.7373
▁традиционны	-10.7381
▁многочисленны	-10.7381
▁error	-10.7382
▁знак	-10.7385
▁Meeting	-10.7386
▁страда	-10.7396
▁Office	-10.7397
▁тенденци	-10.7399
▁Down	-10.74
Petersburg	-10.7404
▁beauty	-10.7404
▁boot	-10.7404
▁осуществляет	-10.7418
▁opinion	-10.7426
▁европейско	-10.7432
▁Kiev	-10.7434
▁trial	-10.7435
changing	-10.7436
▁classic	-10.7439
▁Museum	-10.744
▁ранее	-10.7449
▁говоря	-10.7452
веч	-10.7453
▁competitive	-10.7453
▁Sam	-10.7455
RU	-10.7461
▁steel	-10.7463
▁ходе	-10.7463
▁divid	-10.7466
▁Fax	-10.747
▁Россия	-10.7471
56	-10.7471
▁failure	-10.7474
▁дале	-10.7476
▁Fund	-10.7483
▁attend	-10.7492
▁провести	-10.7497
▁религи	-10.7507
▁politics	-10.7507
▁художник	-10.7507
▁Хотя	-10.7507
bound	-10.7516
▁Information	-10.7521
▁Систем	-10.7521
front	-10.7527
даёт	-10.7528
▁информационны	-10.753
19	-10.7534
▁dry	-10.7534
▁сравн	-10.7535
▁встрети	-10.7544
▁производителе	-10.7547
▁behavior	-10.7548
▁официально	-10.7548
▁Obama	-10.7548
▁держа	-10.7552
▁Government	-10.7557
▁Зна	-10.7559
▁Мак	-10.7565
▁Special	-10.7571
▁лекарств	-10.7576
duct	-10.7577
▁OF	-10.7577
▁лечения	-10.758
▁creative	-10.758
▁эффективност	-10.7584
▁Отопление	-10.7585
▁предпринима	-10.7585
PI	-10.7586
▁ислам	-10.7594
PO	-10.7596
▁UK	-10.7597
▁июня	-10.76
enko	-10.7601
▁buffet	-10.7603
▁премьер	-10.7603
▁отказа	-10.7606
▁Север	-10.7612
▁families	-10.7612
▁African	-10.7618
ВА	-10.7621
местит	-10.7622
▁AKVIS	-10.7626
▁образование	-10.7627
▁adjust	-10.7631
▁обычны	-10.7638
▁Spanish	-10.764
▁flat	-10.764
▁забот	-10.7641
▁идеально	-10.7641
▁букв	-10.7645
▁regulation	-10.7645
▁grant	-10.7648
▁output	-10.7649
▁владе	-10.7651
▁Berlin	-10.7651
▁Fall	-10.7653
▁финансировани	-10.7653
wo	-10.7654
стях	-10.7658
▁prepared	-10.7658
▁memory	-10.7663
буд	-10.7663
▁доступны	-10.7667
▁fiscal	-10.7667
▁золот	-10.7667
▁Night	-10.7667
▁Music	-10.7674
Ш	-10.7674
▁Dia	-10.7677
▁Главн	-10.7677
▁password	-10.7681
▁доллар	-10.7689
▁calculat	-10.7695
▁Water	-10.7698
▁Angel	-10.7704
▁профессионально	-10.7706
▁брат	-10.7708
▁Республик	-10.7711
▁прогресс	-10.7718
▁больших	-10.7719
▁Green	-10.7723
▁боль	-10.7723
▁найдет	-10.7724
▁никако	-10.7732
вшей	-10.7734
SD	-10.7734
46	-10.7735
▁Ol	-10.7739
▁Another	-10.7741
▁Beach	-10.7743
▁доклад	-10.7749
АР	-10.775
▁предлага	-10.775
сылк	-10.7752
чувств	-10.7754
соедини	-10.7755
▁furniture	-10.776
▁establish	-10.7761
сек	-10.7763
▁сложности	-10.7765
▁чисто	-10.7765
лён	-10.7769
▁кондиционер	-10.7769
▁млн	-10.7769
▁сообща	-10.777
▁leadership	-10.7775
▁особенност	-10.7777
▁furnished	-10.7778
▁interior	-10.7778
▁fruit	-10.778
▁импорт	-10.7787
older	-10.7792
▁priorit	-10.7792
▁copy	-10.7793
▁видел	-10.7798
▁плохо	-10.7802
▁надежд	-10.7802
▁evidence	-10.7806
начала	-10.7809
▁candidate	-10.7811
▁Var	-10.7817
▁Term	-10.7818
▁maximum	-10.782
▁Факс	-10.782
рот	-10.7826
звуч	-10.7829
▁библиотек	-10.783
▁наличие	-10.783
▁Second	-10.783
▁руководство	-10.7831
▁абсолютно	-10.7839
▁Para	-10.7839
▁большая	-10.7842
▁копи	-10.7845
▁regulat	-10.7853
▁consequence	-10.7858
▁implementation	-10.7863
▁Human	-10.7865
▁посмотреть	-10.7872
▁покупател	-10.7873
▁альтернатив	-10.7877
▁estimate	-10.7877
jour	-10.7881
▁Muslim	-10.7881
▁другое	-10.7882
▁push	-10.7885
▁initial	-10.7885
▁уничтож	-10.7886
▁прежнем	-10.7891
▁soft	-10.7893
▁aspect	-10.7901
▁title	-10.7906
▁Heart	-10.7907
HO	-10.7909
данного	-10.7912
▁Committee	-10.7914
▁поставщик	-10.7914
stream	-10.7916
▁нужны	-10.7917
▁respond	-10.7919
▁стади	-10.7924
▁Palace	-10.7929
▁велико	-10.7931
▁TED	-10.7931
▁представитель	-10.7933
▁будущее	-10.7938
▁myself	-10.7938
▁construct	-10.7941
▁индустри	-10.7947
▁spot	-10.7951
▁Nice	-10.7952
▁poverty	-10.7952
▁winter	-10.7953
▁confirm	-10.7954
▁spent	-10.7955
ОС	-10.796
▁Project	-10.7964
▁справедлив	-10.7971
▁Take	-10.7973
▁Royal	-10.7976
▁профессионал	-10.7979
Soft	-10.7985
▁инициатив	-10.7985
▁океан	-10.7986
▁Management	-10.7995
87	-10.7999
▁earlie	-10.8
ці	-10.8
▁Java	-10.8001
▁обратно	-10.8001
▁contribute	-10.8004
▁critical	-10.8005
люб	-10.801
кладыва	-10.8013
66	-10.8015
▁qualifi	-10.8017
ographic	-10.8018
76	-10.8035
▁economies	-10.8038
▁создавать	-10.8038
▁единственны	-10.8038
▁advertising	-10.8047
▁Rental	-10.8048
▁метров	-10.8049
очка	-10.8059
▁Christian	-10.8062
▁detect	-10.8066
▁promise	-10.8067
▁подключен	-10.807
▁parents	-10.8072
▁центрально	-10.8073
▁Центрально	-10.8076
▁применения	-10.8076
▁Eastern	-10.8076
▁обязательно	-10.8077
▁Ксерокопи	-10.8081
▁dispos	-10.8081
▁felt	-10.8084
▁writing	-10.8086
▁ванн	-10.8086
▁семинар	-10.8091
▁Software	-10.8091
▁сохранени	-10.8091
cade	-10.8093
▁апартамент	-10.8095
▁камер	-10.81
69	-10.8103
▁едино	-10.8104
▁жертв	-10.8105
▁Photocop	-10.811
пин	-10.8113
▁declar	-10.8115
▁сутки	-10.812
▁далеко	-10.8123
▁planning	-10.8123
▁efficiency	-10.8124
▁считают	-10.8125
cup	-10.8132
▁вообще	-10.8134
▁руководств	-10.8138
▁permanent	-10.8139
▁expensive	-10.8144
▁друзья	-10.8148
▁российско	-10.8148
▁русско	-10.8158
▁metres	-10.8159
▁Thus	-10.8163
▁Mexic	-10.8169
▁исторически	-10.817
талкива	-10.817
центр	-10.8173
▁attractions	-10.8179
▁transportation	-10.8181
▁assist	-10.8182
▁оснащен	-10.8183
▁ответственност	-10.8184
▁Казахстан	-10.8187
жар	-10.8188
▁north	-10.8189
▁layer	-10.8189
▁двумя	-10.8192
ализм	-10.8192
▁сыр	-10.8193
▁заказчик	-10.8194
▁обучения	-10.8202
▁Church	-10.8202
▁framework	-10.8202
▁протест	-10.8202
▁Среди	-10.8203
▁труб	-10.8207
▁Laundr	-10.8212
▁владельц	-10.8222
▁diploma	-10.8226
▁выбран	-10.8228
▁religious	-10.8231
▁понял	-10.8242
90	-10.825
▁indicate	-10.8251
▁Национально	-10.8251
▁Where	-10.8256
▁Люб	-10.8256
▁большие	-10.8256
▁понимани	-10.8258
временно	-10.8265
▁мусульман	-10.827
▁представителе	-10.827
▁interpret	-10.8275
▁Van	-10.8285
▁заинтересован	-10.829
▁взять	-10.8299
▁текуще	-10.83
▁блог	-10.8304
▁наконец	-10.8304
▁profile	-10.8304
▁слово	-10.8306
хотим	-10.8309
ываем	-10.8318
▁belong	-10.8324
▁stability	-10.8334
▁роли	-10.8341
заверш	-10.8344
▁итог	-10.8351
▁cold	-10.8359
обеспечен	-10.8362
▁lift	-10.8363
сюда	-10.8364
▁improvement	-10.8373
▁Завтрак	-10.8373
▁Обслуживание	-10.8383
казалось	-10.8387
▁chair	-10.8389
▁тут	-10.839
▁путешестви	-10.8393
▁организован	-10.8393
▁instant	-10.8401
▁advance	-10.8401
▁разработчик	-10.8403
▁stable	-10.8404
▁moving	-10.8408
aux	-10.8431
▁stories	-10.8433
▁ужас	-10.8433
▁ticket	-10.8438
МА	-10.844
ι	-10.8443
▁strengthen	-10.8443
▁origin	-10.8444
▁организм	-10.8448
▁Prime	-10.8449
▁Больш	-10.845
▁сын	-10.845
▁веществ	-10.8452
▁certificate	-10.8453
▁Opera	-10.8455
▁Даж	-10.8456
бург	-10.8459
▁платформ	-10.8461
▁инвестиций	-10.8463
зволяют	-10.8463
▁corner	-10.8466
▁GDP	-10.8468
bank	-10.8472
▁загрузк	-10.8474
▁свидетельств	-10.8477
▁бронирова	-10.8479
▁баланс	-10.8483
▁низко	-10.8487
фицирован	-10.8488
▁reference	-10.849
▁Нажмит	-10.8493
▁принимать	-10.8493
▁flu	-10.8493
грамм	-10.8501
▁cash	-10.8502
▁достопримеча	-10.8503
стрел	-10.8507
держать	-10.8508
▁browser	-10.8513
▁abroad	-10.8518
ე	-10.8523
▁дефицит	-10.8523
▁agency	-10.8523
RC	-10.853
▁shift	-10.8543
▁Book	-10.8544
▁River	-10.8547
▁collaborat	-10.8548
▁television	-10.8548
SH	-10.855
▁objective	-10.8552
▁Прачечн	-10.8553
MI	-10.8553
ряж	-10.8555
well	-10.8567
▁numerous	-10.8568
▁зарегистрирован	-10.8568
▁авиа	-10.8568
▁заявил	-10.8571
▁проходит	-10.8575
▁Петербург	-10.8583
▁инженер	-10.8588
▁использовании	-10.8589
▁Ещ	-10.859
79	-10.8598
rapy	-10.8604
▁официальны	-10.8608
▁каса	-10.8613
▁properties	-10.8613
▁160	-10.8614
▁записи	-10.8619
▁Azerbaijan	-10.8623
▁Затем	-10.8624
▁peaceful	-10.8625
▁attractive	-10.8628
▁participation	-10.8637
▁назван	-10.8638
▁surprise	-10.8644
phone	-10.8652
▁Science	-10.8654
▁crime	-10.866
▁School	-10.8664
ИН	-10.8666
▁Israeli	-10.8672
▁Off	-10.8673
▁Brazil	-10.8674
▁робот	-10.868
▁Georgia	-10.8684
▁Мон	-10.8686
SU	-10.8688
▁условий	-10.8695
▁chemical	-10.8695
▁строк	-10.8697
▁велосипед	-10.87
▁воспользовать	-10.871
▁module	-10.871
▁мощност	-10.8715
▁Организаци	-10.8715
▁discussion	-10.8715
▁communities	-10.8716
▁reliable	-10.872
▁муж	-10.8721
▁представляю	-10.8741
пласт	-10.8742
▁входит	-10.8742
▁Girl	-10.8742
▁Гол	-10.8745
▁ВВП	-10.8746
шёл	-10.8747
▁июля	-10.8753
▁конструкци	-10.8756
▁выступлени	-10.8758
▁fashion	-10.8761
▁bottom	-10.8766
▁поможет	-10.8766
▁завершен	-10.8771
▁Hostelsclub	-10.8771
▁возвраща	-10.8771
▁популярны	-10.8771
▁Йорк	-10.8771
вобод	-10.8776
▁1995	-10.8778
▁predict	-10.878
казывать	-10.8785
▁loan	-10.8786
▁метро	-10.8786
▁обсужден	-10.8787
▁earn	-10.8788
58	-10.8789
▁Прокат	-10.8802
▁тонн	-10.8807
▁session	-10.8808
▁живопис	-10.8813
▁Может	-10.8818
▁Один	-10.8832
▁сожалению	-10.8838
▁gather	-10.8839
друж	-10.8847
▁коллег	-10.8847
▁клетк	-10.8847
▁автобус	-10.8849
▁reservation	-10.8849
▁шанс	-10.885
▁концерт	-10.8865
▁профил	-10.8869
▁целях	-10.8875
▁отдельно	-10.8878
▁удалос	-10.8879
▁удивит	-10.888
▁Conference	-10.888
▁индивидуальны	-10.888
▁расстояни	-10.888
▁исчез	-10.889
▁особо	-10.8891
▁питания	-10.8891
wood	-10.8895
▁wind	-10.8898
▁studio	-10.8901
степен	-10.8902
▁items	-10.8904
▁1996	-10.8906
PL	-10.8913
▁filter	-10.8917
▁преступлени	-10.8917
▁надежно	-10.8926
чайш	-10.893
зол	-10.8935
▁достижени	-10.8936
▁зелен	-10.8938
▁Foundation	-10.8943
▁wealth	-10.8943
▁бело	-10.8947
▁Economic	-10.8948
▁пришло	-10.8953
▁объявлен	-10.8958
▁spring	-10.8959
▁частно	-10.8964
▁обслужива	-10.8964
▁Region	-10.8974
▁remote	-10.8979
▁располагает	-10.898
▁bright	-10.8989
▁concert	-10.899
▁Доставк	-10.8996
▁фундамент	-10.9
▁storage	-10.9
▁Kingdom	-10.9006
▁multiple	-10.9007
▁поставк	-10.9013
▁encourage	-10.9016
▁emotion	-10.9016
▁электронны	-10.9017
▁приоритет	-10.9021
▁физически	-10.9021
▁Хорош	-10.9022
▁Yet	-10.9034
▁решить	-10.9035
▁небольшо	-10.9036
▁moral	-10.9038
▁связь	-10.9038
▁использован	-10.9042
▁выражен	-10.9053
▁nearby	-10.9057
▁Little	-10.9058
SQL	-10.9058
▁участвова	-10.9064
▁Terr	-10.9067
▁audience	-10.9069
▁очеред	-10.9077
грузк	-10.9079
▁sauna	-10.908
▁Dream	-10.9085
▁1991	-10.909
▁фильтр	-10.9101
·	-10.9106
▁устойчиво	-10.9111
▁схем	-10.9115
▁медицин	-10.9118
59	-10.9126
▁White	-10.9127
▁концов	-10.9127
▁publish	-10.9128
▁обеща	-10.9132
▁Look	-10.9133
▁Большо	-10.9136
▁maintenance	-10.9138
▁невероятн	-10.9138
▁отрасли	-10.9143
▁учреждения	-10.9149
▁ourselves	-10.9149
▁Resort	-10.9149
▁глубоко	-10.9154
▁настроен	-10.916
▁инвалидов	-10.9165
▁полици	-10.9169
▁безопасность	-10.9171
▁Market	-10.9181
▁landscape	-10.9192
▁рыночн	-10.9192
▁Austria	-10.9197
▁проверк	-10.9197
▁comparison	-10.9198
▁должност	-10.9209
▁кино	-10.9215
▁показывает	-10.9218
▁Parliament	-10.9224
▁coordinat	-10.9224
▁Международно	-10.9229
▁Северно	-10.9231
▁technological	-10.9235
▁expos	-10.9238
0.00	-10.924
▁suitable	-10.924
▁вновь	-10.9241
▁способность	-10.9246
knew	-10.9257
▁commitment	-10.9272
▁серьезны	-10.9278
▁Kyiv	-10.9278
▁диалог	-10.9278
▁приводит	-10.928
▁цар	-10.9283
▁valid	-10.9289
▁arrival	-10.9294
▁Family	-10.9294
volv	-10.9294
▁establishment	-10.9298
▁малы	-10.9305
▁последовател	-10.9308
ЛИ	-10.931
▁октября	-10.931
▁ориентир	-10.931
можем	-10.9316
▁реальны	-10.9316
▁restrict	-10.9316
▁Turkish	-10.9321
▁dinner	-10.9321
▁ремонт	-10.9321
SO	-10.9323
▁мил	-10.9332
▁стиль	-10.9336
▁ходьбы	-10.9337
▁дву	-10.9349
▁robot	-10.9354
▁нефти	-10.9355
▁camera	-10.9359
ТА	-10.9364
▁1992	-10.9365
▁impossible	-10.9365
▁gift	-10.937
▁касается	-10.9375
▁цикл	-10.9375
▁менеджер	-10.9376
▁railway	-10.9376
▁George	-10.9376
▁concentrat	-10.9377
▁lose	-10.9377
▁quarter	-10.9381
▁традиционно	-10.9387
▁провел	-10.9396
▁оружия	-10.9403
▁действительност	-10.9412
▁1994	-10.9414
▁discount	-10.9414
производител	-10.9419
▁мобильны	-10.9419
▁graphic	-10.9424
▁аспект	-10.9425
▁edge	-10.9428
национальн	-10.9429
▁инноваци	-10.9432
▁Corporation	-10.9436
▁initiative	-10.9447
звать	-10.9448
▁frame	-10.9454
▁careful	-10.9456
▁медицинско	-10.9457
▁switch	-10.9458
OP	-10.9459
▁Federation	-10.9474
▁Pakistan	-10.948
▁Newspaper	-10.9485
▁Amsterdam	-10.9491
▁Александр	-10.9496
▁визит	-10.95
▁ведущих	-10.9502
▁background	-10.9508
▁остава	-10.9512
▁upgrade	-10.9528
▁Болгари	-10.953
▁Greek	-10.953
▁destination	-10.953
▁carbon	-10.9532
▁существующи	-10.9537
▁хостел	-10.9541
▁Был	-10.9542
нравится	-10.9548
▁index	-10.9559
▁привет	-10.9564
▁Lithuania	-10.9569
▁comprehensive	-10.9569
▁roof	-10.9571
▁importance	-10.9572
▁рейтинг	-10.9574
▁относится	-10.958
▁Show	-10.958
▁растущ	-10.9581
▁апреля	-10.9591
▁гибк	-10.9596
▁думал	-10.9597
▁характеристик	-10.9602
▁destroy	-10.9602
▁liquid	-10.9608
▁эмоци	-10.9608
▁русски	-10.9616
▁дальше	-10.9624
▁развивающих	-10.9632
▁черт	-10.9633
▁сообщил	-10.9636
▁чрезвычайн	-10.9641
▁opposition	-10.9642
AV	-10.9642
▁Baby	-10.9643
▁тариф	-10.9648
▁debate	-10.9654
down	-10.9655
▁американц	-10.9658
▁student	-10.966
▁атак	-10.9661
▁minister	-10.9663
▁mechanism	-10.9669
▁favor	-10.9674
▁contemporar	-10.9675
▁becoming	-10.9676
▁description	-10.9681
▁Creat	-10.9683
▁позволяющ	-10.9684
▁parliament	-10.9686
▁загруз	-10.9687
▁реакци	-10.9687
▁Др	-10.969
▁восточн	-10.9691
▁impos	-10.9694
▁sphere	-10.9703
▁обнаружил	-10.9703
▁высше	-10.9706
▁больниц	-10.971
▁гражданско	-10.9714
▁translate	-10.9717
▁Place	-10.972
▁международным	-10.9721
▁массово	-10.9723
▁использовал	-10.9725
▁inflation	-10.9726
▁консультаци	-10.9726
держан	-10.973
глян	-10.9733
▁Afghanistan	-10.9737
▁историческо	-10.9738
▁Действительно	-10.9743
▁человеческо	-10.9748
▁deficit	-10.9754
▁коммерчески	-10.9754
▁Trade	-10.9759
▁acquir	-10.976
▁давно	-10.976
▁wonder	-10.9762
▁мероприятий	-10.9765
▁enhance	-10.9766
▁scan	-10.9767
▁график	-10.9768
ß	-10.9771
▁decline	-10.9771
▁инфляци	-10.9777
▁сделк	-10.9786
▁взимает	-10.9788
▁поездк	-10.9789
▁arrest	-10.9794
▁Welcome	-10.98
▁Одна	-10.9808
▁festival	-10.9811
▁мягк	-10.9811
▁continent	-10.9817
▁рассказыва	-10.9821
▁определить	-10.9823
▁innovative	-10.9828
▁сезон	-10.983
▁намерен	-10.9843
пустил	-10.9856
▁luxurious	-10.9857
▁увеличение	-10.9857
▁корпораци	-10.9857
ą	-10.9863
▁Children	-10.9863
▁открыл	-10.9865
▁personnel	-10.9865
▁Prince	-10.9869
▁England	-10.9874
▁самостоятельно	-10.9874
stood	-10.9875
наружи	-10.9882
І	-10.9885
▁liberal	-10.9891
▁visual	-10.9892
▁доктор	-10.9892
▁worse	-10.9893
▁интеграци	-10.9897
▁rank	-10.9902
▁length	-10.9903
▁medicine	-10.9909
▁Britain	-10.991
▁никаких	-10.9914
▁появлени	-10.9914
▁событий	-10.992
▁sustain	-10.992
▁primary	-10.9926
▁Санкт	-10.9934
▁plastic	-10.9938
▁сочетани	-10.994
▁politician	-10.9943
▁состояние	-10.9943
езжа	-10.9947
▁afford	-10.9949
▁популярно	-10.9955
трудн	-10.9961
▁involve	-10.9971
▁Афганистан	-10.9972
▁сертификат	-10.9972
▁миниатюр	-10.9978
▁Easy	-10.9978
ВФ	-10.9986
▁assets	-10.9986
▁kernel	-10.999
{	-11.0001
▁wave	-11.0002
близи	-11.0006
▁сельско	-11.0011
▁panel	-11.0022
▁средни	-11.0025
▁танц	-11.0026
▁позволил	-11.0029
▁некоторо	-11.003
▁приятно	-11.0034
▁Eye	-11.0035
▁studies	-11.0036
▁изделий	-11.0036
▁прогноз	-11.0042
▁repeat	-11.0046
▁Kha	-11.0046
▁seminar	-11.0054
▁context	-11.0058
▁лаборатори	-11.0059
▁burn	-11.0068
lich	-11.007
́	-11.0071
▁ноября	-11.0071
▁комплект	-11.0071
▁assembl	-11.0071
▁availability	-11.0077
▁protest	-11.0077
▁earth	-11.0083
▁extensive	-11.0095
▁nbsp	-11.0095
▁оператор	-11.0095
▁ocean	-11.0095
▁announce	-11.0099
▁Academy	-11.01
▁solid	-11.0101
▁native	-11.0106
▁resolution	-11.0106
▁Health	-11.0106
▁breath	-11.0107
▁partnership	-11.0108
▁pursu	-11.0112
смотрим	-11.0119
▁деловы	-11.0123
▁renovated	-11.0124
▁clinic	-11.0126
▁dimension	-11.013
▁предлагают	-11.0131
▁refus	-11.0132
▁speech	-11.0136
▁декабря	-11.0136
▁препарат	-11.0136
▁Australia	-11.0142
▁собственности	-11.0153
▁маркетинг	-11.0153
▁участия	-11.0154
▁Polish	-11.0156
▁Island	-11.0162
▁decide	-11.017
©	-11.0171
▁принимает	-11.0172
▁Групп	-11.0177
▁diagnos	-11.0189
▁tire	-11.0191
▁полезны	-11.0193
▁кофе	-11.0194
▁числа	-11.0194
▁браузер	-11.0195
▁Banquet	-11.0201
▁достигнут	-11.0203
▁вирус	-11.0215
ē	-11.0219
▁appreciate	-11.0219
▁медицински	-11.0219
▁информацие	-11.0225
▁Child	-11.0228
▁toilet	-11.023
▁оказывает	-11.0231
▁Photo	-11.0232
ENT	-11.0237
платить	-11.0237
▁repair	-11.0243
▁chosen	-11.0248
▁accordan	-11.0248
▁certifi	-11.0253
▁способствова	-11.0256
▁Disabl	-11.026
▁consumption	-11.026
▁ожидани	-11.026
▁футбол	-11.026
▁actual	-11.0263
▁дороги	-11.0267
▁горяч	-11.027
ssociated	-11.0278
æ	-11.0278
▁праздник	-11.0278
▁купить	-11.0279
▁доставк	-11.028
▁commission	-11.0283
▁scene	-11.0285
▁Второ	-11.0295
▁формировани	-11.0306
▁advice	-11.0308
▁взял	-11.0309
▁заняти	-11.0315
терапи	-11.033
▁Бизнес	-11.0332
▁otherwise	-11.0332
▁добавлен	-11.0336
▁instruction	-11.0356
ography	-11.0357
▁отлично	-11.0358
Ã	-11.0362
▁телевидени	-11.0362
▁вокзал	-11.0363
▁банковски	-11.0368
сторонни	-11.0368
▁magazine	-11.0368
▁Согласно	-11.0368
▁станции	-11.0369
▁промышленны	-11.0377
▁association	-11.038
▁Лондон	-11.038
▁трав	-11.0381
▁спустя	-11.0381
▁everybody	-11.0385
▁посещени	-11.0387
▁Тогда	-11.0399
▁постоянны	-11.0399
▁презентаци	-11.0405
▁спокойн	-11.0405
ø	-11.0411
▁category	-11.0411
▁Давайт	-11.0411
▁1993	-11.0417
▁применение	-11.0418
▁измерени	-11.0422
▁направлении	-11.0427
▁февраля	-11.0429
▁Social	-11.0429
▁работающи	-11.043
ивно	-11.0434
▁заседани	-11.0441
▁оборон	-11.0451
▁Congress	-11.0453
▁взаимодействи	-11.0453
▁Syria	-11.0454
▁полны	-11.0456
▁identifi	-11.0457
вроде	-11.0458
▁телевизор	-11.0459
▁defend	-11.0459
▁reveal	-11.0466
▁smart	-11.0466
▁explore	-11.0468
▁bodies	-11.0472
▁сомнени	-11.0472
ž	-11.0478
▁критик	-11.0478
▁calm	-11.0479
▁концепци	-11.0484
▁ООО	-11.0496
▁cycle	-11.0496
▁десятк	-11.0504
▁торгово	-11.0506
▁подтвержден	-11.0508
▁winner	-11.0508
▁протокол	-11.052
▁Network	-11.0526
▁Again	-11.0527
▁Большинство	-11.0539
▁выглядит	-11.0539
▁парковк	-11.0546
▁супер	-11.0547
▁Access	-11.0551
▁окна	-11.0557
▁секунд	-11.0557
▁окончани	-11.0563
▁прозрачн	-11.0563
ишь	-11.0565
▁Химчистк	-11.0576
следствие	-11.0579
▁лыж	-11.058
▁задерж	-11.0592
▁издани	-11.0594
сложн	-11.0594
▁villa	-11.0595
▁victim	-11.06
▁Estonia	-11.06
certainly	-11.0605
▁августа	-11.0606
▁battle	-11.0606
ответ	-11.062
▁индивидуально	-11.0625
▁учены	-11.0626
▁newspaper	-11.0631
▁thumbnail	-11.0631
збежать	-11.0635
▁представители	-11.065
▁argue	-11.0653
▁entertainment	-11.0656
▁minimum	-11.0656
ируя	-11.0661
▁settlement	-11.0675
▁Nokia	-11.0689
▁содержание	-11.0693
▁Поскольк	-11.0696
влечь	-11.07
▁Европейски	-11.0704
▁жителе	-11.0706
}	-11.0706
▁недалеко	-11.0706
серии	-11.0709
вшая	-11.0709
▁violat	-11.071
▁контракт	-11.0712
▁белы	-11.0717
▁agenci	-11.0719
▁occasion	-11.0725
▁бедны	-11.0726
ę	-11.0731
▁fantastic	-11.0731
▁doubt	-11.0731
ا	-11.0737
▁давление	-11.0744
▁relevant	-11.075
▁Азербайджан	-11.075
▁GNU	-11.075
▁Всё	-11.075
▁Проект	-11.0755
▁Foreign	-11.0756
▁easier	-11.0768
▁превыша	-11.0775
▁сотрудничество	-11.0775
▁Dark	-11.0779
▁schedule	-11.0781
▁опубликован	-11.0781
▁комментари	-11.0787
▁пассажир	-11.0794
▁Enjoy	-11.0794
▁обсужда	-11.0806
▁изделия	-11.0819
▁pleasure	-11.0825
▁reduction	-11.0825
▁passenger	-11.0838
▁отдых	-11.0841
▁Други	-11.0857
▁frequent	-11.0863
▁preparation	-11.0863
▁вещей	-11.0865
▁счастлив	-11.0869
▁резко	-11.0878
▁confidence	-11.0882
▁соответствует	-11.0882
▁wheel	-11.0882
▁Люди	-11.0888
▁быстре	-11.0893
ş	-11.0895
▁religion	-11.0895
▁посетить	-11.0895
▁prospect	-11.0895
▁psycho	-11.0895
▁interview	-11.0897
▁здание	-11.0901
▁IMF	-11.0901
▁быстры	-11.0909
▁операционн	-11.0919
▁либерал	-11.0924
▁dangerous	-11.0927
▁strength	-11.0933
▁правильны	-11.0936
ε	-11.0939
▁ассортимент	-11.0939
▁основно	-11.0943
▁Одно	-11.0948
▁утвержден	-11.0959
▁деревн	-11.0959
▁indeed	-11.0963
▁денежны	-11.0971
▁petit	-11.0983
▁напомина	-11.0984
▁эпох	-11.0984
▁увидел	-11.0985
▁население	-11.0985
▁действова	-11.0989
▁увеличенно	-11.0991
▁trouble	-11.0991
ο	-11.1003
▁ощущени	-11.1003
▁ultimate	-11.101
▁assign	-11.1012
Щ	-11.1036
▁mistake	-11.1036
plication	-11.1038
▁внедрени	-11.1042
▁medium	-11.1049
▁Созда	-11.1052
▁навык	-11.1062
▁производственны	-11.1066
▁universal	-11.1068
▁intellectual	-11.1074
▁человечеств	-11.1081
▁defense	-11.1081
▁убийств	-11.1081
▁casino	-11.1094
▁exceed	-11.1101
▁entry	-11.1103
Ñ	-11.1105
тебя	-11.1106
▁удовольствие	-11.1107
▁оппозици	-11.1113
▁assume	-11.1117
▁многим	-11.112
▁opposite	-11.1126
▁недостаточно	-11.1133
▁Before	-11.1146
▁двадцат	-11.1152
▁ясно	-11.1154
▁предоставлен	-11.1158
▁центральны	-11.1172
▁Christmas	-11.1185
▁stylish	-11.1185
ს	-11.1192
▁адапт	-11.1192
▁развиты	-11.1193
▁коммуникаци	-11.1198
▁уменьши	-11.1205
▁monument	-11.1205
▁глажени	-11.1205
конечн	-11.1206
▁повышения	-11.1211
▁hostels	-11.1212
▁предварительно	-11.1218
č	-11.1224
▁criminal	-11.1224
▁decorated	-11.1238
÷	-11.1251
▁audio	-11.1257
▁precise	-11.1257
▁assess	-11.1259
▁выделен	-11.1264
▁presence	-11.1265
▁специализирован	-11.1265
▁Michel	-11.1278
τ	-11.1284
▁conversation	-11.1284
▁прибыль	-11.1284
▁Research	-11.129
▁Бразили	-11.129
▁Институт	-11.1304
▁Multi	-11.1304
▁отделени	-11.1306
▁волос	-11.1308
▁исследовательск	-11.131
▁Description	-11.1317
▁действие	-11.1323
▁automatic	-11.1324
▁instance	-11.1324
▁отрица	-11.133
Build	-11.1331
▁призыв	-11.1335
▁определенны	-11.1338
▁struggle	-11.1344
▁negative	-11.135
▁террорист	-11.1357
▁resource	-11.1358
▁вынужден	-11.1377
▁heavy	-11.1377
▁текущи	-11.1384
▁housing	-11.139
▁supposed	-11.1397
▁разнообрази	-11.1397
▁аналог	-11.1416
▁квартал	-11.1417
▁wild	-11.1418
▁Кондиционер	-11.143
▁Standard	-11.143
▁terminal	-11.1437
▁шум	-11.1438
▁фактически	-11.1453
здрав	-11.1453
▁ignor	-11.1456
▁expansion	-11.1457
▁достич	-11.146
▁Jesus	-11.1464
▁академи	-11.1464
▁площадк	-11.147
▁ребёнк	-11.1471
▁Пожалуйста	-11.1477
▁ежегодно	-11.1477
▁увеличить	-11.1477
▁трёх	-11.1484
▁преодоле	-11.1484
▁избран	-11.1492
▁нажмите	-11.1498
▁eliminat	-11.1504
▁wrote	-11.1511
▁статистик	-11.1518
▁интерьер	-11.1518
▁отличны	-11.1518
▁биологи	-11.1518
▁гостям	-11.1525
▁экологи	-11.1529
▁Куб	-11.153
▁sitting	-11.1532
▁кадр	-11.1533
▁argument	-11.1538
▁становят	-11.1539
▁информационно	-11.1545
▁терроризм	-11.1545
▁urban	-11.1546
▁уязвим	-11.1559
▁заезда	-11.156
▁почте	-11.1572
▁overlook	-11.1572
▁экологически	-11.1579
▁weather	-11.1586
▁использова	-11.1592
▁недвижимость	-11.1593
▁умолчани	-11.1593
▁виртуальн	-11.1593
▁сотруднича	-11.1599
является	-11.1602
▁остановить	-11.1607
▁Radio	-11.1608
▁демократически	-11.1613
▁ослаб	-11.1614
▁войск	-11.1615
▁кроватя	-11.162
▁тюрьм	-11.1627
сорт	-11.1636
▁экскурси	-11.1641
▁contrast	-11.1641
▁female	-11.1641
▁попыта	-11.1642
▁иностранны	-11.1643
ставляем	-11.1644
▁друзей	-11.1661
nniversary	-11.1668
▁альбом	-11.1672
▁emergenc	-11.1673
▁объявил	-11.1675
▁редактор	-11.1675
▁Currenc	-11.1675
▁Greece	-11.1682
▁единственно	-11.1688
▁appeal	-11.1689
звездочн	-11.1694
изованн	-11.1695
▁поверхности	-11.1695
▁актуальн	-11.1702
▁происходя	-11.1704
▁outcome	-11.1704
▁защищен	-11.1709
▁служит	-11.1709
▁wife	-11.1709
▁Casino	-11.1723
▁евре	-11.1725
▁remind	-11.1725
▁exercise	-11.173
▁perspective	-11.173
▁surrounded	-11.173
▁overall	-11.1734
▁инвестиции	-11.1744
▁graduate	-11.1744
▁Клиент	-11.1744
▁identity	-11.1744
nstead	-11.1744
▁детски	-11.1751
▁Revolution	-11.1751
▁exciting	-11.1751
▁неделю	-11.1751
▁зуб	-11.1752
▁высококачествен	-11.1772
▁Mountain	-11.1772
▁literature	-11.1772
▁Пакистан	-11.1772
▁survey	-11.1779
▁PHP	-11.1799
▁продвижени	-11.1801
▁избирательн	-11.1817
▁черно	-11.1826
▁leisure	-11.1827
▁sponsor	-11.1827
▁monetar	-11.1828
▁технологически	-11.1834
▁изобрет	-11.1841
▁entrepreneur	-11.1848
▁региональны	-11.1851
▁комитет	-11.1855
either	-11.1867
класс	-11.1869
Ё	-11.1876
▁минимум	-11.1876
▁talent	-11.1877
▁НАТО	-11.1883
▁Know	-11.1898
▁добить	-11.1912
ă	-11.1918
▁китайски	-11.1918
▁unlike	-11.1918
▁континент	-11.1925
▁Three	-11.1926
▁обвинени	-11.1928
▁horse	-11.1941
нечто	-11.1946
▁Описание	-11.1947
▁сопровожда	-11.1947
▁поврежден	-11.1947
▁вызван	-11.1947
▁знаний	-11.1947
▁проводят	-11.1952
▁независимы	-11.1957
▁Uzbekistan	-11.1961
▁испытыва	-11.1968
▁Young	-11.1973
▁approximately	-11.1982
▁centuries	-11.1982
▁Израиля	-11.1982
▁христиан	-11.1982
▁Therefore	-11.1982
▁Мексик	-11.1982
▁contest	-11.199
тряс	-11.1992
▁конституци	-11.1996
▁journey	-11.1996
▁Capital	-11.2003
▁остальн	-11.2017
þ	-11.2018
▁удовлетворен	-11.2018
▁Next	-11.202
▁collapse	-11.2025
▁distinct	-11.2025
▁сотни	-11.204
▁subscribe	-11.2046
смеш	-11.2052
▁Париж	-11.2059
▁отобража	-11.206
▁identify	-11.206
▁человечески	-11.2075
▁attach	-11.2075
▁обязан	-11.2075
▁конкретны	-11.2082
▁Курени	-11.2097
▁remarkabl	-11.2101
▁NATO	-11.2103
▁capabilit	-11.211
▁sudden	-11.211
▁cancel	-11.2113
¿	-11.2125
▁Manager	-11.2125
▁2.0	-11.2125
распростран	-11.2127
▁окружающ	-11.213
▁посеща	-11.2135
▁evaluat	-11.2139
▁бренд	-11.2147
▁морско	-11.2148
▁strange	-11.2155
▁fulfill	-11.2168
▁Member	-11.2176
▁Holiday	-11.2183
▁Control	-11.2197
▁Video	-11.2202
▁Vladimir	-11.2204
▁таблиц	-11.2204
▁добраться	-11.2204
▁корол	-11.221
▁казино	-11.2212
▁straight	-11.2219
▁specifi	-11.2222
▁familiar	-11.2226
▁увеличил	-11.2227
▁сценари	-11.2255
▁Ближне	-11.227
▁Израиль	-11.227
▁ассоциаци	-11.227
▁пространство	-11.227
▁считать	-11.2272
▁colleague	-11.2277
▁птиц	-11.2278
▁композици	-11.2292
▁universe	-11.2292
▁Англи	-11.2292
большого	-11.2305
▁конкурент	-11.2306
▁legislation	-11.2306
▁authentic	-11.2306
точны	-11.231
▁строительны	-11.2314
▁Energy	-11.2328
▁обстановк	-11.2328
▁complain	-11.2329
▁молодеж	-11.2336
▁шесть	-11.2343
▁повышение	-11.2343
▁аудитори	-11.235
▁четверт	-11.235
▁library	-11.2358
▁judge	-11.2358
▁Лучш	-11.2359
▁wireless	-11.2365
▁ключевы	-11.2369
▁Festival	-11.2372
▁residence	-11.2372
▁очевидно	-11.2372
▁brother	-11.2372
▁Владимир	-11.238
▁оружие	-11.238
▁упаковк	-11.238
▁Узбекистан	-11.2387
▁ethnic	-11.2387
▁содержат	-11.2391
▁автомобиля	-11.2395
▁convention	-11.2395
▁terrorist	-11.2402
▁чём	-11.2403
▁принимают	-11.2404
▁зарубежны	-11.2409
▁акционер	-11.2409
▁подтвержда	-11.2417
▁ущерб	-11.2417
▁камн	-11.2421
▁наблюдени	-11.2424
▁Agency	-11.2424
▁крыш	-11.2428
▁размести	-11.2429
▁Mediterranean	-11.2432
▁сельскохозяйств	-11.2432
слева	-11.2441
▁коррупци	-11.2454
▁intervention	-11.2454
▁retail	-11.2454
▁Беларуси	-11.2461
▁обнаружен	-11.2461
▁Machine	-11.2461
▁подумал	-11.2461
▁underground	-11.2469
▁соверша	-11.2469
▁dishes	-11.2469
▁бывше	-11.247
▁ежедневно	-11.2476
▁профессор	-11.2476
army	-11.249
▁архив	-11.2491
▁mirror	-11.2499
збира	-11.2504
▁concrete	-11.2506
▁областях	-11.2506
▁Organization	-11.2521
▁корпоративны	-11.2521
▁eventually	-11.2521
спользуйте	-11.2522
▁обстоятельств	-11.2528
▁extraordinar	-11.2528
ывание	-11.2531
▁Египт	-11.2536
▁единиц	-11.2536
▁Terrace	-11.2543
▁доказательств	-11.2566
▁повыша	-11.2566
▁студи	-11.2566
რ	-11.2573
▁entrance	-11.2573
▁скидк	-11.2574
▁ядерны	-11.2574
▁конкуренци	-11.2581
▁отмеча	-11.2581
system	-11.2585
▁дополнительн	-11.2585
▁corruption	-11.2588
▁понимаю	-11.2598
▁эксклюзивн	-11.2604
▁hydro	-11.2604
▁Education	-11.2611
▁тихо	-11.2613
▁существенно	-11.2619
▁Language	-11.2626
▁СНГ	-11.2626
▁пенси	-11.2626
▁Aircondition	-11.2634
▁безработиц	-11.2634
▁заканчива	-11.2634
▁lobby	-11.2634
▁Mobile	-11.2634
▁насилия	-11.2634
▁audit	-11.2636
▁выигра	-11.264
▁agricultural	-11.2641
▁Латвии	-11.2649
▁HTML	-11.2657
▁конкретно	-11.2657
university	-11.268
▁confort	-11.2687
▁sample	-11.2688
▁будт	-11.2692
▁прогулк	-11.2695
▁учебны	-11.2695
▁appointed	-11.2702
▁cocktail	-11.2702
covered	-11.2706
▁succeed	-11.271
▁стремлени	-11.271
▁outdoor	-11.271
▁industries	-11.2717
▁sufficient	-11.2717
▁Further	-11.2717
▁leaving	-11.2717
skaya	-11.2718
▁confident	-11.2725
▁детали	-11.2731
▁disappear	-11.274
▁terrorism	-11.274
▁захват	-11.2741
▁Alexander	-11.2756
▁взрыв	-11.2756
▁phase	-11.2771
▁считаю	-11.2793
▁возвращен	-11.2794
▁состояния	-11.2802
▁amenities	-11.2802
▁Everything	-11.2802
помнить	-11.281
▁bonus	-11.281
▁неудач	-11.2817
▁проводим	-11.2833
▁flexible	-11.284
▁депозит	-11.284
▁гольф	-11.284
▁honor	-11.2841
▁украинско	-11.2848
▁preserve	-11.2848
▁Close	-11.2857
▁прямы	-11.2863
▁winning	-11.2864
▁прибыли	-11.2871
вернуться	-11.2872
▁definition	-11.2887
▁потрясающ	-11.2888
▁преобразован	-11.2896
▁жестоко	-11.2896
▁severe	-11.2905
▁философ	-11.291
▁mutual	-11.291
▁radical	-11.2912
▁глубин	-11.2918
▁magic	-11.2929
▁driving	-11.2933
▁публикаци	-11.2941
▁мульти	-11.2949
▁Federal	-11.2957
▁Situat	-11.2958
▁cooperat	-11.2959
▁Through	-11.2972
▁daughter	-11.2972
▁фермер	-11.2973
▁успешны	-11.298
▁southern	-11.298
▁evolution	-11.2988
▁действующи	-11.2988
▁талант	-11.2996
▁independence	-11.3004
▁плагин	-11.3004
▁предыдущи	-11.3012
▁snow	-11.3012
▁proceed	-11.3012
▁услыша	-11.3019
▁китайско	-11.302
▁Ведь	-11.3027
▁Client	-11.3028
▁психолог	-11.3035
▁вперед	-11.3035
▁рисунк	-11.3043
▁Quality	-11.3043
▁уменьшени	-11.3051
▁эволюци	-11.3051
▁Открыт	-11.3067
▁графическ	-11.3073
▁balcony	-11.3075
▁болезне	-11.3075
▁контекст	-11.3083
▁живут	-11.3083
▁worry	-11.3091
итоге	-11.3095
▁optimiz	-11.3098
▁приобрест	-11.3098
▁Грузи	-11.3099
▁strict	-11.31
▁possess	-11.3106
▁украински	-11.3114
▁affair	-11.3115
▁содействи	-11.3127
▁Терраса	-11.313
▁рекомендаци	-11.313
▁укреплени	-11.3132
▁Ассоциаци	-11.3138
▁страховани	-11.3141
▁Secretary	-11.3146
▁Download	-11.3162
регулиру	-11.3162
▁fabric	-11.317
▁ожидает	-11.317
▁террас	-11.317
▁withdraw	-11.3171
▁запись	-11.3171
▁Hungar	-11.3179
▁свободны	-11.3182
тяну	-11.3186
▁молодо	-11.3187
▁потребует	-11.3187
▁chief	-11.3194
ل	-11.3202
▁Exhibition	-11.3202
▁турнир	-11.3203
▁конфигураци	-11.321
▁GmbH	-11.321
▁современн	-11.321
▁провинци	-11.3211
▁сочета	-11.3213
▁единств	-11.3215
▁физическо	-11.3234
▁позже	-11.3242
▁воспринима	-11.325
▁убежден	-11.325
▁дистрибутив	-11.3258
▁катастроф	-11.3266
▁Studio	-11.3266
▁любимы	-11.3267
▁enormous	-11.3274
▁privilege	-11.3274
▁navigat	-11.3282
▁Красн	-11.3306
▁естественно	-11.3307
▁borrow	-11.3307
▁продукцию	-11.3315
▁любовь	-11.332
сторонне	-11.3322
▁люкс	-11.3331
▁удач	-11.3331
▁морски	-11.3332
▁столкну	-11.3339
▁immediate	-11.3343
▁спасибо	-11.3355
▁9001	-11.3355
▁belief	-11.3355
▁распоряжени	-11.3364
▁постепенно	-11.3366
▁огромн	-11.3368
▁пришли	-11.3374
crypt	-11.338
▁потребности	-11.338
▁спрашива	-11.3388
▁домашни	-11.3388
▁импери	-11.3389
▁lounge	-11.3391
▁Конституци	-11.3396
▁accurate	-11.3404
▁гармони	-11.3408
▁mineral	-11.3413
▁survive	-11.3413
▁faith	-11.3421
▁называемы	-11.3432
▁bottle	-11.3437
▁shock	-11.3437
▁Financial	-11.3445
▁узнал	-11.3448
▁Unfortunate	-11.3453
▁описание	-11.347
▁пространства	-11.3478
▁unemployment	-11.3486
▁Firefox	-11.3503
▁обширн	-11.3503
▁нарушения	-11.3511
▁Всемирно	-11.3513
▁хранит	-11.352
▁нападени	-11.3524
кажут	-11.3525
▁регулярно	-11.3528
▁составляющ	-11.3534
▁proximit	-11.3536
▁партнёр	-11.3544
▁великолепны	-11.3544
▁включите	-11.3551
▁подразделени	-11.3553
▁academic	-11.3553
▁republic	-11.3553
▁translator	-11.3553
▁intelligence	-11.3561
▁advise	-11.3564
▁перевозк	-11.3578
▁собак	-11.3584
▁literal	-11.3587
▁iPhone	-11.3611
▁ближайше	-11.3611
африканск	-11.3611
▁пребывания	-11.3627
▁URL	-11.3628
▁privacy	-11.3636
▁администратор	-11.3636
▁зрител	-11.3637
▁присутстви	-11.3644
▁увидите	-11.3644
▁тестировани	-11.3662
▁наркотик	-11.3678
▁округ	-11.3678
▁мощны	-11.3685
▁valuable	-11.3686
▁религиозны	-11.3687
▁инфекци	-11.3695
▁refuge	-11.3695
▁Technology	-11.3703
▁стратегически	-11.3703
▁снижа	-11.3703
▁тщательно	-11.3711
друг	-11.3716
▁Explorer	-11.372
▁сотрудничестве	-11.372
field	-11.3721
▁сегодняшне	-11.3737
▁отметил	-11.3737
▁направля	-11.3743
▁демонстраци	-11.3745
конкурентоспособ	-11.3745
▁немецко	-11.3745
▁качественно	-11.3748
▁судьб	-11.3755
▁Washington	-11.3762
▁resolve	-11.3771
ССР	-11.3771
▁patent	-11.3771
armed	-11.3776
▁sustainabl	-11.3779
▁creature	-11.3779
изоляци	-11.378
ν	-11.3788
ż	-11.3805
▁универсальн	-11.3805
▁хирург	-11.3805
▁Modern	-11.3805
Ä	-11.3813
▁PDF	-11.3813
▁подъем	-11.3813
электр	-11.3815
▁признак	-11.3819
▁facility	-11.3822
▁outstanding	-11.3822
▁ordinary	-11.383
▁Евросоюз	-11.383
▁угрожа	-11.383
пробовать	-11.383
▁exhibit	-11.3834
▁participat	-11.3835
▁Policy	-11.3839
▁analyz	-11.3839
▁коммерческо	-11.3856
productivity	-11.3856
▁возникновени	-11.3856
▁планировани	-11.3857
ù	-11.3942
ѕ	-11.4011
Ґ	-11.4037
ў	-11.4319
ო	-11.4355
მ	-11.4437
ú	-11.4768
σ	-11.4957
ś	-11.5044
±	-11.5357
ლ	-11.5537
ě	-11.5814
♪	-11.6067
დ	-11.6185
ر	-11.6228
ن	-11.6403
~	-11.6877
ć	-11.6877
Ђ	-11.6889
ნ	-11.6936
Å	-11.6982
π	-11.6982
ي	-11.6982
κ	-11.6994
ń	-11.7017
ė	-11.7041
ρ	-11.7159
Ѕ	-11.7315
ბ	-11.7684
§	-11.7697
ვ	-11.8385
‹	-11.8453
Ü	-11.848
Â	-11.8783
λ	-11.891
ū	-11.8924
Є	-11.8981
و	-11.8995
י	-11.9096
Š	-11.9198
ğ	-11.9227
ř	-11.9271
م	-11.9271
ί	-11.9419
Ѓ	-11.9464
ƒ	-11.9799
ţ	-11.9814
ت	-12.0226
¤	-12.0291
£	-12.0472
δ	-12.0826
ו	-12.0843
¬	-12.1087
İ	-12.1104
ب	-12.1193
ά	-12.1246
η	-12.1354
¶	-12.1373
ə	-12.1391
ј	-12.163
‡	-12.1686
უ	-12.1742
ų	-12.178
თ	-12.1818
υ	-12.1855
Ï	-12.2283
Ї	-12.2303
ґ	-12.2443
გ	-12.2524
ع	-12.2565
ς	-12.2668
Ö	-12.2709
γ	-12.2813
س	-12.2897
ѓ	-12.2961
ņ	-12.3198
د	-12.3241
Ğ	-12.3263
¡	-12.3395
Ž	-12.3507
θ	-12.3529
њ	-12.378
Ъ	-12.4374
ό	-12.4374
ה	-12.4522
ك	-12.4547
Á	-12.4723
ļ	-12.4774
έ	-12.4774
Œ	-12.485
ة	-12.4876
Î	-12.5058
œ	-12.511
ר	-12.5163
ל	-12.519
†	-12.5216
Ó	-12.5486
ή	-12.5596
შ	-12.5652
Џ	-12.5934
^	-12.6313
ტ	-12.6343
Í	-12.6373
Č	-12.6403
Ў	-12.6403
أ	-12.6463
კ	-12.6863
É	-12.6863
Ý	-12.6957
ხ	-12.7053
ც	-12.7117
×	-12.7214
א	-12.7646
ת	-12.7646
Ø	-12.7887
À	-12.7957
ύ	-12.8133
¥	-12.8169
ů	-12.8169
ω	-12.8386
מ	-12.8459
χ	-12.9145
Ј	-12.9145
ف	-12.9264
→	-12.9304
›	-12.9466
ج	-12.9466
¦	-12.9507
ķ	-12.9589
ב	-12.963
Α	-12.9924
đ	-12.9967
ם	-12.9967
Ç	-13.0096
ע	-13.054
Ê	-13.054
خ	-13.0631
ŕ	-13.0631
ד	-13.0816
′	-13.0816
ň	-13.11
Ř	-13.11
Ò	-13.11
ه	-13.1148
َ	-13.1196
Ì	-13.1245
‰	-13.1441
إ	-13.1491
Đ	-13.1692
Ţ	-13.1795
ź	-13.2215
ђ	-13.2377
Ô	-13.2653
Ε	-13.2766
წ	-13.2766
È	-13.288
ћ	-13.2937
Ο	-13.2995
Њ	-13.2995
ש	-13.3112
ფ	-13.3112
ش	-13.3349
ő	-13.3409
ქ	-13.347
ˆ	-13.3592
Ι	-13.3592
ק	-13.3779
Ş	-13.3968
Ő	-13.4033
ա	-13.4033
图	-13.4227
ĺ	-13.4293
ზ	-13.4293
ģ	-13.4293
Ś	-13.4293
ט	-13.4359
Ρ	-13.4493
į	-13.4561
̄	-13.4766
ɪ	-13.4766
Ћ	-13.4766
Ú	-13.5047
&	-13.5158
Õ	-13.519
პ	-13.5263
Ÿ	-13.5263
ყ	-13.5263
פ	-13.5336
̈	-13.5409
Π	-13.5409
−	-13.5409
ض	-13.5558
נ	-13.5633
ח	-13.5709
Ł	-13.6018
ˈ	-13.6097
β	-13.6418
ز	-13.6418
ג	-13.6582
ס	-13.6835
̃	-13.7006
ѣ	-13.7093
Τ	-13.7181
ќ	-13.7269
כ	-13.7359
қ	-13.7359
Μ	-13.7449
ξ	-13.7449
ღ	-13.7631
ى	-13.82
―	-13.82
Ë	-13.8298
غ	-13.8397
Κ	-13.8497
下	-13.8598
ط	-13.87
Ň	-13.9013
ң	-13.9119
ն	-13.9227
ჩ	-13.9336
ძ	-13.9336
ق	-13.9445
Η	-13.9445
φ	-13.9557
舞	-13.9557
※	-13.9557
载	-13.9557
ր	-13.9783
ص	-13.9897
Þ	-14.0131
Γ	-14.0493
Ī	-14.0616
ح	-14.0616
ث	-14.0741
̊	-14.0868
ď	-14.0868
Σ	-14.0996
צ	-14.0996
ώ	-14.1126
Ű	-14.1258
Ν	-14.1391
Ė	-14.1391
可	-14.1391
џ	-14.1526
ұ	-14.1663
√	-14.1663
¢	-14.1802
ן	-14.1802
Ď	-14.2378
ե	-14.2527
。	-14.2678
ի	-14.2678
的	-14.2678
ű	-14.2832
̇	-14.2832
Δ	-14.3147
ז	-14.3472
ғ	-14.3472
ө	-14.3472
ľ	-14.3639
Ż	-14.3639
ّ	-14.3809
─	-14.3809
中	-14.3809
●	-14.4156
】	-14.4156
Ń	-14.4156
Υ	-14.4335
،	-14.4335
、	-14.4335
【	-14.4335
Į	-14.4517
ť	-14.4517
⇒	-14.4517
ร	-14.4702
ҳ	-14.4702
ی	-14.4891
Ū	-14.5083
ո	-14.5083
ء	-14.5083
╡	-14.5279
어	-14.5279
ț	-14.5479
国	-14.5479
ჯ	-14.5479
Æ	-14.5683
Љ	-14.5683
ِ	-14.5891
Ā	-14.5892
Қ	-14.5892
■	-14.5892
ү	-14.6104
‛	-14.6104
►	-14.6322
ō	-14.6544
ー	-14.6544
╫	-14.6544
片	-14.6544
Ќ	-14.6771
文	-14.6771
爱	-14.6771
љ	-14.7004
Λ	-14.7242
ْ	-14.7486
Ů	-14.7486
ذ	-14.7486
า	-14.7736
西	-14.7736
ș	-14.7992
่	-14.7992
模	-14.7992
մ	-14.8255
‒	-14.8255
ә	-14.8526
╬	-14.8526
Ę	-14.8526
Ù	-14.8803
ً	-14.8803
╣	-14.8803
日	-14.8803
亚	-14.8803
อ	-14.9089
시	-14.9089
한	-14.9089
娜	-14.9383
語	-14.9383
ン	-14.9383
本	-14.9383
Ų	-14.9686
美	-14.9686
하	-14.9686
简	-14.9999
ɨ	-14.9999
月	-14.9999
를	-14.9999
Ģ	-14.9999
一	-14.9999
海	-15.0321
ζ	-15.0321
全	-15.0321
ւ	-15.0321
产	-15.0321
เ	-15.0655
ʊ	-15.0655
կ	-15.0655
★	-15.0655
յ	-15.0655
Ē	-15.0655
น	-15.0999
ː	-15.0999
ҷ	-15.0999
ך	-15.0999
╟	-15.0999
ア	-15.0999
物	-15.1
ɹ	-15.1357
‧	-15.1357
ก	-15.1727
ɛ	-15.1727
ท	-15.1727
ɡ	-15.1727
는	-15.1727
Ķ	-15.1727
տ	-15.1727
ʌ	-15.2112
♦	-15.2112
语	-15.2112
Ļ	-15.2112
ჭ	-15.2112
ั	-15.2512
╦	-15.2512
林	-15.2512
站	-15.2512
色	-15.2512
Ω	-15.2928
大	-15.2928
հ	-15.2928
ス	-15.2928
Û	-15.2928
̆	-15.2928
Β	-15.2928
和	-15.2928
Χ	-15.2928
ル	-15.2928
新	-15.2928
Φ	-15.3363
ս	-15.3818
派	-15.3818
ื	-15.3818
җ	-15.3818
╩	-15.3818
生	-15.3818
의	-15.3818
ُ	-15.3818
年	-15.3818
翠	-15.3818
ว	-15.3818
量	-15.3818
ส	-15.4294
̋	-15.4294
电	-15.4294
ჰ	-15.4294
婷	-15.4794
ิ	-15.4794
◦	-15.4794
』	-15.4794
岛	-15.4794
影	-15.4794
种	-15.4794
다	-15.4794
을	-15.4794
就	-15.4794
ง	-15.4794
多	-15.4794
品	-15.532
ย	-15.532
ɕ	-15.532
ʃ	-15.532
上	-15.532
ʒ	-15.532
忻	-15.532
이	-15.532
ֿ	-15.532
天	-15.532
บ	-15.5876
ม	-15.5876
食	-15.5876
ี	-15.5876
ะ	-15.5876
│	-15.5876
╨	-15.5876
子	-15.5876
人	-15.5876
出	-15.5876
斯	-15.5876
い	-15.5876
性	-15.5876
ɐ	-15.6464
ӣ	-15.6464
≈	-15.6464
⌠	-15.6464
う	-15.6464
イ	-15.6464
기	-15.6464
영	-15.6464
위	-15.6464
在	-15.6464
Ľ	-15.6464
女	-15.6464
加	-15.6464
是	-15.7089
地	-15.7089
Ć	-15.7089
լ	-15.7089
り	-15.7089
不	-15.7089
้	-15.7089
←	-15.7089
╠	-15.7089
╢	-15.7089
頂	-15.7089
顶	-15.7089
로	-15.7089
ト	-15.7089
能	-15.7089
来	-15.7089
ک	-15.7756
ラ	-15.7756
┌	-15.7756
╚	-15.7756
▓	-15.7756
◆	-15.7756
아	-15.7756
있	-15.7756
ψ	-15.7756
バ	-15.7756
リ	-15.7756
か	-15.7756
农	-15.7756
用	-15.7756
の	-15.7756
这	-15.847
ด	-15.847
ồ	-15.847
Ă	-15.847
ĭ	-15.847
ニ	-15.847
五	-15.847
○	-15.847
ナ	-15.847
入	-15.847
剥	-15.847
玲	-15.847
니	-15.847
습	-15.847
ʐ	-15.847
增	-15.847
以	-15.9239
러	-15.9239
һ	-15.9239
ศ	-15.9239
ʦ	-15.9239
思	-15.9239
衣	-15.9239
׃	-15.9239
‿	-15.9239
≤	-15.9239
我	-15.9239
高	-15.9239
국	-15.9239
사	-15.9239
전	-15.9239
Ě	-15.9239
Ą	-15.9239
پ	-15.9239
っ	-15.9239
十	-15.9239
գ	-15.9239
更	-15.9239
コ	-16.0072
而	-16.0072
բ	-16.0072
ჟ	-16.0072
き	-16.0072
ジ	-16.0072
Ņ	-16.0072
ɑ	-16.0072
Ұ	-16.0072
ӯ	-16.0072
ረ	-16.0072
በ	-16.0072
የ	-16.0072
ề	-16.0072
れ	-16.0072
マ	-16.0072
比	-16.0072
网	-16.0072
십	-16.0072
오	-16.0072
չ	-16.0072
ې	-16.0072
ղ	-16.0072
ց	-16.0072
メ	-16.0072
名	-16.0072
脱	-16.0072
吉	-16.0981
化	-16.0981
ĕ	-16.0981
ŭ	-16.0981
ư	-16.0981
ը	-16.0981
թ	-16.0981
エ	-16.0981
テ	-16.0981
島	-16.0981
情	-16.0981
木	-16.0981
第	-16.0981
에	-16.0981
カ	-16.0982
グ	-16.0982
ド	-16.0982
ɔ	-16.0982
目	-16.0982
て	-16.0982
は	-16.0982
板	-16.0982
で	-16.0982
直	-16.1981
ป	-16.1981
く	-16.1981
管	-16.1981
フ	-16.1981
业	-16.1981
으	-16.1981
ɚ	-16.1981
ɣ	-16.1981
ɫ	-16.1981
ʑ	-16.1981
ѧ	-16.1981
Ү	-16.1981
ף	-16.1981
ใ	-16.1981
ờ	-16.1981
∞	-16.1981
▐	-16.1981
る	-16.1981
キ	-16.1981
也	-16.1981
到	-16.1981
南	-16.1981
抰	-16.1981
洲	-16.1981
降	-16.1981
수	-16.1981
신	-16.1981
일	-16.1981
如	-16.1982
お	-16.1982
も	-16.1982
取	-16.1982
法	-16.1982
但	-16.3092
将	-16.3093
ค	-16.3093
系	-16.3093
シ	-16.3093
厄	-16.3093
持	-16.3093
ơ	-16.3093
ห	-16.3093
ớ	-16.3093
┘	-16.3093
╪	-16.3093
ケ	-16.3093
モ	-16.3093
会	-16.3093
列	-16.3093
群	-16.3093
辑	-16.3093
金	-16.3093
陶	-16.3093
년	-16.3093
여	-16.3093
ʨ	-16.3093
Ա	-16.3093
ま	-16.3093
タ	-16.3093
ャ	-16.3093
尽	-16.3093
拉	-16.3093
此	-16.3093
者	-16.3093
유	-16.3093
พ	-16.3093
只	-16.3093
学	-16.3093
Ə	-16.3093
了	-16.3093
立	-16.3093
口	-16.3093
ุ	-16.4342
崎	-16.4342
绪	-16.4342
理	-16.4343
ئ	-16.4343
Ζ	-16.4343
ҡ	-16.4343
们	-16.4343
Ť	-16.4343
ǔ	-16.4343
դ	-16.4343
վ	-16.4343
ք	-16.4343
ׁ	-16.4343
ټ	-16.4343
ต	-16.4343
∙	-16.4343
┐	-16.4343
▪	-16.4343
☆	-16.4343
ミ	-16.4343
・	-16.4343
哈	-16.4343
容	-16.4343
巴	-16.4343
手	-16.4343
李	-16.4343
浦	-16.4343
磘	-16.4343
竹	-16.4343
英	-16.4343
风	-16.4343
고	-16.4343
교	-16.4343
귀	-16.4343
언	-16.4343
인	-16.4343
트	-16.4343
환	-16.4343
Θ	-16.4343
ウ	-16.4343
分	-16.4343
无	-16.4343
未	-16.4343
ظ	-16.4343
ธ	-16.4343
よ	-16.4343
从	-16.4343
使	-16.4343
前	-16.4343
得	-16.4343
越	-16.4343
足	-16.4343
水	-16.4343
三	-16.4343
ข	-16.4343
面	-16.4343
⁄	-16.5761
ช	-16.5771
安	-16.5771
國	-16.5771
开	-16.5771
有	-16.5771
ɵ	-16.5771
チ	-16.5771
店	-16.5771
Ѥ	-16.5771
ѳ	-16.5771
պ	-16.5771
ら	-16.5771
包	-16.5771
խ	-16.5771
ָ	-16.5771
ּ	-16.5771
ไ	-16.5771
አ	-16.5771
እ	-16.5771
ế	-16.5771
╥	-16.5771
♥	-16.5771
す	-16.5771
ガ	-16.5771
ク	-16.5771
ザ	-16.5771
ダ	-16.5771
ロ	-16.5771
伊	-16.5771
克	-16.5771
原	-16.5771
尔	-16.5771
川	-16.5771
抦	-16.5771
曼	-16.5771
知	-16.5771
米	-16.5771
茶	-16.5771
込	-16.5771
風	-16.5771
라	-16.5771
은	-16.5771
し	-16.5771
尼	-16.5771
球	-16.5771
非	-16.5771
զ	-16.5771
养	-16.5771
区	-16.5771
料	-16.5771
行	-16.5771
质	-16.5771
进	-16.5771
最	-16.5771
然	-16.5771
Ĺ	-16.5771
稻	-16.5771
շ	-16.5771
መ	-16.7438
ኦ	-16.7438
ክ	-16.7438
清	-16.7438
都	-16.7438
배	-16.7438
な	-16.7438
Հ	-16.7438
Ἀ	-16.7438
が	-16.7438
せ	-16.7438
ベ	-16.7438
于	-16.7438
俄	-16.7438
几	-16.7438
引	-16.7438
見	-16.7438
见	-16.7438
邮	-16.7438
보	-16.7438
실	-16.7438
ŏ	-16.7438
ʂ	-16.7438
̨	-16.7438
ϊ	-16.7438
Ѭ	-16.7438
र	-16.7438
฿	-16.7438
་	-16.7438
ህ	-16.7438
ም	-16.7438
ር	-16.7438
ሻ	-16.7438
ቀ	-16.7438
ቶ	-16.7438
ኣ	-16.7438
ው	-16.7438
ዓ	-16.7438
ይ	-16.7438
ገ	-16.7438
ጨ	-16.7438
ጽ	-16.7438
፣	-16.7438
ạ	-16.7438
ả	-16.7438
ẽ	-16.7438
ể	-16.7438
ῳ	-16.7438
↓	-16.7438
╤	-16.7438
▀	-16.7438
つ	-16.7438
ふ	-16.7438
ィ	-16.7438
サ	-16.7438
公	-16.7438
变	-16.7438
啦	-16.7438
器	-16.7438
因	-16.7438
屄	-16.7438
激	-16.7438
稲	-16.7438
言	-16.7438
话	-16.7438
豆	-16.7438
问	-16.7438
青	-16.7438
내	-16.7438
달	-16.7438
당	-16.7438
리	-16.7438
면	-16.7438
및	-16.7438
상	-16.7438
야	-16.7438
역	-16.7438
온	-16.7438
우	-16.7438
지	-16.7438
학	-16.7438
함	-16.7438
해	-16.7438
화	-16.7438
Ә	-16.7438
け	-16.7438
オ	-16.7438
基	-16.7438
成	-16.7438
里	-16.7438
阿	-16.7438
作	-16.7438
め	-16.7438
利	-16.7438
定	-16.7438
热	-16.7438
나	-16.7438
ˌ	-16.7438
ተ	-16.7438
ち	-16.7438
为	-16.7438
动	-16.7438
选	-16.7438
世	-16.7438
让	-16.7438
ล	-16.7438
他	-16.9438
ッ	-16.9438
Ŕ	-16.9438
あ	-16.9438
发	-16.9438
家	-16.9438
效	-16.9438
方	-16.9438
获	-16.9438
部	-16.9438
需	-16.9438
體	-16.9438
维	-16.9438
视	-16.9438
จ	-16.9438
ฝ	-16.9438
ữ	-16.9438
去	-16.9438
干	-16.9438
收	-16.9438
要	-16.9438
长	-16.9438
ʾ	-16.9438
え	-16.9438
ɾ	-16.9438
ʆ	-16.9438
ʍ	-16.9438
ˇ	-16.9438
Ά	-16.9438
Ή	-16.9438
Ί	-16.9438
ΐ	-16.9438
Ѧ	-16.9438
Ҡ	-16.9438
ץ	-16.9438
्	-16.9438
༠	-16.9438
ợ	-16.9438
↑	-16.9438
┬	-16.9438
▄	-16.9438
▌	-16.9438
こ	-16.9438
た	-16.9438
ん	-16.9438
ゴ	-16.9438
デ	-16.9438
ネ	-16.9438
ハ	-16.9438
ビ	-16.9438
ホ	-16.9438
ユ	-16.9438
乗	-16.9438
事	-16.9438
伦	-16.9438
体	-16.9438
北	-16.9438
升	-16.9438
向	-16.9438
吴	-16.9438
土	-16.9438
坦	-16.9438
宋	-16.9438
属	-16.9438
接	-16.9438
搾	-16.9438
旱	-16.9438
明	-16.9438
晓	-16.9438
架	-16.9438
步	-16.9438
泳	-16.9438
流	-16.9438
涩	-16.9438
淫	-16.9438
牙	-16.9438
甜	-16.9438
着	-16.9438
碩	-16.9438
神	-16.9438
粮	-16.9438
網	-16.9438
罗	-16.9438
茜	-16.9438
论	-16.9438
赵	-16.9438
连	-16.9438
送	-16.9438
郝	-16.9438
雅	-16.9438
颐	-16.9438
题	-16.9438
든	-16.9438
벌	-16.9438
분	-16.9438
서	-16.9438
편	-16.9438
۲	-16.9438
แ	-16.9438
༢	-16.9438
备	-16.9438
特	-16.9438
那	-16.9438
に	-16.9438
合	-16.9438
后	-16.9438
每	-16.9438
过	-16.9438
ծ	-16.9438
四	-16.9438
保	-16.9438
传	-16.9438
科	-16.9438
界	-16.9438
民	-17.1938
气	-17.1938
紧	-17.1938
ワ	-17.1938
约	-17.1938
ҙ	-17.1938
協	-17.1938
媒	-17.1938
对	-17.1938
會	-17.1938
迫	-17.1938
力	-17.1938
存	-17.1938
季	-17.1938
宫	-17.1938
机	-17.1938
Ս	-17.1938
与	-17.1938
斗	-17.1938
熨	-17.1938
眼	-17.1938
凄	-17.1938
満	-17.1938
話	-17.1938
ĸ	-17.1938
Ō	-17.1938
Ʒ	-17.1938
ǵ	-17.1938
̞	-17.1938
̠	-17.1938
է	-17.1938
ځ	-17.1938
۰	-17.1938
۴	-17.1938
म	-17.1938
ा	-17.1938
૯	-17.1938
೯	-17.1938
ấ	-17.1938
ặ	-17.1938
ẹ	-17.1938
ỉ	-17.1938
ố	-17.1938
ứ	-17.1938
ἐ	-17.1938
ῆ	-17.1938
₤	-17.1938
↔	-17.1938
∆	-17.1938
⌥	-17.1938
┤	-17.1938
╙	-17.1938
╧	-17.1938
▲	-17.1938
」	-17.1938
『	-17.1938
ぎ	-17.1938
ぐ	-17.1938
ざ	-17.1938
じ	-17.1938
ひ	-17.1938
ぶ	-17.1938
む	-17.1938
ょ	-17.1938
わ	-17.1938
ツ	-17.1938
パ	-17.1938
ピ	-17.1938
你	-17.1938
修	-17.1938
兰	-17.1938
单	-17.1938
参	-17.1938
司	-17.1938
吨	-17.1938
吹	-17.1938
呼	-17.1938
商	-17.1938
坛	-17.1938
域	-17.1938
市	-17.1938
掻	-17.1938
术	-17.1938
柳	-17.1938
永	-17.1938
求	-17.1938
汉	-17.1938
洛	-17.1938
状	-17.1938
田	-17.1938
确	-17.1938
算	-17.1938
維	-17.1938
翻	-17.1938
諸	-17.1938
设	-17.1938
赤	-17.1938
路	-17.1938
長	-17.1938
陀	-17.1938
页	-17.1938
馬	-17.1938
구	-17.1938
글	-17.1938
너	-17.1938
려	-17.1938
말	-17.1938
모	-17.1938
문	-17.1938
민	-17.1938
번	-17.1938
부	-17.1938
성	-17.1938
소	-17.1938
써	-17.1938
용	-17.1938
원	-17.1938
준	-17.1938
창	-17.1938
찾	-17.1938
청	-17.1938
타	-17.1938
할	-17.1938
형	-17.1938
～	-17.1938
ェ	-17.1938
ギ	-17.1938
セ	-17.1938
今	-17.1938
所	-17.1938
蒸	-17.1938
达	-17.1938
대	-17.1938
些	-17.1938
共	-17.1938
太	-17.1938
应	-17.1938
源	-17.1938
短	-17.1938
議	-17.1938
还	-17.1938
鲁	-17.1938
楽	-17.1938
파	-17.1938
ַ	-17.1938
内	-17.1938
够	-17.1938
威	-17.1938
必	-17.1938
技	-17.1938
护	-17.1938
素	-17.1938
统	-17.1938
릭	-17.1938
클	-17.1938
ջ	-17.1938
东	-17.1938
并	-17.1938
样	-17.1938
近	-17.1938
配	-17.1938
โ	-17.1938
困	-17.1938
平	-17.1938
经	-17.1938
贫	-17.1938
饲	-17.1938
关	-17.5271
相	-17.5271
起	-17.5271
ュ	-17.5271
建	-17.5271
极	-17.5271
禽	-17.5271
限	-17.5271
支	-17.5271
ɒ	-17.5271
ἰ	-17.5271
を	-17.5271
严	-17.5271
转	-17.5271
래	-17.5271
선	-17.5271
ằ	-17.5271
勢	-17.5271
특	-17.5271
Ź	-17.5271
̥	-17.5271
̩	-17.5271
Έ	-17.5271
ѥ	-17.5271
Ե	-17.5271
Կ	-17.5271
Օ	-17.5271
ռ	-17.5271
ֆ	-17.5271
ؤ	-17.5271
۷	-17.5271
ޣ	-17.5271
೧	-17.5271
ณ	-17.5271
ḥ	-17.5271
ầ	-17.5271
ọ	-17.5271
ộ	-17.5271
ở	-17.5271
ự	-17.5271
Ῥ	-17.5271
⌡	-17.5271
║	-17.5271
♣	-17.5271
さ	-17.5271
ど	-17.5271
ば	-17.5271
ぼ	-17.5271
ゥ	-17.5271
ゼ	-17.5271
ヌ	-17.5271
プ	-17.5271
ム	-17.5271
九	-17.5271
京	-17.5271
仍	-17.5271
伯	-17.5271
倍	-17.5271
劳	-17.5271
场	-17.5271
外	-17.5271
小	-17.5271
少	-17.5271
岭	-17.5271
州	-17.5271
巨	-17.5271
心	-17.5271
担	-17.5271
望	-17.5271
松	-17.5271
果	-17.5271
根	-17.5271
欧	-17.5271
気	-17.5271
汤	-17.5271
河	-17.5271
洗	-17.5271
湯	-17.5271
炮	-17.5271
瓦	-17.5271
番	-17.5271
盈	-17.5271
磎	-17.5271
紗	-17.5271
組	-17.5271
纱	-17.5271
续	-17.5271
缺	-17.5271
背	-17.5271
若	-17.5271
角	-17.5271
资	-17.5271
超	-17.5271
运	-17.5271
锟	-17.5271
险	-17.5271
频	-17.5271
飞	-17.5271
駸	-17.5271
马	-17.5271
게	-17.5271
과	-17.5271
되	-17.5271
버	-17.5271
색	-17.5271
운	-17.5271
플	-17.5271
ヴ	-17.5271
类	-17.5271
ソ	-17.5271
Ψ	-17.5271
它	-17.5271
山	-17.5271
差	-17.5271
异	-17.5271
石	-17.5271
组	-17.5271
重	-17.5271
や	-17.5271
个	-17.5271
总	-17.5271
提	-17.5271
易	-17.5271
耕	-17.5271
良	-17.5271
较	-17.5271
改	-17.5271
Խ	-17.5271
牛	-17.5271
亿	-17.5271
染	-17.5271
适	-17.5271
奶	-17.5271
ถ	-18.027
候	-18.0271
链	-18.0271
其	-18.0271
放	-18.0271
束	-18.0271
溉	-18.0271
灌	-18.0271
華	-18.0271
造	-18.0271
嘟	-18.0271
Ἠ	-18.0271
Ἡ	-18.0271
ὐ	-18.0271
势	-18.0271
处	-18.0271
悠	-18.0271
济	-18.0271
潜	-18.0271
纷	-18.0271
集	-18.0271
饮	-18.0271
쿤	-18.0271
택	-18.0271
Ө	-18.0271
ब	-18.0271
ἄ	-18.0271
Ἄ	-18.0271
Ἥ	-18.0271
乌	-18.0271
兹	-18.0271
味	-18.0271
問	-18.0271
崩	-18.0271
悩	-18.0271
探	-18.0271
歩	-18.0271
献	-18.0271
逃	-18.0271
鏡	-18.0271
題	-18.0271
预	-18.0271
盛	-18.0271
空	-18.0271
车	-18.0271
ĉ	-18.0271
Ĥ	-18.0271
ħ	-18.0271
ŋ	-18.0271
Ŗ	-18.0271
ũ	-18.0271
Ƿ	-18.0271
Ȝ	-18.0271
ɤ	-18.0271
ɦ	-18.0271
ɲ	-18.0271
ʀ	-18.0271
ʼ	-18.0271
̀	-18.0271
̝	-18.0271
̣	-18.0271
̯	-18.0271
͡	-18.0271
Ξ	-18.0271
ѵ	-18.0271
ѿ	-18.0271
Ն	-18.0271
Տ	-18.0271
ֹ	-18.0271
؛	-18.0271
٭	-18.0271
۱	-18.0271
۵	-18.0271
۶	-18.0271
۹	-18.0271
त	-18.0271
ध	-18.0271
प	-18.0271
भ	-18.0271
े	-18.0271
०	-18.0271
૧	-18.0271
૩	-18.0271
೦	-18.0271
೩	-18.0271
ผ	-18.0271
ฟ	-18.0271
ู	-18.0271
็	-18.0271
๊	-18.0271
์	-18.0271
།	-18.0271
༡	-18.0271
༤	-18.0271
༦	-18.0271
༨	-18.0271
༩	-18.0271
ཅ	-18.0271
པ	-18.0271
བ	-18.0271
ཟ	-18.0271
ི	-18.0271
ུ	-18.0271
ྤ	-18.0271
ྱ	-18.0271
ླ	-18.0271
Ḫ	-18.0271
ṭ	-18.0271
ậ	-18.0271
ệ	-18.0271
ị	-18.0271
ỏ	-18.0271
ổ	-18.0271
Ἑ	-18.0271
ᾍ	-18.0271
‖	-18.0271
∀	-18.0271
∴	-18.0271
≥	-18.0271
═	-18.0271
╖	-18.0271
╝	-18.0271
▒	-18.0271
□	-18.0271
▼	-18.0271
◎	-18.0271
☑	-18.0271
✓	-18.0271
➀	-18.0271
Ⰶ	-18.0271
「	-18.0271
〔	-18.0271
〕	-18.0271
げ	-18.0271
ご	-18.0271
ぜ	-18.0271
そ	-18.0271
ぞ	-18.0271
だ	-18.0271
と	-18.0271
ぬ	-18.0271
ね	-18.0271
び	-18.0271
へ	-18.0271
べ	-18.0271
ほ	-18.0271
み	-18.0271
ゃ	-18.0271
ゆ	-18.0271
ろ	-18.0271
ァ	-18.0271
ゲ	-18.0271
ゾ	-18.0271
ノ	-18.0271
ヒ	-18.0271
ブ	-18.0271
ヘ	-18.0271
ペ	-18.0271
ポ	-18.0271
ョ	-18.0271
ヨ	-18.0271
レ	-18.0271
ㄤ	-18.0271
万	-18.0271
丨	-18.0271
丹	-18.0271
久	-18.0271
义	-18.0271
习	-18.0271
买	-18.0271
交	-18.0271
享	-18.0271
仮	-18.0271
伸	-18.0271
低	-18.0271
佐	-18.0271
佳	-18.0271
八	-18.0271
典	-18.0271
减	-18.0271
别	-18.0271
友	-18.0271
叟	-18.0271
各	-18.0271
吊	-18.0271
同	-18.0271
呈	-18.0271
命	-18.0271
咲	-18.0271
响	-18.0271
哥	-18.0271
嗎	-18.0271
回	-18.0271
囧	-18.0271
固	-18.0271
均	-18.0271
塞	-18.0271
塾	-18.0271
妨	-18.0271
妻	-18.0271
娘	-18.0271
字	-18.0271
宜	-18.0271
実	-18.0271
宮	-18.0271
實	-18.0271
寺	-18.0271
對	-18.0271
届	-18.0271
屋	-18.0271
岸	-18.0271
嶺	-18.0271
已	-18.0271
希	-18.0271
広	-18.0271
库	-18.0271
度	-18.0271
式	-18.0271
当	-18.0271
御	-18.0271
德	-18.0271
応	-18.0271
意	-18.0271
感	-18.0271
戴	-18.0271
投	-18.0271
折	-18.0271
拿	-18.0271
指	-18.0271
掴	-18.0271
揃	-18.0271
換	-18.0271
摩	-18.0271
於	-18.0271
旅	-18.0271
时	-18.0271
書	-18.0271
朋	-18.0271
树	-18.0271
格	-18.0271
框	-18.0271
案	-18.0271
様	-18.0271
檔	-18.0271
殿	-18.0271
沙	-18.0271
況	-18.0271
波	-18.0271
注	-18.0271
活	-18.0271
消	-18.0271
深	-18.0271
済	-18.0271
港	-18.0271
為	-18.0271
焼	-18.0271
照	-18.0271
爪	-18.0271
猛	-18.0271
率	-18.0271
王	-18.0271
环	-18.0271
班	-18.0271
琴	-18.0271
瓜	-18.0271
盤	-18.0271
碍	-18.0271
磗	-18.0271
礁	-18.0271
祝	-18.0271
稱	-18.0271
稼	-18.0271
端	-18.0271
篆	-18.0271
純	-18.0271
紙	-18.0271
纳	-18.0271
纸	-18.0271
置	-18.0271
習	-18.0271
職	-18.0271
胁	-18.0271
胸	-18.0271
臭	-18.0271
舫	-18.0271
菜	-18.0271
萄	-18.0271
萨	-18.0271
葡	-18.0271
葱	-18.0271
薬	-18.0271
蛇	-18.0271
衆	-18.0271
表	-18.0271
裕	-18.0271
製	-18.0271
解	-18.0271
许	-18.0271
访	-18.0271
译	-18.0271
说	-18.0271
课	-18.0271
辞	-18.0271
透	-18.0271
遊	-18.0271
道	-18.0271
郷	-18.0271
银	-18.0271
镜	-18.0271
间	-18.0271
雄	-18.0271
雲	-18.0271
顷	-18.0271
飛	-18.0271
香	-18.0271
가	-18.0271
간	-18.0271
거	-18.0271
건	-18.0271
것	-18.0271
공	-18.0271
권	-18.0271
귑	-18.0271
그	-18.0271
금	-18.0271
께	-18.0271
낱	-18.0271
능	-18.0271
도	-18.0271
동	-18.0271
된	-18.0271
뒤	-18.0271
들	-18.0271
따	-18.0271
또	-18.0271
릅	-18.0271
맞	-18.0271
멤	-18.0271
목	-18.0271
미	-18.0271
법	-18.0271
비	-18.0271
셔	-18.0271
속	-18.0271
숙	-18.0271
스	-18.0271
승	-18.0271
웁	-18.0271
웨	-18.0271
자	-18.0271
작	-18.0271
장	-18.0271
재	-18.0271
즉	-18.0271
집	-18.0271
참	-18.0271
천	-18.0271
치	-18.0271
친	-18.0271
침	-18.0271
키	-18.0271
토	-18.0271
팔	-18.0271
펜	-18.0271
표	-18.0271
프	-18.0271
항	-18.0271
향	-18.0271
홈	-18.0271
ĝ	-18.0271
伝	-18.0271
役	-18.0271
致	-18.0271
采	-18.0271
ǎ	-18.0271
ग	-18.0271
ズ	-18.0271
仁	-18.0271
卢	-18.0271
吸	-18.0271
垂	-18.0271
帕	-18.0271
援	-18.0271
氏	-18.0271
無	-18.0271
ʏ	-18.0271
ճ	-18.0271
ས	-18.0271
临	-18.0271
井	-18.0271
储	-18.0271
即	-18.0271
托	-18.0271
标	-18.0271
械	-18.0271
策	-18.0271
麒	-18.0271
麟	-18.0271
등	-18.0271
록	-18.0271
활	-18.0271
通	-18.0271
Ֆ	-18.0271
売	-18.0271
始	-18.0271
寄	-18.0271
废	-18.0271
採	-18.0271
植	-18.0271
正	-18.0271
決	-18.0271
沒	-18.0271
洪	-18.0271
福	-18.0271
等	-18.0271
給	-18.0271
自	-18.0271
营	-18.0271
販	-18.0271
辦	-18.0271
酸	-18.0271
么	-18.0271
带	-18.0271
之	-18.0272
信	-18.0272
兽	-18.0272
奇	-18.0272
好	-18.0272
择	-18.0272
摆	-18.0272
服	-18.0272
渲	-18.0272
育	-18.0272
!	-18.997
杨	-19.026
雷	-19.0261
迅	-19.0262
核	-19.0263
厂	-19.0264
工	-19.0265
آ	-19.0266
颖	-19.0267
任	-19.0268
刘	-19.0268
何	-19.0269
艳	-19.0269
互	-19.027
复	-19.027
套	-19.027
忽	-19.027
杂	-19.027
疏	-19.027
联	-19.027
場	-19.0271
想	-19.0271
渐	-19.0271
猪	-19.0271
触	-19.0271
Ք	-19.0271
两	-19.0271
再	-19.0271
缩	-19.0271
莉	-19.0271
趋	-19.0271
阻	-19.0271
ि	-19.0271
ἲ	-19.0271
价	-19.0271
樹	-19.0271
繁	-19.0271
貢	-19.0271
ـ	-19.0271
塗	-19.0271
開	-19.0271
[	-19.0271
]	-19.0271
Ĉ	-19.0271
ċ	-19.0271
ġ	-19.0271
Ơ	-19.0271
ƿ	-19.0271
ȝ	-19.0271
ʔ	-19.0271
ʣ	-19.0271
ʤ	-19.0271
ʥ	-19.0271
ʧ	-19.0271
̟	-19.0271
̢	-19.0271
̱	-19.0271
̶	-19.0271
̷	-19.0271
Ό	-19.0271
ѩ	-19.0271
ѫ	-19.0271
ѭ	-19.0271
Ѹ	-19.0271
Ҟ	-19.0271
Ҫ	-19.0271
Ӣ	-19.0271
Դ	-19.0271
Թ	-19.0271
Ի	-19.0271
Ճ	-19.0271
՛	-19.0271
։	-19.0271
ִ	-19.0271
ֵ	-19.0271
چ	-19.0271
گ	-19.0271
۸	-19.0271
ޥ	-19.0271
ज	-19.0271
ट	-19.0271
ण	-19.0271
द	-19.0271
य	-19.0271
ह	-19.0271
ु	-19.0271
ै	-19.0271
१	-19.0271
༧	-19.0271
ኤ	-19.0271
ḇ	-19.0271
ḗ	-19.0271
ṇ	-19.0271
ṛ	-19.0271
Ṭ	-19.0271
ẫ	-19.0271
ễ	-19.0271
ỡ	-19.0271
ừ	-19.0271
ỷ	-19.0271
‟	-19.0271
‣	-19.0271
⁊	-19.0271
₠	-19.0271
₩	-19.0271
₰	-19.0271
∑	-19.0271
≅	-19.0271
└	-19.0271
├	-19.0271
╜	-19.0271
░	-19.0271
◊	-19.0271
☎	-19.0271
♀	-19.0271
♕	-19.0271
♭	-19.0271
♯	-19.0271
《	-19.0271
》	-19.0271
゚	-19.0271
ボ	-19.0271
ヤ	-19.0271
七	-19.0271
丈	-19.0271
丰	-19.0271
主	-19.0271
乎	-19.0271
乙	-19.0271
二	-19.0271
估	-19.0271
似	-19.0271
住	-19.0271
余	-19.0271
供	-19.0271
依	-19.0271
便	-19.0271
儀	-19.0271
元	-19.0271
先	-19.0271
光	-19.0271
免	-19.0271
六	-19.0271
冀	-19.0271
军	-19.0271
冲	-19.0271
准	-19.0271
凸	-19.0271
则	-19.0271
制	-19.0271
刺	-19.0271
剣	-19.0271
剩	-19.0271
劉	-19.0271
努	-19.0271
勉	-19.0271
勧	-19.0271
卫	-19.0271
印	-19.0271
厦	-19.0271
反	-19.0271
受	-19.0271
另	-19.0271
否	-19.0271
呢	-19.0271
周	-19.0271
喂	-19.0271
善	-19.0271
圭	-19.0271
埃	-19.0271
城	-19.0271
塔	-19.0271
士	-19.0271
壬	-19.0271
変	-19.0271
夏	-19.0271
头	-19.0271
夷	-19.0271
契	-19.0271
奥	-19.0271
妖	-19.0271
宛	-19.0271
实	-19.0271
密	-19.0271
富	-19.0271
寓	-19.0271
局	-19.0271
展	-19.0271
峻	-19.0271
幸	-19.0271
广	-19.0271
強	-19.0271
往	-19.0271
律	-19.0271
循	-19.0271
微	-19.0271
志	-19.0271
快	-19.0271
念	-19.0271
您	-19.0271
慣	-19.0271
戈	-19.0271
战	-19.0271
才	-19.0271
扎	-19.0271
扗	-19.0271
扴	-19.0271
承	-19.0271
抗	-19.0271
抣	-19.0271
抮	-19.0271
抯	-19.0271
抳	-19.0271
抵	-19.0271
拜	-19.0271
挑	-19.0271
挠	-19.0271
损	-19.0271
据	-19.0271
排	-19.0271
推	-19.0271
措	-19.0271
掲	-19.0271
損	-19.0271
撃	-19.0271
撒	-19.0271
播	-19.0271
政	-19.0271
数	-19.0271
施	-19.0271
族	-19.0271
旦	-19.0271
早	-19.0271
昇	-19.0271
星	-19.0271
显	-19.0271
時	-19.0271
晟	-19.0271
景	-19.0271
暂	-19.0271
暫	-19.0271
朝	-19.0271
東	-19.0271
森	-19.0271
極	-19.0271
機	-19.0271
殊	-19.0271
氧	-19.0271
氮	-19.0271
江	-19.0271
沖	-19.0271
治	-19.0271
泄	-19.0271
洁	-19.0271
涂	-19.0271
涌	-19.0271
温	-19.0271
渴	-19.0271
湄	-19.0271
满	-19.0271
点	-19.0271
焦	-19.0271
熱	-19.0271
熳	-19.0271
牵	-19.0271
狐	-19.0271
瑙	-19.0271
環	-19.0271
産	-19.0271
留	-19.0271
疆	-19.0271
疑	-19.0271
疗	-19.0271
疝	-19.0271
疵	-19.0271
疸	-19.0271
病	-19.0271
痴	-19.0271
益	-19.0271
矿	-19.0271
硬	-19.0271
碅	-19.0271
碳	-19.0271
示	-19.0271
租	-19.0271
稀	-19.0271
種	-19.0271
稳	-19.0271
穷	-19.0271
精	-19.0271
終	-19.0271
結	-19.0271
絽	-19.0271
纪	-19.0271
纽	-19.0271
线	-19.0271
缓	-19.0271
老	-19.0271
考	-19.0271
肥	-19.0271
胶	-19.0271
般	-19.0271
苑	-19.0271
草	-19.0271
荷	-19.0271
菲	-19.0271
蕴	-19.0271
薯	-19.0271
藏	-19.0271
虫	-19.0271
融	-19.0271
裏	-19.0271
观	-19.0271
览	-19.0271
訪	-19.0271
設	-19.0271
試	-19.0271
誡	-19.0271
誶	-19.0271
調	-19.0271
謹	-19.0271
计	-19.0271
认	-19.0271
试	-19.0271
诺	-19.0271
调	-19.0271
谨	-19.0271
谷	-19.0271
豴	-19.0271
负	-19.0271
贡	-19.0271
购	-19.0271
贳	-19.0271
赖	-19.0271
較	-19.0271
載	-19.0271
轨	-19.0271
轻	-19.0271
输	-19.0271
辽	-19.0271
远	-19.0271
迪	-19.0271
途	-19.0271
運	-19.0271
避	-19.0271
鄂	-19.0271
錦	-19.0271
锦	-19.0271
門	-19.0271
間	-19.0271
関	-19.0271
门	-19.0271
闻	-19.0271
陸	-19.0271
雨	-19.0271
靠	-19.0271
音	-19.0271
領	-19.0271
頭	-19.0271
顿	-19.0271
飾	-19.0271
館	-19.0271
饭	-19.0271
饰	-19.0271
馆	-19.0271
首	-19.0271
駝	-19.0271
駭	-19.0271
黎	-19.0271
ꝥ	-19.0271
결	-19.0271
곤	-19.0271
곳	-19.0271
느	-19.0271
드	-19.0271
때	-19.0271
°	-19.0271
ǧ	-19.0271
ہ	-19.0271
幾	-19.0271
榨	-19.0271
牽	-19.0271
貰	-19.0271
過	-19.0271
Ҷ	-19.0271
Է	-19.0271
२	-19.0271
೨	-19.0271
乔	-19.0271
切	-19.0271
圣	-19.0271
姆	-19.0271
宾	-19.0271
後	-19.0271
惯	-19.0271
療	-19.0271
白	-19.0271
翰	-19.0271
騁	-19.0271
ְ	-19.0271
例	-19.0271
决	-19.0271
村	-19.0271
棒	-19.0271
溯	-19.0271
熟	-19.0271
燃	-19.0271
瘤	-19.0271
看	-19.0271
真	-19.0271
签	-19.0271
聞	-19.0271
该	-19.0271
追	-19.0271
速	-19.0271
企	-19.0272
冷	-19.0272
或	-19.0272
業	-19.0272
由	-19.0272
盐	-19.0272
磷	-19.0272
贸	-19.0272
须	-19.0272
,	-19.0272
务	-19.0272
医	-19.0272
愛	-19.0272
没	-19.0272
验	-19.0272
麗	-19.0272
