<s>	0
<pad>	0
</s>	0
<unk>	0
▁,	-3.27534
▁.	-3.56489
s	-3.6328
▁	-3.78184
▁the	-3.86913
a	-4.00337
e	-4.07311
▁a	-4.0764
▁de	-4.16446
i	-4.29914
ă	-4.33412
▁of	-4.58117
▁to	-4.58577
;	-4.63885
▁în	-4.70915
▁and	-4.73928
▁&	-4.78708
▁in	-4.86164
-	-5.05444
@	-5.06131
ed	-5.07882
▁şi	-5.10479
▁@	-5.10761
▁să	-5.10923
le	-5.14119
ing	-5.19199
m	-5.22364
y	-5.24574
▁that	-5.3039
▁la	-5.37977
▁is	-5.39972
t	-5.40373
quot	-5.44699
lor	-5.47745
▁că	-5.50413
apos	-5.50883
▁o	-5.53702
▁care	-5.54164
▁pentru	-5.55489
▁I	-5.58789
d	-5.61147
▁din	-5.64319
▁for	-5.66055
ly	-5.68355
▁cu	-5.73735
▁on	-5.74987
▁un	-5.77148
▁și	-5.77258
▁be	-5.82951
ul	-5.87298
▁este	-5.95813
▁nu	-5.97957
▁it	-5.9914
▁we	-5.99905
▁pe	-6.008
(	-6.03835
▁this	-6.03866
▁are	-6.04174
▁mai	-6.04799
)	-6.05748
▁with	-6.09237
n	-6.09271
▁-	-6.09836
▁The	-6.12816
▁se	-6.14625
ului	-6.19098
▁have	-6.25917
▁au	-6.31744
▁European	-6.31848
▁al	-6.37104
▁not	-6.38156
c	-6.41319
▁you	-6.5005
▁ce	-6.51324
▁will	-6.52401
▁ca	-6.53182
▁am	-6.53962
▁as	-6.54083
▁by	-6.57478
:	-6.60058
▁sunt	-6.60522
r	-6.60747
▁fi	-6.60851
▁an	-6.62819
er	-6.64935
▁which	-6.67873
u	-6.68924
▁fost	-6.69522
▁va	-6.70852
?	-6.72933
re	-6.73011
▁has	-6.74088
▁was	-6.74373
▁ar	-6.77837
▁at	-6.82168
ţi	-6.82612
▁A	-6.82888
/	-6.83478
from	-6.84057
▁acest	-6.85928
▁ne	-6.86869
▁În	-6.88275
▁trebuie	-6.93441
▁all	-6.97453
al	-6.99624
on	-6.99874
in	-7.02669
▁can	-7.03361
ți	-7.03848
▁EU	-7.0564
▁would	-7.05703
also	-7.07822
▁but	-7.10921
l	-7.11128
▁We	-7.11905
▁our	-7.12681
▁&#9	-7.14058
▁And	-7.14552
ce	-7.1495
▁or	-7.18375
▁do	-7.18496
▁It	-7.19566
▁UE	-7.1966
▁aceste	-7.20133
rea	-7.21429
▁so	-7.23082
▁about	-7.23203
or	-7.23255
▁their	-7.238
ies	-7.24108
▁aceast	-7.25376
▁De	-7.27423
▁important	-7.27976
▁more	-7.29778
▁In	-7.31252
▁been	-7.31718
▁what	-7.32697
▁people	-7.33315
▁there	-7.33991
▁said	-7.34513
▁like	-7.34544
▁one	-7.35522
▁need	-7.37524
area	-7.38352
▁us	-7.38713
▁sau	-7.38865
ele	-7.38939
▁who	-7.4169
▁should	-7.41824
▁re	-7.41903
3	-7.43617
very	-7.44741
▁e	-7.44818
▁prin	-7.45074
▁President	-7.45194
▁my	-7.4599
▁face	-7.4736
▁mult	-7.48265
▁up	-7.4834
o	-7.48366
▁its	-7.48512
▁these	-7.49306
▁other	-7.49366
▁foarte	-7.4964
ui	-7.50271
ate	-7.50864
▁must	-7.51163
1	-7.51192
▁le	-7.51279
▁ale	-7.51819
cause	-7.51856
▁Thi	-7.51953
%	-7.52283
ion	-7.52299
▁right	-7.52496
▁toate	-7.53075
▁Commission	-7.53293
▁vor	-7.53939
th	-7.54023
▁Kosovo	-7.54468
te	-7.55068
▁lucru	-7.55252
▁noi	-7.57149
▁new	-7.5742
▁dacă	-7.57646
▁he	-7.57724
▁out	-7.57758
ăm	-7.57943
▁dar	-7.58779
▁cum	-7.58895
▁fie	-7.59391
▁So	-7.59652
▁Mr	-7.60035
▁privind	-7.60088
en	-7.60142
z	-7.60382
▁într	-7.60606
▁dintre	-7.62339
▁asemenea	-7.62598
▁time	-7.62686
▁Union	-7.63308
ation	-7.63894
are	-7.6517
▁trebui	-7.66189
k	-7.66656
▁--	-7.67235
ceea	-7.67898
▁were	-7.68342
▁report	-7.69328
▁public	-7.69571
▁S	-7.69601
▁E	-7.70025
an	-7.70507
▁if	-7.70598
▁Member	-7.70604
▁Europe	-7.71017
▁countries	-7.71411
supra	-7.72103
▁O	-7.72185
▁ani	-7.72524
▁States	-7.72843
▁no	-7.73194
▁despre	-7.73568
▁mod	-7.73708
▁când	-7.74585
▁Parliament	-7.74813
▁economic	-7.75
▁some	-7.76198
▁cele	-7.76268
▁t	-7.76334
▁when	-7.76499
▁state	-7.76723
.	-7.77128
▁support	-7.77429
tre	-7.77609
▁parte	-7.77832
▁acord	-7.77921
ând	-7.78074
ează	-7.78541
▁sa	-7.79874
ve	-7.79886
▁into	-7.80215
▁unei	-7.80749
▁Serbia	-7.81318
▁think	-7.81754
ri	-7.81889
▁me	-7.81893
▁ţări	-7.82777
▁putea	-7.83635
▁Nu	-7.83834
ic	-7.83938
b	-7.84475
▁membre	-7.84943
▁social	-7.8534
▁just	-7.85915
▁timp	-7.86087
▁iar	-7.86386
▁take	-7.86722
▁Am	-7.87605
▁declarat	-7.87922
▁work	-7.87961
▁doar	-7.88421
▁mare	-7.88806
st	-7.88876
▁B	-7.88904
▁country	-7.8896
▁special	-7.89368
rii	-7.89681
▁now	-7.90363
▁had	-7.90705
▁want	-7.91287
▁say	-7.92764
▁unui	-7.93219
▁see	-7.93363
▁make	-7.93908
g	-7.94742
▁acum	-7.94927
p	-7.94994
▁mi	-7.95463
▁two	-7.97543
ll	-7.97631
▁year	-7.97791
li	-7.97818
▁după	-7.98241
▁over	-7.98622
▁than	-7.98999
▁years	-7.99076
▁euro	-7.99089
aţi	-7.99616
▁first	-7.99651
hose	-8.00227
▁G	-8.0024
ată	-8.00557
▁Acest	-8.00625
▁know	-8.00942
▁fac	-8.01018
▁between	-8.01205
▁issue	-8.01584
▁way	-8.01683
▁multe	-8.02897
▁10	-8.03808
f	-8.03896
▁vă	-8.04787
▁them	-8.05018
▁pot	-8.05086
▁his	-8.05138
▁dori	-8.05189
▁could	-8.05193
▁R	-8.05362
▁thing	-8.05816
va	-8.06137
▁asta	-8.06247
▁Council	-8.06884
em	-8.07554
ne	-8.0815
▁l	-8.09149
▁faptul	-8.09201
uri	-8.09426
▁government	-8.09649
esc	-8.09895
▁cel	-8.10309
▁actual	-8.10436
▁problem	-8.10539
w	-8.10631
▁how	-8.10739
▁cadrul	-8.11316
▁every	-8.1133
▁world	-8.11618
▁where	-8.12084
▁any	-8.12474
ci	-8.12579
▁But	-8.12689
▁Europa	-8.13717
▁M	-8.14248
▁political	-8.14353
ther	-8.14779
▁your	-8.14856
▁avea	-8.14977
▁există	-8.15075
ării	-8.15334
▁co	-8.15433
▁Comisi	-8.15469
eze	-8.15839
▁most	-8.15971
▁drepturi	-8.16293
▁such	-8.16442
▁Europeană	-8.16547
▁policy	-8.17031
▁Uniune	-8.17339
ur	-8.1786
ja	-8.1788
▁call	-8.18005
ro	-8.1839
▁many	-8.18497
▁pute	-8.18875
▁Comisiei	-8.19126
▁făcut	-8.19362
▁cât	-8.19553
stfel	-8.19629
▁pân	-8.19645
▁două	-8.19993
ever	-8.20047
▁C	-8.20776
▁go	-8.20817
ity	-8.20905
▁mă	-8.20964
▁being	-8.21
▁well	-8.21137
▁here	-8.21702
▁going	-8.22138
▁alte	-8.22153
zi	-8.22198
▁pre	-8.22414
▁agreement	-8.22563
▁Cu	-8.22672
▁precu	-8.23236
▁p	-8.23253
▁aceasta	-8.23503
▁made	-8.23851
ar	-8.2401
▁acestui	-8.24209
▁How	-8.24269
us	-8.24303
ers	-8.24768
▁La	-8.25073
poate	-8.25129
▁raport	-8.25457
▁Este	-8.2549
▁part	-8.25612
▁particular	-8.2578
▁loc	-8.2592
▁bine	-8.25971
▁look	-8.26075
▁get	-8.26096
▁change	-8.26134
▁against	-8.2644
▁între	-8.26532
ment	-8.26844
▁deoarece	-8.26938
▁believe	-8.27035
▁good	-8.27037
um	-8.27319
▁atât	-8.27598
▁through	-8.28164
▁system	-8.28471
▁lui	-8.28497
▁si	-8.28714
▁avem	-8.28716
▁human	-8.2887
▁împotriv	-8.29611
▁ci	-8.29799
ti	-8.30602
▁F	-8.31062
▁Aceast	-8.31072
▁put	-8.31074
▁place	-8.31317
▁urmare	-8.31521
ut	-8.31724
▁T	-8.3181
ent	-8.31896
▁even	-8.31935
▁Dar	-8.32305
▁sub	-8.32534
▁general	-8.33307
ld	-8.33407
est	-8.33559
▁era	-8.33582
▁1	-8.33653
▁mean	-8.33657
▁măsuri	-8.33661
refore	-8.34002
ați	-8.34282
şi	-8.34402
ist	-8.3476
▁Uniuni	-8.34778
▁însă	-8.34964
▁great	-8.35143
▁much	-8.35153
▁under	-8.35158
▁încă	-8.35225
lu	-8.35324
out	-8.35343
▁case	-8.35509
▁financial	-8.35577
▁20	-8.35614
▁BiH	-8.35743
nd	-8.36215
▁privire	-8.36326
▁use	-8.36507
▁Europene	-8.36533
▁crisis	-8.36609
▁fără	-8.36616
urile	-8.36616
▁Minister	-8.36646
decât	-8.36653
▁stat	-8.36936
▁Şi	-8.37376
▁chiar	-8.37515
▁dezvoltare	-8.37545
▁preşedinte	-8.37575
▁fact	-8.37821
un	-8.37923
▁last	-8.38126
▁point	-8.38214
▁m	-8.38491
la	-8.38591
5	-8.38656
▁end	-8.38824
▁same	-8.38868
▁start	-8.38925
▁after	-8.38934
▁clear	-8.3941
▁nevoie	-8.39526
one	-8.39633
▁really	-8.39714
▁market	-8.39987
▁help	-8.40138
▁citizens	-8.40437
▁cred	-8.4064
▁That	-8.4069
▁high	-8.4074
▁energy	-8.40985
▁nou	-8.41641
▁consider	-8.41733
il	-8.41943
▁term	-8.42192
h	-8.42197
▁ra	-8.42377
▁final	-8.42392
▁lor	-8.42771
▁acesta	-8.43186
▁11	-8.43214
▁To	-8.43293
▁measure	-8.43415
▁spus	-8.43553
▁international	-8.4361
▁muncă	-8.4382
▁Macedonia	-8.43981
▁persoane	-8.44083
▁fapt	-8.44438
▁el	-8.44473
▁does	-8.44519
▁area	-8.44568
▁future	-8.44936
▁vom	-8.45072
▁did	-8.45191
ni	-8.45221
▁statele	-8.45558
▁level	-8.45626
▁global	-8.46042
▁dl	-8.46072
▁Times	-8.46241
▁fel	-8.4648
▁Și	-8.46514
▁Parlamentul	-8.46639
▁development	-8.46643
▁dur	-8.46646
▁europene	-8.46658
▁You	-8.46891
▁aici	-8.4715
▁noastre	-8.47165
▁respect	-8.4758
ții	-8.47828
▁He	-8.47939
ant	-8.48266
▁Un	-8.4906
▁vote	-8.49177
▁order	-8.49218
ţii	-8.49366
▁process	-8.49794
▁12	-8.49874
▁proposal	-8.49959
▁vedere	-8.50325
▁P	-8.5036
▁situation	-8.50715
▁luni	-8.50784
ive	-8.50847
▁As	-8.50868
▁nivel	-8.51145
to	-8.51161
itatea	-8.51556
▁then	-8.51705
▁own	-8.51812
▁sector	-8.51982
▁There	-8.52197
▁trei	-8.52333
▁recent	-8.52738
▁cea	-8.531
▁ei	-8.53125
▁poat	-8.53522
x	-8.53562
▁Southeast	-8.53572
▁Re	-8.53893
▁cei	-8.53995
▁region	-8.54222
▁Dac	-8.54247
▁back	-8.54667
▁atunci	-8.55285
▁crime	-8.55503
▁result	-8.55714
el	-8.55883
▁unor	-8.56094
▁mea	-8.5623
▁spune	-8.56361
▁financiar	-8.56495
▁still	-8.56502
▁NATO	-8.57016
▁show	-8.57132
▁national	-8.57321
▁today	-8.57442
lo	-8.57825
▁moment	-8.57972
▁prezent	-8.58211
▁clar	-8.5843
ance	-8.58668
▁reprezint	-8.58942
▁possibl	-8.59033
▁5	-8.59152
▁SETimes	-8.59306
▁Se	-8.59363
▁Prin	-8.59407
▁probleme	-8.5951
▁three	-8.59773
▁2	-8.5987
ge	-8.60146
▁adopt	-8.60268
os	-8.60402
▁avut	-8.6087
▁may	-8.60931
▁current	-8.61287
▁politici	-8.61919
▁lucruri	-8.62126
▁come	-8.62135
▁number	-8.62439
▁ask	-8.62453
▁b	-8.6254
▁acestei	-8.62611
▁unde	-8.62677
▁regard	-8.62693
▁îi	-8.62802
ch	-8.62822
▁vot	-8.63015
▁Dle	-8.63287
▁oameni	-8.63431
▁don	-8.63578
▁Turkey	-8.63756
▁aplicare	-8.64357
▁rând	-8.64429
▁european	-8.64683
▁long	-8.64734
▁control	-8.64837
▁legal	-8.64851
fi	-8.64879
și	-8.64887
▁K	-8.64953
v	-8.65029
▁plan	-8.65332
▁different	-8.65508
▁D	-8.65723
ter	-8.66089
▁Bulgaria	-8.66182
îl	-8.6652
no	-8.6654
▁real	-8.66805
able	-8.66869
▁question	-8.66906
▁project	-8.66973
▁UN	-8.67346
tor	-8.6745
ra	-8.67546
▁both	-8.67976
▁includ	-8.68047
▁faţ	-8.68091
▁For	-8.68152
▁group	-8.68152
▁local	-8.68294
▁per	-8.68331
ş	-8.68445
ness	-8.68522
▁voi	-8.68681
▁internaţional	-8.68763
▁give	-8.68796
toare	-8.69379
▁continue	-8.69458
man	-8.69621
▁bun	-8.6965
ca	-8.69808
▁debate	-8.69968
▁If	-8.70336
▁something	-8.70553
▁ceva	-8.70675
▁reform	-8.70857
▁sale	-8.70874
▁decision	-8.70877
▁law	-8.71324
▁she	-8.71746
ian	-8.71783
▁life	-8.71794
▁Unite	-8.72032
▁noastră	-8.72169
▁afirmat	-8.72538
▁interest	-8.72566
▁politică	-8.7266
▁regional	-8.72697
▁ex	-8.73198
▁îş	-8.73229
▁primul	-8.73329
▁What	-8.73485
▁scris	-8.73571
▁2009	-8.73604
▁provide	-8.73658
▁cost	-8.7373
▁why	-8.73737
▁Trebuie	-8.73811
▁able	-8.73889
▁security	-8.73927
▁increase	-8.74128
▁down	-8.74271
co	-8.74316
chi	-8.74514
ări	-8.74608
▁Albania	-8.7468
ready	-8.74753
▁before	-8.748
▁next	-8.74861
▁timpul	-8.74946
ally	-8.74977
▁fiecare	-8.75135
▁Mi	-8.75264
ck	-8.75358
itate	-8.75418
▁15	-8.75454
▁hope	-8.75501
▁Consiliului	-8.75742
4	-8.75759
▁talk	-8.76011
▁30	-8.76099
▁Ca	-8.76105
ol	-8.76217
▁economică	-8.76333
▁ensure	-8.76691
▁spun	-8.76758
▁Al	-8.77215
▁power	-8.77514
▁dis	-8.77544
▁exemplu	-8.77583
▁transport	-8.77637
▁3	-8.77681
vo	-8.77845
▁H	-8.78063
▁Sunt	-8.7813
vi	-8.78143
ting	-8.78247
▁țări	-8.78263
▁direct	-8.78518
▁W	-8.78605
▁civil	-8.78607
2	-8.78644
▁Now	-8.7888
▁mari	-8.79305
▁Parlamentului	-8.79333
▁budget	-8.79534
▁rule	-8.79623
▁nici	-8.79756
▁example	-8.79865
▁aceea	-8.80099
▁domeniul	-8.80193
▁resolution	-8.80247
▁full	-8.80515
▁better	-8.80529
▁action	-8.80597
▁concern	-8.80663
▁course	-8.80845
▁fiind	-8.81092
▁tot	-8.81297
▁allow	-8.81423
▁urmă	-8.81546
▁Commissioner	-8.81602
▁canno	-8.8194
▁peste	-8.82169
▁day	-8.82227
▁câtev	-8.82255
▁di	-8.8235
▁comun	-8.82493
▁drept	-8.82529
▁aşa	-8.82635
▁Pe	-8.82753
▁her	-8.82779
▁information	-8.83071
▁too	-8.83117
▁business	-8.83412
▁economice	-8.84084
▁develop	-8.84366
▁institution	-8.84597
7	-8.84606
ism	-8.8486
pl	-8.84866
▁Be	-8.84875
▁force	-8.85007
ok	-8.85401
ir	-8.85519
▁priveşte	-8.85549
▁meu	-8.85653
▁cooperare	-8.85777
▁set	-8.86067
▁major	-8.86228
▁women	-8.86334
▁pro	-8.86354
nother	-8.86378
▁început	-8.8656
ez	-8.86571
▁înainte	-8.86592
▁procesul	-8.86791
▁kind	-8.86864
▁aş	-8.86949
▁common	-8.87054
▁posibil	-8.87063
▁data	-8.87104
▁follow	-8.8721
▁Co	-8.87252
▁său	-8.87285
▁since	-8.87439
ga	-8.87544
▁specific	-8.87712
▁certain	-8.87901
▁2010	-8.87931
▁Laughte	-8.88032
▁personal	-8.88108
▁health	-8.88143
tic	-8.88154
▁puţin	-8.88192
▁bună	-8.88394
▁Din	-8.88413
▁million	-8.88509
▁total	-8.8885
gi	-8.89123
aj	-8.89227
▁celor	-8.89232
▁open	-8.8933
▁punct	-8.89347
▁fund	-8.89364
▁implement	-8.89393
▁6	-8.89568
▁permite	-8.89717
tion	-8.9
▁votat	-8.90038
be	-8.90277
▁Ne	-8.90289
▁trecut	-8.90304
▁zi	-8.90508
▁legat	-8.90666
tra	-8.90669
▁Cred	-8.90785
▁...	-8.90811
▁impact	-8.91004
▁week	-8.91022
▁unul	-8.91317
▁around	-8.91359
▁view	-8.91394
▁companie	-8.9141
▁include	-8.91415
▁4	-8.91528
j	-8.91531
▁creat	-8.91555
!	-8.91611
Pentru	-8.91839
▁protection	-8.92042
ty	-8.92062
▁service	-8.92099
▁problemă	-8.92321
▁oamenii	-8.92739
▁7	-8.92778
izare	-8.92887
ac	-8.92889
▁matter	-8.93239
M	-8.93251
▁form	-8.93385
▁favoare	-8.93429
▁necesar	-8.9348
ească	-8.93519
▁milioane	-8.93686
▁while	-8.93834
▁acestor	-8.93854
▁po	-8.9403
▁become	-8.94075
mp	-8.94091
▁find	-8.94239
▁Bosnia	-8.94251
▁adevărat	-8.94263
▁viitor	-8.94627
▁Turcia	-8.94669
▁programme	-8.94733
▁omului	-8.94836
▁idea	-8.95037
▁locuri	-8.95081
▁Ce	-8.95103
▁favour	-8.95118
▁fundamental	-8.9518
▁proces	-8.95576
▁eforturi	-8.9558
▁little	-8.95609
0	-8.95738
▁numai	-8.95808
▁produse	-8.95815
▁trade	-8.96155
▁eu	-8.96181
▁nostru	-8.96241
▁tuturor	-8.96293
▁conflict	-8.96482
▁No	-8.96488
D	-8.96504
âsete	-8.96533
▁media	-8.96659
▁role	-8.96697
▁astăzi	-8.9684
▁energie	-8.96928
self	-8.97061
▁aspect	-8.97064
▁securitate	-8.97076
▁election	-8.97093
▁remain	-8.97128
▁comisar	-8.97136
▁8	-8.97192
mo	-8.97305
▁lot	-8.97307
ru	-8.97326
▁v	-8.97338
ven	-8.97406
▁anul	-8.97417
▁together	-8.97493
▁again	-8.97508
▁diferite	-8.97514
▁second	-8.97556
P	-8.97585
▁000	-8.97611
▁Ma	-8.97762
▁politice	-8.97969
om	-8.98052
▁econom	-8.98338
iz	-8.98359
▁create	-8.98437
▁step	-8.98537
▁europeană	-8.98977
▁effective	-8.99064
▁V	-8.99121
▁act	-8.99339
▁democratic	-8.99582
orice	-8.99606
▁regiune	-8.99665
▁strong	-8.99678
▁agree	-8.99831
▁accept	-9.00185
▁lume	-9.00326
▁cazul	-9.00382
▁con	-9.00507
▁far	-9.00528
▁close	-9.00549
▁At	-9.00652
▁Da	-9.00785
▁document	-9.00799
▁turn	-9.01049
▁alt	-9.01053
▁Croatia	-9.01125
I	-9.01163
▁Madam	-9.01178
▁operation	-9.01191
▁propunere	-9.01334
▁te	-9.01493
▁On	-9.0154
▁few	-9.01553
▁Consiliul	-9.01686
▁limit	-9.01943
▁aim	-9.02105
A	-9.0213
▁încât	-9.02237
▁2008	-9.02245
▁w	-9.02249
▁raportul	-9.0227
ș	-9.02357
▁El	-9.02382
ko	-9.02482
sh	-9.0273
▁try	-9.02827
▁Ar	-9.02847
▁US	-9.02943
▁bas	-9.02989
dic	-9.0301
▁hand	-9.03035
▁condition	-9.03082
▁ţar	-9.03147
▁progress	-9.035
ous	-9.03521
▁luat	-9.03546
▁whe	-9.03588
▁Bo	-9.03807
▁rapid	-9.03834
▁present	-9.04047
▁18	-9.04116
▁așa	-9.0458
bi	-9.04852
▁19	-9.05268
▁Serbian	-9.05269
▁toward	-9.05275
▁free	-9.05344
▁directive	-9.05363
au	-9.05506
▁perioad	-9.05615
▁By	-9.05701
▁zone	-9.05763
▁mine	-9.05845
▁bring	-9.05863
▁date	-9.05924
▁State	-9.05955
▁Le	-9.05984
▁alegeri	-9.06078
▁inter	-9.06102
ke	-9.06216
ot	-9.06225
▁product	-9.06239
▁official	-9.06313
ver	-9.06535
hi	-9.06539
▁Ra	-9.06922
▁politic	-9.06934
▁servicii	-9.07002
▁off	-9.07097
cu	-9.07182
▁inclusiv	-9.07458
▁authorities	-9.07639
▁lumea	-9.07663
▁Prime	-9.07672
▁schimb	-9.07751
▁cooperati	-9.07903
▁solution	-9.08021
▁Con	-9.08064
▁strateg	-9.0808
▁aderare	-9.08102
▁war	-9.08365
▁Aceste	-9.08381
▁da	-9.08384
▁negocieri	-9.08423
▁dată	-9.08638
▁urma	-9.08694
ică	-9.08907
ten	-9.09179
▁complet	-9.09258
▁difficult	-9.09261
▁meeting	-9.09295
▁2020	-9.0933
▁capital	-9.0947
▁working	-9.09494
▁calitate	-9.09582
▁necessary	-9.09653
▁An	-9.10066
▁25	-9.10103
▁position	-9.10345
▁got	-9.10398
cy	-9.10441
▁making	-9.10456
▁him	-9.10535
▁reduce	-9.10591
▁cetăţeni	-9.10914
▁sistem	-9.10928
▁test	-9.11059
urilor	-9.11136
▁prea	-9.11221
▁pune	-9.11302
▁small	-9.11425
S	-9.11453
ba	-9.11504
▁regulation	-9.11574
▁establish	-9.11809
▁Mo	-9.11844
▁pas	-9.11877
doresc	-9.12035
▁prima	-9.12065
gu	-9.12166
ţe	-9.12248
▁înseamn	-9.12314
dar	-9.12501
ze	-9.12524
▁afaceri	-9.12609
▁creştere	-9.12713
▁Parlament	-9.12716
▁model	-9.12943
▁serious	-9.13092
▁li	-9.13172
▁află	-9.13253
▁sprijin	-9.13284
▁done	-9.13323
ovic	-9.13357
▁program	-9.13392
▁14	-9.13413
iei	-9.13447
▁fonduri	-9.13517
▁non	-9.1375
▁children	-9.13753
▁money	-9.13753
▁food	-9.13798
▁negotiation	-9.14261
ina	-9.14339
▁13	-9.14391
▁Belgrade	-9.14583
iv	-9.14593
▁200	-9.14659
▁further	-9.14789
▁cauza	-9.14838
▁large	-9.14941
pt	-9.15044
go	-9.15096
ân	-9.15097
▁sign	-9.15306
▁zile	-9.15455
▁asigura	-9.15589
▁principle	-9.15623
pi	-9.15657
▁each	-9.15663
▁Treaty	-9.15687
▁propuneri	-9.15697
▁g	-9.15784
▁Deci	-9.15848
▁problema	-9.15871
▁given	-9.15884
▁proiect	-9.15945
▁Greece	-9.16041
▁welcome	-9.16057
▁main	-9.16123
che	-9.16152
▁DE	-9.16188
je	-9.1624
▁instrument	-9.16249
▁termen	-9.16384
▁however	-9.16394
▁reach	-9.16476
▁17	-9.16527
▁aproape	-9.16541
▁objective	-9.16611
▁Turkish	-9.16736
ităţii	-9.16873
▁sp	-9.16921
▁Si	-9.16927
▁mici	-9.1709
▁ONU	-9.17255
▁U	-9.17375
▁50	-9.17544
▁car	-9.17662
▁freedom	-9.17712
▁refer	-9.17732
▁președinte	-9.17914
ial	-9.18005
per	-9.18057
▁9	-9.18232
▁guvernul	-9.1824
▁economie	-9.18307
▁extrem	-9.18339
po	-9.18418
▁comercial	-9.18467
ways	-9.18576
▁resource	-9.18863
▁obiective	-9.18976
ran	-9.19048
▁politica	-9.19121
▁move	-9.19165
▁caz	-9.19216
▁lung	-9.19276
▁play	-9.19331
▁ta	-9.19349
▁numele	-9.19358
▁dat	-9.19403
▁Me	-9.19412
▁fight	-9.19413
▁schimbări	-9.19633
▁unele	-9.19686
▁măsură	-9.19761
▁resurse	-9.19795
▁bani	-9.19978
6	-9.20479
▁piaţ	-9.20583
▁name	-9.20847
▁found	-9.20944
▁război	-9.21106
▁ago	-9.21128
▁Romania	-9.21205
▁ori	-9.21272
▁Do	-9.21284
▁doing	-9.21425
▁Dup	-9.21428
▁ea	-9.21519
▁N	-9.2161
▁among	-9.21633
▁text	-9.21674
▁acolo	-9.21771
▁vi	-9.21824
ak	-9.21925
▁09	-9.22096
lic	-9.2235
▁printr	-9.22406
za	-9.22408
▁post	-9.22512
▁live	-9.22641
fe	-9.22689
▁societ	-9.22806
▁third	-9.22899
N	-9.22953
▁safe	-9.23024
▁thank	-9.23073
▁challenge	-9.23207
men	-9.23248
▁27	-9.2329
▁foreign	-9.23385
▁16	-9.23404
▁head	-9.23418
▁deal	-9.23423
▁protect	-9.23449
▁happen	-9.23652
con	-9.23668
▁îm	-9.23708
▁Acum	-9.23801
▁L	-9.23811
▁access	-9.23873
▁Committee	-9.24183
▁lead	-9.24226
▁dezbatere	-9.24253
▁baza	-9.24397
▁motiv	-9.24558
▁Getty	-9.2469
▁membru	-9.24695
▁nouă	-9.24697
▁rapporteur	-9.24725
▁approach	-9.24795
ţ	-9.24958
▁billion	-9.24982
▁autorităţi	-9.24987
▁liber	-9.25025
▁Ro	-9.25056
he	-9.25074
▁growth	-9.25079
▁value	-9.25094
▁account	-9.25095
▁Image	-9.25151
pe	-9.25161
dies	-9.25168
do	-9.2519
FP	-9.25229
nt	-9.25232
▁whole	-9.25318
▁împreună	-9.25376
▁Mar	-9.25564
▁referitoare	-9.25677
▁tax	-9.2568
▁priorit	-9.25688
▁Africa	-9.25762
tori	-9.25823
▁membri	-9.25823
ure	-9.25886
▁acestora	-9.26116
mar	-9.26239
▁vedea	-9.26254
▁climate	-9.26271
ence	-9.26283
▁apoi	-9.26307
▁investment	-9.2633
▁eficient	-9.26344
▁05	-9.26567
▁şti	-9.26627
8	-9.26732
▁100	-9.26799
▁04	-9.27013
▁06	-9.27077
▁risk	-9.27285
▁bune	-9.27381
ary	-9.27421
▁europeni	-9.27444
▁07	-9.27452
E	-9.27461
▁initiative	-9.27631
▁altă	-9.27719
rat	-9.2776
▁instituţii	-9.2778
▁2007	-9.28151
▁best	-9.28231
▁film	-9.28325
▁Pristina	-9.28334
▁exact	-9.28389
▁Ju	-9.28399
der	-9.28487
▁visit	-9.28527
ho	-9.28619
▁met	-9.2869
ându	-9.28696
▁simpl	-9.28871
▁principal	-9.28925
▁puternic	-9.28948
▁Reuters	-9.28973
▁aș	-9.28996
▁ma	-9.29119
▁months	-9.29214
▁rate	-9.29253
▁spre	-9.29313
▁writing	-9.29321
▁efforts	-9.29538
gh	-9.29831
▁importantă	-9.29911
lin	-9.29962
bu	-9.30123
▁03	-9.3017
▁These	-9.30182
▁key	-9.30372
▁întreprinderi	-9.30396
ng	-9.30605
▁prim	-9.30644
▁tell	-9.30655
ator	-9.30802
▁Group	-9.3086
▁let	-9.30873
▁mic	-9.30884
▁China	-9.31009
▁importante	-9.31114
nic	-9.31205
▁Vi	-9.31294
▁focus	-9.31353
▁achieve	-9.31381
▁responsibilit	-9.31457
▁08	-9.31461
▁gentlemen	-9.31476
▁Lisbon	-9.31495
▁discuss	-9.31779
▁Lisabona	-9.31927
▁vorb	-9.32003
▁regiuni	-9.32192
â	-9.3223
▁discuţii	-9.32438
▁four	-9.32534
ov	-9.32669
▁Ta	-9.32848
▁exist	-9.32857
▁adevăr	-9.32861
▁pare	-9.32889
▁sârb	-9.32994
sta	-9.33016
▁complete	-9.33236
tro	-9.33246
▁Europei	-9.33309
tat	-9.33332
▁ales	-9.33354
up	-9.33411
▁aspecte	-9.33446
▁contribui	-9.335
▁probabil	-9.33525
▁euros	-9.33577
▁exista	-9.33607
ig	-9.3362
▁never	-9.3364
▁design	-9.33679
▁domnilor	-9.33684
taken	-9.33694
▁cultural	-9.33712
vic	-9.33767
▁doile	-9.3385
▁idee	-9.33947
ap	-9.33972
uni	-9.34122
▁context	-9.34172
▁framework	-9.34217
▁bo	-9.34279
▁aproximativ	-9.34329
▁line	-9.34353
▁might	-9.3438
▁condiţii	-9.345
▁home	-9.34565
▁strengthen	-9.3463
ski	-9.34638
▁mo	-9.34696
▁prevent	-9.34841
ry	-9.34892
▁opportunity	-9.34953
▁Belgrad	-9.35045
tuşi	-9.35091
▁cine	-9.35101
▁majoritate	-9.35145
▁Jo	-9.35224
▁Vă	-9.35242
car	-9.35302
▁building	-9.3536
▁succes	-9.35361
▁Grecia	-9.35381
ph	-9.35417
▁devin	-9.35518
▁old	-9.35629
▁începe	-9.3563
▁externe	-9.35656
if	-9.35776
▁forward	-9.35799
mocracy	-9.35814
▁reason	-9.35844
▁former	-9.3587
oc	-9.35883
▁procedure	-9.3595
▁especial	-9.36027
▁New	-9.36214
▁întreag	-9.36227
▁ști	-9.36237
▁grup	-9.36251
▁person	-9.36264
▁sens	-9.36313
▁responsabil	-9.36337
▁legătură	-9.36392
▁consumer	-9.36608
bo	-9.36637
▁serie	-9.36763
ect	-9.3691
▁police	-9.36962
▁criză	-9.37055
▁strategic	-9.3733
▁independent	-9.37512
▁benefit	-9.37532
▁guarantee	-9.37572
▁offer	-9.37657
▁companii	-9.37672
▁polic	-9.37703
▁21	-9.37714
B	-9.3773
▁natural	-9.37837
▁research	-9.37916
▁pay	-9.38046
▁young	-9.38073
▁similar	-9.38333
▁Li	-9.38335
▁Ave	-9.38403
▁Domnule	-9.38449
▁Pro	-9.38462
▁Serb	-9.38534
▁International	-9.38575
▁2011	-9.38606
,000	-9.38671
▁less	-9.38678
▁period	-9.38736
▁com	-9.3875
țe	-9.3877
gan	-9.38946
▁Croaţi	-9.38994
▁par	-9.39054
▁anti	-9.39061
▁legislation	-9.39242
▁situaţi	-9.39316
ibă	-9.39371
tul	-9.3938
▁siguranţ	-9.39388
▁una	-9.39438
▁members	-9.39459
▁opinion	-9.39476
age	-9.39526
▁doamne	-9.3961
isation	-9.39927
▁hard	-9.39959
▁significant	-9.39969
▁sectorul	-9.40016
▁patru	-9.40095
▁implementation	-9.40105
▁General	-9.40241
▁five	-9.40307
▁price	-9.40366
most	-9.40376
▁taking	-9.40406
▁plus	-9.4047
▁talks	-9.40584
▁relations	-9.40592
▁agricultur	-9.40618
▁dreptul	-9.40652
▁relaţii	-9.40928
ka	-9.40951
▁saying	-9.40994
▁least	-9.41154
▁Ko	-9.4117
fer	-9.41171
▁criminal	-9.41188
▁essential	-9.4123
▁minister	-9.41297
▁adoptat	-9.41365
▁improve	-9.4148
▁event	-9.41509
▁Montenegro	-9.4152
▁expect	-9.41597
▁h	-9.4163
▁rol	-9.41636
gr	-9.41652
▁represent	-9.41655
▁acelaş	-9.4184
▁mention	-9.41869
izat	-9.4195
▁Iar	-9.42077
▁priveșt	-9.42088
▁număr	-9.42134
▁ia	-9.42149
▁nivelul	-9.42186
oare	-9.42271
▁Applau	-9.42312
tele	-9.42312
▁rezultate	-9.42327
▁education	-9.42374
ite	-9.42397
▁preşedint	-9.42437
▁puțin	-9.42479
▁water	-9.42518
▁worker	-9.42719
ger	-9.428
▁Aplauze	-9.4292
▁Greek	-9.43005
▁ele	-9.43008
▁express	-9.43119
▁continuă	-9.43191
▁community	-9.43256
▁Pre	-9.43295
▁tip	-9.43314
▁Na	-9.43426
▁oferi	-9.43447
▁affect	-9.43512
▁join	-9.43538
▁past	-9.4356
▁aid	-9.43631
▁address	-9.43724
▁miliarde	-9.43748
veral	-9.43761
▁necesare	-9.43851
▁standards	-9.43983
▁lips	-9.44027
▁Albanian	-9.4419
▁Po	-9.44259
▁left	-9.44288
▁produce	-9.44351
▁curs	-9.44478
▁201	-9.44506
eşte	-9.44648
▁When	-9.44683
▁următoare	-9.44779
▁add	-9.44784
▁sprijinul	-9.44915
▁40	-9.44982
▁Democrat	-9.44996
▁EUR	-9.45053
▁school	-9.45155
▁ha	-9.45158
pu	-9.45162
▁confruntă	-9.45191
ulţumesc	-9.45212
▁statement	-9.45253
▁understand	-9.45404
▁positive	-9.45479
▁chestiune	-9.45501
▁cinci	-9.45565
und	-9.4561
▁legi	-9.45635
▁informaţii	-9.45721
ha	-9.45726
▁potrivit	-9.45825
▁prezentat	-9.46024
▁facilit	-9.46032
▁SUA	-9.46129
▁border	-9.46154
op	-9.46176
▁mediu	-9.4624
▁Statele	-9.46342
lui	-9.46357
▁list	-9.46386
ip	-9.46477
▁yet	-9.46554
▁str	-9.46578
▁once	-9.46683
▁guvern	-9.46761
▁Mai	-9.46798
▁Români	-9.46939
▁effect	-9.46959
▁abordare	-9.46962
▁share	-9.47017
▁single	-9.4705
ling	-9.47075
▁hav	-9.471
▁month	-9.47243
▁basis	-9.47265
ful	-9.47285
▁pieţe	-9.47318
▁suficient	-9.47332
▁Te	-9.47375
▁Ha	-9.47506
▁activitate	-9.47576
▁commitment	-9.47687
▁With	-9.47708
▁Asta	-9.47742
▁doi	-9.47827
▁24	-9.4794
▁mulţi	-9.47986
ton	-9.48056
▁comune	-9.48146
▁crucial	-9.48171
tar	-9.48273
▁feel	-9.48547
▁standarde	-9.48639
▁consumatori	-9.487
thing	-9.48831
▁ministrul	-9.48839
▁Well	-9.48849
▁ţara	-9.48865
▁Unit	-9.48963
F	-9.4904
▁CE	-9.49063
▁viitoare	-9.4913
▁2006	-9.49166
▁keep	-9.49175
less	-9.49214
▁toţi	-9.4923
▁ofer	-9.4934
cat	-9.49473
▁prime	-9.49493
▁sigur	-9.49506
▁amendment	-9.49545
▁combat	-9.49731
▁Russia	-9.49739
iza	-9.49792
▁crea	-9.49938
▁profit	-9.50251
▁came	-9.50317
tri	-9.50383
▁short	-9.50412
▁nuclear	-9.5048
nough	-9.50491
▁modul	-9.505
▁demand	-9.50505
▁pun	-9.50526
▁Thank	-9.50528
T	-9.5064
ard	-9.50669
gen	-9.50672
ner	-9.50751
▁animal	-9.50801
▁bază	-9.5082
▁subject	-9.50824
▁creare	-9.50874
▁strategie	-9.50993
▁One	-9.51005
▁problemele	-9.51064
▁aflat	-9.51202
▁Pa	-9.51211
▁Tratatul	-9.51308
ex	-9.5131
▁experience	-9.514
▁pus	-9.51553
▁military	-9.51619
▁continuare	-9.51663
▁reducere	-9.51725
▁member	-9.51763
▁Fund	-9.51772
▁Di	-9.51907
▁corect	-9.52046
▁industr	-9.52095
▁plant	-9.52175
▁party	-9.52197
▁central	-9.52226
▁tri	-9.52275
▁wish	-9.5228
▁often	-9.52559
▁Party	-9.5258
▁Mrs	-9.52781
▁anumite	-9.5281
▁trăi	-9.52913
▁Ba	-9.52916
▁jobs	-9.52966
ster	-9.53009
▁gr	-9.53048
▁partie	-9.53093
▁attention	-9.53222
▁Așa	-9.53251
▁Presidenc	-9.53292
▁acordat	-9.53301
▁mondial	-9.53408
ev	-9.53428
▁ajunge	-9.5353
▁May	-9.53582
▁199	-9.53613
company	-9.53698
▁aceşti	-9.53716
▁import	-9.53718
ight	-9.53822
▁libertate	-9.53907
▁big	-9.5395
▁cent	-9.53984
▁qualit	-9.5402
▁organisation	-9.54252
ţiile	-9.54298
vin	-9.54375
▁population	-9.54496
▁complex	-9.54591
▁Aş	-9.54607
▁domnul	-9.54619
▁Aşa	-9.54619
▁ajuns	-9.54693
▁sistemul	-9.54817
▁realizat	-9.55062
ability	-9.55074
▁scurt	-9.55106
▁speak	-9.55154
▁private	-9.55177
▁numit	-9.55199
pa	-9.55226
▁23	-9.55438
▁individual	-9.55591
▁primit	-9.55648
▁integration	-9.55669
▁își	-9.55707
▁proiecte	-9.55731
▁Potrivit	-9.5575
▁simplu	-9.55827
though	-9.5585
▁thought	-9.56228
▁meet	-9.56269
cross	-9.56295
▁environment	-9.56376
▁element	-9.56408
▁team	-9.56419
▁evident	-9.56422
▁Bank	-9.56534
▁esenţial	-9.56569
▁forţe	-9.56591
▁environmental	-9.56638
▁Ka	-9.56683
▁2004	-9.5676
▁fl	-9.5676
▁pur	-9.56825
▁asigur	-9.56848
▁gas	-9.56874
▁job	-9.56905
▁Au	-9.56912
▁domenii	-9.56978
▁minute	-9.56986
rt	-9.57079
▁Lu	-9.5708
▁cont	-9.57248
▁erau	-9.57339
▁legislative	-9.57347
▁cause	-9.57479
▁naţional	-9.57508
▁Or	-9.57563
▁fr	-9.57587
▁increasing	-9.5761
▁potential	-9.57708
▁nicio	-9.57759
▁venit	-9.57768
▁arată	-9.57807
▁imagine	-9.57818
▁IT	-9.57827
▁aduce	-9.57848
▁Există	-9.57856
▁cazuri	-9.57942
▁Z	-9.57953
▁According	-9.57976
▁crede	-9.58062
▁St	-9.58117
▁proceduri	-9.58162
▁vede	-9.58177
ier	-9.58209
torii	-9.58231
half	-9.58244
▁export	-9.58264
▁men	-9.5828
▁EC	-9.58299
▁answer	-9.58467
▁extreme	-9.58638
▁credit	-9.58836
▁situaţie	-9.58913
uci	-9.58947
▁momentul	-9.58958
▁draw	-9.59115
▁fiscal	-9.59285
▁Când	-9.59324
ind	-9.59394
O	-9.59394
▁modern	-9.59538
▁six	-9.5958
▁folosi	-9.59606
▁Dnă	-9.59787
R	-9.59914
▁Let	-9.59978
▁bilateral	-9.59978
▁lua	-9.60044
▁victim	-9.60051
▁sum	-9.60133
▁devenit	-9.6014
ală	-9.60141
▁găsi	-9.60196
rg	-9.60202
▁văzut	-9.60204
rile	-9.60285
▁majorit	-9.6032
▁light	-9.60334
▁accession	-9.60449
▁22	-9.60517
▁răspuns	-9.6054
▁stress	-9.60656
▁contract	-9.60716
▁grow	-9.60836
▁înalt	-9.60916
▁All	-9.60958
▁chestiuni	-9.61142
▁copii	-9.6116
▁creștere	-9.61171
voted	-9.61184
▁sper	-9.61211
▁sănătate	-9.6126
▁oficial	-9.61294
▁vederea	-9.61357
ările	-9.61418
▁living	-9.61545
and	-9.61573
▁niciun	-9.61623
▁ajuta	-9.61662
▁technolog	-9.61683
ici	-9.61716
▁socială	-9.6175
▁seem	-9.61808
▁rest	-9.61877
▁întâmplă	-9.61991
abil	-9.61995
ţa	-9.62171
▁according	-9.62193
▁Balcani	-9.62251
▁viaț	-9.624
▁rămâne	-9.62408
▁due	-9.625
▁summit	-9.6261
ității	-9.62669
fu	-9.62734
▁Preşedinte	-9.62816
▁continua	-9.62907
ised	-9.62917
▁comes	-9.62989
▁normal	-9.62996
C	-9.63006
▁management	-9.63032
▁return	-9.63112
▁privi	-9.63135
G	-9.63156
▁lack	-9.63185
▁internal	-9.63225
▁protest	-9.63304
▁Ni	-9.63308
▁naţionale	-9.63323
▁target	-9.6333
▁basic	-9.63482
▁states	-9.63531
▁folosit	-9.6358
▁regulament	-9.63588
▁putere	-9.63645
▁fail	-9.63654
▁words	-9.63686
▁Croatian	-9.63803
▁Israel	-9.63899
▁House	-9.639
▁imp	-9.63914
▁joint	-9.63928
▁Monday	-9.64108
stead	-9.64127
▁deschis	-9.64162
▁mind	-9.64229
▁World	-9.64237
▁luna	-9.64248
▁cetăţenii	-9.64392
▁Central	-9.6442
ical	-9.64495
held	-9.64547
▁părţi	-9.64555
▁industrial	-9.64593
▁organis	-9.64593
▁femei	-9.64606
▁learn	-9.64648
▁days	-9.64729
▁agricol	-9.6476
▁locul	-9.64799
quite	-9.64928
▁guvernului	-9.64939
▁grupuri	-9.65034
▁parliament	-9.65068
▁competitive	-9.65183
▁sure	-9.65221
▁Decemb	-9.65273
▁acces	-9.65352
▁importanţ	-9.65361
▁My	-9.65372
▁involved	-9.65394
▁destul	-9.65397
▁Fi	-9.65462
▁afar	-9.65827
arie	-9.65861
▁motive	-9.65873
▁subiect	-9.65911
▁bar	-9.65926
▁J	-9.65986
▁urgent	-9.66005
▁28	-9.66059
land	-9.66204
▁Serbie	-9.66316
▁Rusia	-9.66317
▁introduce	-9.66587
▁crizei	-9.66591
▁lege	-9.66598
▁dumneavoastr	-9.6677
▁times	-9.66786
▁singur	-9.66905
▁criz	-9.66962
▁Ei	-9.67224
▁doua	-9.67226
▁dintr	-9.67232
▁planet	-9.67246
▁India	-9.67266
▁cercetare	-9.67333
▁Consider	-9.6736
▁violen	-9.67538
▁govern	-9.6763
▁nimic	-9.67737
cul	-9.67772
torul	-9.67787
▁cuvinte	-9.67819
▁decembrie	-9.6782
▁factor	-9.67878
▁receive	-9.68267
▁domeniu	-9.68355
▁financiară	-9.68363
▁organizat	-9.68521
▁representative	-9.68526
▁famil	-9.68552
▁June	-9.68597
▁along	-9.68643
until	-9.68719
ated	-9.68747
V	-9.68799
bil	-9.68876
▁Internet	-9.68876
▁posibilitate	-9.68924
▁transform	-9.68925
▁expert	-9.68931
▁valoare	-9.68965
▁Muntenegru	-9.68977
▁climatice	-9.69041
▁utilizare	-9.69093
▁run	-9.69099
▁conform	-9.69118
itu	-9.69135
▁marti	-9.69206
▁Members	-9.69253
▁ajutor	-9.69316
9	-9.69337
rul	-9.69352
▁importan	-9.69448
▁entire	-9.69451
▁Spa	-9.69472
▁quick	-9.69534
▁Foreign	-9.69588
▁cap	-9.69627
▁dvs	-9.69644
▁top	-9.69679
▁dificil	-9.69742
▁Herzegovina	-9.69781
▁provid	-9.69796
▁sustainabl	-9.69829
▁acorduri	-9.6984
▁March	-9.69846
▁tineri	-9.69886
▁field	-9.69913
ber	-9.69953
▁integrare	-9.70027
▁energetic	-9.7004
▁reflect	-9.70043
▁reduc	-9.70045
▁production	-9.7009
▁solidarit	-9.70107
▁02	-9.70164
▁buget	-9.70273
▁ever	-9.70299
▁activ	-9.70342
▁încredere	-9.70361
▁material	-9.70419
▁seek	-9.70437
▁away	-9.70445
ros	-9.70485
ț	-9.70544
bur	-9.70576
iu	-9.70642
▁declară	-9.70721
uz	-9.70809
▁coming	-9.70828
▁jur	-9.70974
▁cerut	-9.70992
over	-9.70999
▁unit	-9.71002
▁stop	-9.71117
▁vital	-9.71118
▁deficit	-9.71167
spite	-9.71187
▁anului	-9.71209
▁pescuit	-9.71447
com	-9.71447
▁soon	-9.71488
▁60	-9.71578
▁departe	-9.71611
▁întrucât	-9.71636
▁status	-9.71701
rilor	-9.71721
olog	-9.71752
▁discussion	-9.71809
▁raise	-9.7184
▁surse	-9.71915
▁acesteia	-9.71936
▁cr	-9.71941
early	-9.71971
▁acţiuni	-9.72009
▁love	-9.72019
▁centre	-9.72223
▁percent	-9.72289
▁permit	-9.7239
▁ten	-9.72424
▁pozitiv	-9.72446
▁bit	-9.72448
▁26	-9.72583
ază	-9.72654
▁side	-9.72765
ura	-9.72766
âr	-9.72787
▁Să	-9.72871
anume	-9.72902
▁Doamn	-9.72964
▁leaders	-9.73003
▁activităţi	-9.73065
♫	-9.73112
▁scopul	-9.73161
▁aware	-9.73204
den	-9.73227
▁America	-9.73259
went	-9.73262
▁review	-9.73264
▁punere	-9.7327
▁cancer	-9.73377
▁Mă	-9.7338
▁response	-9.73455
▁Court	-9.73455
▁solicit	-9.73518
▁various	-9.73543
▁employment	-9.73567
▁turc	-9.73608
▁Barroso	-9.73769
▁stand	-9.73781
▁merge	-9.73787
▁cover	-9.73802
▁Va	-9.73846
▁internet	-9.7387
ish	-9.73984
col	-9.74051
▁apel	-9.74076
▁Ja	-9.74187
▁iuni	-9.74205
▁mechanism	-9.74315
▁întrebări	-9.74323
▁mn	-9.74347
▁viitorul	-9.74424
▁vârst	-9.74431
▁niciodată	-9.7447
▁man	-9.74519
▁stability	-9.7453
▁fair	-9.74533
▁road	-9.74605
▁amount	-9.74638
▁sta	-9.74641
ară	-9.74683
▁fa	-9.74727
▁AP	-9.74732
▁țar	-9.74938
▁sfârşitul	-9.75075
▁Macedonian	-9.75081
▁acel	-9.75107
▁interne	-9.7512
▁imediat	-9.75155
▁față	-9.75158
▁dialogue	-9.75185
▁sisteme	-9.75205
▁draft	-9.753
▁conformitate	-9.75309
tive	-9.75344
▁Iran	-9.7536
▁sârbi	-9.75367
▁computer	-9.75416
▁acea	-9.75547
▁lupta	-9.75621
▁constitui	-9.7565
▁considerare	-9.7576
▁interese	-9.75805
▁January	-9.75854
▁provision	-9.76001
▁integrat	-9.76019
▁prezint	-9.7603
ught	-9.76032
lt	-9.76058
▁fundamentale	-9.76075
▁uman	-9.76121
▁art	-9.76147
▁Sa	-9.76155
pr	-9.76186
▁Ministrul	-9.76186
▁agricultural	-9.76196
▁poziţi	-9.7621
▁deplin	-9.76223
▁Wednesday	-9.76235
▁request	-9.76235
▁rolul	-9.76245
▁port	-9.76263
▁primi	-9.76321
▁court	-9.76384
▁active	-9.76399
put	-9.76406
▁examin	-9.7659
▁build	-9.76592
▁brain	-9.7662
▁cl	-9.76701
▁vin	-9.7678
▁nation	-9.76785
ric	-9.76821
▁announc	-9.76854
▁cadru	-9.76897
▁asistenţ	-9.76944
▁juridic	-9.7696
▁punctul	-9.76985
▁ianuarie	-9.77002
▁transfer	-9.77003
▁valori	-9.77059
▁coordinat	-9.77121
ow	-9.77186
▁requirement	-9.77263
nte	-9.77333
▁Herţegovin	-9.77388
▁gen	-9.77396
▁util	-9.774
▁investiţii	-9.77402
din	-9.77417
ește	-9.7747
▁zona	-9.77632
▁responsibl	-9.77685
fin	-9.77727
▁later	-9.77822
▁acele	-9.77866
▁insist	-9.78165
▁Grupul	-9.7819
port	-9.78273
▁membership	-9.78292
▁sense	-9.78347
izări	-9.7841
▁condus	-9.78554
▁pleas	-9.78635
▁Comisie	-9.7869
▁începutul	-9.78692
▁Vo	-9.78754
gă	-9.78772
▁exprimat	-9.78787
▁ilegal	-9.78794
iunea	-9.78808
▁fe	-9.78843
▁language	-9.78854
▁Zagreb	-9.78885
▁confirm	-9.78907
▁Mu	-9.79163
▁compar	-9.79175
▁deosebit	-9.79249
so	-9.7926
▁norme	-9.7936
▁attack	-9.7952
▁firm	-9.79527
▁exprim	-9.79591
▁produc	-9.79612
ata	-9.79674
▁ultimii	-9.79711
▁promote	-9.7972
▁standard	-9.79733
▁red	-9.79734
lan	-9.79739
▁October	-9.79793
body	-9.79808
▁true	-9.79808
▁assistan	-9.79856
în	-9.79905
▁electric	-9.79925
▁size	-9.79963
fa	-9.79992
▁relat	-9.80035
▁urmeaz	-9.8006
▁na	-9.80105
▁Cum	-9.80133
curând	-9.802
▁gândi	-9.80259
ou	-9.80299
▁referendum	-9.80312
▁sort	-9.80325
▁balance	-9.80385
▁stabilitate	-9.80426
▁Euro	-9.80436
L	-9.80524
▁comp	-9.80552
▁availabl	-9.80588
▁visa	-9.80628
▁numărul	-9.8064
dere	-9.80653
van	-9.80699
▁Su	-9.80736
▁programe	-9.80836
▁instrumente	-9.80906
▁decizie	-9.80933
▁obiectiv	-9.81
▁menţionat	-9.81006
▁sprijini	-9.81064
▁RS	-9.81083
▁themselves	-9.81116
▁link	-9.81175
▁seama	-9.81237
▁network	-9.81265
▁piaț	-9.81266
▁semn	-9.81271
rac	-9.81386
▁ferm	-9.81395
▁Communit	-9.81451
▁decided	-9.81534
▁structure	-9.81544
▁Social	-9.81608
▁won	-9.81612
▁faţa	-9.81655
▁animale	-9.81705
▁permanent	-9.8173
▁concerned	-9.81731
▁Sofia	-9.81733
ff	-9.81778
▁bloc	-9.81808
▁funding	-9.81831
▁Ex	-9.81885
▁half	-9.81963
gar	-9.82015
▁combatere	-9.82081
▁read	-9.82137
▁concept	-9.82148
▁jumătate	-9.82165
▁perspective	-9.82188
▁South	-9.82326
vor	-9.82356
▁având	-9.82451
▁octombrie	-9.82477
▁Right	-9.8252
▁medical	-9.82587
pp	-9.82651
▁improv	-9.82656
▁candidate	-9.82678
▁wide	-9.82681
▁miercur	-9.82728
▁Lo	-9.82766
▁locale	-9.82775
▁oamenilor	-9.82792
▁concrete	-9.82795
▁Republic	-9.82919
▁agenda	-9.82953
▁căror	-9.82968
▁activities	-9.83115
▁ridicat	-9.8315
▁decide	-9.83178
▁equal	-9.8323
ște	-9.83252
▁figure	-9.83259
▁Într	-9.83316
▁story	-9.83326
▁function	-9.8339
▁trecută	-9.83409
▁acordul	-9.83457
▁nothing	-9.83552
▁Schengen	-9.83609
▁competition	-9.83609
▁Some	-9.83674
▁victime	-9.83739
▁adăugat	-9.83755
▁provocări	-9.83767
▁29	-9.83772
▁success	-9.83796
▁propos	-9.83837
hind	-9.8384
▁opposition	-9.83894
▁fo	-9.83902
▁leave	-9.83984
▁ră	-9.84164
tan	-9.84181
▁proprii	-9.84223
▁require	-9.84288
▁sources	-9.84392
▁munci	-9.84512
▁partide	-9.84536
nța	-9.8464
▁01	-9.84725
ati	-9.84729
▁altor	-9.84748
PA	-9.84778
▁cross	-9.84791
▁continu	-9.84856
▁strict	-9.84884
▁societate	-9.84887
▁acţiune	-9.84888
▁progrese	-9.84898
lat	-9.84934
for	-9.84935
▁Pr	-9.84958
embrie	-9.84959
▁November	-9.85074
▁parlament	-9.85112
▁semnificativ	-9.85153
▁oferit	-9.85159
▁reforme	-9.85173
ezi	-9.85191
▁lives	-9.8522
▁launch	-9.85236
▁Turciei	-9.85363
ki	-9.85471
escu	-9.85475
▁auto	-9.85537
▁independenc	-9.85557
▁Sper	-9.85647
▁ciuda	-9.85726
▁hold	-9.8574
▁progres	-9.85772
▁cetățeni	-9.85846
▁alătur	-9.85851
▁totul	-9.85885
▁Tuesday	-9.85977
▁poor	-9.85991
▁gre	-9.86004
▁questions	-9.86198
00	-9.86222
▁She	-9.8625
poverty	-9.86269
▁encourage	-9.86301
▁bugetul	-9.86325
▁lideri	-9.86359
▁conduct	-9.86379
▁tehnic	-9.86496
▁săptămâni	-9.86561
şte	-9.86571
log	-9.86586
H	-9.86601
▁ba	-9.86616
tiv	-9.86726
▁fish	-9.86742
▁Y	-9.86766
▁corruption	-9.86796
▁relevant	-9.86822
▁întreb	-9.86897
ini	-9.86919
▁though	-9.86982
▁consideră	-9.87044
eşti	-9.87095
▁verbal	-9.87149
fra	-9.87164
▁simple	-9.87175
▁costuri	-9.87587
▁decizii	-9.87622
▁stabili	-9.8763
bor	-9.87653
por	-9.87685
rim	-9.8771
ova	-9.87815
▁semnat	-9.87909
▁application	-9.87972
▁longer	-9.88097
▁femeilor	-9.88104
til	-9.88137
▁low	-9.8815
▁structural	-9.88175
ză	-9.88181
▁death	-9.88235
▁Government	-9.88236
▁500	-9.88388
unii	-9.88496
ască	-9.88578
▁puncte	-9.8858
▁huge	-9.88602
▁news	-9.88856
▁nevoi	-9.88866
▁vrea	-9.8889
▁innovation	-9.88968
▁siguranț	-9.89009
▁evaluare	-9.89019
▁package	-9.89069
▁consequence	-9.89201
▁tem	-9.89272
▁accident	-9.89335
▁peace	-9.89344
sen	-9.89375
▁office	-9.89407
▁argument	-9.89411
▁fall	-9.89441
ler	-9.89528
▁Primul	-9.89614
ug	-9.89666
▁ajung	-9.89667
▁deveni	-9.8967
înţeles	-9.89785
▁independenţ	-9.89805
▁charge	-9.89805
jan	-9.89877
▁Balkans	-9.89892
▁Dor	-9.89928
▁80	-9.8995
▁patient	-9.90007
han	-9.90102
▁extern	-9.9014
▁maintain	-9.90185
ious	-9.90202
▁subliniez	-9.90258
▁Roma	-9.90407
bra	-9.90413
▁referitor	-9.90447
▁experiment	-9.90514
▁ministru	-9.90594
▁economi	-9.90598
▁croat	-9.90698
▁illegal	-9.90717
can	-9.90741
▁labour	-9.90752
▁age	-9.90815
▁colleague	-9.90819
ond	-9.90839
▁previous	-9.90853
oase	-9.90874
▁comunitar	-9.90891
ood	-9.91068
▁interes	-9.91084
▁culture	-9.91094
▁Tadi	-9.91106
▁Agreement	-9.9116
▁min	-9.91179
▁thousand	-9.91228
▁Însă	-9.9123
prin	-9.91245
▁tribunal	-9.91279
▁Bulgarian	-9.91291
▁Bu	-9.91353
▁întrebare	-9.91401
▁contribution	-9.91421
▁mele	-9.91425
ită	-9.91491
▁inform	-9.91568
▁child	-9.91601
▁Romanian	-9.91609
▁history	-9.91639
▁outside	-9.91754
▁First	-9.91776
▁caracter	-9.9181
▁markets	-9.9182
▁conference	-9.91847
▁pace	-9.9189
▁FR	-9.91908
▁hour	-9.91954
▁greu	-9.91957
mit	-9.91972
iuni	-9.92025
▁April	-9.9205
▁solicită	-9.92138
▁arrest	-9.9219
▁Istanbul	-9.92291
▁oficiali	-9.92321
▁contact	-9.92396
gat	-9.92446
Tirana	-9.92473
tru	-9.9269
▁space	-9.9272
torilor	-9.92731
rhaps	-9.92811
▁duce	-9.92838
▁immediate	-9.92879
▁defini	-9.92909
care	-9.92961
▁city	-9.92995
rought	-9.93032
▁asigură	-9.93078
▁Directive	-9.9309
▁taxe	-9.93232
▁Can	-9.93275
▁necesitate	-9.9334
▁diferit	-9.93386
▁rezoluţie	-9.9339
▁mere	-9.93456
▁press	-9.93475
▁crescut	-9.93481
▁coeziune	-9.93506
▁practice	-9.9353
▁susţine	-9.93549
line	-9.9357
▁noştri	-9.93611
▁Our	-9.93619
▁leader	-9.93641
▁cere	-9.93668
amp	-9.93673
▁parteneriat	-9.93715
▁carbon	-9.93719
ep	-9.93723
▁absolute	-9.9376
işti	-9.93795
▁grant	-9.93819
▁statistic	-9.93842
▁Sud	-9.93852
expected	-9.93864
▁observ	-9.93917
where	-9.93918
▁cohesion	-9.93961
bat	-9.93971
rit	-9.94068
eori	-9.94143
▁directiv	-9.9415
▁contribute	-9.94152
▁else	-9.94201
▁american	-9.94205
▁pressure	-9.94252
▁desigur	-9.94306
▁director	-9.94339
▁Ti	-9.94358
▁poliţie	-9.94394
▁makes	-9.94455
▁More	-9.94455
▁voice	-9.94518
▁decis	-9.94598
▁carrie	-9.94693
▁president	-9.94724
veţi	-9.94761
▁constant	-9.94766
▁York	-9.94877
▁message	-9.94877
▁dr	-9.94897
▁afectat	-9.94903
iile	-9.94912
▁lumii	-9.94918
▁successful	-9.94921
▁intend	-9.94923
har	-9.95017
▁aprilie	-9.95125
▁Ve	-9.95189
▁difference	-9.95197
▁Thursday	-9.95231
▁idei	-9.95232
▁creation	-9.95237
▁consolidare	-9.95256
nţă	-9.9526
▁record	-9.95266
▁adus	-9.9527
▁cut	-9.95309
▁enter	-9.95328
▁addition	-9.95347
▁spend	-9.95347
▁construi	-9.95361
▁ch	-9.95414
▁copil	-9.95464
▁serve	-9.95472
▁salut	-9.95529
▁invest	-9.95625
▁anual	-9.9568
▁rândul	-9.95689
▁industrie	-9.9577
▁sexual	-9.95802
▁Eu	-9.95813
▁apply	-9.95876
▁nume	-9.95898
▁propus	-9.95948
▁Belarus	-9.96087
▁oil	-9.96182
▁grav	-9.96202
▁acelaș	-9.96223
▁bi	-9.96263
responsabilitate	-9.96289
▁American	-9.96297
▁proper	-9.96322
gur	-9.96338
▁participat	-9.96345
▁Sh	-9.9636
▁schimbare	-9.9643
▁Regulamentul	-9.96446
ren	-9.96472
▁stage	-9.96484
▁apar	-9.96515
bel	-9.96554
▁bazat	-9.96564
▁Ankara	-9.9659
cit	-9.96604
▁utilizat	-9.96627
▁contain	-9.96784
▁Pi	-9.96869
▁Cr	-9.96878
▁ethnic	-9.96951
▁Western	-9.96951
▁avoid	-9.96987
▁aţi	-9.97032
▁calea	-9.97062
▁apă	-9.97076
▁mission	-9.97109
▁compromis	-9.97134
▁ajutorul	-9.97137
▁contra	-9.97163
▁anunţat	-9.97178
▁book	-9.97195
▁bucur	-9.97217
▁task	-9.9728
▁protecţi	-9.97328
▁Securit	-9.97331
▁site	-9.97422
▁cărui	-9.97443
▁opt	-9.97522
▁movement	-9.97551
▁opini	-9.97587
▁comunităţi	-9.97605
▁esențial	-9.97642
mil	-9.97649
▁obţine	-9.97657
▁solidaritate	-9.97675
▁risc	-9.97697
▁Deşi	-9.97707
▁judiciar	-9.97822
▁transparen	-9.97929
▁cursul	-9.97984
▁consum	-9.97987
▁administrative	-9.97997
▁negative	-9.98011
▁diplomatic	-9.98091
▁Astfel	-9.98097
▁susţin	-9.98147
▁ecologic	-9.98147
▁Mladi	-9.98197
▁rezultat	-9.98225
▁rep	-9.98244
▁vreau	-9.9825
▁propose	-9.98317
▁respectiv	-9.98354
▁vize	-9.9836
▁iuli	-9.98362
eau	-9.98365
▁sitting	-9.98379
▁enterprise	-9.98443
ship	-9.98509
▁February	-9.98517
pro	-9.9854
▁Pute	-9.98639
lângă	-9.98729
▁fim	-9.98744
▁președint	-9.98761
▁pan	-9.98763
reg	-9.9886
▁alternative	-9.98895
92	-9.989
▁putu	-9.98909
▁Cor	-9.9891
ător	-9.98916
▁ambel	-9.9895
▁marţi	-9.98964
ague	-9.98968
way	-9.99059
▁reasons	-9.99088
▁criterii	-9.99104
▁promovare	-9.99212
▁disease	-9.99217
▁încheiat	-9.99251
▁PL	-9.99353
▁vigoare	-9.99402
▁adapt	-9.99403
▁September	-9.99439
▁study	-9.99439
▁deputaţi	-9.99476
▁Preşedintel	-9.9951
▁septembrie	-9.99513
▁Go	-9.99517
▁necesită	-9.99525
▁cre	-9.99566
tenţia	-9.99583
▁remember	-9.99624
▁realitate	-9.99644
▁febru	-9.99663
▁arm	-9.99791
selves	-9.99803
▁air	-9.99861
▁mulțumesc	-9.99934
▁win	-10.0005
▁felicit	-10.0008
▁deep	-10.001
▁respond	-10.0014
ica	-10.0021
▁transparent	-10.0023
tim	-10.0037
▁Ho	-10.0041
▁piețe	-10.0041
head	-10.0046
▁părere	-10.0049
▁appropriate	-10.0052
▁body	-10.0058
▁plann	-10.0072
▁approve	-10.0075
▁joi	-10.0075
▁probabl	-10.0078
▁articolul	-10.0086
▁Agenc	-10.0086
▁micro	-10.0095
▁rămân	-10.0096
▁perfect	-10.0097
▁training	-10.0107
▁Sarajevo	-10.0108
▁pension	-10.0108
▁regime	-10.011
▁led	-10.0116
▁31	-10.0117
▁subliniat	-10.012
▁Dr	-10.0129
▁funcţion	-10.013
▁achiev	-10.0134
▁conclusion	-10.0135
nță	-10.0135
▁privinţ	-10.0135
▁produs	-10.0136
▁justice	-10.0136
▁trans	-10.0145
turi	-10.0146
▁infrastructure	-10.0148
▁Minute	-10.0157
▁Com	-10.0161
og	-10.0166
▁begin	-10.0169
▁mediului	-10.0178
şti	-10.0186
▁Raportul	-10.0192
▁above	-10.0192
▁explain	-10.0195
▁Asht	-10.0196
▁ridic	-10.0197
▁toți	-10.0201
▁Mondial	-10.0207
izate	-10.0212
▁bank	-10.0215
▁financ	-10.0221
▁invit	-10.0229
▁ultimel	-10.0232
▁possibilit	-10.0245
dat	-10.0247
▁recognise	-10.0256
▁goal	-10.0257
▁compromise	-10.026
▁extraordinar	-10.026
▁parliamentar	-10.0261
▁capacitate	-10.0261
side	-10.0268
▁minim	-10.027
▁scăzut	-10.0291
ua	-10.0292
▁mulți	-10.0294
▁Aș	-10.0297
▁disponibil	-10.0297
▁farmer	-10.03
▁adecvat	-10.0302
▁Slovenia	-10.031
▁şase	-10.0314
▁Partidul	-10.0317
▁economii	-10.032
rie	-10.0325
▁Balkan	-10.0329
ek	-10.0332
val	-10.0332
tun	-10.0343
Y	-10.0353
▁90	-10.0357
▁negotiat	-10.0358
▁enable	-10.0359
▁ground	-10.0364
▁Era	-10.0372
▁mandat	-10.0373
▁proiectul	-10.0392
▁type	-10.0399
▁send	-10.0399
▁bad	-10.0407
▁land	-10.0408
▁Republica	-10.0412
▁informații	-10.0413
▁sus	-10.0415
▁suggest	-10.042
K	-10.0426
▁energetică	-10.0428
▁debt	-10.0432
mir	-10.0438
pres	-10.0443
▁After	-10.0461
las	-10.0465
▁base	-10.0472
▁decizi	-10.0481
▁demonstrat	-10.0481
▁protecţie	-10.0486
▁considerat	-10.0492
istic	-10.0501
▁self	-10.0502
▁copiii	-10.0507
▁table	-10.0507
▁rating	-10.0508
▁Erdog	-10.0508
▁egal	-10.0513
▁70	-10.0514
▁mam	-10.0515
lar	-10.0522
▁cărei	-10.0531
▁mass	-10.0541
▁întâmplat	-10.0548
▁heard	-10.0548
▁Skopje	-10.0555
tare	-10.0563
▁efficienc	-10.0563
▁săptămâna	-10.0563
▁digital	-10.0571
▁înregistrat	-10.0572
▁wrong	-10.0575
▁Economic	-10.0576
▁principale	-10.0578
▁munca	-10.059
▁mei	-10.0591
▁Of	-10.0593
par	-10.0611
▁dna	-10.0611
▁Development	-10.0618
▁numeroase	-10.0626
▁est	-10.0631
▁politician	-10.0632
▁rural	-10.0632
▁Brus	-10.0641
▁comunitate	-10.0646
▁Guvernul	-10.0648
▁sport	-10.065
iste	-10.0651
ah	-10.0657
▁ultimul	-10.0659
▁câştigat	-10.0667
▁threat	-10.0669
rate	-10.067
▁capacit	-10.0671
▁Democratic	-10.0671
▁aprobat	-10.0672
▁reciproc	-10.0674
▁Internaţional	-10.0686
▁colegi	-10.0686
▁tratat	-10.069
▁trece	-10.069
▁sound	-10.0695
▁scar	-10.0705
▁albanez	-10.0719
sels	-10.0721
▁adoptare	-10.0726
eva	-10.0728
ești	-10.0733
▁National	-10.0739
▁monitor	-10.0748
▁interesant	-10.0754
▁2012	-10.0757
nta	-10.0757
▁contextul	-10.0759
▁conferinţ	-10.0762
ction	-10.0773
▁permis	-10.0778
▁anything	-10.078
▁fellow	-10.078
iune	-10.0789
▁energi	-10.0794
▁Noi	-10.0796
▁văd	-10.0797
stan	-10.08
▁întâlnit	-10.0804
▁procedură	-10.0806
▁campaign	-10.081
▁beginning	-10.081
▁evenimente	-10.0812
▁particip	-10.0814
▁committee	-10.0821
▁absolut	-10.0833
▁viaţ	-10.0836
▁People	-10.0838
ţele	-10.0839
▁nor	-10.0844
▁Nord	-10.0847
▁nature	-10.0851
▁opportunit	-10.0863
▁disaster	-10.0863
▁criteria	-10.0863
▁cor	-10.0865
▁maritim	-10.087
▁mark	-10.087
▁scop	-10.088
anovic	-10.0883
▁faptului	-10.0889
▁ignor	-10.0894
▁applie	-10.0895
▁promis	-10.0897
▁garanta	-10.0897
▁known	-10.0898
abile	-10.0905
▁cer	-10.0906
.000	-10.0908
ub	-10.0911
▁extend	-10.0916
▁Cyprus	-10.092
▁cheltuieli	-10.092
20	-10.0921
▁Dur	-10.0923
▁finance	-10.0929
▁specifice	-10.0933
▁pregătit	-10.0935
▁carry	-10.0936
▁travel	-10.0938
▁Între	-10.0938
▁prioritate	-10.0938
more	-10.0943
▁fur	-10.0946
▁dispute	-10.095
▁medium	-10.0952
▁cooperări	-10.0958
qu	-10.0959
ward	-10.096
▁Bruxelles	-10.0961
▁estimat	-10.0961
▁doctor	-10.0962
▁origin	-10.0972
▁obvious	-10.0985
▁technical	-10.0989
▁reuşit	-10.0993
▁indicat	-10.0994
▁plans	-10.0996
▁realiz	-10.0998
▁societăţi	-10.1013
met	-10.1014
▁Washington	-10.1014
▁reject	-10.1014
▁domestic	-10.1022
▁Er	-10.1024
▁accesul	-10.1026
▁Bar	-10.1026
▁copiilor	-10.1033
▁Affair	-10.1047
▁cell	-10.1051
tate	-10.1067
SCE	-10.1067
▁Sta	-10.1067
▁autor	-10.1078
U	-10.108
▁emis	-10.1083
▁High	-10.1085
▁required	-10.1093
▁sud	-10.1096
▁treatment	-10.1116
▁Bas	-10.1128
▁pat	-10.113
colo	-10.1136
ita	-10.1136
▁detail	-10.1155
▁II	-10.1156
▁science	-10.1164
▁privat	-10.1165
▁târzi	-10.1168
▁combin	-10.1171
▁reguli	-10.1172
▁Germany	-10.1172
▁claim	-10.1176
kovic	-10.118
▁critic	-10.1181
▁bulgar	-10.1193
▁secret	-10.12
▁soluţie	-10.1205
▁luă	-10.1209
▁ordine	-10.121
▁additional	-10.1213
▁effort	-10.1215
ieri	-10.1219
▁călători	-10.1228
odată	-10.1235
▁vreme	-10.1249
▁publică	-10.125
▁picture	-10.1261
▁mii	-10.1264
nish	-10.1267
▁Cel	-10.1274
oasă	-10.1275
▁Mare	-10.1277
▁pericol	-10.1277
zic	-10.1281
▁Grup	-10.1291
▁mecanism	-10.1291
▁speech	-10.1294
▁Final	-10.13
▁2003	-10.1301
▁electoral	-10.1307
▁pachet	-10.1307
gre	-10.1311
▁annual	-10.1311
▁Germani	-10.1313
cheie	-10.1314
▁provincie	-10.132
▁instruments	-10.1323
▁fisher	-10.1328
▁doreşt	-10.1334
▁defence	-10.1337
▁deci	-10.134
▁efficient	-10.1345
▁fear	-10.1349
▁dialog	-10.1353
▁committ	-10.1354
▁bigge	-10.1359
▁video	-10.1362
▁external	-10.1362
▁gaze	-10.1368
▁word	-10.1372
▁efect	-10.1376
▁consolidat	-10.1382
▁waste	-10.1383
▁appear	-10.1384
▁bănci	-10.1388
▁recover	-10.139
▁conduce	-10.1397
▁const	-10.1398
▁heart	-10.14
▁Acordul	-10.14
▁Whil	-10.1402
▁Sch	-10.1406
▁capabil	-10.1415
ang	-10.1418
▁declar	-10.1419
▁finanţare	-10.1425
▁grave	-10.1427
ivă	-10.1433
▁deşi	-10.1437
▁fire	-10.1445
▁introduc	-10.145
▁efecte	-10.1455
▁găsit	-10.1457
▁tehnologie	-10.1461
▁industria	-10.1465
▁electronic	-10.147
▁wait	-10.1474
▁incident	-10.1478
tain	-10.148
gal	-10.1481
▁attempt	-10.1483
▁communication	-10.1483
▁class	-10.1483
▁direcţi	-10.1483
▁viaţa	-10.1484
▁român	-10.1487
▁centur	-10.1489
▁Inter	-10.1489
scu	-10.149
▁intenţion	-10.1496
bri	-10.1497
▁împ	-10.1514
▁du	-10.1519
▁chance	-10.1524
▁neighbour	-10.1526
▁discutat	-10.153
▁adoption	-10.1534
▁urban	-10.1535
▁Second	-10.1539
ju	-10.1542
▁highlight	-10.1549
sic	-10.1554
▁Austria	-10.1556
▁observa	-10.1557
▁motion	-10.1564
▁German	-10.1568
▁France	-10.158
▁principiul	-10.1585
▁scale	-10.1596
▁relationship	-10.1596
▁obligation	-10.1597
▁confiden	-10.1597
sigur	-10.1602
▁păcate	-10.1604
▁tocm	-10.161
▁obţinut	-10.1611
pic	-10.1614
casă	-10.1615
▁Representative	-10.1617
▁popular	-10.1618
▁earlie	-10.1622
▁ES	-10.1622
nit	-10.1624
▁defend	-10.1627
▁Christian	-10.1635
▁luptă	-10.1639
▁Why	-10.1639
▁stabil	-10.1649
rom	-10.165
▁festival	-10.1657
▁lansat	-10.1663
▁treat	-10.1674
▁X	-10.1674
▁supply	-10.1675
▁formă	-10.1676
▁related	-10.1682
▁dus	-10.1689
▁purpose	-10.1692
▁minorit	-10.1699
▁Sunday	-10.1714
▁broad	-10.1717
▁suspect	-10.1723
▁room	-10.1728
▁tratament	-10.1734
orrow	-10.1736
▁Chiar	-10.1742
▁front	-10.1745
▁joac	-10.175
▁câştig	-10.1752
▁cunoscut	-10.1759
▁Toat	-10.1761
we	-10.1761
▁Moldova	-10.1763
▁investi	-10.1764
▁ensur	-10.1767
▁continent	-10.1767
▁emission	-10.1769
▁auzit	-10.1772
▁prevede	-10.1776
ku	-10.1786
▁indeed	-10.1786
▁statut	-10.1787
▁populaţie	-10.1793
▁assessment	-10.18
▁choice	-10.1803
▁coast	-10.1814
ign	-10.1819
bin	-10.1824
▁vorbim	-10.1825
▁Ru	-10.183
▁Sunte	-10.1838
▁arme	-10.1844
▁partnership	-10.1848
dis	-10.1849
▁diverse	-10.1862
▁elimin	-10.1869
▁locui	-10.1875
▁Voi	-10.1879
ieni	-10.1881
▁Sp	-10.1885
▁seven	-10.1889
▁noul	-10.1895
▁intermediul	-10.1897
giving	-10.19
▁circ	-10.1909
▁vorbesc	-10.1909
▁grad	-10.1914
▁centrul	-10.1921
▁raportor	-10.1923
▁programul	-10.1932
▁identifi	-10.1944
▁rise	-10.1946
urism	-10.1947
▁Tra	-10.1947
mag	-10.1948
▁deliver	-10.1949
▁situați	-10.1954
▁fraud	-10.1956
▁îmbunătăţire	-10.1962
nder	-10.1963
▁Poate	-10.1967
▁Preşedinţi	-10.197
▁Reprezentant	-10.1974
▁Ki	-10.1979
▁dezvoltări	-10.1983
▁interesting	-10.1988
▁kill	-10.1991
ble	-10.1994
▁extindere	-10.1995
▁reprezenta	-10.1995
▁Consiliu	-10.2002
▁ș	-10.2006
▁reduction	-10.2008
▁Fondul	-10.2021
▁persoană	-10.2029
▁mesaj	-10.2033
▁fabric	-10.2033
▁femeile	-10.2041
▁vine	-10.2045
▁Iraq	-10.2052
▁trafic	-10.2052
▁describ	-10.2053
▁define	-10.2053
dem	-10.2056
é	-10.2061
pri	-10.2062
▁tu	-10.2065
▁chief	-10.2065
▁East	-10.2067
▁Tot	-10.207
ităţi	-10.2073
50	-10.2074
ana	-10.2078
▁Br	-10.2081
▁comment	-10.2084
▁regim	-10.2085
▁exchange	-10.2088
▁acela	-10.2091
▁încearcă	-10.2093
▁direction	-10.2096
▁soluţii	-10.2098
▁sine	-10.2103
lost	-10.2105
▁naturale	-10.212
▁conf	-10.2131
▁reglementare	-10.2142
▁condiții	-10.2145
▁semnal	-10.2147
▁mor	-10.2148
▁supraveghere	-10.2153
▁adese	-10.216
▁forțe	-10.2165
▁practic	-10.2171
▁autonom	-10.2171
▁potenţial	-10.2171
employment	-10.2175
▁cuvânt	-10.2181
slav	-10.2181
teri	-10.2185
ska	-10.2188
▁hundred	-10.219
,5	-10.2193
etic	-10.2198
cer	-10.2201
by	-10.2211
▁image	-10.2213
▁dispu	-10.2217
ach	-10.222
▁gett	-10.2221
▁emerg	-10.2225
▁beneficia	-10.2228
▁zece	-10.2232
▁Boris	-10.2243
▁worth	-10.2244
▁parteneri	-10.2255
▁gestionare	-10.2259
▁drug	-10.2265
▁capăt	-10.2266
▁ştiu	-10.2269
▁pierdut	-10.2274
▁construcţi	-10.2278
viz	-10.2283
▁regret	-10.2292
▁bio	-10.2293
▁PT	-10.2303
▁Vest	-10.2304
BC	-10.2306
▁atenţie	-10.2306
art	-10.2311
▁house	-10.2314
▁Italy	-10.2316
ari	-10.2316
wa	-10.2317
▁Za	-10.2329
▁uită	-10.2329
▁Reh	-10.2331
▁35	-10.2334
▁Festival	-10.2334
▁div	-10.2335
▁Par	-10.2345
▁explor	-10.2349
▁Man	-10.2351
▁stabilit	-10.2354
lul	-10.2357
▁method	-10.2358
▁author	-10.237
▁Strategi	-10.2373
▁închis	-10.2373
▁mov	-10.2378
▁alimente	-10.2382
▁improvement	-10.2383
▁petrol	-10.24
our	-10.2408
▁construction	-10.2417
▁Reg	-10.2417
▁aduc	-10.2419
▁realit	-10.2422
▁gene	-10.2426
▁solid	-10.2431
▁path	-10.2432
▁anumit	-10.244
▁votul	-10.2441
▁saw	-10.2442
▁afirmă	-10.2448
▁Czech	-10.2458
▁trebuit	-10.2461
▁întotdeaun	-10.2464
▁rău	-10.2467
▁intens	-10.2472
▁partners	-10.2483
▁promot	-10.2486
▁actuale	-10.2487
▁friend	-10.2499
loc	-10.25
▁damage	-10.2501
qui	-10.2502
▁candidat	-10.2503
▁terorism	-10.2505
▁CO	-10.251
▁moral	-10.2518
▁Ukrain	-10.252
▁tru	-10.252
tter	-10.2521
▁liberal	-10.2524
▁extra	-10.253
▁Rule	-10.2533
▁included	-10.2534
rd	-10.2537
▁reglementări	-10.2539
▁treile	-10.2548
▁ways	-10.2548
▁datorit	-10.2549
▁ni	-10.255
▁durat	-10.2552
▁legislativ	-10.2557
▁Pact	-10.2559
▁vechi	-10.2559
▁2000	-10.2561
▁azi	-10.2563
▁block	-10.2568
low	-10.2569
▁publish	-10.2572
▁precise	-10.2578
▁internă	-10.2591
▁near	-10.2595
▁Îm	-10.2597
▁recommendation	-10.2599
▁Est	-10.2601
ani	-10.2606
▁materie	-10.2606
greed	-10.2611
▁conclude	-10.2611
▁communit	-10.2612
▁prefer	-10.2614
▁tehnologii	-10.2614
gro	-10.2618
ft	-10.262
▁dolari	-10.2621
▁răspunde	-10.2623
▁easi	-10.2624
▁urmări	-10.2625
▁Apoi	-10.2626
gin	-10.2626
▁încep	-10.263
eless	-10.263
▁Securitate	-10.2633
came	-10.2638
▁traffick	-10.2639
▁ICT	-10.2645
▁Athen	-10.2645
ities	-10.2649
▁2002	-10.265
▁Curte	-10.265
▁implică	-10.265
▁dă	-10.2651
▁ocazi	-10.2651
▁piece	-10.2658
▁voluntar	-10.266
▁statul	-10.2666
▁Car	-10.2666
▁300	-10.2672
▁Pakistan	-10.2674
▁remov	-10.2675
▁cam	-10.2679
▁familie	-10.2681
▁laws	-10.2683
▁Canada	-10.2684
▁durabil	-10.2692
▁vorbit	-10.2692
▁familii	-10.2692
▁Socialist	-10.2693
▁eight	-10.27
▁Kr	-10.2706
▁sw	-10.2717
grad	-10.2721
▁ocean	-10.2724
▁arătat	-10.2724
▁late	-10.2728
▁mandate	-10.2729
▁Human	-10.2729
pit	-10.2729
sistemului	-10.2735
▁globală	-10.2738
▁pie	-10.2742
▁îndoială	-10.2743
▁elaborat	-10.2744
▁fast	-10.275
▁profesional	-10.2752
▁presă	-10.2754
▁ready	-10.2757
▁terroris	-10.276
▁reported	-10.276
▁celelalte	-10.2762
▁largest	-10.2765
▁inclus	-10.2767
▁libertăţi	-10.2777
▁bomb	-10.2778
▁doubt	-10.2782
▁mijloace	-10.2787
▁game	-10.2788
dded	-10.2788
que	-10.2788
bar	-10.2788
▁concentrat	-10.279
▁încet	-10.279
▁solicitat	-10.2793
▁Toda	-10.2796
▁poziți	-10.2797
▁card	-10.2806
▁cauză	-10.2812
▁Bosnian	-10.2817
▁super	-10.2825
▁justiţie	-10.2826
▁receiv	-10.2828
▁efectuat	-10.283
▁instituții	-10.283
oane	-10.2833
▁app	-10.2836
▁happ	-10.2837
iști	-10.2847
▁Camer	-10.2857
▁reprezentanţi	-10.2861
ţă	-10.2862
zonă	-10.2863
pune	-10.2866
▁trial	-10.2866
▁organizaţii	-10.287
▁parent	-10.2871
▁Hungarian	-10.2872
ţional	-10.2874
▁înapoi	-10.2876
lam	-10.2885
MIK	-10.2886
▁relation	-10.2886
▁borders	-10.2888
▁built	-10.2891
▁internațional	-10.2891
▁Ver	-10.2894
ismul	-10.2895
▁oraş	-10.2896
▁penal	-10.2905
▁depus	-10.2905
▁repede	-10.2907
▁dezbateri	-10.291
▁rezultatul	-10.2916
▁Per	-10.2918
poziţi	-10.2924
▁ruling	-10.2928
▁trust	-10.2931
▁walk	-10.2941
▁connection	-10.2943
▁disc	-10.2951
▁reprezentat	-10.2955
▁hit	-10.2964
▁buy	-10.2964
▁cop	-10.2965
▁fat	-10.2967
▁ați	-10.2971
▁cultur	-10.2981
chet	-10.2984
▁guy	-10.2985
▁destinat	-10.2985
▁simt	-10.2986
ndu	-10.299
▁excelent	-10.2991
▁ban	-10.2991
▁minorităţi	-10.2992
ști	-10.2993
▁Article	-10.3001
orii	-10.3001
▁TED	-10.3002
▁informat	-10.3004
▁influence	-10.3006
▁declaraţie	-10.3006
▁Ban	-10.3008
ante	-10.3013
▁opri	-10.3041
ță	-10.3047
▁specie	-10.3052
▁cerere	-10.3054
▁rămas	-10.3056
▁listen	-10.3059
▁interesul	-10.306
▁umane	-10.3063
pol	-10.3065
ria	-10.3065
ize	-10.3077
tric	-10.3078
▁administration	-10.3085
▁host	-10.3087
▁spec	-10.3088
▁Banca	-10.3088
▁break	-10.3092
▁practici	-10.3094
▁format	-10.3098
nimen	-10.3102
▁nord	-10.3102
▁monitoring	-10.3112
▁eficienţ	-10.3112
▁students	-10.3113
vă	-10.3117
▁fizic	-10.312
▁rapoarte	-10.3122
▁discover	-10.3123
▁Russian	-10.3127
▁forma	-10.3131
▁asigurare	-10.3135
▁ştiri	-10.3139
▁Dis	-10.3146
▁payment	-10.3154
bit	-10.3172
▁pass	-10.3187
▁interpret	-10.3189
▁discută	-10.3189
țional	-10.3189
▁thus	-10.319
▁reală	-10.319
▁oppos	-10.3193
▁fals	-10.3194
▁merg	-10.3195
▁hear	-10.3198
▁şef	-10.3198
▁Kostunica	-10.3199
▁inițiativ	-10.3214
▁elect	-10.3217
▁watch	-10.3219
bb	-10.3221
▁Georgia	-10.3221
▁Ci	-10.3223
▁August	-10.3224
▁acoperi	-10.3224
▁aștept	-10.3225
ități	-10.3225
▁întâlnire	-10.3226
cho	-10.3228
▁suplimentare	-10.3235
▁experienţ	-10.3235
▁1999	-10.3236
▁aminti	-10.3236
▁NL	-10.3242
▁Every	-10.3243
▁professional	-10.3245
▁opoziţie	-10.3249
ving	-10.3255
▁rezoluție	-10.3259
▁înțelege	-10.3259
▁knowledge	-10.3261
▁cooper	-10.3261
▁nucleare	-10.3262
ritten	-10.3262
▁2001	-10.3263
▁susţinut	-10.3264
▁dezvoltat	-10.3265
▁dau	-10.3267
▁stimul	-10.3268
▁generation	-10.3274
▁descoperit	-10.3277
▁sun	-10.3284
▁duminică	-10.3286
ji	-10.3292
▁Office	-10.3302
▁monetar	-10.3307
▁vorbi	-10.3308
▁discrimination	-10.331
▁North	-10.3311
▁amend	-10.3314
▁Italia	-10.3317
▁oportunitate	-10.3323
▁urge	-10.3325
▁acelea	-10.3326
▁sometime	-10.3327
▁banks	-10.3332
▁înlocui	-10.3344
▁correct	-10.3344
▁accent	-10.3344
▁existente	-10.3345
▁obiectivul	-10.3346
▁monitorizare	-10.3346
▁întâmpla	-10.3353
▁legislaţie	-10.3354
▁contribuţi	-10.3359
▁lucreaz	-10.3359
▁Here	-10.3361
▁azil	-10.3364
▁umanitar	-10.3365
▁eventual	-10.3365
▁profund	-10.337
zo	-10.3375
online	-10.3375
while	-10.3378
▁boost	-10.338
▁producători	-10.338
▁entit	-10.3385
▁stay	-10.3385
tel	-10.3385
▁prove	-10.3386
▁revizuire	-10.3386
▁gain	-10.3387
▁George	-10.3401
▁acești	-10.3412
▁Act	-10.3414
▁income	-10.3421
▁music	-10.3422
▁istoric	-10.3426
▁verific	-10.3426
▁cod	-10.3427
▁speră	-10.3427
▁mother	-10.343
▁Friday	-10.3432
▁Aten	-10.3437
▁importanț	-10.3438
▁adresat	-10.3438
▁regulat	-10.3441
▁autorități	-10.3447
jo	-10.3452
▁San	-10.3452
▁redus	-10.3453
▁custom	-10.3453
▁larg	-10.3455
▁implementare	-10.3455
▁corupţie	-10.3461
▁Gu	-10.3461
ovski	-10.3462
▁structuri	-10.3464
▁Cee	-10.3466
▁afirma	-10.3469
▁moarte	-10.3469
▁universit	-10.3478
▁religious	-10.348
▁likely	-10.3481
▁legislaţi	-10.3485
▁depend	-10.3485
▁radical	-10.349
▁situație	-10.3492
▁Q	-10.3493
uf	-10.3503
▁Even	-10.3506
▁sti	-10.3509
▁cale	-10.3515
time	-10.3517
tura	-10.3517
▁legitim	-10.3524
wise	-10.3526
▁1990	-10.353
▁paid	-10.3533
coming	-10.3535
▁speed	-10.3552
▁medic	-10.3557
cal	-10.3559
▁strâns	-10.3559
▁oraș	-10.356
ps	-10.3562
▁ocupare	-10.3562
▁signal	-10.3565
▁operator	-10.3571
▁speaker	-10.3575
▁instal	-10.3575
▁delay	-10.3576
▁cheltui	-10.358
▁En	-10.3582
▁lucra	-10.3589
▁naționale	-10.3593
▁datelor	-10.3598
▁Irland	-10.3602
▁delegation	-10.3609
▁încercat	-10.362
▁boli	-10.3624
▁democratice	-10.3627
▁Har	-10.3629
▁actor	-10.3629
▁propert	-10.3631
▁producer	-10.3632
dra	-10.3639
▁creşte	-10.3642
▁grupul	-10.3648
▁Alliance	-10.365
▁promova	-10.3651
▁corp	-10.3652
▁kids	-10.3653
▁Partidulu	-10.3656
▁multi	-10.366
▁Ministru	-10.3662
▁moned	-10.3662
▁War	-10.3663
▁Gul	-10.3666
▁bugetar	-10.3669
▁robot	-10.3671
▁hid	-10.3674
▁recunoscut	-10.3678
▁Politic	-10.3679
▁apărare	-10.3681
▁teritoriul	-10.3683
▁dovad	-10.3687
▁green	-10.3692
SD	-10.3696
▁Iată	-10.3696
▁temporar	-10.3698
▁Ireland	-10.3698
▁original	-10.3707
▁mediul	-10.3707
▁Last	-10.3712
▁remind	-10.3715
▁proteja	-10.3716
▁militar	-10.3729
▁town	-10.373
▁propune	-10.3732
▁vest	-10.3735
▁average	-10.3736
▁shar	-10.374
▁părți	-10.3741
▁attend	-10.3742
▁impune	-10.3746
▁Srpska	-10.3747
▁Many	-10.3749
▁introducere	-10.3753
▁prieteni	-10.3762
▁educaţie	-10.3763
▁afecteaz	-10.3763
▁coordonare	-10.3767
▁item	-10.3779
▁emisii	-10.3788
▁ceremon	-10.3791
▁scientific	-10.3796
▁contrar	-10.3804
▁Swed	-10.3807
▁ofere	-10.3809
▁german	-10.3812
▁majore	-10.3816
▁atac	-10.3818
▁separate	-10.3818
▁opening	-10.3825
▁provocat	-10.3825
▁venituri	-10.3831
▁sco	-10.3834
ising	-10.3841
▁vieți	-10.3845
▁progresul	-10.3847
▁option	-10.3848
▁easy	-10.3856
▁Totuși	-10.3858
▁couple	-10.3862
▁conven	-10.3863
▁preţuri	-10.3867
▁realiza	-10.3868
▁cereri	-10.3876
▁studi	-10.3877
IMF	-10.3879
ificare	-10.3879
▁Liber	-10.3885
▁opera	-10.3888
▁felul	-10.3891
▁Cypriot	-10.3894
▁procedura	-10.3895
▁kosovar	-10.3901
▁prepared	-10.3902
▁consult	-10.3904
▁motivul	-10.391
▁Chine	-10.3914
▁bal	-10.3915
▁refugee	-10.3916
▁excellent	-10.3922
▁session	-10.3922
propria	-10.3927
▁Î	-10.3929
▁aplicat	-10.3929
ța	-10.3929
▁families	-10.3933
▁spirit	-10.3938
▁întrebarea	-10.394
▁Europ	-10.3941
▁Justice	-10.395
▁Asia	-10.3956
▁emphasise	-10.3959
▁spoke	-10.3961
▁degrab	-10.3961
▁schimbat	-10.3963
▁Cha	-10.3971
▁Nikola	-10.3972
▁august	-10.3972
▁preveni	-10.3973
▁singură	-10.398
▁happening	-10.3983
▁ambitious	-10.3988
▁failure	-10.399
▁Je	-10.3993
▁shall	-10.3994
▁0	-10.3996
▁loss	-10.4001
▁influenţ	-10.4005
▁uri	-10.4007
LEX	-10.4011
iene	-10.4011
▁încerca	-10.4012
▁operat	-10.4015
▁manage	-10.4017
▁nav	-10.4019
▁inside	-10.402
▁lun	-10.4034
cut	-10.4038
▁articol	-10.4038
▁practică	-10.404
▁întâi	-10.4044
FMI	-10.4044
▁gând	-10.4044
▁Atlantic	-10.405
▁gave	-10.405
gl	-10.4051
▁documente	-10.4052
▁British	-10.4055
▁French	-10.4055
bia	-10.4055
▁lower	-10.4069
▁atinge	-10.407
▁finanțare	-10.4076
▁dreptate	-10.4076
▁intr	-10.4078
▁încheiere	-10.4087
▁ajută	-10.4089
▁înregistr	-10.41
▁asylum	-10.41
▁poți	-10.41
▁eficiente	-10.4103
▁planuri	-10.4105
▁OK	-10.4105
▁aminte	-10.4111
▁joc	-10.4112
▁adopte	-10.4114
▁privinţă	-10.4117
▁durabilă	-10.4123
▁Naţional	-10.4123
▁Ab	-10.4128
▁naţiuni	-10.4128
▁select	-10.413
▁core	-10.4135
▁lucrători	-10.4137
▁aşteapt	-10.414
▁Inde	-10.4148
▁rus	-10.4153
sch	-10.4162
rin	-10.4165
▁African	-10.4174
▁paper	-10.4179
▁vizeaz	-10.4179
▁politicieni	-10.4181
▁strategi	-10.4188
▁clarific	-10.4189
▁Mediterranean	-10.419
▁Sim	-10.4197
atul	-10.42
▁Declar	-10.4207
▁fix	-10.421
▁obtain	-10.4213
▁speranţ	-10.4213
▁medicamente	-10.4218
pin	-10.422
▁activități	-10.4221
▁schimba	-10.4226
▁origine	-10.4229
$	-10.423
▁știu	-10.423
ging	-10.4231
ative	-10.4234
▁angajamentul	-10.4241
▁suspend	-10.4248
▁vizite	-10.4248
▁Macedonie	-10.4258
KP	-10.4259
▁elemente	-10.4266
▁fine	-10.4268
▁Skopie	-10.427
▁statutul	-10.4271
▁macedonean	-10.4276
▁sex	-10.4277
▁entry	-10.4281
▁KFOR	-10.4287
▁flow	-10.4294
▁urmat	-10.4303
▁multor	-10.4304
▁beneficii	-10.4305
▁carte	-10.4306
ett	-10.4307
▁genera	-10.431
▁accord	-10.4312
▁prese	-10.4317
▁învăț	-10.4318
▁Further	-10.4321
▁sufficient	-10.4321
tră	-10.4322
▁suffer	-10.4323
▁slow	-10.4329
▁humanitarian	-10.4339
dent	-10.4339
țele	-10.4341
▁eveniment	-10.4342
▁existe	-10.4342
▁enhanc	-10.4344
▁forest	-10.4346
▁happens	-10.4347
▁enjoy	-10.435
▁Libya	-10.435
▁night	-10.4351
▁solve	-10.4356
rop	-10.4359
▁sent	-10.436
▁construit	-10.4368
▁operate	-10.4373
▁radio	-10.4378
▁dorit	-10.4379
W	-10.4382
▁sectoare	-10.4385
▁ultima	-10.4385
▁condamn	-10.439
▁Ști	-10.4396
▁respective	-10.4398
▁Japan	-10.4402
▁component	-10.4402
▁Bur	-10.4403
▁țin	-10.4407
▁push	-10.4419
▁presupune	-10.4424
▁sute	-10.4432
▁considerabil	-10.4437
ificat	-10.444
▁intra	-10.4445
orul	-10.4448
▁clădiri	-10.4448
▁daily	-10.445
pon	-10.4455
hu	-10.446
▁indiferent	-10.4466
▁prezenţ	-10.4472
rez	-10.4475
▁evidence	-10.4477
▁crize	-10.4484
▁calling	-10.4486
▁reprezentant	-10.4492
▁puteri	-10.4495
▁Karadzic	-10.4501
▁poziţie	-10.4506
▁Tunisia	-10.4507
▁duc	-10.451
▁territor	-10.4511
▁Gra	-10.4518
▁Saraievo	-10.4518
▁convince	-10.4518
▁vulnerabil	-10.4518
▁loan	-10.4519
▁lucrez	-10.453
▁realizare	-10.4534
▁trimis	-10.4536
▁înţelege	-10.454
▁cuvântul	-10.4542
▁organizate	-10.4548
▁critical	-10.4552
▁Milosevic	-10.4554
▁advance	-10.4554
▁mon	-10.4557
part	-10.4562
▁commercial	-10.4566
▁abandon	-10.4571
▁Cer	-10.4572
▁participation	-10.4576
▁friends	-10.4579
▁Ele	-10.4584
▁mijlocii	-10.4584
▁efectu	-10.4585
▁Pop	-10.4588
▁conducere	-10.4595
▁stânga	-10.4595
aţiei	-10.4597
▁ministers	-10.4599
▁regular	-10.4601
▁Mal	-10.4601
▁stabilire	-10.4604
▁sentiment	-10.4607
▁technologie	-10.4613
▁graniţe	-10.4613
▁Salut	-10.4614
onal	-10.4616
izăm	-10.4617
▁separat	-10.4617
▁Secretary	-10.4618
▁investigation	-10.4618
▁source	-10.462
pet	-10.4625
▁jos	-10.4625
▁resolve	-10.4632
▁check	-10.4636
lis	-10.4641
▁Vot	-10.4641
▁minority	-10.4661
▁susține	-10.4663
▁doamn	-10.4665
▁terrorist	-10.4666
▁count	-10.4676
▁Tratat	-10.4679
▁medie	-10.4681
▁IMM	-10.4684
▁mal	-10.4697
▁Du	-10.4699
▁asum	-10.4709
▁becoming	-10.4711
▁journalist	-10.4711
▁GDP	-10.4713
▁Service	-10.4713
▁agency	-10.4713
▁agenci	-10.4715
▁adoptate	-10.4716
▁britanic	-10.4719
▁trimite	-10.4723
▁rog	-10.4728
▁miss	-10.4731
▁fond	-10.4732
▁Green	-10.4737
▁Since	-10.4738
▁adresa	-10.4742
▁controlul	-10.4749
▁bear	-10.4757
▁Also	-10.4765
▁sporit	-10.4765
▁comportament	-10.4773
▁colegii	-10.4776
▁ambi	-10.4777
▁ajut	-10.4786
▁unfortunate	-10.4791
▁platform	-10.4791
▁object	-10.4795
▁deputați	-10.4797
▁ship	-10.4798
▁infrastructur	-10.4799
▁discuta	-10.4806
▁noștri	-10.4809
▁unică	-10.4811
▁round	-10.4812
▁Sea	-10.4814
▁transmite	-10.4814
af	-10.4817
▁săptămână	-10.4821
▁burden	-10.4821
▁Ali	-10.4823
▁centrale	-10.4825
IC	-10.4831
▁afla	-10.4832
▁overall	-10.4834
rian	-10.4838
▁Aceşti	-10.484
pen	-10.4843
▁Haiti	-10.4846
▁fun	-10.4854
▁slab	-10.4858
▁cetățenii	-10.4858
▁Are	-10.4863
▁machine	-10.4864
sha	-10.4868
▁măsura	-10.4871
izeze	-10.4872
▁viner	-10.4872
▁stare	-10.4876
lock	-10.4878
▁ill	-10.4878
▁congratulate	-10.4879
▁repet	-10.4882
▁convinge	-10.4886
▁populaţi	-10.4889
▁Fr	-10.489
▁performance	-10.489
▁Zi	-10.4893
▁violation	-10.4899
▁Pân	-10.4902
▁inspir	-10.4905
▁Kar	-10.491
▁respectare	-10.4911
▁vrem	-10.4917
▁bărbaţi	-10.4918
▁participare	-10.4924
▁Zoran	-10.4925
▁street	-10.4925
▁closer	-10.493
▁passenger	-10.4931
▁asistenț	-10.4937
▁perform	-10.4941
▁pursu	-10.4941
▁deschide	-10.4942
nici	-10.4947
▁aplică	-10.4947
▁numără	-10.4955
▁farm	-10.4955
▁grec	-10.4959
nov	-10.496
▁var	-10.496
▁exclud	-10.4961
▁prezenta	-10.4962
▁TV	-10.4965
▁PKK	-10.4973
▁activit	-10.4975
lit	-10.498
▁plat	-10.4985
▁PIB	-10.4987
▁Action	-10.4996
▁artist	-10.4997
▁plin	-10.4998
▁teme	-10.4998
▁Fo	-10.5008
ef	-10.5008
▁girl	-10.501
▁eliminare	-10.5013
▁News	-10.5013
▁km	-10.5014
▁Centre	-10.5016
▁universal	-10.5018
▁Director	-10.5029
▁iniţial	-10.5029
kov	-10.5032
▁Her	-10.5033
▁atacuri	-10.5033
▁evita	-10.5035
▁militare	-10.5036
▁transition	-10.5037
▁sensibil	-10.5037
▁îndeplin	-10.5043
▁alternativ	-10.5045
▁răspunsul	-10.5053
▁minimum	-10.5058
▁întregi	-10.5058
▁Under	-10.5058
▁minunat	-10.506
▁EL	-10.5069
▁prett	-10.5072
▁prevăzut	-10.5078
totdeauna	-10.5082
▁vaccin	-10.5084
bro	-10.509
▁lucrătorilor	-10.5094
▁faci	-10.5096
▁precedent	-10.5097
▁Irak	-10.5097
▁voturi	-10.5097
lov	-10.5106
▁Tu	-10.5108
▁phone	-10.5109
▁analiză	-10.511
▁parts	-10.5116
▁declaration	-10.5118
▁rezolv	-10.5119
▁maxim	-10.5121
▁SME	-10.5122
▁publicat	-10.5126
▁dnei	-10.5128
▁anii	-10.5129
▁bodie	-10.5132
hor	-10.5134
▁provocare	-10.5137
abilă	-10.5141
▁depinde	-10.5142
▁comprehensive	-10.5153
▁sprijinit	-10.5154
▁ascult	-10.5157
▁comunicare	-10.5158
▁Plan	-10.5161
▁dreapta	-10.5168
cord	-10.5168
▁forme	-10.5177
▁refus	-10.5178
▁simţ	-10.518
pect	-10.518
▁riscuri	-10.5182
▁misiune	-10.5183
▁coalition	-10.5184
▁uşor	-10.5194
▁content	-10.5203
▁impus	-10.5204
▁initial	-10.5209
▁Haga	-10.5213
▁mutual	-10.5215
nding	-10.5219
▁Ze	-10.522
▁mâine	-10.5221
▁investiții	-10.5231
▁transparenţ	-10.5244
▁citat	-10.5246
▁dramatic	-10.5247
NA	-10.5249
▁cities	-10.525
▁union	-10.5254
ham	-10.5255
▁allocat	-10.5262
▁arăta	-10.5263
▁imagina	-10.5265
▁poliţi	-10.5268
▁singura	-10.5268
▁Gal	-10.527
zar	-10.527
▁Strateg	-10.5278
▁sustain	-10.528
▁direcți	-10.5284
▁sărăciei	-10.5286
▁implicate	-10.5293
▁francez	-10.5297
ograf	-10.5306
▁principii	-10.5307
▁formal	-10.5309
▁introdus	-10.531
▁strategii	-10.5311
▁Extern	-10.5311
▁albanezi	-10.5314
▁safeguard	-10.5316
▁câţi	-10.5329
▁nevoia	-10.533
0,000	-10.5335
▁logic	-10.5336
oz	-10.5336
▁Str	-10.5337
▁Având	-10.5344
▁intre	-10.535
▁player	-10.5353
▁Stat	-10.5354
▁planul	-10.5362
▁Fac	-10.5367
▁gaz	-10.5372
▁anterior	-10.5373
▁fuel	-10.5373
▁Ungari	-10.5374
▁coleg	-10.5377
▁declin	-10.538
▁vehicle	-10.538
▁mix	-10.538
▁partner	-10.5385
▁Franţ	-10.5386
▁politicilor	-10.5387
▁expu	-10.54
▁stuff	-10.5405
▁alimentare	-10.5409
▁execut	-10.5413
ification	-10.5417
▁integr	-10.5419
ură	-10.5421
▁demonstra	-10.5423
▁studiu	-10.5424
▁Ahtisaar	-10.5424
▁spa	-10.5428
▁poveste	-10.543
▁authorit	-10.5439
▁solar	-10.5439
▁lungul	-10.544
▁evit	-10.5446
▁judec	-10.5447
▁Ap	-10.5449
▁Arab	-10.5451
down	-10.5452
▁save	-10.5457
▁largă	-10.5466
▁understanding	-10.5468
▁protecție	-10.5469
light	-10.5472
▁exploit	-10.5476
▁prevenire	-10.5481
▁tur	-10.5481
ball	-10.5483
▁procent	-10.5484
▁mobile	-10.5485
▁calcul	-10.5487
▁cabinet	-10.5489
▁culturale	-10.5489
pel	-10.5493
▁iniţiative	-10.5503
▁train	-10.5516
▁obține	-10.5516
▁finding	-10.5517
▁numi	-10.5519
▁organiza	-10.5519
▁ţin	-10.552
▁Vice	-10.5521
▁arăt	-10.5524
▁convenit	-10.5525
▁ju	-10.5528
▁reţele	-10.5531
▁Vrea	-10.5531
▁transfrontalier	-10.5534
▁blue	-10.5534
set	-10.5536
▁bunuri	-10.5536
▁margin	-10.5539
▁Trade	-10.5551
ministry	-10.5555
▁mobil	-10.5559
▁dedicat	-10.5566
▁pensii	-10.5567
ob	-10.557
▁woman	-10.5573
anți	-10.5574
pere	-10.5578
▁bid	-10.5579
▁acțiune	-10.558
▁surviv	-10.5586
▁recunoaşte	-10.5589
▁intention	-10.5589
▁condemn	-10.5592
▁numero	-10.5594
▁legături	-10.5598
▁Ben	-10.5604
▁respins	-10.5606
▁Trans	-10.5606
▁island	-10.5607
▁Chris	-10.5612
▁angajaţi	-10.5614
▁depăşi	-10.5615
▁metod	-10.5616
▁serios	-10.5619
▁USD	-10.5619
▁modificări	-10.5622
enţa	-10.5622
▁recomandări	-10.5623
▁Jan	-10.5626
▁partener	-10.5626
▁drive	-10.5627
▁adecvate	-10.5631
▁folosesc	-10.5639
▁Just	-10.564
▁genetic	-10.5641
▁executiv	-10.5643
▁trai	-10.5648
hn	-10.5648
▁Eastern	-10.5651
▁stă	-10.5654
▁poţi	-10.5659
▁minor	-10.566
▁Vario	-10.5664
▁dollars	-10.5664
▁supus	-10.5664
▁198	-10.5665
▁teren	-10.567
▁intrare	-10.5686
▁alocat	-10.569
▁întâln	-10.569
▁sfârşit	-10.5696
▁masă	-10.5697
▁Copenhag	-10.5699
bre	-10.57
urg	-10.5705
▁advantage	-10.571
▁spori	-10.5711
ker	-10.5716
▁works	-10.5718
▁harmonis	-10.5718
▁neg	-10.5718
▁consecinţe	-10.572
stăzi	-10.5724
▁Muslim	-10.5724
▁îndeplini	-10.5729
▁şapte	-10.573
▁accus	-10.573
▁limitat	-10.5731
▁bugetare	-10.5734
▁textile	-10.5734
▁Grecie	-10.5737
▁impactul	-10.5739
▁producţie	-10.574
▁îmbunătăţi	-10.5741
▁invent	-10.5741
▁prison	-10.5747
▁pic	-10.5753
▁democrat	-10.5759
oară	-10.5763
▁abuse	-10.5769
▁convins	-10.577
▁forget	-10.5772
AT	-10.5775
▁replace	-10.5777
▁prosecutor	-10.5778
▁exercise	-10.5783
wn	-10.5785
▁ultim	-10.5786
▁oraşul	-10.579
▁ş	-10.579
▁outcome	-10.579
▁400	-10.5795
▁star	-10.58
atorii	-10.5802
▁dovedit	-10.5803
▁sentence	-10.5804
▁Ash	-10.5805
▁kne	-10.5805
▁audit	-10.5805
▁Hungar	-10.5808
▁explic	-10.5814
ung	-10.5826
▁egalitate	-10.5829
▁150	-10.584
▁comisie	-10.585
changing	-10.585
▁identit	-10.5851
▁practical	-10.5851
▁careful	-10.5857
▁etap	-10.5877
▁angajament	-10.5884
▁sectors	-10.589
▁camp	-10.589
icul	-10.5896
▁obicei	-10.5897
▁indicator	-10.59
▁obligaţi	-10.5905
▁bosniac	-10.5909
▁deschidere	-10.5909
▁percep	-10.5913
▁presiuni	-10.5924
▁consistent	-10.5932
▁pasageri	-10.5937
▁establishment	-10.5942
▁Egypt	-10.5944
▁niveluri	-10.5945
▁investigat	-10.5946
▁biodiversit	-10.5951
▁resping	-10.5951
▁Film	-10.5951
▁iau	-10.5951
▁John	-10.5958
▁captur	-10.596
▁modificare	-10.5964
▁angajamente	-10.5971
▁implicare	-10.5975
▁puse	-10.5975
▁gândit	-10.5977
▁intensific	-10.5978
▁formare	-10.5978
án	-10.5987
▁assist	-10.5989
▁traditional	-10.5992
▁Market	-10.5993
▁MEP	-10.5998
▁Conform	-10.6006
cic	-10.6006
▁circumstance	-10.6012
▁centru	-10.6016
▁mări	-10.602
▁CA	-10.6021
▁creez	-10.6021
▁surs	-10.6021
▁Afghanistan	-10.6025
▁prospect	-10.6025
▁misiuni	-10.6026
▁inacceptabil	-10.6032
▁budgetar	-10.6036
▁armate	-10.6041
▁culturi	-10.6044
▁rev	-10.6048
▁succeed	-10.6053
▁istoria	-10.6056
▁submitt	-10.6065
▁nearly	-10.6068
▁publicaţiei	-10.6072
▁Earth	-10.608
▁parlamentare	-10.6088
▁province	-10.6088
▁Care	-10.6089
▁vieţii	-10.6089
▁provin	-10.609
▁presu	-10.6091
cent	-10.6093
▁Association	-10.6094
▁unacceptabl	-10.6094
▁delegaţi	-10.6094
▁black	-10.6095
▁intră	-10.6102
▁HU	-10.611
▁poli	-10.611
▁Copenhaga	-10.6112
▁întoarce	-10.6114
▁violenț	-10.6115
▁celule	-10.6119
▁Not	-10.6132
▁întreg	-10.6136
▁exercit	-10.6136
▁recognition	-10.6142
▁comerţ	-10.6145
▁lider	-10.6147
▁sell	-10.615
▁poll	-10.6153
▁veni	-10.6154
▁deloc	-10.6154
▁Comp	-10.6157
▁confrunta	-10.6165
▁promise	-10.6178
day	-10.6181
▁sides	-10.6182
▁register	-10.6183
▁Agenţi	-10.6184
▁amendamente	-10.6186
▁judge	-10.619
▁cercetări	-10.6197
▁secure	-10.6202
▁preşedinţie	-10.6208
▁Public	-10.6211
▁immigrati	-10.6211
▁presiune	-10.6215
▁securităţi	-10.6216
▁door	-10.622
▁powerful	-10.6223
▁Universit	-10.6223
▁Ber	-10.6227
▁Bra	-10.6228
PS	-10.623
▁asigurări	-10.6234
▁angajat	-10.6235
▁ţine	-10.6236
▁forum	-10.6237
▁mental	-10.6237
▁plec	-10.6238
▁interesat	-10.6243
▁Partnership	-10.6245
▁Cipru	-10.6246
▁appeal	-10.6253
▁merită	-10.6253
▁Cei	-10.6254
pat	-10.6256
▁His	-10.6257
▁reale	-10.6261
▁scor	-10.6265
▁Bucharest	-10.6266
▁adequate	-10.6266
▁reveni	-10.6268
▁observat	-10.6268
▁zis	-10.6269
▁facilitate	-10.6271
▁vis	-10.6275
▁refuz	-10.6277
unde	-10.6278
▁închisoare	-10.6282
▁learning	-10.6289
mite	-10.6294
▁hands	-10.6296
▁Centrul	-10.6301
▁fața	-10.6309
▁puternice	-10.6311
▁setting	-10.6313
▁constitution	-10.6318
▁flu	-10.6321
▁partid	-10.6322
▁zero	-10.6323
▁gestiune	-10.6324
position	-10.6324
▁studie	-10.6328
▁apărut	-10.6331
▁concluzi	-10.6332
▁restul	-10.6337
▁enorm	-10.6342
▁counterpart	-10.6351
▁saving	-10.6356
▁Google	-10.6357
SP	-10.6358
▁finanț	-10.636
▁relații	-10.6364
▁presidency	-10.6364
▁75	-10.6365
▁echipa	-10.637
▁Ucraina	-10.6371
▁cumpăra	-10.6372
▁Bulgarie	-10.6373
▁negativ	-10.6378
▁armat	-10.6382
▁memor	-10.6384
▁intervention	-10.6386
▁bancar	-10.6387
▁expression	-10.639
▁informare	-10.6391
▁participate	-10.6393
▁clare	-10.6393
▁protejare	-10.6396
▁telefon	-10.6399
tuși	-10.64
▁concedi	-10.64
▁curent	-10.6402
▁aerian	-10.6405
▁45	-10.6419
▁membr	-10.6423
▁lose	-10.6426
▁încălcare	-10.6428
▁mecanisme	-10.6434
▁Unfortunatel	-10.6435
▁musulman	-10.6435
▁Liberal	-10.6435
▁severe	-10.6448
▁reading	-10.6449
▁north	-10.6449
▁involve	-10.6455
▁nucleară	-10.6455
▁institutional	-10.6472
▁principiu	-10.6474
▁agenţi	-10.6477
▁experţi	-10.6478
▁concert	-10.6485
▁threaten	-10.6487
▁ziu	-10.649
▁volum	-10.6492
▁demonstrate	-10.6494
▁northern	-10.6506
▁seat	-10.6507
▁depune	-10.6507
▁Olympic	-10.6513
▁echipament	-10.6515
tură	-10.6515
▁Col	-10.6522
▁principiile	-10.6523
▁Energy	-10.6528
▁scandal	-10.6528
▁Alianţ	-10.6528
▁feeling	-10.6529
▁Art	-10.6533
▁modalitate	-10.6535
▁Belgi	-10.6537
fo	-10.6541
▁imposibil	-10.6542
oci	-10.6546
▁perspectiva	-10.6549
▁constructive	-10.655
▁forţa	-10.6556
▁Regulation	-10.6556
▁desfăşurat	-10.6557
▁administr	-10.6559
▁thanks	-10.6563
▁track	-10.6564
▁etc	-10.6567
á	-10.6569
ceva	-10.657
▁drumul	-10.6571
▁Obama	-10.6578
▁staff	-10.6579
▁justifi	-10.6583
▁sarcini	-10.6585
▁implicat	-10.6585
niște	-10.659
▁datori	-10.6593
▁studii	-10.6599
▁predict	-10.6601
▁spread	-10.6604
▁bazeaz	-10.6604
▁detect	-10.6606
rising	-10.661
▁concur	-10.6611
▁stabilite	-10.6613
▁ultimate	-10.6613
▁apropiat	-10.6616
▁marca	-10.6621
▁Mart	-10.6622
▁lucrat	-10.6624
▁următori	-10.6626
▁pierde	-10.6627
▁fan	-10.6628
▁Ku	-10.663
▁Brita	-10.6631
indu	-10.6633
▁degree	-10.6633
▁consolida	-10.6634
▁foc	-10.6635
▁West	-10.6636
▁leadership	-10.6637
▁acțiuni	-10.6643
▁apropiere	-10.6649
▁award	-10.6653
▁Prima	-10.6654
▁Arm	-10.6658
▁şans	-10.666
▁râ	-10.6666
▁istorie	-10.6669
▁react	-10.6675
▁național	-10.6678
▁lucrări	-10.6688
▁încerc	-10.6692
▁topic	-10.6692
▁menţine	-10.6692
▁extins	-10.6694
▁efectiv	-10.6695
▁democrație	-10.6695
▁referr	-10.6699
▁genocid	-10.6701
▁manifest	-10.6701
▁cerinţe	-10.6705
ruc	-10.6706
ităţile	-10.6711
▁violent	-10.6712
▁RO	-10.6714
▁adun	-10.6714
▁guverne	-10.6714
▁Convention	-10.6715
▁maghiar	-10.6715
▁emergenc	-10.6718
▁Aic	-10.6719
▁sur	-10.672
▁incredibil	-10.6723
▁reuniune	-10.6723
▁station	-10.6725
▁village	-10.673
▁rata	-10.6734
latest	-10.6746
▁rezolva	-10.6748
▁medicale	-10.6753
▁comerț	-10.6759
▁conduc	-10.6764
▁lucră	-10.6764
▁beautiful	-10.6767
▁Mexic	-10.6767
▁creă	-10.6768
▁involvement	-10.6769
ajul	-10.6774
▁situaţii	-10.6776
SA	-10.6776
▁evaluat	-10.6781
▁LT	-10.6783
▁transmis	-10.6787
▁opun	-10.6787
▁Şti	-10.6787
▁medicine	-10.6796
▁runn	-10.6798
adică	-10.68
nişte	-10.68
ump	-10.6801
▁înde	-10.6803
▁solicitare	-10.6803
▁experienț	-10.6803
▁încercare	-10.681
▁protecți	-10.6811
mission	-10.6811
▁Sanad	-10.6815
▁consens	-10.6815
▁respectă	-10.6816
▁descoperi	-10.6816
▁tehnologi	-10.6821
▁Stan	-10.6825
▁Croaţie	-10.6827
▁civilian	-10.6829
▁Nici	-10.683
▁turism	-10.683
▁Diverse	-10.6833
▁condiţi	-10.6835
▁reușit	-10.684
▁worse	-10.684
▁transportul	-10.6841
▁păstra	-10.6848
▁Gaza	-10.6848
▁liderul	-10.6849
▁prieten	-10.6849
▁încheie	-10.6852
▁reacţi	-10.6852
▁alb	-10.6855
▁vota	-10.6857
▁scientist	-10.6862
▁satisfac	-10.6866
▁deţine	-10.687
▁învăţ	-10.6873
▁Other	-10.6874
▁sincer	-10.6879
▁practices	-10.6881
▁obiect	-10.6882
▁depuse	-10.6892
▁uita	-10.6894
▁parc	-10.6899
▁Srebrenica	-10.6899
▁devreme	-10.6899
tenția	-10.6902
▁preserv	-10.6913
▁menţinere	-10.6914
▁Oamenii	-10.6914
▁morning	-10.6915
▁sat	-10.6918
▁dealing	-10.6919
▁Jovanov	-10.6925
▁întrebat	-10.6925
▁collect	-10.6937
țiune	-10.6938
▁vision	-10.6943
▁murder	-10.6944
▁clean	-10.6944
▁warn	-10.6945
▁finish	-10.6945
▁parlamentar	-10.6946
▁introduction	-10.6954
EC	-10.6955
▁grij	-10.6956
▁Prim	-10.6965
▁Hu	-10.6965
▁obstacle	-10.6974
ida	-10.6977
▁nordul	-10.6979
▁eye	-10.6984
▁consideration	-10.6986
▁student	-10.6995
▁Yes	-10.6997
▁avans	-10.6997
▁şeful	-10.6999
▁Mun	-10.7001
▁plenar	-10.7004
▁celui	-10.7011
▁metode	-10.7014
fac	-10.7017
ably	-10.7019
▁limba	-10.702
▁Drepturi	-10.702
▁gândesc	-10.7023
▁goals	-10.7023
▁miniştri	-10.7027
▁tortur	-10.7027
▁tool	-10.7028
▁raportoare	-10.7029
▁acceptat	-10.703
▁frontiere	-10.703
▁weapon	-10.7035
eta	-10.7036
▁parcursul	-10.7038
▁149	-10.7044
▁comunic	-10.7046
▁abordat	-10.7048
▁sfer	-10.7049
▁funcţie	-10.7054
▁conflicte	-10.7054
▁gone	-10.7055
▁Italian	-10.7057
▁useful	-10.7058
▁menit	-10.7063
▁Bucureşti	-10.7064
▁instance	-10.7065
▁Bine	-10.7068
▁complicat	-10.7071
▁fenomen	-10.7072
▁protocol	-10.7072
▁cauze	-10.7073
▁însemna	-10.7079
▁rich	-10.708
jun	-10.7081
▁majoră	-10.7085
▁hospital	-10.7087
▁reiterat	-10.7088
▁încântat	-10.709
▁Mir	-10.709
▁inovare	-10.7093
▁menționat	-10.7095
▁truth	-10.7096
bol	-10.7097
▁îmbunătăți	-10.7099
▁drum	-10.7102
▁employee	-10.7112
▁Românie	-10.7116
▁Van	-10.7117
▁familia	-10.7123
▁internaționale	-10.7124
▁wors	-10.7124
▁agricultori	-10.7125
▁discharge	-10.7132
▁Deput	-10.7135
▁aplica	-10.7138
▁mers	-10.714
▁range	-10.7143
▁răspund	-10.7143
▁inteligent	-10.7148
▁tipuri	-10.7148
▁Bro	-10.7149
▁genuine	-10.7155
▁Milo	-10.7167
▁felt	-10.7168
▁reduceri	-10.7169
▁physical	-10.7169
▁acțion	-10.7178
▁supplie	-10.7186
▁elaborare	-10.7186
▁semnificative	-10.719
▁colon	-10.719
▁Afganistan	-10.7201
▁traged	-10.7209
▁virus	-10.7209
▁compani	-10.721
▁nine	-10.7215
▁dispar	-10.7215
▁Bănci	-10.7216
▁fiu	-10.7217
▁competitivitate	-10.7218
▁ideal	-10.7222
▁creşteri	-10.7225
▁organism	-10.7227
nţii	-10.7227
▁climat	-10.723
▁încuraj	-10.7231
▁dimension	-10.7232
▁investor	-10.7232
▁passed	-10.7235
stories	-10.7236
▁extent	-10.7239
▁letter	-10.7243
▁celebrat	-10.7248
▁Radio	-10.7254
▁apart	-10.7254
▁dispoziți	-10.7255
▁intrat	-10.7258
▁Middle	-10.7262
▁productiv	-10.7268
mine	-10.7269
▁imens	-10.7271
▁commission	-10.7271
▁anticipat	-10.7273
▁guvernele	-10.7288
▁treaty	-10.7293
▁posibile	-10.7294
▁board	-10.7303
▁alarm	-10.7305
▁Ministr	-10.7305
▁assess	-10.7306
▁atins	-10.7314
▁pagin	-10.7317
▁tackle	-10.7317
▁uniform	-10.7317
▁terorist	-10.7319
▁concentra	-10.732
▁Tri	-10.732
credible	-10.732
▁sanction	-10.7324
▁achiziţi	-10.7324
▁singurul	-10.7324
▁motor	-10.7329
▁HIV	-10.7332
▁republic	-10.7332
▁hotărât	-10.7332
▁stock	-10.734
▁spital	-10.734
▁officer	-10.734
▁altfel	-10.7342
▁manag	-10.7345
▁relative	-10.7353
▁corespunzător	-10.7371
▁individuals	-10.7373
▁ore	-10.7373
hal	-10.7373
▁dead	-10.7376
▁Ivo	-10.738
▁Nor	-10.7384
iştii	-10.7393
▁destroy	-10.7394
▁minte	-10.7394
cţiune	-10.7395
▁efort	-10.7403
▁funcţi	-10.7405
▁întregul	-10.7406
▁redresare	-10.741
▁vreodat	-10.7411
mânt	-10.7417
▁sit	-10.7418
▁shape	-10.7426
▁ieşi	-10.7426
▁UK	-10.7428
▁afecta	-10.743
▁exerciţiu	-10.7433
▁abuz	-10.7433
▁recente	-10.7441
▁judicial	-10.7441
▁Doar	-10.7443
▁regenerabil	-10.7447
▁alege	-10.7448
tunci	-10.745
▁admit	-10.7455
▁oblig	-10.7455
▁leg	-10.7459
▁kosovari	-10.7463
▁distribui	-10.7465
▁evoluţi	-10.7465
▁imagini	-10.7466
▁terţe	-10.7473
▁compet	-10.7474
▁Exp	-10.7481
▁Recep	-10.7484
▁fiindc	-10.7487
bilitatea	-10.7487
▁suport	-10.7488
▁opinii	-10.7489
hir	-10.7491
▁cand	-10.7496
▁alegere	-10.7496
▁Compani	-10.7506
▁Island	-10.7507
cap	-10.751
▁dorinţ	-10.7515
▁duty	-10.7515
▁echipe	-10.752
▁Muntenegrului	-10.7522
▁creeaz	-10.7523
▁corectă	-10.7527
▁Programme	-10.7528
▁unic	-10.753
▁subliniaz	-10.753
▁electricit	-10.7532
▁limbi	-10.7533
▁ştiinţific	-10.7536
▁vizită	-10.7536
▁Cele	-10.7538
▁pick	-10.7538
▁feature	-10.7544
▁pacienţi	-10.7544
▁gender	-10.7546
▁oral	-10.7551
▁Cea	-10.7554
▁încercă	-10.7556
▁societăți	-10.7556
▁ocazie	-10.7558
▁Thaci	-10.756
▁turci	-10.7561
▁factori	-10.7567
▁acuzat	-10.7568
▁baze	-10.7573
▁camera	-10.7575
▁Business	-10.7575
▁Problema	-10.7575
X	-10.7577
▁generat	-10.758
▁alimentară	-10.7584
▁manner	-10.7586
▁interact	-10.7587
▁victor	-10.7597
▁îngrijorare	-10.7599
▁renewable	-10.76
▁Tayy	-10.76
▁vecin	-10.7601
▁penalt	-10.7602
▁reforma	-10.7603
▁cânt	-10.7604
▁curaj	-10.7607
▁middle	-10.7607
▁începând	-10.7608
▁ridicate	-10.7611
▁alţi	-10.7613
▁oportunităţi	-10.762
izând	-10.7623
▁medal	-10.7625
▁employ	-10.763
▁restor	-10.7632
▁purtă	-10.7646
▁propuse	-10.7648
veți	-10.765
▁fly	-10.7655
▁Chamber	-10.7655
▁poporul	-10.7659
▁cauzat	-10.7659
▁uit	-10.7661
▁equipment	-10.7663
▁intervenţi	-10.7672
▁participa	-10.7672
▁declaraţii	-10.7679
▁aprob	-10.768
▁tools	-10.7681
▁born	-10.7682
▁teach	-10.7685
▁Gruevsk	-10.7687
▁spaniol	-10.7687
▁prevederi	-10.7688
▁enormous	-10.7689
▁salarii	-10.769
▁Britanie	-10.7695
▁secol	-10.7699
▁aliment	-10.7701
▁atenție	-10.7703
▁associat	-10.7706
▁echitabil	-10.7711
▁Albanie	-10.7711
▁amazing	-10.7711
▁democraţi	-10.7711
matic	-10.7711
▁negociere	-10.7719
▁bus	-10.7722
▁teacher	-10.7725
seră	-10.7729
▁revin	-10.773
▁determinat	-10.7734
▁stea	-10.7734
▁Republici	-10.7738
J	-10.7746
▁Portugal	-10.7749
▁warm	-10.7755
▁câte	-10.7756
▁yes	-10.7757
▁teritorial	-10.776
▁ceilal	-10.776
▁adaug	-10.776
▁Dan	-10.7761
▁coordonat	-10.7762
▁avantaj	-10.7768
▁împiedic	-10.777
▁impozit	-10.7772
▁bul	-10.778
▁finanţe	-10.7784
▁reuniuni	-10.7784
▁perspectiv	-10.7787
▁recunoaște	-10.7792
▁eyes	-10.7798
▁discuţie	-10.78
▁noapte	-10.78
IA	-10.7806
▁Orientul	-10.7808
▁termeni	-10.7814
▁ansamblu	-10.7817
▁regulator	-10.7821
▁feed	-10.7821
▁îngrij	-10.7822
▁scope	-10.7838
tract	-10.7843
mente	-10.7843
▁Chi	-10.7844
▁bla	-10.7849
▁dimensiune	-10.7849
▁găzdui	-10.7849
▁viziune	-10.785
▁partidului	-10.7862
▁scheme	-10.7866
▁simbol	-10.7866
▁plac	-10.7867
istă	-10.7868
▁dezastru	-10.7869
▁preşedintelu	-10.7872
▁întâlniri	-10.7876
▁obligatori	-10.7878
▁perioade	-10.7882
▁mid	-10.7883
▁atent	-10.7887
▁materiale	-10.7889
▁emphasis	-10.7892
▁confirmat	-10.7892
▁Mijlociu	-10.7898
▁Ivan	-10.7901
▁map	-10.7902
▁Yugoslavia	-10.7904
ES	-10.7904
▁PPE	-10.7907
▁atitudine	-10.7907
▁dangerous	-10.7908
▁interiorul	-10.7909
▁religion	-10.7914
▁adânc	-10.7915
▁competenț	-10.7915
▁summer	-10.7915
▁constitutional	-10.7921
▁vast	-10.7923
▁lupte	-10.7923
▁optim	-10.7923
▁father	-10.7931
▁affair	-10.7931
▁blood	-10.7931
▁Poloni	-10.794
▁fostul	-10.7942
▁concurenţ	-10.7944
▁considerabl	-10.7946
▁structura	-10.7946
▁guvernanț	-10.795
▁wonder	-10.7958
▁oarec	-10.7961
▁concluzii	-10.7961
▁ordin	-10.7961
▁flag	-10.7965
▁Peter	-10.797
▁alleged	-10.7972
▁Cât	-10.7973
▁Uni	-10.7974
▁substantial	-10.7981
▁transparenț	-10.7983
▁infect	-10.7985
ǎ	-10.7989
▁Latin	-10.799
▁Nation	-10.7992
▁judecător	-10.7993
▁atrage	-10.7999
▁jucat	-10.8003
▁vreo	-10.8004
▁expand	-10.8006
▁Pot	-10.8009
▁reference	-10.801
▁equalit	-10.8014
▁Over	-10.8017
▁Vuk	-10.8025
▁informaţi	-10.8027
▁faz	-10.8027
▁ACP	-10.8027
▁campanie	-10.8028
▁îndrept	-10.8032
▁overcome	-10.8039
▁atrag	-10.804
▁iniţiativă	-10.8043
▁etnic	-10.8043
▁endorse	-10.8049
▁desire	-10.8053
▁păcii	-10.8055
▁proven	-10.8058
▁decades	-10.8059
▁tras	-10.807
▁Report	-10.8078
▁Organizaţi	-10.8081
▁eficienț	-10.8081
▁presence	-10.8081
▁suffering	-10.8086
▁ușor	-10.8093
▁aerien	-10.8094
▁mistake	-10.8096
▁contribut	-10.8096
▁înaintea	-10.8101
▁reformă	-10.8101
▁brief	-10.8106
rna	-10.8113
▁Oh	-10.8114
▁Ombudsman	-10.8114
▁ridică	-10.8118
▁străine	-10.8118
▁Directiv	-10.8122
▁droguri	-10.8122
▁concep	-10.8123
▁collective	-10.8125
▁colectiv	-10.8128
▁band	-10.813
▁guvernamental	-10.8131
▁vulnerabl	-10.8139
▁potențial	-10.8139
▁foot	-10.8142
numitor	-10.8143
▁tribunalul	-10.8143
▁movie	-10.8147
▁reformelor	-10.8148
▁unilateral	-10.8148
▁diferenț	-10.8148
▁dialogul	-10.8148
▁intern	-10.8153
▁sprijinire	-10.8157
▁notice	-10.8159
▁character	-10.8164
▁balcanic	-10.8164
▁operaţiuni	-10.8165
▁scan	-10.8165
▁relaţi	-10.8165
▁God	-10.8166
▁Paul	-10.8166
▁analiza	-10.8171
▁currenc	-10.8173
▁vru	-10.8177
▁Sto	-10.8177
▁Croat	-10.8177
▁Pol	-10.8181
▁search	-10.8181
▁colaborare	-10.8184
▁lansare	-10.8186
▁troop	-10.819
,2	-10.8195
▁urgenţ	-10.8198
▁organisme	-10.8201
▁şedinţe	-10.8205
▁obligaţii	-10.8206
▁dream	-10.8207
▁acte	-10.8214
▁Ratko	-10.8215
▁pregătire	-10.8215
▁ongoing	-10.8216
▁SE	-10.8229
▁demonstreaz	-10.8232
▁clinic	-10.8233
▁rezoluți	-10.8235
▁Dezvoltare	-10.8249
▁prost	-10.8254
▁etnice	-10.8254
▁firme	-10.8269
▁197	-10.8274
▁specii	-10.8274
▁Spania	-10.8275
▁dnă	-10.8276
▁Fer	-10.8277
▁scădere	-10.8283
▁suplimentar	-10.8289
▁From	-10.829
▁accelerat	-10.829
▁violenţ	-10.8291
▁surprise	-10.8292
▁presa	-10.8292
▁respecte	-10.8296
▁choose	-10.83
▁acquis	-10.83
▁implica	-10.8309
▁NGO	-10.8309
▁conserv	-10.8312
▁pollut	-10.8314
▁impun	-10.8318
▁obligat	-10.8319
FE	-10.8325
▁situat	-10.8329
▁investiga	-10.833
▁dificultăţi	-10.8334
▁surprin	-10.8335
▁Most	-10.8335
▁oraşe	-10.8336
get	-10.8339
▁îndeplinit	-10.8339
▁phase	-10.8343
▁stau	-10.836
▁obligați	-10.8366
▁acuzaţii	-10.8366
▁Stabilit	-10.8368
▁credite	-10.8373
▁Igor	-10.8376
▁impossibl	-10.8377
▁Summit	-10.8377
▁cifre	-10.8377
▁organ	-10.8379
vil	-10.838
▁continued	-10.8384
▁descri	-10.8387
▁SK	-10.8387
▁Poland	-10.8389
▁preşedinţia	-10.8401
ü	-10.8403
▁susţinere	-10.8408
▁corespunzătoare	-10.841
▁ape	-10.8418
▁propriul	-10.8419
▁competence	-10.8422
▁mulţumi	-10.8423
nica	-10.8427
▁totodat	-10.8429
▁câștig	-10.8429
▁Pan	-10.8433
▁emit	-10.8434
▁voter	-10.8437
▁refugiaţi	-10.8438
▁symbol	-10.8438
kin	-10.8441
▁proprietate	-10.8447
▁soldier	-10.8448
▁aprobare	-10.845
.2	-10.8458
▁smart	-10.8465
▁territorial	-10.8466
▁Mon	-10.8472
▁participant	-10.8474
▁consensus	-10.8476
▁lesson	-10.8488
▁foundation	-10.8489
▁temperatur	-10.849
▁FI	-10.8493
▁Luka	-10.8496
▁constituţi	-10.8498
kept	-10.8506
▁Saturday	-10.8507
▁vamal	-10.8508
▁astea	-10.851
▁Sudan	-10.8512
▁cert	-10.8512
▁resolv	-10.8513
▁următorul	-10.8514
▁trend	-10.8518
▁descris	-10.8521
▁înaintat	-10.8523
▁Voji	-10.8526
▁cresc	-10.8527
▁Part	-10.8527
▁software	-10.8534
▁pose	-10.8535
▁competitiv	-10.8535
▁sârbe	-10.8536
ăsta	-10.8536
▁rare	-10.8537
EA	-10.8539
▁Solan	-10.8541
▁proprie	-10.8541
▁unice	-10.8541
▁witness	-10.8542
▁registr	-10.8542
bility	-10.8543
form	-10.8543
rob	-10.8544
▁mijloc	-10.8544
▁Sal	-10.8551
▁locuitori	-10.8553
▁substance	-10.856
▁Om	-10.8562
▁organizare	-10.8562
hr	-10.8566
▁echilibrat	-10.8568
▁whom	-10.8572
▁agenţii	-10.8574
▁Anna	-10.8574
▁afford	-10.8577
▁ONG	-10.8577
Two	-10.8578
▁Regatul	-10.8583
▁release	-10.8585
▁Che	-10.8585
▁Popular	-10.8586
▁lectur	-10.8587
HR	-10.8592
î	-10.8601
▁consultation	-10.8603
▁Policy	-10.8604
▁Val	-10.8612
▁Strasbourg	-10.8613
▁liberalisation	-10.8614
▁belong	-10.8617
ER	-10.8618
▁apărări	-10.8621
▁voastr	-10.8621
▁detalii	-10.8622
▁gather	-10.8622
▁engineer	-10.8623
▁Angel	-10.8625
▁Front	-10.863
▁Irish	-10.8631
▁adera	-10.8633
bal	-10.8637
▁Progres	-10.8639
▁favorabil	-10.8639
▁Înainte	-10.8639
▁rock	-10.8649
hood	-10.8651
zer	-10.8651
▁Ur	-10.8654
▁obstacole	-10.8654
▁multilateral	-10.8657
▁științ	-10.8659
▁broke	-10.8659
▁preocupări	-10.8661
ude	-10.8663
▁religioase	-10.8666
▁tine	-10.8668
▁usual	-10.8669
▁obţin	-10.8674
▁Curţi	-10.8678
▁identify	-10.8683
▁transaction	-10.8683
▁Berisha	-10.8683
plica	-10.8685
,3	-10.8691
▁Secretarul	-10.8692
▁folosind	-10.8693
▁guvernare	-10.8694
▁acei	-10.8695
▁petrecut	-10.8702
▁arestare	-10.8703
▁natura	-10.8709
▁veți	-10.8711
▁sprijine	-10.8711
▁Ponte	-10.8713
▁depăș	-10.8719
▁Cal	-10.872
▁chinez	-10.872
▁infrastructuri	-10.872
analysis	-10.8722
▁vedeți	-10.8724
▁valabil	-10.8726
▁Gen	-10.873
▁Islamic	-10.873
▁Korea	-10.8736
▁reacți	-10.8737
▁rezolvat	-10.8738
▁răspunsuri	-10.8742
▁migration	-10.8746
▁alegători	-10.8755
▁rank	-10.8755
▁susțin	-10.8756
nik	-10.8756
▁investitori	-10.8758
oarece	-10.8758
▁repetat	-10.8759
▁distrug	-10.8759
▁counter	-10.8761
▁Islam	-10.8772
▁asociat	-10.8773
▁fee	-10.8779
▁criticis	-10.8784
nch	-10.8789
▁Președinte	-10.879
▁Următorul	-10.8799
▁pământ	-10.8799
▁pledg	-10.88
▁individuale	-10.8804
▁schedul	-10.8808
▁lăsat	-10.881
▁via	-10.8813
▁prevention	-10.8816
▁Doamne	-10.8819
▁acknowledge	-10.8824
▁double	-10.8827
ible	-10.8828
▁căuta	-10.8836
▁generate	-10.8838
▁Belgradul	-10.884
▁translat	-10.8843
▁organiz	-10.8848
▁Paris	-10.8848
▁engage	-10.8862
▁renunţ	-10.8863
▁autoritate	-10.8864
▁approval	-10.8864
▁revizui	-10.8867
▁reaction	-10.887
▁David	-10.8872
▁traffic	-10.8873
▁univers	-10.8876
▁echilibru	-10.888
▁sănătăţii	-10.8882
▁released	-10.8882
▁Printr	-10.8885
▁crește	-10.8886
▁discriminare	-10.889
▁prepar	-10.8901
▁Radic	-10.8905
spre	-10.8906
▁Montenegrin	-10.8908
▁capitol	-10.8908
▁profesor	-10.8908
▁omologul	-10.8908
▁înceap	-10.8908
▁exclusiv	-10.891
▁revenue	-10.8917
▁excesiv	-10.8917
▁Încă	-10.892
▁touch	-10.8924
▁cealalt	-10.8926
▁dovezi	-10.8926
▁construire	-10.8927
▁încheia	-10.8928
▁peaceful	-10.8928
▁salar	-10.8931
▁popor	-10.8931
▁bill	-10.8931
▁Industr	-10.8935
▁creative	-10.8936
▁tourist	-10.8937
▁contribuit	-10.8937
▁stable	-10.8937
▁ştiinţă	-10.8938
▁Min	-10.8938
stream	-10.8939
▁dificile	-10.8939
▁gap	-10.8942
▁Egipt	-10.8944
▁administraţi	-10.8945
▁partidul	-10.8947
▁spatel	-10.8948
▁muta	-10.8954
▁respectat	-10.8954
▁pozitivă	-10.8958
▁obişnui	-10.8962
▁verde	-10.8963
▁barrier	-10.8963
▁cipriot	-10.8972
▁website	-10.8972
▁riscul	-10.8972
▁îndeplinire	-10.8988
▁Democraţi	-10.899
▁match	-10.899
▁murit	-10.8992
▁împrumut	-10.8996
▁val	-10.9
▁primar	-10.9001
▁pira	-10.9002
▁attract	-10.9002
rad	-10.901
▁persist	-10.9012
▁evaluări	-10.9015
▁crim	-10.902
▁pipeline	-10.9027
▁educație	-10.903
▁resident	-10.9037
▁bacteri	-10.9045
▁combustibil	-10.9045
▁occasion	-10.9045
▁deșeuri	-10.9045
▁şcoli	-10.9054
▁proportion	-10.9054
▁Libia	-10.9065
▁apa	-10.9074
▁soluţionare	-10.9074
▁convention	-10.9075
▁procese	-10.9076
▁traficul	-10.9082
▁Japonia	-10.9082
▁Pământ	-10.9082
▁explica	-10.9085
▁boal	-10.9086
▁institui	-10.9089
▁Australia	-10.9091
▁exemple	-10.9091
▁linii	-10.9095
▁restriction	-10.9096
▁încuraja	-10.9105
▁worry	-10.911
▁menţin	-10.9111
▁trupe	-10.9112
rig	-10.9118
▁guideline	-10.9119
▁birth	-10.9119
▁tabl	-10.9126
▁ghi	-10.9126
▁Sam	-10.9128
▁sear	-10.9129
▁femeie	-10.9129
▁Georgi	-10.9132
▁consecinţ	-10.9134
▁association	-10.9135
▁integrări	-10.9136
▁aderări	-10.9137
▁amendament	-10.9137
▁atingere	-10.9137
▁Baltic	-10.9139
▁Peace	-10.9139
▁trec	-10.9143
▁alţii	-10.9144
▁modific	-10.9154
▁benefic	-10.9154
▁CS	-10.9156
▁route	-10.9156
▁încălcări	-10.9165
▁sensitive	-10.9165
▁deputat	-10.9167
▁Opera	-10.9167
▁skills	-10.9173
▁mandatul	-10.9174
▁critici	-10.9174
▁Serviciul	-10.9175
▁greşit	-10.9175
▁creier	-10.9175
▁tension	-10.9175
▁argue	-10.9176
▁voce	-10.9176
▁Sar	-10.9186
▁tinere	-10.9191
▁Slobodan	-10.9193
▁greci	-10.9196
▁dezvolt	-10.9201
▁preocup	-10.9202
▁scrutin	-10.9203
▁fulfil	-10.9207
▁afirm	-10.9207
▁competenţe	-10.9209
▁wage	-10.921
▁îmbunătățire	-10.9212
▁constituţional	-10.9212
▁metri	-10.9216
▁eat	-10.9221
▁played	-10.9222
▁elabor	-10.9222
▁yourself	-10.9223
▁chose	-10.9228
▁suferă	-10.9231
▁Monetar	-10.9231
▁serviciu	-10.9231
ket	-10.9235
▁urg	-10.9236
30	-10.9241
▁municipalit	-10.9242
▁opinie	-10.9243
▁pregăti	-10.9249
▁assume	-10.9253
▁promotion	-10.9254
▁imi	-10.9257
▁plastic	-10.9259
▁interzice	-10.9259
burg	-10.9262
▁Oric	-10.9271
▁preţ	-10.9273
▁lumina	-10.9274
▁ameninț	-10.9278
▁Radovan	-10.9278
▁campani	-10.9282
▁rezerve	-10.9287
▁color	-10.9291
▁bogat	-10.93
▁Brazil	-10.9301
▁dependent	-10.9301
▁raportori	-10.9301
▁expenditure	-10.9306
▁enlargement	-10.9312
,7	-10.9316
▁Gor	-10.9316
▁transmit	-10.9319
▁identificat	-10.932
▁32	-10.9326
Fără	-10.9326
▁Mean	-10.9327
▁merit	-10.9328
▁Programul	-10.9334
▁biolog	-10.9335
▁familiar	-10.9338
▁55	-10.9339
▁Defen	-10.9339
▁acţiona	-10.9344
▁studenţi	-10.9344
▁code	-10.9344
▁Gar	-10.9348
▁juridică	-10.9357
▁străini	-10.9359
▁laborator	-10.9363
▁salva	-10.937
▁datorii	-10.9372
▁acelor	-10.9372
▁consultaţi	-10.9377
▁globalizare	-10.9388
▁elibera	-10.939
▁periculoas	-10.9391
pping	-10.9392
▁ocupă	-10.9395
▁lumi	-10.9396
▁Sub	-10.94
▁Gotov	-10.9401
▁poart	-10.9404
▁î	-10.9404
▁wall	-10.9405
▁Cine	-10.9409
▁cunoaşte	-10.941
▁deplină	-10.9418
▁suedez	-10.942
▁funcți	-10.9421
▁eliminat	-10.9427
▁Anul	-10.9428
arch	-10.9435
▁militară	-10.9443
▁drag	-10.9443
▁danger	-10.9448
TA	-10.9448
▁interview	-10.9449
▁compli	-10.9455
▁Autorităţile	-10.9458
▁plăti	-10.946
▁secretar	-10.9471
▁achievement	-10.9471
▁arunc	-10.9474
▁vecinătate	-10.9478
▁recommend	-10.9482
▁sâmbăt	-10.9487
▁analyst	-10.9487
▁americani	-10.9497
▁lista	-10.95
▁înfiinţare	-10.9508
▁existenţ	-10.9513
▁Institute	-10.9516
▁Nabucco	-10.9516
▁trecere	-10.952
▁Ministerul	-10.9525
▁tragic	-10.9526
▁contest	-10.9528
▁box	-10.9535
▁decisive	-10.9535
▁device	-10.9539
▁modificat	-10.9542
▁rezolvare	-10.9543
▁juca	-10.9543
▁aborda	-10.9545
▁condamnat	-10.9546
▁vizitat	-10.9546
SE	-10.9548
▁soluți	-10.9548
▁monopol	-10.9555
▁șans	-10.9555
▁Organisation	-10.9556
▁uitat	-10.9559
▁screen	-10.9564
țiuni	-10.9571
AR	-10.9574
▁macedonen	-10.9574
▁revolution	-10.9574
▁army	-10.9575
▁occurr	-10.9578
▁36	-10.958
▁Kal	-10.9583
▁web	-10.9583
▁mândr	-10.9583
vadă	-10.9585
▁aştept	-10.9594
▁binding	-10.9594
▁competent	-10.9597
▁dezvolta	-10.9601
▁65	-10.9603
▁purchas	-10.9603
▁organizaţie	-10.9603
▁flood	-10.9605
▁producţi	-10.9607
▁acţion	-10.9607
▁Invest	-10.961
▁withdraw	-10.9613
EG	-10.9613
▁utilizări	-10.9616
▁Pal	-10.9618
▁write	-10.9619
▁twi	-10.962
▁Agricultur	-10.9623
▁floor	-10.9623
▁simți	-10.9625
▁romi	-10.963
▁Olli	-10.9634
▁implicaţi	-10.9635
▁mobilit	-10.9638
▁criticism	-10.9639
▁Give	-10.9641
▁noroc	-10.9646
▁Special	-10.9652
▁Black	-10.9653
▁deserve	-10.9656
▁determine	-10.9659
▁consumption	-10.9662
▁transformat	-10.9663
▁instituţional	-10.9672
▁expectation	-10.9675
▁wind	-10.9677
▁Free	-10.9683
list	-10.9685
▁guvernământ	-10.9691
▁devastat	-10.9691
▁plătit	-10.9695
▁rurale	-10.9696
bli	-10.9697
q	-10.9698
▁violenţe	-10.9701
▁biologic	-10.9701
▁făcând	-10.9701
▁wealth	-10.9702
▁hotel	-10.9703
▁jocuri	-10.9703
▁consili	-10.9705
▁showing	-10.9705
▁version	-10.9711
rry	-10.9716
▁Arctic	-10.9721
▁Convenţi	-10.9721
▁găseasc	-10.9721
▁Brazilia	-10.9726
▁raportorul	-10.9727
▁evaluation	-10.9729
▁concret	-10.9729
▁aplic	-10.9729
▁trata	-10.973
▁Stockholm	-10.9731
▁ulterior	-10.9731
▁Health	-10.9731
▁entrepreneur	-10.974
▁trip	-10.9743
IB	-10.9745
IS	-10.9748
▁răni	-10.9749
▁virtual	-10.975
▁Thos	-10.9759
▁Financial	-10.976
▁immigrant	-10.976
▁prompt	-10.976
▁pierderi	-10.9762
▁utiliza	-10.9763
▁decent	-10.9766
▁repeat	-10.9766
▁salutat	-10.9767
▁shadow	-10.977
▁democraţiei	-10.9775
▁făcea	-10.978
▁avertizat	-10.9781
▁sacrific	-10.979
▁pattern	-10.979
▁impresi	-10.979
▁pilot	-10.9791
▁Lucr	-10.9792
▁compensa	-10.9799
▁maximu	-10.9801
▁Fond	-10.9802
▁cerc	-10.9805
▁comply	-10.9812
▁liberalizare	-10.9813
fri	-10.9815
▁pachetul	-10.982
▁survey	-10.982
▁ideolog	-10.982
▁înfiinţat	-10.9826
flaţi	-10.9828
▁informați	-10.9828
▁tradiţional	-10.983
▁connect	-10.983
▁limită	-10.9831
▁vitez	-10.9831
▁Criz	-10.9835
▁Mak	-10.9837
▁English	-10.984
▁ieftin	-10.984
▁dominat	-10.984
▁Cuba	-10.9841
▁tehnologic	-10.9842
hin	-10.9843
▁wro	-10.9844
▁realise	-10.9844
▁Air	-10.9854
▁fragment	-10.986
▁comentarii	-10.986
▁Proiectul	-10.986
▁constructiv	-10.9861
▁standing	-10.9865
▁sărbător	-10.987
▁vinde	-10.9871
▁totalitate	-10.9872
▁împrumuturi	-10.9873
▁massive	-10.9875
▁paint	-10.9876
▁Djindjic	-10.988
▁impuls	-10.9882
▁Justiţie	-10.989
▁reţea	-10.9891
▁electricitate	-10.9893
▁Înalt	-10.9893
▁Fu	-10.9894
▁criticat	-10.9901
hip	-10.9905
▁administraţie	-10.9905
definitely	-10.9912
▁250	-10.9922
▁Economi	-10.9925
▁catch	-10.9925
▁anunţ	-10.9928
▁harm	-10.9933
broad	-10.9935
▁sold	-10.9937
▁privință	-10.9941
of	-10.9941
▁club	-10.9941
aku	-10.9943
▁aştepta	-10.9946
▁alineatul	-10.995
atom	-10.9954
ED	-10.9957
▁honour	-10.9961
▁suferit	-10.9963
▁Mitrovic	-10.997
▁reflectă	-10.9975
▁Romp	-10.9977
▁subiectul	-10.9983
▁hearing	-10.9989
▁fragil	-10.999
▁gri	-10.9995
▁supposed	-10.9997
▁Scopu	-11
▁BH	-11.0002
▁conţine	-11.0004
dreapt	-11.0005
▁Bor	-11.0005
▁hot	-11.0009
▁cotidian	-11.001
▁Auditor	-11.001
▁Comitet	-11.0011
▁Iceland	-11.0011
▁flexibil	-11.0014
run	-11.0018
▁ordinar	-11.0021
▁600	-11.0022
▁diplomat	-11.0023
▁distribution	-11.0025
▁Sau	-11.0029
▁formula	-11.0032
▁pull	-11.0034
▁repeated	-11.0035
▁creierul	-11.0035
▁Majoritate	-11.0036
▁Any	-11.0042
natură	-11.0044
▁photograph	-11.0047
▁frontier	-11.0048
gor	-11.005
▁altul	-11.005
cher	-11.0055
▁instituţi	-11.0056
▁Research	-11.0061
abilitate	-11.0062
▁privatisation	-11.0063
▁regimul	-11.0065
▁spaţiul	-11.0065
▁rezoluţi	-11.0071
▁Ceh	-11.0074
▁Don	-11.0075
▁zeci	-11.0076
▁directorul	-11.0078
▁tradition	-11.0081
▁lobby	-11.0082
▁Regional	-11.0082
▁ambition	-11.0084
▁decade	-11.0084
▁violat	-11.0085
ulțumesc	-11.0088
▁asset	-11.0094
▁CAP	-11.0097
▁accesibil	-11.0098
cade	-11.0098
▁tree	-11.01
▁Facebook	-11.0102
▁bărbați	-11.0102
▁comerţul	-11.0108
▁plasa	-11.0109
▁vieţi	-11.011
▁federal	-11.0112
▁clauz	-11.0112
▁gold	-11.0115
▁complicated	-11.0116
▁Pla	-11.0117
▁Investment	-11.0125
lop	-11.0127
▁mențin	-11.0127
▁legislați	-11.0128
▁preparation	-11.0128
▁qua	-11.0137
▁împiedica	-11.014
▁initiat	-11.0142
▁Republik	-11.0143
▁Civil	-11.0144
▁scrie	-11.0145
▁priv	-11.0145
▁Noua	-11.0148
▁attitude	-11.0153
▁soluţiona	-11.0154
▁inclusion	-11.0155
▁manager	-11.0155
▁decid	-11.016
▁luare	-11.0161
▁behavior	-11.0164
▁consecințe	-11.0165
▁soldaţi	-11.0168
▁scr	-11.0168
▁vorbitor	-11.0169
▁purtat	-11.0172
▁exprimare	-11.0173
ization	-11.0179
▁Papandreou	-11.0184
▁PAC	-11.0186
▁ziar	-11.0189
▁kid	-11.0191
▁interior	-11.0193
▁desfăşoar	-11.0195
▁detriment	-11.0195
▁vei	-11.0195
▁categor	-11.0197
▁flux	-11.0197
▁legislație	-11.02
▁democraţie	-11.02
▁opus	-11.02
▁vehicule	-11.0204
dăm	-11.0205
▁taxpayer	-11.0205
▁Berlin	-11.0207
▁populație	-11.0208
▁Ş	-11.0211
▁incentive	-11.0215
▁lumină	-11.0216
▁wonderful	-11.0216
▁povestea	-11.0217
▁prepare	-11.0221
▁rot	-11.0224
▁explicat	-11.0225
▁contribuți	-11.0226
▁mână	-11.0226
▁reduse	-11.0227
,6	-11.0228
▁reuşi	-11.0234
▁Robert	-11.0236
▁advis	-11.0236
▁adult	-11.0238
▁SV	-11.0243
alone	-11.0243
▁viabil	-11.0246
▁distrus	-11.0247
▁formulat	-11.0251
▁bugete	-11.0251
▁Acordulu	-11.0251
▁brutal	-11.0251
▁page	-11.0252
▁ochii	-11.0262
▁involv	-11.0264
▁Hol	-11.0265
ricine	-11.0266
▁ține	-11.0267
▁ALDE	-11.0267
▁London	-11.0267
▁automat	-11.0271
▁discursul	-11.0272
▁southern	-11.0278
▁Mediteran	-11.0288
▁decenii	-11.0288
▁variet	-11.029
▁PE	-11.0296
▁principalul	-11.0297
▁telling	-11.0308
▁dimensiuni	-11.0309
▁abordări	-11.031
▁temeiul	-11.031
▁definition	-11.0313
▁confer	-11.0315
rov	-11.0319
▁Palestinian	-11.0319
▁anterioare	-11.0319
▁Bush	-11.0324
▁furnizare	-11.0324
▁chair	-11.0328
▁excepţi	-11.0329
▁Dezbatere	-11.033
▁Podgorica	-11.033
▁automobile	-11.033
▁Where	-11.033
▁neuron	-11.0337
▁Universitate	-11.0339
▁stem	-11.0344
▁comunități	-11.0349
▁shift	-11.0351
▁comisii	-11.0351
▁simplific	-11.0352
▁pal	-11.0353
▁Yugoslav	-11.0354
▁Bil	-11.0359
▁ciudat	-11.0359
▁chapter	-11.0361
▁Transport	-11.0362
▁recomand	-11.0363
▁organizații	-11.0365
▁Conturi	-11.0365
▁driv	-11.0371
▁paragraph	-11.0372
▁Sârb	-11.0372
▁sunet	-11.0373
▁Marin	-11.0376
▁iniţiativ	-11.0379
turn	-11.0382
▁epidemi	-11.0382
▁frecvent	-11.0382
▁diversit	-11.0389
▁ratifi	-11.0392
▁dezbaterii	-11.04
▁Lithuania	-11.0414
▁fiecărui	-11.0414
▁strike	-11.0414
▁serviciul	-11.0417
▁sesiune	-11.0418
▁identitate	-11.0422
▁arrangement	-11.0424
▁Înaltul	-11.0425
jevic	-11.043
▁prosper	-11.0433
▁atras	-11.0434
▁înţeleg	-11.0435
▁transplant	-11.0435
▁şcoal	-11.0435
TE	-11.0435
▁situații	-11.0437
▁constitute	-11.0446
▁proprietăţi	-11.0446
▁clasa	-11.0449
▁Cup	-11.0453
▁soluție	-11.0456
▁Afaceri	-11.0456
▁dezamăgi	-11.0456
▁bosniaci	-11.0459
▁guid	-11.0459
▁discut	-11.0461
▁dispozitiv	-11.0467
▁innovative	-11.0467
▁tendinţ	-11.0467
▁sânge	-11.0467
▁titlu	-11.0467
▁Fiecar	-11.0469
▁eliminate	-11.0469
▁premier	-11.0473
▁tratate	-11.0473
▁34	-11.0473
▁Sur	-11.0476
▁Dayton	-11.0477
▁Oficiali	-11.0478
treabă	-11.0478
▁croaţi	-11.0481
▁sărace	-11.0482
▁pierdere	-11.0483
▁foloseasc	-11.0487
▁orientări	-11.049
▁sporire	-11.0493
▁cercetător	-11.0499
▁citizen	-11.05
▁funcționeaz	-11.051
▁relativ	-11.0512
▁scopuri	-11.0512
▁extinde	-11.0514
▁honest	-11.052
▁Neverth	-11.052
▁except	-11.0525
RO	-11.0525
liber	-11.0526
,4	-11.0529
tag	-11.0529
▁declarați	-11.0529
▁englez	-11.0531
ional	-11.0531
▁preliminar	-11.0541
▁adresez	-11.0541
RT	-11.0544
▁datorie	-11.0546
▁existence	-11.0547
▁Carte	-11.0548
▁optimist	-11.0551
▁Ohrid	-11.0552
▁Mulţi	-11.0553
▁gest	-11.0554
▁protejat	-11.0555
mark	-11.0558
▁white	-11.0563
▁sondaj	-11.0563
▁196	-11.0563
▁nave	-11.0564
▁iată	-11.0566
▁auzi	-11.0572
▁literal	-11.0573
▁uriaş	-11.0574
▁senior	-11.0574
▁vremuri	-11.0574
▁capabl	-11.0579
▁determina	-11.058
▁interfer	-11.058
▁wave	-11.058
▁External	-11.0582
observer	-11.0584
▁capacităţi	-11.0587
▁imagin	-11.0591
▁obţinere	-11.0593
▁carne	-11.0595
▁textul	-11.0596
truck	-11.0597
▁holding	-11.0598
▁restrict	-11.0598
berg	-11.0598
▁scena	-11.0599
▁ceh	-11.0599
▁comisarul	-11.0599
▁Georgiev	-11.0607
▁1998	-11.061
bun	-11.0612
▁Protection	-11.0616
▁câți	-11.0616
▁universe	-11.0626
▁profil	-11.0631
▁SEE	-11.0634
▁primesc	-11.0636
▁Ultim	-11.0638
▁ascund	-11.064
▁mulţumit	-11.0646
▁Culture	-11.0653
.1	-11.0654
▁enforcement	-11.066
▁chain	-11.066
▁declaraţi	-11.0664
▁arestat	-11.0665
▁Vede	-11.0667
▁catastrof	-11.067
▁Permite	-11.0671
▁scut	-11.0676
▁aviz	-11.0677
▁evidenţ	-11.068
▁graniţ	-11.0681
▁deploy	-11.0681
▁dispoziţie	-11.0681
▁fermieri	-11.0683
CI	-11.069
▁fill	-11.069
▁străinătate	-11.0692
▁vecini	-11.0701
▁aeroport	-11.0703
▁concentrez	-11.0703
▁2015	-11.0704
▁unique	-11.0704
▁cro	-11.0705
▁schimbul	-11.0708
▁recunoaştere	-11.071
▁Institutul	-11.0714
▁african	-11.0714
▁secolul	-11.0719
▁dezbate	-11.0719
▁Top	-11.0719
▁dezastre	-11.0725
▁vreun	-11.0725
▁remark	-11.0726
▁parlamentari	-11.0727
▁injur	-11.0728
▁primaril	-11.0734
▁fericire	-11.0736
▁mulțumi	-11.0736
▁conţinut	-11.0737
▁Comunitate	-11.074
vski	-11.0741
▁blog	-11.0742
▁garantez	-11.0746
▁rezonabil	-11.0746
▁Sprijin	-11.0746
▁vârf	-11.0746
▁deadline	-11.0747
▁rutier	-11.0748
▁educat	-11.0754
▁meant	-11.0755
▁diferenţ	-11.0765
▁academic	-11.0768
▁conştient	-11.0768
▁dezvălui	-11.0768
▁clause	-11.0768
▁matematic	-11.0779
▁tânăr	-11.0779
▁persecut	-11.0779
▁Danub	-11.078
▁Fost	-11.0785
▁mijlocul	-11.0786
NS	-11.0787
▁valid	-11.079
▁Parteneriat	-11.079
▁ritm	-11.0794
▁crească	-11.0808
▁sfârșit	-11.081
▁intelectual	-11.0812
▁voinţ	-11.0812
▁mâna	-11.0815
▁Both	-11.082
▁aferent	-11.0823
▁funcționa	-11.0824
▁programat	-11.0826
▁imposed	-11.0835
PC	-11.0837
▁proced	-11.0838
▁petrece	-11.0838
▁presidential	-11.0838
▁recunosc	-11.0842
▁bottom	-11.0845
▁restaurant	-11.0845
bon	-11.0846
▁sudden	-11.0858
▁nr	-11.0864
▁sincere	-11.0865
▁parlamentul	-11.087
▁33	-11.0871
▁strad	-11.0871
▁difer	-11.0875
▁collection	-11.0875
▁weak	-11.0885
▁zice	-11.0886
▁păduri	-11.089
▁flight	-11.0893
▁Comun	-11.0897
▁fulfill	-11.0907
▁mearg	-11.091
▁primary	-11.0911
▁mişcare	-11.0923
▁șase	-11.0923
▁compliance	-11.0925
▁stick	-11.0925
▁Far	-11.0928
▁spațiu	-11.0935
▁summitul	-11.0936
▁Reform	-11.0936
▁irlandez	-11.0945
▁prop	-11.0946
▁limb	-11.0947
▁creșteri	-11.0947
▁manufactur	-11.095
▁controll	-11.0953
▁vezi	-11.0953
▁Iugoslavie	-11.0956
▁plen	-11.0966
▁Sad	-11.0966
▁Tibet	-11.0967
▁EP	-11.0968
▁Syria	-11.0973
ologie	-11.0975
▁Amendment	-11.0978
▁resort	-11.0978
stitution	-11.0981
▁înțeles	-11.0983
▁citi	-11.0987
▁calm	-11.0991
▁macroeconomic	-11.1001
▁bucură	-11.1012
▁echipă	-11.1012
▁sponsor	-11.1012
.6	-11.1013
▁tari	-11.1015
▁Bosnie	-11.1023
▁Patr	-11.1023
▁lies	-11.1025
▁Mark	-11.1029
▁cheap	-11.1035
▁modelul	-11.1038
▁grand	-11.1038
▁Third	-11.1038
▁spate	-11.104
▁Follow	-11.1045
▁Charter	-11.1045
▁historical	-11.105
▁orientat	-11.1051
▁assure	-11.1055
▁depozit	-11.1057
▁surface	-11.1057
▁expresi	-11.1057
▁120	-11.1058
▁propun	-11.1061
▁discriminat	-11.1063
vit	-11.1064
▁masiv	-11.1067
▁encouraging	-11.1068
▁supravieţui	-11.1068
▁Milan	-11.1071
band	-11.1072
▁indică	-11.1074
▁îmbunătăţiri	-11.1077
▁zilnic	-11.1079
▁repar	-11.108
▁root	-11.108
▁Bla	-11.1081
▁lăsa	-11.1088
▁Such	-11.109
▁suveran	-11.109
▁interviu	-11.1092
▁amendamentele	-11.1095
▁Carl	-11.1098
sarcina	-11.1102
▁Media	-11.1104
▁Portugalia	-11.1105
▁lovit	-11.1106
▁Dragan	-11.1107
chin	-11.1108
▁determined	-11.1111
▁female	-11.1113
itudine	-11.1113
▁Yet	-11.1116
▁Novi	-11.1119
▁milion	-11.1125
▁şanse	-11.1131
▁revis	-11.1132
▁nefericire	-11.1136
▁terțe	-11.1136
▁Police	-11.1136
▁calific	-11.1138
aproape	-11.1139
▁Global	-11.1141
▁sărăcie	-11.1142
▁artificial	-11.1147
PI	-11.1149
▁Ev	-11.115
▁planificat	-11.1155
▁Decizi	-11.1158
▁store	-11.1159
▁porni	-11.1163
▁Dat	-11.1163
▁prag	-11.117
▁fantastic	-11.117
▁drop	-11.117
var	-11.1173
▁killing	-11.1173
▁Tar	-11.1177
▁cărţi	-11.118
▁somebod	-11.1187
MC	-11.1191
▁municipal	-11.1192
▁contribuabili	-11.1193
▁newspaper	-11.1193
▁frustr	-11.1193
▁vizibil	-11.1193
▁hran	-11.1198
▁diferenţe	-11.1202
▁journey	-11.1204
glo	-11.1207
▁1991	-11.1207
▁operational	-11.1208
▁television	-11.1216
▁audience	-11.1216
▁leaving	-11.1216
▁deplas	-11.1216
▁Propunere	-11.1218
▁Fin	-11.1219
▁exclusive	-11.1224
▁votez	-11.1227
▁division	-11.1227
▁Work	-11.1227
▁salvare	-11.1231
▁învățat	-11.1235
▁muzica	-11.1239
▁explicit	-11.1241
▁photo	-11.1243
▁Principal	-11.1244
▁slight	-11.1249
▁adăugând	-11.125
▁Sejdi	-11.125
▁scene	-11.125
▁lift	-11.1254
▁user	-11.1255
▁soluții	-11.1259
▁migrant	-11.1261
▁exhibition	-11.1263
▁cote	-11.1273
▁Djuk	-11.1273
▁courage	-11.1273
▁detaliat	-11.1273
▁banc	-11.1284
▁rut	-11.1285
▁întreprind	-11.1285
▁Kurdish	-11.1296
▁Tomislav	-11.1296
▁ajustare	-11.1296
erkel	-11.1302
▁determination	-11.1305
▁stake	-11.1313
▁discurs	-11.1315
▁Single	-11.1318
▁sancţiuni	-11.1319
▁sugereaz	-11.1319
ugh	-11.1323
cker	-11.1324
uff	-11.1327
▁birou	-11.133
▁Alzheimer	-11.1331
▁ocup	-11.1335
▁mobilitate	-11.1338
▁atmosfer	-11.1342
▁intellectual	-11.1342
ASA	-11.1346
▁televiziune	-11.1354
▁amendamentul	-11.1356
▁Netherland	-11.1365
▁evoluți	-11.1365
▁maşini	-11.1365
▁stimulat	-11.1369
older	-11.137
MS	-11.1372
▁expos	-11.1375
▁dețin	-11.1383
ograph	-11.1384
▁finalizat	-11.1385
▁orient	-11.1387
▁center	-11.1388
▁indirect	-11.1389
▁bunăstare	-11.139
▁inutil	-11.1397
▁Ahmet	-11.14
▁throw	-11.14
▁Hav	-11.1402
▁race	-11.1403
▁37	-11.1405
▁welfare	-11.1412
▁yesterday	-11.1412
▁apropie	-11.1414
▁iubi	-11.1414
▁aşteptă	-11.1415
▁scri	-11.1417
▁surround	-11.1424
▁Who	-11.1425
▁sugerat	-11.1432
▁serioase	-11.1434
▁mențion	-11.1434
CE	-11.1435
bdullah	-11.1435
▁Administr	-11.1435
▁treptat	-11.1435
▁locuinţe	-11.1435
ency	-11.1441
▁struggle	-11.1442
▁nano	-11.1443
▁tough	-11.1443
▁tranziţi	-11.1447
▁hotărâre	-11.1447
▁secular	-11.1447
▁stabileasc	-11.1447
▁Poliţi	-11.1447
▁spaţiu	-11.1454
▁importuri	-11.1455
▁organe	-11.1455
appointed	-11.1457
,8	-11.1462
▁stopp	-11.1463
▁warning	-11.1465
▁ameninţare	-11.1466
▁creativ	-11.1468
▁arrived	-11.1469
▁anniversar	-11.147
▁concurenț	-11.1471
▁colect	-11.1473
▁reproduc	-11.1474
▁prezentare	-11.1476
▁patent	-11.1478
▁smaller	-11.1478
▁Women	-11.1482
▁Soviet	-11.1482
▁susținut	-11.1485
▁părea	-11.1492
oft	-11.1495
▁daca	-11.1499
▁conecta	-11.1501
▁mit	-11.1502
▁obișnui	-11.1506
▁quarter	-11.1506
FA	-11.1508
▁ocupa	-11.151
▁fric	-11.1513
▁impose	-11.1517
▁advocate	-11.1517
▁excessive	-11.1517
▁heavy	-11.1517
▁Sali	-11.1521
ö	-11.1529
▁airline	-11.1531
▁airport	-11.1531
▁Law	-11.1541
▁crezut	-11.1541
▁picioare	-11.1541
▁prais	-11.1541
▁comandant	-11.1542
▁fete	-11.1544
oși	-11.1547
▁populați	-11.1549
▁experienc	-11.155
▁științific	-11.1553
▁handicap	-11.1553
▁întors	-11.1556
▁ieși	-11.1565
▁accelera	-11.1566
▁strange	-11.1569
gram	-11.1571
▁isolat	-11.1572
▁abstain	-11.1576
▁macro	-11.1577
▁DNA	-11.158
▁Tribunalul	-11.158
▁Turk	-11.1587
▁profesori	-11.1588
▁Criminal	-11.1588
▁sarcină	-11.1588
▁uncertain	-11.1588
▁neuro	-11.159
▁privatizare	-11.1592
▁cast	-11.1592
▁42	-11.1596
▁toxic	-11.1602
▁rezoluţii	-11.1605
▁battle	-11.1612
▁părăs	-11.1613
▁gradual	-11.1613
▁solv	-11.1615
▁connected	-11.1616
▁pod	-11.1619
▁competiţi	-11.1624
▁libertăți	-11.1624
▁Procesul	-11.1625
▁hous	-11.1629
▁Drag	-11.1634
▁motivat	-11.1635
▁dynamic	-11.1636
▁bridge	-11.1637
▁continuat	-11.164
▁Mesi	-11.1642
▁inaugurat	-11.1648
▁pedepse	-11.1648
▁worldwide	-11.1648
▁dinamic	-11.1649
▁săraci	-11.1652
▁refuzat	-11.1654
▁emisiile	-11.166
▁furnizat	-11.1661
▁Ven	-11.1661
▁genul	-11.1662
▁exploatare	-11.1667
▁Dodik	-11.1672
▁transatlantic	-11.1672
▁Londr	-11.1672
▁Recent	-11.1675
▁shop	-11.1677
▁dezvoltă	-11.1677
▁Crvenkov	-11.1684
▁descărcare	-11.1684
▁influenț	-11.1684
▁belief	-11.1684
▁vizita	-11.1689
▁Tribunal	-11.1692
▁sfârșitul	-11.1698
▁fericit	-11.1708
▁sosit	-11.1709
▁imigranţi	-11.172
▁chimic	-11.172
▁miles	-11.172
▁convict	-11.1721
graf	-11.1725
▁existent	-11.1726
▁Mili	-11.1727
▁colabora	-11.1727
▁ajutat	-11.1728
▁Authorit	-11.1732
▁Dumnezeu	-11.1732
▁bariere	-11.1732
▁Control	-11.1756
▁presupus	-11.1756
▁Okay	-11.1756
▁faith	-11.1756
▁apără	-11.176
tău	-11.176
▁ECR	-11.1761
long	-11.1762
▁magic	-11.1763
▁clip	-11.1764
viat	-11.1766
▁aprecia	-11.1768
▁error	-11.1768
▁rid	-11.1772
▁Cooperare	-11.178
▁expensive	-11.178
▁eşec	-11.178
▁Speak	-11.178
▁străzi	-11.178
▁Petr	-11.1781
▁plăteasc	-11.1781
▁revision	-11.1786
▁forţă	-11.1788
▁soluţi	-11.1788
night	-11.179
▁dog	-11.179
▁roman	-11.1791
▁controale	-11.1792
▁jurnalişti	-11.1792
▁cerințe	-11.1792
▁Penal	-11.1793
▁ajutoare	-11.1794
▁contradict	-11.1796
▁vicepreşedinte	-11.1796
▁designer	-11.1803
ström	-11.1804
▁verdict	-11.1804
oglu	-11.1808
▁Lind	-11.1813
▁moduri	-11.1813
▁carier	-11.1814
▁honourabl	-11.1816
▁channel	-11.1816
▁Congres	-11.1817
▁reveal	-11.1817
▁Ciprului	-11.1818
CC	-11.1821
▁magazine	-11.1823
▁Pun	-11.1824
▁38	-11.1827
▁sustenabil	-11.1829
▁comise	-11.1829
▁conteaz	-11.183
▁linie	-11.1831
▁Verh	-11.1831
▁Wall	-11.1835
▁Like	-11.1836
▁entităţi	-11.184
▁envoy	-11.1841
▁disagree	-11.1842
▁asumat	-11.1846
▁Bal	-11.1849
▁primeasc	-11.1851
▁mountain	-11.1853
▁producție	-11.1854
▁estul	-11.1857
▁VOA	-11.1865
▁Barones	-11.1866
▁dark	-11.1871
▁ministr	-11.1871
▁vânzare	-11.1877
▁Bun	-11.189
▁mortal	-11.189
▁echilibr	-11.189
▁vrei	-11.1891
▁analize	-11.1894
bru	-11.1899
▁clădire	-11.1902
▁indivizi	-11.1902
▁proud	-11.1902
▁socialist	-11.1903
▁coaliţie	-11.1908
▁îmbunătăţit	-11.1914
▁masa	-11.1915
49	-11.1918
,1	-11.1929
▁organization	-11.1931
▁cool	-11.1936
▁editor	-11.1936
▁geografic	-11.1939
▁avantaje	-11.1939
▁south	-11.1939
▁îndemn	-11.194
▁ţint	-11.1941
▁priorităţi	-11.1944
▁Martin	-11.195
▁chemical	-11.1952
leagă	-11.1952
▁sută	-11.1952
▁Pu	-11.1952
▁îngrijire	-11.1954
▁multiple	-11.1958
▁Vladimir	-11.1963
▁călător	-11.1972
▁advertis	-11.1976
▁plăţi	-11.1976
▁teori	-11.1983
▁retrag	-11.1984
▁Once	-11.1987
▁flexibilit	-11.1989
▁mâncare	-11.1994
▁48	-11.1997
▁Han	-11.1998
▁furnizor	-11.2
▁Președinți	-11.2
▁discuții	-11.2
▁remarc	-11.2004
▁utilizatori	-11.2009
▁credibilit	-11.2009
▁sensul	-11.2019
▁exporturi	-11.2023
▁heat	-11.2023
ken	-11.2024
▁dimineaţ	-11.2025
▁terribl	-11.2025
▁părinţi	-11.2025
▁cultiv	-11.2026
▁preț	-11.2026
▁terminat	-11.2035
▁reporters	-11.2037
▁concentrăm	-11.2037
▁simplificare	-11.2045
▁Yemen	-11.205
▁instabil	-11.2051
▁deţin	-11.2052
fil	-11.2054
▁aparat	-11.2056
▁43	-11.2057
▁justificat	-11.206
▁title	-11.2063
▁Vor	-11.2066
▁prior	-11.2069
▁urmărit	-11.2074
▁dioxid	-11.2075
▁Sistemul	-11.2075
▁greșit	-11.2075
▁earn	-11.2076
rească	-11.2077
▁laid	-11.208
viation	-11.2083
▁solicitări	-11.2085
▁monitoriza	-11.2086
▁cunosc	-11.2087
▁cunoştinţ	-11.2087
▁collapse	-11.21
▁diversitate	-11.2101
▁beneficiar	-11.2101
▁mișc	-11.2101
▁apăra	-11.2107
▁Michael	-11.2112
▁divided	-11.2114
▁Pest	-11.2119
▁dictator	-11.212
▁Fundamental	-11.2125
▁Goran	-11.2125
▁şomajulu	-11.2131
▁reserve	-11.2132
▁realizări	-11.2135
▁disappear	-11.2137
▁întâmpl	-11.2139
89	-11.2142
▁domni	-11.2148
▁Mag	-11.2151
▁technological	-11.2153
▁confident	-11.2158
▁deciziilor	-11.2161
▁sovereignt	-11.2162
è	-11.2162
▁pacienți	-11.2162
▁coal	-11.2165
▁lapte	-11.2166
▁conversation	-11.2167
▁împărtăș	-11.2175
▁Science	-11.2175
▁Fapt	-11.2176
▁Univers	-11.2178
▁underline	-11.2179
▁undermine	-11.2179
▁servi	-11.2183
▁intelligence	-11.2188
▁insule	-11.219
▁adjunct	-11.22
▁appreciate	-11.22
▁popoare	-11.2201
▁Comisarul	-11.221
▁antreprenor	-11.2212
▁Framework	-11.2213
▁Obiectivul	-11.2213
▁născut	-11.2213
▁decisiv	-11.2219
▁800	-11.222
▁funcţionare	-11.2222
▁insurance	-11.2225
▁resign	-11.2226
▁geo	-11.2226
▁postpon	-11.2228
▁section	-11.223
▁protejă	-11.2238
▁căutare	-11.2238
▁aparţin	-11.2238
point	-11.224
▁reinforce	-11.2242
▁circulaţie	-11.2248
▁Fatmir	-11.2263
▁distinct	-11.2263
▁chesti	-11.2264
▁agenții	-11.2264
▁strength	-11.2271
▁feroviar	-11.2276
▁priorități	-11.2278
▁folosire	-11.2289
▁Solidarit	-11.2289
▁metal	-11.2299
▁absorb	-11.2302
▁pact	-11.2302
▁armonizare	-11.2306
▁definitiv	-11.231
▁lemn	-11.2312
▁Beijing	-11.2314
▁performanţ	-11.2315
▁chem	-11.2319
▁citit	-11.232
▁învăţat	-11.2323
▁Budget	-11.2327
▁italian	-11.2327
▁ice	-11.2328
▁BG	-11.2333
▁furniza	-11.2333
▁historic	-11.2335
▁Acel	-11.2337
▁contrast	-11.2339
▁Pacific	-11.234
▁supervisi	-11.2341
ET	-11.2342
▁acceptabl	-11.2343
.8	-11.2349
▁ambasador	-11.2349
▁ştiinţ	-11.235
▁Document	-11.2353
▁Assembl	-11.2353
▁flexibl	-11.2353
▁sol	-11.2358
▁submit	-11.2365
▁explanation	-11.2366
▁Armenia	-11.2366
▁acordare	-11.2366
▁posibilităţi	-11.2376
▁reporteri	-11.2379
▁tend	-11.2388
▁diversific	-11.239
▁pedeaps	-11.2391
▁regulă	-11.2391
▁protein	-11.2391
top	-11.2393
▁premiul	-11.2393
▁Mont	-11.2395
▁prisoner	-11.2397
▁garantare	-11.2398
▁FT	-11.24
venind	-11.24
▁recognis	-11.2404
▁poet	-11.2413
▁activist	-11.242
▁retain	-11.2422
▁flexibilitate	-11.2424
▁rotat	-11.2427
▁succesul	-11.2428
▁Adriatic	-11.243
▁broadcast	-11.243
▁Societ	-11.243
▁milk	-11.243
ingdom	-11.2434
▁informal	-11.244
▁Gadd	-11.2443
▁Gro	-11.2449
▁underst	-11.2454
▁întreprins	-11.2456
▁lipsit	-11.2457
RL	-11.2458
▁Ten	-11.2459
▁nice	-11.2459
▁versiune	-11.2469
▁subsidiar	-11.2473
▁afl	-11.2479
▁renew	-11.248
crises	-11.2482
▁Multe	-11.2482
▁talent	-11.2482
▁cuprins	-11.2485
how	-11.2491
▁priorităţile	-11.2493
▁socio	-11.2494
▁școal	-11.2495
▁abordez	-11.2495
▁arab	-11.2495
▁divers	-11.2495
DK	-11.2496
▁acuzaţi	-11.2498
▁înţelegere	-11.2499
▁integral	-11.2506
▁uş	-11.2508
▁substanţial	-11.2508
▁Rusiei	-11.2508
▁angaja	-11.2509
▁settlement	-11.2521
▁tensiuni	-11.2521
▁instrui	-11.2521
▁resid	-11.2522
▁matur	-11.2522
▁Congo	-11.253
▁estic	-11.2532
▁pacient	-11.2534
▁spiritul	-11.2535
▁pav	-11.2535
opoulo	-11.2535
cţioneze	-11.2546
▁prețuri	-11.2547
▁amestec	-11.2547
▁fruit	-11.2547
▁City	-11.2554
▁secur	-11.2558
▁păr	-11.2559
▁referire	-11.2563
▁park	-11.2569
▁fourth	-11.2571
▁discipline	-11.2573
▁Solicit	-11.2573
▁article	-11.2574
▁exception	-11.2576
▁jucă	-11.2583
▁adjust	-11.2586
▁molecule	-11.2586
▁coerent	-11.2586
▁smok	-11.2587
zeci	-11.2596
▁Organizați	-11.2599
▁trading	-11.2599
▁river	-11.26
▁prelua	-11.2608
▁promovez	-11.2612
▁proprietar	-11.2615
▁îmbunătăţ	-11.2616
▁acceptabil	-11.2616
▁distribut	-11.262
▁Dutch	-11.2625
▁islamic	-11.2626
▁Nigeria	-11.2639
▁physic	-11.2641
▁prosperit	-11.2646
▁sportiv	-11.2652
▁assembl	-11.2652
▁Scheff	-11.2652
▁Av	-11.2652
▁Armat	-11.2654
▁Anti	-11.2656
▁lawyer	-11.2656
▁invitat	-11.2657
▁dig	-11.2657
í	-11.2665
▁procurement	-11.2665
▁promovă	-11.2665
▁unfair	-11.2665
▁Hoop	-11.2668
▁simplify	-11.2669
▁meci	-11.2673
▁marine	-11.2675
▁diagnostic	-11.2678
▁grozav	-11.2678
▁EGF	-11.2678
▁incendi	-11.2678
▁Stefan	-11.2678
▁reliabl	-11.268
▁BEI	-11.2692
▁Protocol	-11.2692
▁sărăci	-11.2695
▁fondul	-11.2695
▁vedeţi	-11.2697
▁Suedi	-11.2698
▁dignit	-11.2707
▁95	-11.2709
▁tranzacţi	-11.2718
▁revist	-11.2722
▁driver	-11.2724
▁privinț	-11.2725
▁păt	-11.2726
▁sceptic	-11.2731
determin	-11.2739
▁convers	-11.274
▁imun	-11.2746
▁temeri	-11.2751
▁obligatoriu	-11.2751
▁realistic	-11.2755
▁legitimate	-11.276
▁reasonable	-11.277
▁Americii	-11.2771
▁prezidenţial	-11.2771
▁evolution	-11.2771
trucât	-11.2775
▁cooperate	-11.2779
▁heritage	-11.2785
▁trouble	-11.2785
▁Frank	-11.2785
ã	-11.2798
▁Stream	-11.2798
▁expir	-11.2801
ifying	-11.2802
uch	-11.2807
▁categorie	-11.2813
▁inovatoare	-11.2825
well	-11.2826
board	-11.2831
▁proceeding	-11.2834
sistat	-11.2837
▁shock	-11.2838
▁cantitate	-11.2841
▁700	-11.2841
▁realizez	-11.2841
▁stadiu	-11.2843
▁şomaj	-11.2845
▁credibilitate	-11.2846
▁location	-11.2848
▁industrii	-11.2849
▁Freedom	-11.2852
▁attach	-11.2852
efore	-11.2855
▁paşnic	-11.2865
▁nerv	-11.2871
▁absurd	-11.2879
▁fotbal	-11.2879
▁ţinut	-11.2884
▁votare	-11.2888
▁calităţi	-11.2889
urveillance	-11.2892
▁desfășura	-11.2892
▁Nikoli	-11.2893
▁Former	-11.2893
,9	-11.2894
▁preţul	-11.2898
▁Forum	-11.29
▁găsesc	-11.2906
▁interzis	-11.2907
▁sudul	-11.2907
▁Vorbi	-11.2908
▁mesajul	-11.2909
▁preluat	-11.2913
▁modernizare	-11.2913
▁facut	-11.2919
▁biseric	-11.2919
▁Jocuri	-11.2923
▁obstacol	-11.2923
▁comunist	-11.2924
▁85	-11.2932
▁Environment	-11.2933
▁pillar	-11.2933
▁Finance	-11.2935
▁donor	-11.2937
.9	-11.2938
AS	-11.2939
▁timpuri	-11.2942
▁tipul	-11.2945
▁desfăşurare	-11.2948
▁Agend	-11.296
▁întrerupt	-11.297
▁gard	-11.2971
▁galax	-11.2974
▁calculator	-11.2985
▁comparativ	-11.2987
▁bărbat	-11.2987
▁frequent	-11.2987
▁construct	-11.299
▁pain	-11.2996
▁occur	-11.2996
▁declarând	-11.3001
▁candidaţi	-11.3001
▁vizual	-11.3001
pent	-11.3002
▁Finland	-11.3002
▁rang	-11.3006
▁hop	-11.3007
naţional	-11.3007
RA	-11.3023
▁scrisoare	-11.3026
▁Their	-11.3026
▁revolt	-11.3029
▁implementat	-11.3032
work	-11.3034
▁Bab	-11.3036
▁Belgian	-11.3038
▁valuable	-11.3042
▁shot	-11.3043
▁rețele	-11.3043
▁transporturi	-11.3045
▁Thu	-11.3048
▁dans	-11.3048
NE	-11.3051
eficace	-11.3056
▁Taiwan	-11.3056
▁înțeleg	-11.306
▁premierul	-11.3063
▁Antonio	-11.307
▁discriminări	-11.307
▁prizonier	-11.307
▁dosar	-11.3073
▁Alte	-11.3074
▁Richard	-11.3083
▁indictee	-11.3086
gel	-11.3087
▁raising	-11.3089
▁democrați	-11.3094
▁inculpaţi	-11.3097
▁extension	-11.3097
▁imigraţi	-11.3097
▁straight	-11.3097
▁Coreea	-11.3098
▁acuz	-11.3098
▁deliberat	-11.3099
▁manier	-11.3102
▁slăb	-11.3111
▁blame	-11.3114
▁Traian	-11.3116
▁Food	-11.3121
▁izol	-11.3124
▁dispos	-11.3124
▁church	-11.3125
▁famous	-11.3125
▁47	-11.3127
▁Pur	-11.3134
▁Cap	-11.3135
▁Dl	-11.3137
▁mobilizare	-11.3137
▁pop	-11.3138
▁Sarkozy	-11.3139
▁evidenț	-11.3139
▁tranzit	-11.3139
▁închidere	-11.3139
▁spunând	-11.315
▁46	-11.315
▁agend	-11.3151
▁correspond	-11.3153
sphere	-11.3153
▁interveni	-11.3153
▁duti	-11.3157
BiH	-11.3162
losing	-11.3163
▁conştienţ	-11.3167
▁occidental	-11.3167
▁parţial	-11.3167
fold	-11.3179
▁distance	-11.3181
▁invers	-11.3186
▁fug	-11.3192
▁explozi	-11.3194
▁asociere	-11.3194
▁TVA	-11.3197
▁Great	-11.3201
▁Cultur	-11.3203
▁Conferinţ	-11.3208
▁deosebire	-11.3209
▁labell	-11.3211
▁sunteți	-11.3211
▁suggestion	-11.3214
▁incorporat	-11.3222
▁remarcabil	-11.3223
▁menţionez	-11.3236
▁ADN	-11.3236
▁visual	-11.3236
▁Th	-11.3238
▁instituire	-11.3239
▁categorii	-11.3245
▁precis	-11.3249
▁Dnevnik	-11.325
▁Safet	-11.325
▁Actual	-11.3251
▁competenţ	-11.3254
▁exceptional	-11.3255
▁caută	-11.3269
Ţ	-11.3277
▁relax	-11.3278
▁foame	-11.3279
▁speranț	-11.3281
▁representation	-11.3283
▁participanţi	-11.3288
▁background	-11.3292
▁Alb	-11.33
OS	-11.33
▁blocat	-11.3301
▁Situaţi	-11.3307
▁tie	-11.3307
▁Karaman	-11.3307
▁Karad	-11.3309
▁rap	-11.331
▁spot	-11.3316
▁sovereign	-11.3321
elj	-11.3321
▁problematic	-11.3321
▁gestion	-11.3327
▁economist	-11.333
▁Open	-11.333
▁conțin	-11.3333
ides	-11.3334
▁efortul	-11.3335
▁Will	-11.3336
▁obținut	-11.335
▁Guant	-11.3355
▁Hashim	-11.3363
▁Lituani	-11.3363
▁cunoaște	-11.3363
▁phenomeno	-11.3363
▁Asociaţi	-11.3363
▁turistic	-11.3364
▁Malt	-11.3371
▁bann	-11.3376
▁Război	-11.3377
▁semnare	-11.338
▁dependenc	-11.3381
AK	-11.339
▁Naţiuni	-11.3392
▁theory	-11.3402
▁song	-11.3405
▁Rezultat	-11.3406
▁delicat	-11.3408
script	-11.3416
▁intențion	-11.342
▁passport	-11.3422
▁jucător	-11.3423
▁Branko	-11.3424
▁commander	-11.3428
▁demonstration	-11.3429
▁Suprem	-11.3434
▁district	-11.3434
▁Ric	-11.3436
▁Planul	-11.3445
▁evolv	-11.3448
▁square	-11.3448
▁dobând	-11.3449
TO	-11.3453
▁trimit	-11.346
▁viol	-11.346
♪	-11.3463
▁negocia	-11.3468
▁corpul	-11.3468
▁Natas	-11.3478
▁veche	-11.3478
▁arhitectur	-11.3487
▁emoți	-11.3489
▁austerit	-11.3489
▁thorough	-11.3491
▁monument	-11.3491
▁Genev	-11.3492
▁scoate	-11.3492
▁deţinut	-11.3494
▁persoan	-11.3495
▁supervis	-11.3498
▁parcurs	-11.3499
▁emotion	-11.3503
▁delegat	-11.3505
▁breach	-11.3506
▁195	-11.3517
▁drumuri	-11.3517
▁conturi	-11.352
▁grateful	-11.352
▁professor	-11.352
▁instanţ	-11.3525
▁ameninţări	-11.3526
▁outlin	-11.3531
▁patrimoni	-11.3535
▁Kur	-11.3538
▁serioas	-11.3539
▁preocupare	-11.3543
▁aflu	-11.355
▁reglementa	-11.3553
SF	-11.3559
▁cuprinzătoare	-11.3563
▁excepți	-11.3563
▁acquir	-11.3563
aptă	-11.3569
▁educaţi	-11.357
60	-11.3571
▁avansat	-11.3574
▁tackl	-11.3577
č	-11.3578
▁sugesti	-11.3578
▁chairman	-11.358
▁găsire	-11.3581
▁avion	-11.3582
▁exploata	-11.3583
▁frumos	-11.3592
▁compensation	-11.3594
▁dependenţ	-11.3597
EF	-11.3603
▁Conference	-11.3607
▁atmosphere	-11.3607
▁cameră	-11.3609
▁îndepărt	-11.3613
▁cancel	-11.3614
▁negociat	-11.3618
▁Iugoslav	-11.3621
▁Occident	-11.3621
▁Bill	-11.3622
▁îndepărtat	-11.363
▁revers	-11.363
▁elevi	-11.3636
▁reamintes	-11.3636
▁investit	-11.364
▁pregăt	-11.3641
▁weight	-11.3642
▁destin	-11.3644
ologist	-11.3646
▁behaviour	-11.3651
▁homosexual	-11.3651
▁creierului	-11.3662
▁tăi	-11.3662
▁recupera	-11.3665
▁minut	-11.3671
▁pilon	-11.3675
▁opoziţi	-11.368
▁football	-11.368
▁miliard	-11.3692
▁suspendat	-11.3693
proximativ	-11.3697
▁inima	-11.3697
off	-11.3699
DC	-11.3708
▁Adjustment	-11.3709
▁Evenimentul	-11.3709
▁eastern	-11.3709
▁dispărut	-11.371
▁Hasan	-11.3711
▁credibil	-11.3718
▁anticip	-11.3719
▁extremist	-11.3722
▁brut	-11.3722
▁controversat	-11.3724
▁enforc	-11.3724
▁inequalit	-11.3724
▁Yeah	-11.3724
erson	-11.3724
▁lichid	-11.3724
▁calculat	-11.3729
▁educați	-11.3729
▁aşteptat	-11.373
▁Ambassador	-11.3739
▁oportunități	-11.3739
▁stance	-11.3741
fax	-11.3744
▁Jeremic	-11.3753
▁cutremur	-11.3753
▁robust	-11.3753
▁stipulat	-11.3753
▁fusese	-11.3753
▁dictat	-11.376
▁Pace	-11.376
▁inevitabil	-11.3768
▁pil	-11.377
▁gam	-11.3773
▁distrugere	-11.3776
▁ocupări	-11.3782
▁earthquake	-11.3783
▁radioactiv	-11.3783
▁vândut	-11.3783
▁nebun	-11.3786
▁remedi	-11.3788
▁institut	-11.3792
▁lovitur	-11.3794
▁funcționare	-11.3795
▁bird	-11.3799
CR	-11.3801
▁Singur	-11.3803
▁genom	-11.3803
▁hopeful	-11.3808
▁întârziere	-11.3812
▁blind	-11.3813
▁răspundere	-11.3814
SFOR	-11.3827
▁entuziasm	-11.3827
▁restricţii	-11.3827
▁plecat	-11.3836
▁Hamas	-11.3842
▁paralel	-11.3844
îţi	-11.3853
▁eliberare	-11.3854
▁tender	-11.3856
▁Federation	-11.3857
▁finanţat	-11.3857
▁finger	-11.3858
▁Milora	-11.386
▁wif	-11.3861
▁Academ	-11.3872
▁worri	-11.3872
▁Scot	-11.3872
▁abordă	-11.3873
▁plâng	-11.3874
▁stil	-11.3877
▁pui	-11.3879
▁99	-11.3885
▁constat	-11.3893
▁analizat	-11.3893
▁Star	-11.3902
▁viză	-11.3912
▁imperativ	-11.3917
▁Investiţii	-11.3917
▁ruşi	-11.3917
responsabilităţi	-11.3928
▁copac	-11.393
▁consolidez	-11.3932
▁traduc	-11.3932
▁neglij	-11.3932
▁stimulente	-11.3932
▁confront	-11.3932
▁Video	-11.3946
▁protejeze	-11.3947
▁deteriorat	-11.3947
▁Slovaci	-11.3962
▁Susţin	-11.3962
▁aprovizionare	-11.3962
▁Qaed	-11.3965
▁evalua	-11.3971
▁municipalităţi	-11.3975
▁tradiţi	-11.3977
▁baby	-11.3979
▁lent	-11.3983
▁expense	-11.3992
▁Femei	-11.3992
▁fondat	-11.3995
▁194	-11.4001
maker	-11.4001
▁realist	-11.4004
▁beneficiaz	-11.4006
▁council	-11.4007
▁approximate	-11.4007
▁regretabil	-11.4008
▁reconstruction	-11.4009
▁consumator	-11.4012
▁Agenți	-11.4022
▁await	-11.4022
▁estimeaz	-11.4022
▁colectare	-11.4028
▁Europol	-11.403
▁turişti	-11.4031
▁finanţări	-11.4037
▁cartier	-11.4037
▁încalc	-11.4039
▁austeritate	-11.4043
▁limbaj	-11.4044
▁aşteptări	-11.4047
▁uș	-11.4052
▁stoc	-11.4052
▁gratuit	-11.4052
▁naştere	-11.4052
▁Nimeni	-11.4053
▁ecran	-11.4053
▁Tru	-11.4056
▁stabilizare	-11.4058
▁iron	-11.4061
▁demn	-11.4061
▁garanţii	-11.4068
▁implice	-11.4068
fida	-11.4075
▁propriu	-11.4077
▁rescue	-11.408
▁conscious	-11.4083
▁subsequent	-11.4083
▁creştin	-11.4083
▁email	-11.4083
▁licitaţi	-11.4083
▁electro	-11.4086
tiny	-11.4095
▁utilizeaz	-11.4102
▁hole	-11.4103
nlargement	-11.4104
▁proceed	-11.4104
▁ocupat	-11.4104
▁HDZ	-11.4113
▁Procedure	-11.4113
▁discuție	-11.4113
▁wild	-11.4114
▁bazez	-11.4115
▁rail	-11.4116
cup	-11.4121
▁acoperă	-11.4129
▁asemănăto	-11.4129
▁povești	-11.4129
▁guess	-11.4129
▁schimburi	-11.4131
▁determină	-11.4135
▁manufacturer	-11.4137
▁burn	-11.4138
▁travell	-11.4138
▁Instrument	-11.4144
▁Produc	-11.4144
▁dovedi	-11.4145
▁restabili	-11.4146
▁consilier	-11.4153
▁Oland	-11.4154
▁grip	-11.4156
▁urgenț	-11.4157
▁recall	-11.4159
▁resistan	-11.416
▁trib	-11.4161
▁enabl	-11.4163
▁complaint	-11.4163
▁Grow	-11.4164
▁clon	-11.417
▁Totodat	-11.4173
▁Wal	-11.4175
▁Slovakia	-11.4186
▁Jean	-11.4189
▁Sahara	-11.419
▁celălalt	-11.4205
▁spectacol	-11.4205
▁ascuns	-11.4206
▁MP	-11.4207
central	-11.4207
▁unemploy	-11.421
▁doreșt	-11.4211
▁blow	-11.4212
▁Thre	-11.422
▁kurd	-11.4221
▁modalităţi	-11.4221
▁scad	-11.4225
▁transferr	-11.4225
▁determinare	-11.4226
▁bond	-11.4234
▁inflation	-11.4236
▁subsidies	-11.4236
▁rezult	-11.424
▁eligibil	-11.4242
▁invitaţi	-11.4249
▁Real	-11.425
▁ulterioar	-11.4252
▁următor	-11.4258
▁dezbătut	-11.4267
▁învăţământ	-11.4267
▁Haide	-11.4268
▁presentation	-11.4273
▁preferat	-11.4276
▁arise	-11.4282
▁recession	-11.4283
▁apparent	-11.4298
▁opposite	-11.4301
▁dropp	-11.4304
▁entitl	-11.4305
▁conving	-11.4308
▁plăcut	-11.4314
▁Four	-11.4315
▁controversial	-11.4315
▁paşi	-11.4315
▁Mulţumesc	-11.432
▁refugiați	-11.433
▁brevet	-11.433
▁guard	-11.433
▁îngrijorat	-11.433
ological	-11.4336
▁season	-11.4336
▁Look	-11.4337
▁Iranian	-11.4339
▁camere	-11.434
▁educational	-11.4341
▁researcher	-11.4342
▁economisi	-11.4345
▁comit	-11.4349
▁oferind	-11.435
▁privesc	-11.435
▁undertake	-11.4368
▁dezavantaj	-11.4377
▁Idee	-11.438
▁forestier	-11.438
▁agent	-11.438
▁Javi	-11.4387
▁fiecărei	-11.4392
▁înfiinţ	-11.4395
▁administrativ	-11.4396
▁moderat	-11.4402
▁prosperitate	-11.4402
▁spațiul	-11.4404
▁sistematic	-11.4408
▁prealabil	-11.4408
▁umbr	-11.4413
▁provincia	-11.4426
▁intensive	-11.443
▁impas	-11.4437
▁promoveaz	-11.4439
▁restructuring	-11.4439
▁înființ	-11.4455
▁collaboration	-11.446
▁tonne	-11.4463
▁biroul	-11.4463
▁exceed	-11.4472
▁interimar	-11.4479
▁hart	-11.4484
▁Maybe	-11.4485
▁rată	-11.4486
▁mișcare	-11.4486
destruction	-11.4487
▁Again	-11.4487
▁sleep	-11.4487
▁inițial	-11.4487
▁communist	-11.4488
▁controvers	-11.4502
▁disadvantage	-11.4503
▁unlike	-11.4503
▁Among	-11.4503
▁client	-11.4503
▁spring	-11.4504
▁atrocit	-11.4504
▁Biroul	-11.4505
▁Cultural	-11.4506
▁dup	-11.451
▁consist	-11.4516
▁prohibit	-11.4519
▁Stabilis	-11.452
▁mobilis	-11.4521
▁resum	-11.4523
▁adăuga	-11.4525
▁rebel	-11.4533
▁pesticide	-11.4535
▁stakeholder	-11.4535
▁mașină	-11.4535
▁brother	-11.4535
▁pragmatic	-11.4535
▁Papa	-11.4536
▁transformare	-11.4537
▁command	-11.4542
▁geographical	-11.4551
▁opţiune	-11.4551
▁slujb	-11.4551
▁vessel	-11.4551
▁weekend	-11.4551
▁identificare	-11.4554
▁settl	-11.4555
▁percentage	-11.4556
▁revizuit	-11.4556
akis	-11.4558
▁roll	-11.4558
▁uriaș	-11.4567
▁optimism	-11.4571
▁uşoar	-11.4573
▁tatăl	-11.4573
TP	-11.4575
▁obiectul	-11.4578
▁polonez	-11.4583
▁drastic	-11.4583
▁rival	-11.4583
▁insect	-11.4584
▁proof	-11.4585
▁Home	-11.4592
▁suc	-11.4595
▁reintegr	-11.4599
▁Department	-11.4599
▁sală	-11.46
▁celorlalt	-11.4602
▁Ramadan	-11.4603
▁dezechilibr	-11.4615
▁faliment	-11.4615
▁mașini	-11.4615
▁1,000	-11.4619
▁predat	-11.462
eaza	-11.4627
▁neapărat	-11.4631
▁căldur	-11.4634
▁automatic	-11.4634
▁câmp	-11.4647
▁Ştiinţ	-11.4647
▁Dun	-11.4655
▁Music	-11.4669
▁demers	-11.4671
+	-11.4679
▁Parvanov	-11.4679
▁părinți	-11.4679
▁breath	-11.468
▁architecture	-11.468
▁conclud	-11.468
incredibly	-11.4695
▁display	-11.4695
▁plăcere	-11.4695
▁turceşti	-11.4698
▁cutting	-11.4706
▁prioritar	-11.4711
▁Dimitri	-11.4712
▁restructurare	-11.4712
▁speculation	-11.4712
▁povar	-11.4714
▁significan	-11.4716
▁încurajat	-11.4717
▁sediul	-11.4722
▁depind	-11.4725
▁consecinț	-11.4725
▁treacă	-11.4728
▁olandez	-11.4729
▁appointment	-11.4729
▁suit	-11.473
▁indica	-11.474
▁Doha	-11.4741
▁List	-11.4743
▁volatil	-11.4744
▁preconizeaz	-11.4744
▁pregătiţi	-11.4747
▁plăt	-11.4754
▁religie	-11.476
▁drink	-11.476
▁brand	-11.4761
▁Carta	-11.4769
▁Departamentul	-11.4777
▁emigr	-11.4777
▁ascultat	-11.4784
▁ambiţioas	-11.4793
▁întregime	-11.4795
▁Odat	-11.4801
▁divizat	-11.4802
▁dorinț	-11.4805
▁preia	-11.4809
▁conștient	-11.4809
▁îndelungat	-11.4809
▁afacere	-11.4809
▁luck	-11.481
▁încurajez	-11.4812
▁sesiuni	-11.4813
▁Beta	-11.4814
▁închei	-11.482
▁scump	-11.4826
▁artistic	-11.4833
▁supraviețui	-11.4842
▁plăți	-11.4842
▁utilizez	-11.4843
▁beneficiez	-11.4846
▁aprecie	-11.4848
▁purta	-11.4855
▁jurnalist	-11.4855
▁System	-11.4859
▁suveranitate	-11.4859
▁Edi	-11.4862
▁deschid	-11.4864
▁mulţime	-11.4865
▁condiți	-11.4869
▁linia	-11.4874
▁atlantic	-11.4875
▁sănătoas	-11.4875
▁Manuel	-11.4875
▁stabilităţi	-11.4881
▁întrerup	-11.4883
▁îmbătrân	-11.4892
▁ratification	-11.4896
▁ciprioţi	-11.4908
▁exclusion	-11.4908
▁expansion	-11.4908
▁renunț	-11.4908
▁autobuz	-11.4908
▁comparaţie	-11.4909
▁universităţi	-11.4919
▁Moscow	-11.4925
▁hârtie	-11.4925
▁satisfie	-11.4925
▁Street	-11.4925
▁systematic	-11.4925
▁spokesm	-11.4926
▁iniţiat	-11.4932
▁beneficiul	-11.4934
▁Crăciun	-11.4941
▁coincid	-11.4941
▁recognize	-11.4941
▁length	-11.4941
▁punish	-11.4943
▁culoare	-11.4948
▁conservare	-11.4954
▁profound	-11.4958
▁încercând	-11.4972
▁reconcil	-11.4974
▁Lege	-11.4989
▁Twitter	-11.4991
▁mathematic	-11.4991
▁fotografii	-11.4991
▁creștin	-11.4991
▁Estonia	-11.4991
▁interdicţi	-11.4992
▁Întrebare	-11.4992
▁master	-11.4999
▁muzică	-11.5008
▁Croați	-11.5008
HP	-11.5012
▁etichetare	-11.5019
▁Technolog	-11.5025
▁împărţi	-11.5025
▁Cooperati	-11.5025
▁superior	-11.5026
▁aplicabil	-11.5039
▁Independent	-11.5041
▁closure	-11.5041
▁Federaţi	-11.5041
▁glob	-11.5044
▁concurenţei	-11.5046
olit	-11.5048
▁întorc	-11.5054
CTA	-11.5057
▁divide	-11.5058
▁intermediar	-11.5058
▁fruct	-11.5058
▁detention	-11.5058
▁mărime	-11.5061
▁admis	-11.5062
▁urme	-11.5063
▁bag	-11.5064
prez	-11.5064
▁sight	-11.5067
▁adăpost	-11.5075
▁college	-11.5075
▁insuficient	-11.5075
▁sănătăți	-11.5075
▁atribui	-11.5075
▁ALE	-11.5075
▁comunicat	-11.5078
▁California	-11.5092
▁Miniştri	-11.5092
▁Probabil	-11.5092
▁ancient	-11.5092
▁wake	-11.5092
▁remarkabl	-11.5099
▁extrăd	-11.5109
▁iugoslav	-11.5125
▁judgment	-11.5125
miţând	-11.5126
▁instruct	-11.5126
▁funcţional	-11.5127
▁Information	-11.5142
▁cunoștinț	-11.5142
▁încălcat	-11.5142
▁Lajc	-11.5143
▁suitabl	-11.5143
▁Game	-11.5143
▁litera	-11.5144
▁conținut	-11.5146
▁jump	-11.5146
AC	-11.5152
▁înregistrare	-11.5153
▁deşeuri	-11.516
▁winner	-11.5163
▁employer	-11.5166
▁updat	-11.5173
▁insult	-11.5175
▁Gazprom	-11.5176
▁oricărei	-11.5176
▁suprem	-11.5176
▁Small	-11.5176
▁Lanka	-11.5176
▁operaţional	-11.5177
▁promisiuni	-11.5179
▁Constitutional	-11.5193
▁abolish	-11.5193
▁ediţie	-11.5193
▁Atât	-11.5193
▁Stipe	-11.5194
▁invitation	-11.5205
▁zbor	-11.5208
▁șomaj	-11.521
▁Globalis	-11.522
what	-11.5222
▁ameninţ	-11.5223
▁diminua	-11.5227
▁Interior	-11.5228
▁recomandare	-11.5235
▁adaptat	-11.5243
▁Structural	-11.5245
▁antibiotic	-11.5245
▁reaminti	-11.5245
▁organic	-11.5261
▁fresh	-11.5262
▁Lideri	-11.5262
▁rezum	-11.5262
▁segment	-11.5262
▁angajare	-11.5265
40	-11.5273
.00	-11.5274
▁Zimbabwe	-11.5279
▁procurori	-11.5279
▁demografic	-11.5279
▁Personal	-11.5279
▁dozen	-11.5279
▁deceniu	-11.5285
▁oricare	-11.5285
▁răspândit	-11.5286
▁avert	-11.5289
spread	-11.5294
▁strat	-11.5296
▁Alexander	-11.5296
▁argu	-11.5296
▁Polish	-11.5297
▁pregătiri	-11.5305
▁îndoi	-11.5305
▁subsidiarit	-11.5308
▁mărfuri	-11.5313
▁ingredient	-11.5313
▁guilt	-11.5313
▁window	-11.5314
▁adaptare	-11.5315
▁Auto	-11.5324
▁Christmas	-11.533
▁Latvia	-11.533
▁Ţăril	-11.5332
▁transit	-11.5332
▁urc	-11.5345
ó	-11.5348
▁typical	-11.5348
▁liquid	-11.5348
▁apărea	-11.5348
witzer	-11.5349
▁albastru	-11.5355
gging	-11.536
▁finalizare	-11.5362
▁planificare	-11.5362
▁dificultăți	-11.5365
▁intelligent	-11.5365
▁demographic	-11.5365
▁1980	-11.5368
▁locat	-11.5376
▁Ştiu	-11.5379
▁Kenya	-11.5382
▁opţiuni	-11.5382
▁necessar	-11.5399
▁Particip	-11.54
▁grafic	-11.5401
INA	-11.5402
▁Barni	-11.5415
▁intensificare	-11.5415
▁recunoasc	-11.5417
▁reconciliation	-11.5417
▁decrease	-11.5417
▁analyse	-11.5418
▁relați	-11.5421
▁întâmpin	-11.5422
▁integrit	-11.5423
▁sancțiuni	-11.5435
▁privilege	-11.5435
▁Buckov	-11.5437
▁alocare	-11.5439
▁commit	-11.5439
▁writer	-11.5441
▁adunat	-11.5443
▁căută	-11.5447
▁reconstrucţi	-11.5452
▁kick	-11.5452
▁unanimous	-11.5453
▁defeat	-11.5458
▁legătur	-11.5463
RI	-11.5466
▁curţi	-11.5467
▁mâini	-11.5468
▁neutral	-11.5469
▁structură	-11.5469
▁hydro	-11.5469
▁amânat	-11.5472
▁1996	-11.5477
▁railway	-11.5483
▁încurajare	-11.5484
▁cetăţean	-11.5487
▁rost	-11.5488
▁admir	-11.549
▁stimulare	-11.5492
▁disabilit	-11.5499
▁gândire	-11.5502
▁patrulea	-11.5504
▁Education	-11.5504
▁împărtăşi	-11.5504
▁greenhouse	-11.5505
▁identic	-11.5505
▁extradit	-11.5505
▁comanda	-11.5505
▁urmez	-11.5507
▁Post	-11.5508
▁clarify	-11.5519
▁Comerţ	-11.5522
▁stepp	-11.5523
▁Steve	-11.5527
▁voci	-11.5527
▁generaţii	-11.5533
▁preşedinţi	-11.5534
▁Drept	-11.5537
▁Numărul	-11.554
ESCO	-11.5558
▁Statistic	-11.5559
▁imbalance	-11.5575
▁Moscov	-11.5575
▁privacy	-11.5575
▁passion	-11.5578
▁destination	-11.5582
▁museum	-11.5593
▁religioasă	-11.5593
▁glad	-11.5593
▁Filip	-11.5593
▁decurs	-11.5593
▁vorbeşt	-11.5599
ificări	-11.56
OK	-11.5604
▁coaliţi	-11.5605
▁necessit	-11.561
▁SAA	-11.561
▁James	-11.5611
▁cooperez	-11.5623
▁depăş	-11.5626
▁halt	-11.5626
▁champion	-11.5628
▁shut	-11.5629
IM	-11.5632
▁corupţi	-11.5637
▁sublinia	-11.5637
▁circumstanţe	-11.5646
▁shoot	-11.5646
▁ratificare	-11.5648
▁indictment	-11.5648
▁investeasc	-11.5659
▁avocat	-11.5664
▁tărie	-11.5666
,500	-11.5666
▁discursuri	-11.5681
▁bătrân	-11.5682
▁ecosystem	-11.5682
PII	-11.5684
▁Oficiul	-11.5686
▁operaţiune	-11.57
▁înlătur	-11.57
▁Muzic	-11.5702
▁artişti	-11.5703
▁supervisor	-11.5708
▁Banja	-11.571
▁absolv	-11.5717
▁Clinton	-11.5717
▁Numa	-11.574
▁Premiul	-11.5742
▁muncitori	-11.5746
▁implication	-11.5752
▁vorbind	-11.5752
▁trigger	-11.5753
▁garanteaz	-11.5753
▁rational	-11.5754
▁străin	-11.5754
▁tariff	-11.5754
▁39	-11.5756
▁căsători	-11.5756
▁Olimpic	-11.5771
▁extensive	-11.5771
▁ciclu	-11.5772
▁Două	-11.5773
▁Siria	-11.5779
far	-11.5779
▁simplification	-11.5782
▁advice	-11.579
▁tentativ	-11.579
▁Albert	-11.579
▁datoreaz	-11.5793
▁impression	-11.5794
▁Jesse	-11.5796
nterioară	-11.5796
▁Political	-11.5801
▁engine	-11.5804
▁înconjurător	-11.5808
▁ecosistem	-11.5808
▁SDS	-11.5809
▁picior	-11.5809
▁Ivanov	-11.5814
▁retragere	-11.5814
▁visibl	-11.5821
▁trist	-11.5822
▁accurate	-11.5826
▁concentreaz	-11.5826
▁Premierul	-11.5826
▁fugitive	-11.5826
▁Program	-11.5826
treaba	-11.5827
clav	-11.5827
▁tranziți	-11.5844
▁aniversare	-11.5844
▁calendar	-11.5844
▁hum	-11.5855
▁coherent	-11.5862
▁peacekeep	-11.5862
▁manual	-11.5863
▁capabilit	-11.5863
scenă	-11.5874
▁cărți	-11.5876
sprezece	-11.588
▁Telekom	-11.588
▁ambassador	-11.588
▁departament	-11.588
▁parallel	-11.588
▁absence	-11.588
▁toamn	-11.5883
▁piese	-11.5886
ţinuţi	-11.5887
▁tren	-11.5888
▁literatur	-11.5891
▁Comunităţi	-11.5893
▁binevenit	-11.5899
▁creativit	-11.5906
▁lăsă	-11.5911
▁holiday	-11.5917
▁legislatur	-11.5917
▁multianual	-11.5917
▁philosoph	-11.5917
▁Daniel	-11.5917
▁Monitor	-11.5917
▁compatibil	-11.5925
▁elite	-11.5925
ception	-11.5934
▁îndrăzn	-11.5935
▁dimineaț	-11.5935
▁Christof	-11.5935
ERD	-11.5938
CO	-11.5942
▁biometric	-11.5953
▁compasiune	-11.5953
graphic	-11.5954
▁neighbourhood	-11.5955
▁autovehicule	-11.5972
▁inevitabl	-11.5972
▁Schimb	-11.599
▁Sport	-11.6002
CP	-11.6002
▁scăpa	-11.6009
▁submina	-11.601
▁clasific	-11.601
▁entertain	-11.6011
▁capitalism	-11.6011
▁administrare	-11.6016
▁fotografie	-11.6027
▁quantit	-11.6027
▁secunde	-11.6027
ogether	-11.6036
▁revoluți	-11.6046
▁indigen	-11.6046
▁pescari	-11.6046
▁consent	-11.6047
▁prize	-11.6047
▁Pav	-11.6058
▁îndreptat	-11.606
▁procurorul	-11.6064
▁tranzacți	-11.6064
▁provoac	-11.6064
▁sindicat	-11.6064
▁lactate	-11.6065
▁treime	-11.6066
▁izolat	-11.6066
▁DS	-11.6075
▁sharp	-11.6079
▁CNN	-11.6083
▁bureaucrac	-11.6083
▁declanş	-11.6083
▁pretext	-11.6083
▁fertil	-11.6083
▁SIS	-11.6091
▁reward	-11.6092
▁donat	-11.6092
▁combinat	-11.6093
▁victorie	-11.6099
▁independenț	-11.6101
▁încrederi	-11.6101
▁ameliora	-11.6101
▁daughter	-11.6101
▁eurozone	-11.6101
▁Crime	-11.6102
MO	-11.6104
▁destinaţi	-11.6116
▁interpretation	-11.6119
▁Journal	-11.612
▁pluralism	-11.612
▁rezervă	-11.612
▁reînnoi	-11.612
▁Year	-11.6122
▁psycho	-11.6123
▁referinţ	-11.6125
▁intervene	-11.6125
▁reactor	-11.6126
▁Barcelon	-11.6139
▁dumnea	-11.6139
▁Ţar	-11.6139
▁cloth	-11.6139
▁Port	-11.6149
▁Borisov	-11.6154
▁Cetăţeni	-11.6157
▁teatru	-11.6158
▁mobiliz	-11.6159
▁telecomunicaţii	-11.6176
▁Foundation	-11.6176
▁posturi	-11.6176
▁numire	-11.6178
▁Laura	-11.6178
▁Națiuni	-11.6178
▁arbitrar	-11.6187
▁vorbeasc	-11.6194
▁Ljub	-11.6196
▁hrăn	-11.6214
▁shame	-11.6215
▁Jel	-11.6231
▁dairy	-11.6233
▁polar	-11.6241
▁Miroslav	-11.6252
▁suspecţi	-11.6252
▁întârzieri	-11.6252
▁vânzări	-11.6271
▁șapte	-11.6271
▁branch	-11.6271
▁erori	-11.6275
▁Timp	-11.6278
▁Lj	-11.6285
▁Asociere	-11.629
▁distribuţi	-11.629
▁telefoane	-11.629
▁swift	-11.629
▁abordeaz	-11.629
▁urmăreşt	-11.6291
▁engagement	-11.6295
▁probe	-11.6301
▁VM	-11.6304
▁inventat	-11.6308
▁whil	-11.6309
▁descurc	-11.6309
ocratic	-11.6309
▁characteristic	-11.631
▁Paper	-11.6317
▁Stabilizare	-11.6328
▁split	-11.6331
▁personne	-11.6334
▁Madeira	-11.6347
▁veteran	-11.6347
▁pedepsi	-11.6347
▁crowd	-11.6347
▁respir	-11.6347
▁analişti	-11.6348
▁abuzuri	-11.6349
▁diplomaţi	-11.6352
▁Mobil	-11.6362
UE	-11.6365
▁simț	-11.6365
▁unprecedented	-11.6366
▁cloud	-11.6366
▁maşină	-11.6366
▁glass	-11.6366
▁Internal	-11.6366
▁Franț	-11.6367
▁regrettabl	-11.6368
▁defect	-11.6368
Z	-11.6368
produc	-11.6376
▁skin	-11.6385
▁Uganda	-11.6385
▁satellite	-11.6385
▁reprezentanți	-11.6386
▁craz	-11.6386
▁recunoscător	-11.6386
▁neagr	-11.6388
▁greceşt	-11.6395
▁graniț	-11.6404
▁indict	-11.6405
▁circuit	-11.6405
▁banane	-11.6405
▁Serge	-11.6405
▁includere	-11.6406
▁indication	-11.6413
▁boat	-11.6413
▁orientare	-11.6423
▁qualifie	-11.6423
▁department	-11.6424
▁Vuj	-11.6424
▁Joint	-11.6424
▁categoric	-11.6425
▁lawmaker	-11.6426
▁mobilisation	-11.6432
▁oricu	-11.6437
▁cărbune	-11.6443
▁izbucn	-11.6443
▁reconciliere	-11.6443
▁Copii	-11.6443
▁aplicări	-11.6448
▁Touris	-11.6454
view	-11.646
▁consolidă	-11.646
▁Official	-11.6462
▁echivalent	-11.6462
▁infracţiuni	-11.6462
tangible	-11.6462
▁Apără	-11.6462
▁pack	-11.6464
▁inspirat	-11.6466
vanovic	-11.6467
▁Maria	-11.6476
▁Tala	-11.648
▁Consumer	-11.6481
▁sloven	-11.6481
▁Trajkov	-11.6481
▁tendinț	-11.6482
▁fascinat	-11.6482
▁novel	-11.6483
▁răspând	-11.6488
▁collaborat	-11.6495
dimensional	-11.65
▁dobânzi	-11.652
▁massacre	-11.652
▁strâng	-11.652
▁electorat	-11.6521
▁migraţi	-11.6522
▁Golf	-11.6522
▁exercițiul	-11.6523
▁emotional	-11.6524
▁oportun	-11.6524
▁curb	-11.6533
rundă	-11.6534
▁observation	-11.6536
NR	-11.6537
▁Current	-11.654
▁Africi	-11.654
▁rețea	-11.6542
▁esenţ	-11.6553
▁engag	-11.6555
▁revoluţi	-11.6559
▁subvenţii	-11.6559
▁remarcat	-11.6573
▁Dublin	-11.6579
▁indispensab	-11.6579
▁psiho	-11.6583
▁manipul	-11.6583
▁foloseşt	-11.6584
PR	-11.6586
▁Fiind	-11.6589
▁accessibl	-11.6593
▁stabileşt	-11.6594
▁daune	-11.6595
ultiannual	-11.6598
▁Dimitrov	-11.6598
▁alcătui	-11.6598
▁eşuat	-11.6598
▁muntenegrean	-11.6598
▁poveşti	-11.6598
▁evacu	-11.6598
▁demnitate	-11.6607
▁mişcări	-11.6607
▁aruncat	-11.6614
▁rough	-11.6614
▁Rezoluţi	-11.6618
▁compassion	-11.6618
▁secundar	-11.6618
▁justiție	-11.6618
▁educaţional	-11.6618
▁giant	-11.6619
▁sezon	-11.6619
▁citizenship	-11.6624
▁sublinie	-11.6629
▁privitor	-11.6638
▁Plus	-11.6639
▁arrive	-11.664
▁extinderi	-11.664
▁complain	-11.6652
▁păstrez	-11.6657
▁stagn	-11.6657
▁amânare	-11.6661
▁Museum	-11.6677
▁scenario	-11.6677
▁piatr	-11.6677
▁intenţii	-11.6685
▁birocraţi	-11.6697
▁dragoste	-11.6697
▁undoubted	-11.6697
▁exciting	-11.6697
▁scuze	-11.6697
▁speculativ	-11.6697
▁spiritual	-11.6697
▁folos	-11.67
▁bineînțeles	-11.6716
▁președinți	-11.6716
▁technique	-11.6716
▁White	-11.6716
▁Rama	-11.6725
▁Unde	-11.673
68	-11.6732
▁66	-11.6735
▁unnecessar	-11.6736
▁banana	-11.6738
▁facilitare	-11.6739
▁punishment	-11.6739
▁distort	-11.674
▁Mostar	-11.6743
▁Sav	-11.6756
▁scaun	-11.6756
▁precizat	-11.6756
▁detaliu	-11.6756
▁contractual	-11.6757
▁Luk	-11.6759
▁attractive	-11.6761
▁criteri	-11.6774
▁difuz	-11.6776
▁Left	-11.6782
▁pierd	-11.6784
▁unanim	-11.6785
▁congratulat	-11.6785
▁Orthodox	-11.6796
▁confiscat	-11.6796
▁Imagine	-11.6796
▁Rugov	-11.6796
▁existenț	-11.6799
▁weaken	-11.6806
▁producător	-11.6808
▁fugar	-11.6813
▁Şeful	-11.6816
▁Acești	-11.6816
▁Northern	-11.6816
▁depth	-11.682
deosebi	-11.6834
▁accompani	-11.6836
▁threshold	-11.6836
▁asociaţi	-11.6837
▁construiasc	-11.6841
▁Extindere	-11.6856
▁nerăbdare	-11.6856
▁dinainte	-11.6856
OL	-11.6864
▁opereaz	-11.6871
▁sensibl	-11.6882
▁extract	-11.6887
▁Count	-11.6894
▁Abou	-11.6895
▁Through	-11.6896
▁disrupt	-11.6896
▁husband	-11.6896
▁nedrept	-11.6896
▁periculos	-11.6896
▁surplus	-11.6896
▁prezenț	-11.6896
▁graduate	-11.6897
▁luând	-11.6897
▁ambigu	-11.69
▁Trei	-11.6901
▁chip	-11.6903
RC	-11.6904
▁equivalent	-11.6917
▁slide	-11.6917
OC	-11.6917
▁forgot	-11.6919
▁încercări	-11.6928
▁grab	-11.6931
▁extind	-11.6934
▁rezerva	-11.6937
▁1.5	-11.6937
IDA	-11.6944
▁ecolog	-11.6946
▁gravit	-11.6953
▁Portugues	-11.6957
mplă	-11.697
▁ratificat	-11.6974
▁undertaking	-11.6977
▁Vrem	-11.6979
▁consultări	-11.6979
▁Jurnal	-11.6984
▁fifth	-11.6998
▁Observ	-11.7001
▁disponibilitate	-11.7006
▁hack	-11.7013
▁Evident	-11.7018
▁household	-11.7018
▁recesiune	-11.7018
▁mărturi	-11.7018
▁announcement	-11.7019
▁păsări	-11.7019
▁59	-11.7022
▁eroare	-11.7023
▁lansa	-11.7025
▁dăun	-11.7028
▁Rome	-11.703
▁analizez	-11.7033
▁consultare	-11.7036
▁insufficient	-11.7039
▁intitulat	-11.7039
▁menţioneaz	-11.7039
▁reprezentând	-11.7039
▁suprafaţ	-11.7039
▁Putin	-11.7039
▁escape	-11.7039
▁Local	-11.7041
▁disputa	-11.7059
▁strădui	-11.7059
▁redundant	-11.7059
▁prosecution	-11.7063
▁coach	-11.7079
▁adverse	-11.708
▁povesti	-11.708
▁uimitor	-11.708
▁tripartit	-11.708
▁exterior	-11.708
▁amploare	-11.708
▁aspiration	-11.7081
▁şoc	-11.7087
▁profituri	-11.7092
▁EUFOR	-11.71
▁neoliberal	-11.71
▁supplement	-11.71
▁closing	-11.7101
▁calificat	-11.7102
▁retrospectiv	-11.7121
▁Creştin	-11.7121
ănui	-11.7122
▁suprafaț	-11.7142
▁switch	-11.7142
▁telefonie	-11.7142
▁desemnat	-11.7158
▁inovări	-11.7159
▁retail	-11.7162
▁ruin	-11.7164
▁medii	-11.717
▁architect	-11.7182
▁reafirm	-11.7183
elecommunication	-11.7183
▁corespund	-11.7183
▁envision	-11.7183
▁conservator	-11.7183
PD	-11.7185
▁Bloomberg	-11.7204
▁primăvar	-11.7204
DPM	-11.7204
▁Prize	-11.7206
▁veto	-11.7207
▁Gândi	-11.7212
▁Life	-11.7215
cultur	-11.7217
▁terenuri	-11.7219
▁Contact	-11.7225
▁recycl	-11.7225
▁recicl	-11.7226
▁Tanj	-11.7227
▁plut	-11.7228
▁PAS	-11.7228
▁combateri	-11.7228
▁studiat	-11.7235
▁panel	-11.7239
▁stoo	-11.7239
▁Fisher	-11.7246
▁tactic	-11.7246
▁greacă	-11.7246
▁sentinţ	-11.7246
▁interim	-11.7248
▁şedinţ	-11.7249
▁numărat	-11.7264
▁Church	-11.7266
▁Davutogl	-11.7266
▁opoziți	-11.7266
▁experți	-11.7267
▁Pleas	-11.7267
▁superioar	-11.7268
▁modernisation	-11.7273
DSS	-11.7275
▁premiu	-11.728
▁Mehmet	-11.7287
▁SWIFT	-11.7287
▁landscape	-11.7287
▁plăcea	-11.7287
▁suflet	-11.7287
▁Div	-11.7292
water	-11.7301
▁Uit	-11.7302
▁explod	-11.7308
▁Victor	-11.7309
▁birocratic	-11.7329
▁hunger	-11.7329
▁narrow	-11.7329
▁Labour	-11.7329
▁autentic	-11.733
▁profesi	-11.7331
▁bough	-11.7333
▁acuzare	-11.7335
▁intervin	-11.734
▁accomplish	-11.7351
▁dificultate	-11.7351
▁propagand	-11.7351
▁natal	-11.7351
▁maternity	-11.7353
SI	-11.7355
ON	-11.736
▁planific	-11.7365
▁dominant	-11.7372
▁studenți	-11.7372
▁reconstrui	-11.7372
▁vostru	-11.7372
▁organizez	-11.7375
▁tolerat	-11.7377
▁trace	-11.7384
▁controlat	-11.7385
▁protejeaz	-11.7393
▁afternoon	-11.7393
▁dumping	-11.7393
▁haide	-11.7393
▁expoziţie	-11.7393
▁Privi	-11.7394
▁ordinat	-11.7397
▁Communist	-11.7414
▁cognitiv	-11.7414
▁demonstrez	-11.7414
▁Charles	-11.7414
▁laptop	-11.7414
▁weakness	-11.7417
stock	-11.7418
▁beaut	-11.7426
▁sculptur	-11.7435
▁surprising	-11.7435
▁moratoriu	-11.7436
▁salarie	-11.7438
▁manipulat	-11.7452
▁populat	-11.7452
▁farmaceutic	-11.7457
▁Valentin	-11.7457
▁AIDS	-11.7457
▁corporate	-11.7457
▁asistent	-11.7457
▁capacități	-11.7462
▁albine	-11.7462
▁întocmit	-11.7465
▁securități	-11.7471
▁Pack	-11.7472
▁intent	-11.7475
▁overwhelm	-11.7478
▁lanţ	-11.748
▁atractiv	-11.748
▁foşti	-11.7481
▁Regard	-11.7482
▁nurse	-11.7485
served	-11.7488
▁conducător	-11.7496
▁puneri	-11.7497
▁Adevăr	-11.75
▁ambiţios	-11.75
▁smuggl	-11.75
▁happiness	-11.75
▁apartament	-11.75
▁proporţi	-11.7501
▁apariţi	-11.7505
▁impozitare	-11.751
▁flat	-11.7518
▁displac	-11.7521
▁fashion	-11.7521
▁hectare	-11.7521
▁teritorii	-11.7521
▁mâinil	-11.7522
▁posibilități	-11.7532
▁irregularit	-11.7542
▁Încerc	-11.7543
▁Padd	-11.7565
▁Split	-11.7565
▁restrictive	-11.7568
▁corner	-11.7569
▁Josipovic	-11.7586
▁nominal	-11.7586
▁absenţ	-11.7586
▁calculatoare	-11.7587
▁crop	-11.759
▁ignorat	-11.7595
preciez	-11.76
proape	-11.7602
▁feminin	-11.7607
▁clienţi	-11.7607
▁dismiss	-11.7607
▁Dinkic	-11.7607
▁sugar	-11.7607
▁Kosova	-11.7607
▁căzut	-11.7608
▁retras	-11.761
▁gambl	-11.7611
▁gang	-11.7617
▁Azerbaijan	-11.7629
▁Fukushima	-11.7629
▁cifră	-11.7629
▁desfiinţ	-11.7629
▁îngrijorătoare	-11.7629
▁comitet	-11.7634
▁continuous	-11.7637
▁favourabl	-11.7639
▁Verzi	-11.7641
ć	-11.7651
▁inspection	-11.7651
▁volunteer	-11.7651
▁travers	-11.7651
▁encounter	-11.7672
▁paradox	-11.7672
▁periclit	-11.7673
▁spark	-11.7673
▁crack	-11.7673
▁clasă	-11.7673
▁poluare	-11.7673
▁stocuri	-11.7686
BI	-11.7691
▁bankrupt	-11.7694
▁counterfeit	-11.7694
▁kurzi	-11.7694
▁marriage	-11.7694
▁spectrum	-11.7694
▁storage	-11.7694
▁Capital	-11.7694
▁însoţit	-11.7694
▁multipl	-11.7696
▁peisaj	-11.7697
▁Slav	-11.7699
▁immunit	-11.7705
▁Motiv	-11.7715
▁memorie	-11.7715
▁îndoieli	-11.7716
▁vânt	-11.7717
▁numeşt	-11.7718
▁medicament	-11.7719
▁shortcoming	-11.7719
▁zboruri	-11.772
▁compos	-11.7722
▁Mediapool	-11.7738
▁smooth	-11.7738
▁clash	-11.7738
▁harmful	-11.774
▁assign	-11.7741
▁contaminat	-11.7743
▁mulțime	-11.7743
▁maternitate	-11.7747
▁frumoase	-11.776
▁perceiv	-11.7761
▁autism	-11.7761
▁tumor	-11.7768
▁exacerbat	-11.7782
▁prudent	-11.7782
▁avioane	-11.7782
▁arestaţi	-11.7783
▁Anali	-11.7785
▁genereaz	-11.7788
▁differ	-11.7801
▁Reprezentanţi	-11.7804
▁jeopardis	-11.7804
fectaţi	-11.7812
▁Guvern	-11.7812
▁Guardian	-11.7826
▁pharmaceutical	-11.7826
▁înfrunt	-11.7826
▁diplom	-11.7829
▁pleasure	-11.7834
▁cântec	-11.7836
▁Drasko	-11.784
▁turismulu	-11.7848
▁Turkmenistan	-11.7849
▁cuprinzător	-11.7849
▁inadequate	-11.7849
▁japonez	-11.7849
▁păstră	-11.7849
▁naturii	-11.7849
▁brusc	-11.7849
▁disabl	-11.7851
▁urgenc	-11.7854
▁petrec	-11.7857
,	-11.7861
▁Vietnam	-11.7871
▁River	-11.7872
▁ameninţat	-11.7874
▁epoc	-11.7877
▁Raset	-11.7877
▁impress	-11.7888
▁scriitor	-11.7891
▁constituent	-11.7893
▁îmbunătățiri	-11.7894
▁perception	-11.79
▁circulat	-11.7906
▁Economy	-11.7915
▁qualification	-11.7915
▁încălzire	-11.7915
▁bronz	-11.7915
▁hazard	-11.7915
▁clase	-11.7919
▁variat	-11.7924
▁vizitatori	-11.7925
▁nobod	-11.793
▁rezistenț	-11.7938
▁storm	-11.7938
▁primeşt	-11.7939
▁applicab	-11.794
▁bureaucratic	-11.796
▁împărtăşesc	-11.796
▁repair	-11.796
▁sanitar	-11.7961
▁antrena	-11.7961
numiţi	-11.7964
▁activat	-11.7972
▁memorandum	-11.7983
▁rebuild	-11.7983
▁redundanc	-11.7983
▁Împreun	-11.7983
▁recompens	-11.7983
▁garantă	-11.7983
▁habitat	-11.7983
▁Chief	-11.7984
▁complementar	-11.7987
▁Muzeul	-11.7987
▁transferat	-11.8003
▁Ibrahim	-11.8005
▁Which	-11.8005
▁headquarter	-11.8005
▁influent	-11.8005
▁hotărâri	-11.8005
▁Text	-11.8006
▁skill	-11.801
▁prescri	-11.8012
▁renovat	-11.8014
▁dubi	-11.8015
▁recomandat	-11.802
▁celorlal	-11.8023
▁execuți	-11.8028
▁frumoasă	-11.8028
▁regizor	-11.8028
▁forecast	-11.8028
▁conservative	-11.8029
▁Letoni	-11.8038
▁zgomot	-11.805
▁construcți	-11.805
▁Echipa	-11.805
▁confuz	-11.8054
▁quo	-11.8064
▁desfăşura	-11.8069
▁assurance	-11.8073
▁tremendous	-11.8073
▁earth	-11.8073
▁plângeri	-11.8075
▁Violen	-11.8076
▁reacţiona	-11.8076
▁terror	-11.8081
▁hang	-11.8088
▁valoroas	-11.8093
▁concession	-11.8096
▁Standard	-11.8096
▁database	-11.8096
▁slogan	-11.8096
▁logistic	-11.8096
▁elaborez	-11.8107
▁hotăr	-11.8119
▁duble	-11.8121
▁angajatori	-11.8135
▁însărcinat	-11.8141
▁Adopt	-11.8141
▁conferinț	-11.8142
▁decentralis	-11.8148
mployment	-11.8149
tuck	-11.8156
▁funcţionez	-11.8163
▁Cioco	-11.8164
▁dubla	-11.8164
▁îngrijorări	-11.8164
▁stereo	-11.8165
▁petrolier	-11.817
▁erup	-11.817
▁Senat	-11.8176
▁Ocean	-11.8187
▁interconect	-11.821
▁pădure	-11.821
▁empty	-11.821
▁tolerance	-11.821
▁readiness	-11.821
▁Talk	-11.821
▁western	-11.8211
▁stone	-11.8218
▁prejudici	-11.8233
▁războaie	-11.8233
▁entail	-11.8233
▁surger	-11.8236
▁îmbunătăț	-11.8241
▁imigrați	-11.8256
▁agrav	-11.8256
▁tank	-11.8261
▁Earl	-11.8287
▁colaboră	-11.8303
▁feedback	-11.8303
▁portughez	-11.8303
▁teribil	-11.8303
▁Common	-11.8303
▁horse	-11.8303
▁greutate	-11.8306
responsabilități	-11.8312
▁furtun	-11.8315
illennium	-11.8326
▁Philip	-11.8326
▁belgian	-11.8326
▁excited	-11.8326
▁preference	-11.833
▁retir	-11.8332
▁exercitat	-11.8344
ţiunil	-11.8348
▁desfășoar	-11.8349
▁infringement	-11.8349
▁materii	-11.8349
▁trăiasc	-11.8352
▁cadre	-11.8358
▁versu	-11.8372
▁Săptămâna	-11.8373
▁bolnav	-11.8373
▁uimitoare	-11.8373
▁abstract	-11.8373
▁folk	-11.8373
▁legislator	-11.8373
▁Selim	-11.8373
▁Diploma	-11.8396
▁convergence	-11.8396
▁geopolitic	-11.8396
▁pagube	-11.8396
▁denumit	-11.8396
▁Discuţiil	-11.8396
▁tradițional	-11.8396
▁decizional	-11.8398
▁Mustafa	-11.8419
▁străluc	-11.8419
▁vinovat	-11.842
▁tabere	-11.842
▁încetini	-11.8426
▁bord	-11.8439
▁egalităţi	-11.8439
▁Arhivă	-11.8443
▁appropriation	-11.8443
▁serving	-11.8445
▁porc	-11.845
▁aspira	-11.8454
š	-11.8467
▁Venezuela	-11.8467
▁tabăr	-11.8467
▁stringent	-11.8467
▁convert	-11.8468
▁consolidări	-11.8469
▁muzeu	-11.8469
Kosor	-11.847
▁1970	-11.847
▁Major	-11.8478
▁importat	-11.8481
▁Unel	-11.8489
▁Bajram	-11.849
▁angajez	-11.849
▁avertisment	-11.849
▁exhaust	-11.849
▁retirement	-11.849
▁muzici	-11.849
▁Airline	-11.8491
▁unanimitate	-11.8503
▁distanţă	-11.8514
▁palestinien	-11.8514
▁surrender	-11.8514
▁terorişti	-11.8514
gged	-11.8518
▁vibr	-11.8529
▁contamin	-11.8532
▁proastă	-11.8538
▁proactiv	-11.8538
▁invoc	-11.8546
▁satisfactor	-11.8548
▁Albanez	-11.8561
▁comparison	-11.8561
▁College	-11.8561
▁Haradin	-11.8561
▁satelit	-11.8561
▁dorm	-11.8581
▁minorități	-11.8581
▁embrac	-11.8585
▁athlete	-11.8585
AID	-11.8585
▁winning	-11.8586
▁UNDP	-11.8609
▁conștienț	-11.8609
▁envisage	-11.8609
▁bucat	-11.861
▁seminar	-11.861
▁păreri	-11.8612
▁fundament	-11.8617
▁Mări	-11.8617
EAS	-11.862
▁Campania	-11.8633
▁Transparenc	-11.8633
▁consecvent	-11.8633
▁recruit	-11.8633
▁signature	-11.8633
▁prelucr	-11.8633
▁recrut	-11.8633
▁arctic	-11.8634
▁variant	-11.8635
▁jail	-11.8637
▁amiaz	-11.8638
▁competitivităţi	-11.8643
▁School	-11.8657
▁Heads	-11.8658
▁fosil	-11.866
▁conţin	-11.867
▁enthusias	-11.8681
▁microscop	-11.8681
▁telephone	-11.8681
▁telecom	-11.8682
▁munte	-11.8682
▁coborâ	-11.8685
părut	-11.8693
▁sorr	-11.8698
▁Răspunsul	-11.8706
▁imprison	-11.8706
▁diplomacy	-11.8706
▁gross	-11.8707
▁dollar	-11.8708
▁rude	-11.8708
▁ambasad	-11.8712
▁promisiune	-11.8714
▁constatat	-11.8716
▁Kyoto	-11.873
▁fossil	-11.873
▁ritual	-11.873
▁Competiti	-11.873
▁struggl	-11.8739
▁suferinţ	-11.8741
▁Luxembourg	-11.8754
▁precondition	-11.8754
▁ședinț	-11.8754
▁census	-11.8754
▁Telecom	-11.8754
▁ticket	-11.8754
▁Nicola	-11.8754
▁suburb	-11.8756
▁challeng	-11.8757
▁coexist	-11.8778
▁Cohesi	-11.8779
▁aircraft	-11.8779
▁părăsit	-11.8784
▁gestionări	-11.8784
▁Stein	-11.8787
▁arestări	-11.8796
▁Nikolovsk	-11.8803
▁imobiliar	-11.8803
▁mănânc	-11.8803
▁tsunami	-11.8803
▁obțin	-11.8819
▁boycott	-11.8827
▁silence	-11.8827
▁boicot	-11.8827
▁matern	-11.8839
▁jurisdiction	-11.8852
▁prominent	-11.8852
ltcin	-11.8855
▁atacat	-11.8857
▁apropia	-11.8868
▁porţi	-11.8875
▁armoniz	-11.8875
Ț	-11.8875
▁EurActiv	-11.8876
▁inhabitant	-11.8876
▁migrați	-11.8876
▁furnizez	-11.8876
▁hunt	-11.8877
▁painful	-11.8878
▁proiectat	-11.8886
▁chao	-11.8886
▁paşapoarte	-11.8901
▁wound	-11.8901
▁școli	-11.8901
▁urmăresc	-11.8901
▁infinit	-11.8909
▁Foniqi	-11.8926
▁lingvistic	-11.8926
▁prăbuş	-11.8926
▁Klaus	-11.8926
▁climb	-11.8926
▁ambițioas	-11.8926
▁Regret	-11.8926
▁excepţional	-11.8926
▁Saudi	-11.8929
▁foloseșt	-11.8942
▁Chairman	-11.895
▁aprovizionări	-11.895
▁kilometri	-11.895
▁predominant	-11.895
▁proclam	-11.895
▁Subiect	-11.895
▁esenț	-11.8951
eugen	-11.8953
▁index	-11.8954
▁provoca	-11.8955
▁relocat	-11.8966
Ș	-11.8971
▁exercițiu	-11.8972
▁Iniţiativ	-11.8975
▁autumn	-11.8975
▁Adunare	-11.8975
▁remote	-11.8975
▁instabilitate	-11.8978
▁row	-11.8981
▁majorităţi	-11.8996
▁Bakoyanni	-11.9
▁Cancún	-11.9
▁furnizeaz	-11.9
▁surprinzător	-11.9
▁contingent	-11.9
▁fleet	-11.9
▁alliance	-11.9004
▁merc	-11.9023
decision	-11.9023
▁interconnect	-11.9025
▁sample	-11.9026
▁okay	-11.9028
▁egg	-11.9029
▁zoo	-11.9033
▁suferi	-11.9035
▁simplifi	-11.904
▁Bulgar	-11.9042
legați	-11.9045
▁gestionat	-11.9046
▁Rexhep	-11.905
▁Would	-11.905
▁opponent	-11.905
▁sympath	-11.905
▁asasinat	-11.905
▁prevail	-11.905
▁Experţi	-11.9051
▁Olimpiad	-11.9075
▁Support	-11.9075
▁caution	-11.9076
▁depriv	-11.9085
▁complexit	-11.9093
regulat	-11.9096
▁asasinare	-11.91
▁EFD	-11.91
▁Membri	-11.91
▁Neagr	-11.91
▁Elveţia	-11.91
▁Adam	-11.9102
▁justify	-11.9115
▁DUI	-11.9125
▁palestinian	-11.9125
▁veterinar	-11.9125
▁Dusan	-11.9126
▁comunicaţii	-11.9127
▁bilet	-11.9143
▁necesita	-11.9145
▁reaffirm	-11.9151
▁naţiune	-11.9151
▁regăs	-11.9153
▁exploatări	-11.9176
▁provizori	-11.9176
▁urmând	-11.9176
▁mânca	-11.9189
▁Harvard	-11.9201
▁Kurdistan	-11.9201
▁Schwarz	-11.9201
▁wireless	-11.9201
▁eșec	-11.9201
▁loial	-11.9202
▁reiter	-11.9205
▁menținere	-11.9216
▁închisori	-11.9225
▁teritoriu	-11.9225
▁SOLVIT	-11.9227
▁trăieşt	-11.9242
▁feasib	-11.9245
▁paradigm	-11.9252
▁Nicosi	-11.9252
▁numeșt	-11.926
▁întâmpinat	-11.9271
▁Morocc	-11.9278
▁librar	-11.9278
▁Mediu	-11.9282
bucurat	-11.9294
▁armonizat	-11.93
▁Consequen	-11.9303
▁innocent	-11.9303
▁dublu	-11.9304
▁vorbeșt	-11.9309
rişa	-11.9311
▁albastr	-11.9319
▁soldat	-11.9328
▁Eurovision	-11.9329
▁Obvious	-11.9329
▁Protecţi	-11.9329
▁incluzând	-11.9329
▁Network	-11.9329
▁random	-11.9329
▁nisip	-11.9329
▁certitudine	-11.933
▁particle	-11.933
▁abţin	-11.9345
▁etni	-11.9352
▁Federal	-11.9355
▁Mladen	-11.9355
▁outstanding	-11.9355
▁magazin	-11.9366
▁puzzle	-11.9381
▁Innovation	-11.9381
▁Adunări	-11.9381
▁convey	-11.9381
▁froze	-11.9381
▁ratify	-11.9383
▁competitor	-11.9384
▁instant	-11.9398
▁Cercetare	-11.9407
▁Lampedusa	-11.9407
▁prematur	-11.9407
▁endanger	-11.9407
▁empower	-11.9407
▁Equal	-11.9407
▁gift	-11.9407
▁Brown	-11.9408
▁separare	-11.941
▁proporți	-11.9418
▁viziteaz	-11.9429
ofstadt	-11.9433
▁Aleksandar	-11.9433
▁Continu	-11.9433
▁abolition	-11.9433
▁vertical	-11.9433
▁relief	-11.9433
▁recurg	-11.9433
▁alcool	-11.9433
▁presupun	-11.9441
▁Citizens	-11.9459
▁deficienţe	-11.9459
▁ineficient	-11.9459
▁profesionist	-11.9459
▁Project	-11.9459
▁dossier	-11.9459
▁anchete	-11.9459
▁crash	-11.9459
▁Ambasadorul	-11.946
▁sfat	-11.9463
▁guvernanţ	-11.9466
▁greşeal	-11.9485
BRD	-11.9485
▁plimb	-11.9485
▁avertizeaz	-11.9485
▁inundaţii	-11.9485
▁Hurri	-11.9485
▁redefin	-11.9485
▁cocain	-11.9485
▁sclavi	-11.9486
▁Hadzi	-11.9493
▁chirurg	-11.9511
▁England	-11.9511
▁breast	-11.9511
▁Progressive	-11.9511
▁religio	-11.9512
▁Could	-11.9513
terguvernamental	-11.9537
▁dublă	-11.9537
▁profesionişti	-11.9537
▁şomeri	-11.9537
▁bottle	-11.9537
▁hurt	-11.9538
▁dictatorship	-11.9538
▁inject	-11.9557
▁allegation	-11.9564
▁masculin	-11.9564
house	-11.9577
▁imperi	-11.9579
eighbourhood	-11.9589
▁Biseric	-11.959
▁MIT	-11.959
▁occupation	-11.959
▁rigorous	-11.959
▁Critic	-11.959
▁Muhame	-11.9591
▁generaţie	-11.9591
▁solicitanţi	-11.9591
▁licenţ	-11.9591
▁Stojanovsk	-11.9616
▁attribut	-11.9616
▁incapacitate	-11.9616
▁achiziții	-11.9616
▁roşu	-11.9617
▁Sky	-11.9618
▁terminal	-11.9619
▁întocm	-11.9633
▁imigranți	-11.9643
▁prelungire	-11.9643
▁Finanţe	-11.9643
▁earmark	-11.9643
▁Foarte	-11.9643
▁naștere	-11.9643
▁Natural	-11.9643
▁verzi	-11.9644
▁înscris	-11.9658
▁greşeli	-11.9669
▁Liderul	-11.967
▁onorabil	-11.9671
▁descuraja	-11.9695
▁individ	-11.9696
▁necunoscut	-11.9696
▁anxiet	-11.9723
▁frank	-11.9723
▁investigaţie	-11.9723
▁style	-11.9724
institutional	-11.9737
▁Observator	-11.9746
▁înconjur	-11.9749
▁stupid	-11.975
▁timber	-11.975
▁coeziuni	-11.975
▁cyber	-11.975
craft	-11.9752
▁instrucţi	-11.9752
▁strain	-11.9754
▁salariul	-11.9767
▁Energie	-11.9777
▁astronom	-11.9777
▁codecizie	-11.9777
▁comentariu	-11.9777
▁facultate	-11.9777
▁confrunt	-11.9777
▁proporţional	-11.9777
▁operațiuni	-11.9777
▁Măsuril	-11.979
▁copyright	-11.9804
▁supermarket	-11.9804
▁synerg	-11.9804
▁Alegeril	-11.9804
▁petition	-11.9804
▁Protest	-11.9804
▁educ	-11.9818
▁Petrov	-11.9825
▁gunoi	-11.9831
▁Autoritate	-11.9831
▁lanț	-11.9832
▁acknowledg	-11.9839
▁menţiona	-11.9841
▁Tehnologi	-11.9858
▁Thomas	-11.9858
▁pronunţ	-11.9858
▁instituțional	-11.9858
▁rachete	-11.9858
▁Think	-11.9859
tergovernmental	-11.9885
▁Kabash	-11.9885
▁YouTube	-11.9885
▁assassination	-11.9885
▁consolideaz	-11.9885
▁Movement	-11.9885
▁Adrian	-11.9885
▁înainta	-11.9892
▁consistenc	-11.9905
▁Integrare	-11.9912
▁Integration	-11.9912
▁risip	-11.9912
▁Datorit	-11.9912
▁întoarc	-11.9914
▁Initiative	-11.9939
▁prerogative	-11.9939
▁reservation	-11.9939
▁reunificare	-11.9939
▁secundă	-11.9939
▁excuse	-11.9939
▁Milovanovic	-11.994
▁Assistan	-11.994
▁appoint	-11.9941
▁productivit	-11.9951
▁Swiss	-11.9967
▁birocrați	-11.9967
▁disturb	-11.9967
▁inculpat	-11.9967
▁restricţion	-11.9967
▁foresee	-11.9971
▁prosecut	-11.9982
▁fasci	-11.9987
▁Conservative	-11.9994
▁Constituţional	-11.9994
▁Madrid	-11.9994
▁commodit	-11.9994
▁zahăr	-11.9994
▁certificate	-11.9994
▁McC	-11.9994
▁opțiuni	-11.9994
▁Rural	-11.9995
▁Michel	-11.9996
▁rectifi	-12.0017
▁Argentin	-12.0022
▁Prosecutor	-12.0022
▁psychological	-12.0022
▁dăunătoare	-12.0022
▁Darwin	-12.0022
▁neclar	-12.0022
▁sinergi	-12.0022
▁bread	-12.0023
▁marf	-12.0024
itatii	-12.0024
▁pregăteşt	-12.0028
▁animat	-12.0029
front	-12.0043
Ă	-12.0049
▁circulație	-12.0049
▁sălbatic	-12.0049
▁recre	-12.0065
▁accountabilit	-12.0066
▁compris	-12.0067
▁corrupt	-12.0072
▁Azerbaidjan	-12.0077
▁disciplina	-12.0077
▁recensământ	-12.0077
▁yield	-12.0077
▁liceu	-12.0094
▁scenariu	-12.0095
▁Afghan	-12.0105
▁Francisc	-12.0105
▁evoluat	-12.0105
▁William	-12.0105
▁angajă	-12.0105
▁bonus	-12.0105
▁Hill	-12.0107
▁profession	-12.0108
▁rezistenţ	-12.0133
▁demisia	-12.0133
▁archaeolog	-12.0133
▁Creştere	-12.0133
▁Aproba	-12.0134
▁Professor	-12.0161
▁compulsor	-12.0161
▁Guinea	-12.0161
▁dezacord	-12.0161
▁acopere	-12.0161
reviar	-12.0161
▁Prior	-12.0162
▁admitted	-12.0162
▁unelte	-12.0165
▁crud	-12.0173
▁reinforc	-12.0181
▁Misiune	-12.0182
▁molecular	-12.0189
▁drill	-12.0189
▁Mulți	-12.019
▁înţeleag	-12.0191
▁jazz	-12.0217
field	-12.0217
▁Goldst	-12.0217
▁şcolar	-12.0217
▁uphold	-12.0217
▁modalități	-12.0217
▁neighborhood	-12.0217
▁particule	-12.0217
▁click	-12.0218
▁Fonduril	-12.0239
▁neighbor	-12.0245
▁Budapest	-12.0245
▁Practic	-12.0245
▁Similar	-12.0245
▁commend	-12.0245
▁însuşi	-12.0245
▁sporeasc	-12.0247
pproval	-12.0269
▁democrac	-12.027
▁reconsider	-12.0273
▁subliniind	-12.0273
▁învecinat	-12.0273
▁masacrul	-12.0273
▁desemn	-12.0279
▁calități	-12.0285
▁Einstein	-12.0302
▁inadecvat	-12.0302
▁trateaz	-12.0305
▁transpunere	-12.0306
▁assumption	-12.033
▁filozof	-12.033
ä	-12.033
▁incompatib	-12.033
▁iranian	-12.033
▁preconizat	-12.033
▁Studie	-12.033
▁fezabil	-12.0333
▁Princip	-12.0347
▁trată	-12.0349
▁voinț	-12.0355
▁coordona	-12.0356
▁incorect	-12.0358
▁tissue	-12.0358
▁impresionant	-12.0358
▁execuţi	-12.0359
▁Organizat	-12.0359
▁clasic	-12.0359
▁dependenț	-12.0361
▁assert	-12.0371
▁Nebojs	-12.0387
▁congres	-12.0387
▁malaria	-12.0387
▁Colegi	-12.0387
▁Thailand	-12.0416
▁supravegheri	-12.0416
▁tangibil	-12.0416
▁warrant	-12.0416
▁Executiv	-12.0444
▁Internațional	-12.0444
▁Studii	-12.0444
▁atribuţii	-12.0444
▁plănui	-12.0444
▁Stâng	-12.0445
▁addict	-12.0446
▁deposit	-12.0472
▁prerequisite	-12.0473
▁substanțial	-12.0473
▁descend	-12.0474
▁Ucraine	-12.0502
▁costisitoare	-12.0502
▁şedere	-12.0502
▁dispers	-12.0503
▁adoptări	-12.0522
▁Bahrain	-12.0531
▁Communication	-12.0531
▁Relations	-12.0531
▁Next	-12.0531
▁simulat	-12.0534
▁răspândire	-12.0538
▁arbitr	-12.055
▁stabileșt	-12.0553
▁Power	-12.056
▁harsh	-12.056
▁quiet	-12.0561
▁manevr	-12.0561
▁loud	-12.0561
▁îngrijoreaz	-12.0561
▁Clear	-12.0566
▁exert	-12.0566
▁instituți	-12.0567
▁tendenc	-12.0571
▁multinational	-12.0589
▁Cvetkovi	-12.0589
▁formaţiune	-12.0589
▁Children	-12.0619
▁Medved	-12.0619
▁Should	-12.0619
▁repression	-12.0619
▁reputation	-12.0619
▁custod	-12.0619
▁Dunăre	-12.0623
▁israelian	-12.0648
▁embass	-12.0648
▁possess	-12.0648
▁lansez	-12.0656
▁înşel	-12.0656
ridge	-12.0674
▁NGL	-12.0677
▁nenumărate	-12.0677
▁pocket	-12.0677
▁Jacque	-12.0707
▁nerezolvat	-12.0707
▁alcohol	-12.0707
▁coffee	-12.0707
▁corupt	-12.0707
▁tăcere	-12.0707
▁reţine	-12.0708
armament	-12.0717
▁Danemarc	-12.0736
▁benchmark	-12.0736
▁divertisment	-12.0736
▁grămad	-12.0736
▁incluziune	-12.0736
▁mediteranean	-12.0736
▁Susțin	-12.0736
▁Tribune	-12.0736
▁Aştept	-12.0736
▁exagerat	-12.0736
▁desperate	-12.0736
▁fault	-12.074
▁Canadian	-12.0766
▁Climate	-12.0766
▁Ghana	-12.0767
▁biciclet	-12.0796
▁scufund	-12.0796
▁Expert	-12.0796
▁eradicare	-12.0797
▁realizeaz	-12.0805
worth	-12.0808
▁Djelic	-12.0826
▁persuade	-12.0826
▁prelungit	-12.0826
▁Amazon	-12.0826
▁unclear	-12.0826
▁axat	-12.0848
▁eficacitate	-12.0856
▁psihologic	-12.0856
▁absent	-12.0856
▁aparțin	-12.0856
▁spectrul	-12.0857
▁spectator	-12.0861
▁Côte	-12.0886
▁Ottoman	-12.0886
▁algorithm	-12.0886
▁speculaţii	-12.0886
▁intampla	-12.0886
▁detenţie	-12.0886
▁neloial	-12.0886
▁mouth	-12.0886
▁mecanic	-12.0886
▁pictur	-12.091
▁conexiuni	-12.0916
▁cosmetic	-12.0916
▁surpriz	-12.0916
▁neglect	-12.0916
▁essence	-12.0916
▁agresiv	-12.0916
▁roof	-12.0916
▁performanț	-12.0918
Q	-12.0925
▁colaborez	-12.0946
▁mediteraneen	-12.0946
▁tropical	-12.0946
▁Sectorul	-12.0946
▁snow	-12.0946
▁vehicul	-12.0948
bţinut	-12.0949
▁Zivk	-12.0954
▁stâng	-12.0974
▁simultan	-12.0976
▁austriac	-12.0976
▁coordonări	-12.0976
▁complement	-12.1001
▁Dimpotriv	-12.1007
▁conştiinţ	-12.1007
▁Nuclear	-12.1007
▁simultaneous	-12.1007
▁Konji	-12.1007
▁găseşt	-12.1007
▁Aderare	-12.1012
▁denie	-12.1027
utiliz	-12.1028
▁Campionat	-12.1037
▁Guinee	-12.1037
▁implicit	-12.1037
▁stătea	-12.104
▁frame	-12.1047
▁Alexandr	-12.1068
▁Caucas	-12.1068
▁commemorat	-12.1068
▁prestigi	-12.1068
▁finanţa	-12.108
▁Dubrovnik	-12.1098
▁Embass	-12.1098
▁Vojvodin	-12.1098
▁demisiona	-12.1098
▁suspension	-12.1098
▁Informaţii	-12.1098
▁estimări	-12.1098
▁întinde	-12.1099
ljub	-12.1102
▁opreasc	-12.1108
▁cerinţ	-12.112
▁recurs	-12.1129
▁vulcan	-12.1129
▁toleranţ	-12.1129
▁mineral	-12.1136
▁Jordan	-12.116
▁aptitudini	-12.116
▁olimpic	-12.116
▁disorder	-12.116
▁Viitorul	-12.116
▁steel	-12.116
▁Center	-12.116
Barack	-12.117
▁cantităţi	-12.1174
power	-12.1181
▁reuş	-12.1186
▁distinguish	-12.1191
▁israelien	-12.1191
▁renumit	-12.1191
▁cenzur	-12.1191
▁rigid	-12.1191
▁Club	-12.1191
▁cerebral	-12.1192
▁întrunire	-12.1192
Ivoir	-12.1193
▁marginaliz	-12.1197
ntenance	-12.1207
orruption	-12.1222
disproportionate	-12.1222
▁Vukovar	-12.1222
▁embargo	-12.1222
▁pașnic	-12.1222
▁rambursa	-12.1222
▁înăuntru	-12.1222
▁băiat	-12.1222
▁senzor	-12.1222
▁Maritim	-12.1226
▁transpos	-12.124
▁Caucaz	-12.1253
▁instinct	-12.1253
▁fluctu	-12.1253
▁venture	-12.1253
▁behave	-12.1253
▁protecţionism	-12.1254
oboda	-12.1255
▁evidenţiat	-12.1256
▁neoficial	-12.1285
▁înrăutăţ	-12.1285
▁zâmb	-12.1285
▁corporation	-12.1285
▁imperialist	-12.1285
▁ethical	-12.1285
▁pray	-12.1285
▁vacanţ	-12.1286
▁semnătur	-12.1292
satisfăcătoare	-12.1316
▁Chicago	-12.1316
▁symptom	-12.1316
▁equipp	-12.1316
▁vegetable	-12.1347
▁împărți	-12.1347
▁sovietic	-12.1347
▁load	-12.1348
otonou	-12.1352
▁tradiți	-12.1379
▁garanții	-12.1379
▁iPhone	-12.1379
▁oxigen	-12.1379
▁rhetoric	-12.1379
▁unknown	-12.1379
▁protestatari	-12.1379
▁silver	-12.1379
▁Wolf	-12.1381
amount	-12.1405
▁Zeljko	-12.141
▁accelerez	-12.141
▁algoritm	-12.141
▁horizontal	-12.141
▁muntenegren	-12.141
▁tobacco	-12.141
▁amuzant	-12.1411
▁mosque	-12.1411
▁regener	-12.1419
▁Tineret	-12.1442
▁Thessaloniki	-12.1442
▁phrase	-12.1442
▁riguroas	-12.1442
▁sticlă	-12.1442
▁întunecat	-12.1442
▁smell	-12.1442
▁silent	-12.1443
▁Alianț	-12.1444
▁Propun	-12.1469
▁Madagascar	-12.1474
▁comfortabl	-12.1474
▁Function	-12.1474
▁dovedeşt	-12.1474
▁workforce	-12.1474
▁diagram	-12.1474
bank	-12.1493
▁Kozlodu	-12.1506
▁endeavour	-12.1506
▁waiver	-12.1506
▁extinct	-12.1506
▁secretariat	-12.1508
▁urmăreșt	-12.1508
▁pătrund	-12.1509
▁sârbeşt	-12.1512
▁disclos	-12.1516
▁Ambasad	-12.1537
▁Resolution	-12.1538
▁dezafect	-12.1538
▁paternit	-12.1538
oundup	-12.1561
à	-12.157
▁autostrăzi	-12.157
▁exemplar	-12.157
▁rădăcini	-12.157
▁satisfy	-12.157
ç	-12.3598
ń	-12.3598
ő	-12.4506
ł	-12.4593
°	-12.5316
ı	-12.6885
ê	-12.8045
=	-12.8295
ė	-12.915
ň	-13.0011
ę	-13.0238
ß	-13.1203
ğ	-13.1459
ø	-13.1459
σ	-13.2653
#	-13.3789
_	-13.3789
ž	-13.3789
•	-13.3789
ë	-13.5194
*	-13.5194
ú	-13.5579
ο	-13.5844
ι	-13.6116
ρ	-13.6116
α	-13.6255
τ	-13.6539
Α	-13.6831
η	-13.7926
ε	-13.8092
ś	-13.9155
Τ	-13.9732
ν	-13.9932
ū	-14.0345
ί	-14.0557
μ	-14.0997
ˈ	-14.1224
þ	-14.1695
Î	-14.1709
ς	-14.1939
ô	-14.2445
Ö	-14.2708
δ	-14.2708
π	-14.3256
ý	-14.3836
Ο	-14.4139
€	-14.4139
ī	-14.4452
―	-14.4452
^	-14.4774
Ε	-14.5108
ή	-14.5453
⁄	-14.5453
ò	-14.618
Κ	-14.618
Ü	-14.6565
Ç	-14.6965
λ	-14.6965
а	-14.7381
Ν	-14.7381
É	-14.8271
Ş	-14.8517
ą	-14.9773
Ι	-14.9773
о	-14.9773
κ	-14.9773
е	-15.0329
ā	-15.0329
đ	-15.0917
‟	-15.0917
ό	-15.0917
χ	-15.1542
ź	-15.1542
\	-15.2209
γ	-15.2209
т	-15.2923
р	-15.2923
æ	-15.2923
ě	-15.2923
г	-15.2923
Μ	-15.2923
&	-15.3462
ù	-15.3692
ύ	-15.3692
ż	-15.4525
έ	-15.5435
̈	-15.5435
̋	-15.5435
φ	-15.6434
£	-15.6435
ω	-15.6435
и	-15.6435
л	-15.6435
}	-15.7546
в	-15.8796
¡	-15.8796
±	-15.8796
ì	-15.8796
Ő	-15.8796
Ś	-15.8796
ȃ	-15.8796
ζ	-15.8796
я	-15.8796
Í	-15.8796
ǐ	-15.8796
ά	-16.0224
у	-16.0224
ч	-16.1891
ď	-16.1891
ķ	-16.1891
Υ	-16.1891
к	-16.1891
ш	-16.1891
ņ	-16.3891
ϊ	-16.3891
ώ	-16.3891
β	-16.3891
õ	-16.6391
ē	-16.6391
œ	-16.6391
Ř	-16.6391
̧	-16.6391
А	-16.6391
й	-16.6391
ь	-16.6391
ร	-16.6391
่	-16.6391
û	-16.9724
~	-16.9724
र	-17.4724
送	-17.4724
Â	-17.4724
{	-17.4724
©	-17.4724
Ã	-17.4724
È	-17.4724
Ć	-17.4724
ĉ	-17.4724
Ō	-17.4724
ŵ	-17.4724
̀	-17.4724
̊	-17.4724
ξ	-17.4724
Н	-17.4724
О	-17.4724
П	-17.4724
д	-17.4724
ж	-17.4724
м	-17.4724
п	-17.4724
х	-17.4724
ъ	-17.4724
ы	-17.4724
प	-17.4724
म	-17.4724
े	-17.4724
्	-17.4724
ẹ	-17.4724
ọ	-17.4724
‐	-17.4724
≤	-17.4724
你	-17.4724
葱	-17.4724
Ľ	-17.4724
ō	-17.4724
ʻ	-18.4696
Ȋ	-18.4697
Π	-18.4698
ย	-18.4699
з	-18.47
Т	-18.4701
М	-18.4702
ť	-18.4703
ψ	-18.4704
อ	-18.4705
Å	-18.4706
с	-18.4707
н	-18.4708
Β	-18.4709
б	-18.471
ľ	-18.4711
Ł	-18.4712
Ž	-18.4713
İ	-18.4714
Đ	-18.4715
Ó	-18.4716
Č	-18.4717
υ	-18.4718
ř	-18.4719
Á	-18.472
ï	-18.4721
ȋ	-18.4722
ñ	-18.4723
¢	-18.4724
¥	-18.4724
¦	-18.4724
¬	-18.4724
®	-18.4724
·	-18.4724
Ï	-18.4724
Ú	-18.4724
ŕ	-18.4724
Š	-18.4724
