<s>	0
<pad>	0
</s>	0
<unk>	0
▁	-2.76051
,	-3.36626
s	-3.38868
▁.	-3.64892
▁de	-3.72188
▁the	-3.92281
▁a	-4.24403
▁la	-4.34305
▁of	-4.56125
▁to	-4.67154
▁and	-4.67636
▁que	-4.68632
▁en	-4.69892
▁y	-4.77713
▁in	-4.85058
▁el	-4.86649
;	-5.07379
▁los	-5.21668
n	-5.25672
▁&	-5.28623
▁is	-5.38296
▁that	-5.52063
d	-5.53187
r	-5.53653
▁con	-5.5916
ing	-5.60463
▁un	-5.61381
▁del	-5.61856
▁se	-5.65456
es	-5.65841
▁for	-5.67967
e	-5.68531
▁las	-5.7072
ed	-5.72629
-	-5.73911
o	-5.77023
▁para	-5.78438
▁una	-5.82446
a	-5.83221
@	-5.84579
▁I	-5.86519
▁no	-5.87836
▁por	-5.95762
▁on	-5.95872
▁@	-5.96943
▁es	-5.97697
apos	-5.9941
quot	-6.0171
y	-6.02435
t	-6.02567
▁be	-6.04125
(	-6.0719
)	-6.07748
ly	-6.09431
▁with	-6.10705
▁The	-6.15309
▁are	-6.16633
▁this	-6.18624
▁we	-6.22155
▁su	-6.23161
:	-6.25728
▁it	-6.26024
do	-6.30267
▁al	-6.31597
er	-6.32222
▁have	-6.39252
▁not	-6.40315
.	-6.41117
▁-	-6.43126
▁you	-6.46157
▁as	-6.47936
▁by	-6.48852
▁A	-6.55116
▁ha	-6.59048
▁will	-6.59183
▁which	-6.59569
▁lo	-6.59924
▁La	-6.63824
▁más	-6.65438
te	-6.66585
ar	-6.67049
▁como	-6.67451
m	-6.67546
▁re	-6.69462
l	-6.70268
▁from	-6.71334
▁at	-6.72072
▁or	-6.72622
da	-6.74195
al	-6.74323
▁El	-6.74555
▁can	-6.75462
▁o	-6.7593
mente	-6.7945
▁has	-6.79711
▁an	-6.8009
ta	-6.84417
se	-6.85463
▁sobre	-6.86929
▁este	-6.90856
▁European	-6.91835
ción	-6.93197
▁all	-6.93522
▁was	-6.96185
?	-6.99766
▁En	-7.00254
la	-7.00458
i	-7.0188
/	-7.03548
▁esta	-7.03601
to	-7.04252
▁our	-7.05027
▁In	-7.066
re	-7.0879
ra	-7.0931
▁me	-7.09938
en	-7.1284
▁S	-7.13465
u	-7.13829
▁also	-7.14055
mos	-7.17113
▁sus	-7.18944
ca	-7.20441
on	-7.20682
p	-7.21322
▁We	-7.2137
le	-7.2184
▁C	-7.23378
▁so	-7.23842
g	-7.24261
an	-7.25829
▁but	-7.26755
▁Comisión	-7.29285
▁would	-7.30778
c	-7.31337
▁It	-7.31433
tion	-7.31683
▁your	-7.31806
▁si	-7.32303
os	-7.32347
k	-7.33368
▁Mr	-7.34341
lo	-7.34545
ó	-7.34942
de	-7.35781
▁more	-7.36294
▁también	-7.36745
▁e	-7.36818
▁their	-7.36861
ir	-7.38071
li	-7.38176
▁been	-7.38499
▁one	-7.39583
co	-7.40844
▁hotel	-7.40953
th	-7.41127
▁do	-7.4126
▁should	-7.42035
▁son	-7.42274
á	-7.42888
ce	-7.43213
as	-7.43669
▁This	-7.45068
ma	-7.4593
▁Commission	-7.46659
▁its	-7.47151
▁No	-7.47254
▁De	-7.484
ndo	-7.48461
ciones	-7.49385
f	-7.49583
or	-7.49631
ba	-7.50217
ll	-7.51015
▁like	-7.51119
ve	-7.52648
▁E	-7.52812
▁they	-7.52963
▁very	-7.53226
▁está	-7.53278
1	-7.53729
▁must	-7.53841
▁he	-7.53912
▁entre	-7.56421
▁there	-7.5657
▁President	-7.57133
dos	-7.5751
▁Se	-7.57613
▁Por	-7.5797
na	-7.58905
▁other	-7.5922
▁about	-7.6026
ten	-7.60682
▁...	-7.60741
ation	-7.60752
▁han	-7.6107
in	-7.61132
ado	-7.61189
ga	-7.6145
b	-7.62361
▁up	-7.62413
▁le	-7.62497
me	-7.62978
ación	-7.63045
▁puede	-7.63147
▁new	-7.63944
▁muy	-7.64018
▁ser	-7.64588
▁time	-7.65802
3	-7.66273
▁pero	-7.66975
ro	-7.67343
ri	-7.67714
▁people	-7.67964
▁out	-7.68836
▁1	-7.69034
▁us	-7.69486
▁Unión	-7.7008
▁todo	-7.70107
able	-7.70945
ne	-7.71347
v	-7.71446
▁who	-7.71525
z	-7.72728
▁what	-7.72858
▁mi	-7.7328
▁!	-7.74328
ti	-7.74829
▁pro	-7.74969
▁di	-7.7558
▁these	-7.75843
ci	-7.76668
é	-7.76924
x	-7.77094
▁3	-7.7744
▁only	-7.77898
it	-7.78288
▁Estados	-7.78348
ter	-7.78378
▁report	-7.78739
h	-7.78978
▁Europea	-7.79215
cu	-7.79277
▁Union	-7.7936
▁B	-7.7939
▁if	-7.79524
¿	-7.79578
▁Presidente	-7.8005
ur	-7.8023
▁Parlamento	-7.80253
▁todos	-7.80343
no	-7.80486
di	-7.80637
st	-7.80687
▁informe	-7.8107
▁my	-7.81258
▁O	-7.81534
▁sin	-7.81642
idad	-7.8169
ía	-7.8184
í	-7.81859
go	-7.8243
▁2	-7.82743
▁Parliament	-7.82953
▁Si	-7.84451
us	-7.84557
▁Re	-7.84727
das	-7.84985
il	-7.85464
▁any	-7.85651
▁work	-7.85825
▁Y	-7.8669
▁P	-7.86786
mo	-7.87614
▁were	-7.88358
que	-7.88974
▁Es	-7.8905
▁Member	-7.89279
ment	-7.89482
ido	-7.9004
ry	-7.90551
ch	-7.90692
%	-7.90937
ge	-7.91034
ted	-7.91054
ia	-7.91457
▁G	-7.91561
▁need	-7.92167
▁States	-7.92306
▁some	-7.92337
▁debate	-7.92344
▁Con	-7.931
ck	-7.93449
▁tiene	-7.93694
▁particular	-7.94015
▁contra	-7.94068
▁parte	-7.9431
▁pre	-7.94358
rá	-7.94836
▁co	-7.94924
▁Hotel	-7.94955
▁Consejo	-7.95119
▁países	-7.95306
▁Ma	-7.95587
▁forma	-7.95654
2	-7.95668
▁miembros	-7.95785
ity	-7.96152
▁Los	-7.9621
▁Europe	-7.96617
▁when	-7.96776
▁4	-7.9682
je	-7.97003
▁into	-7.97125
▁Al	-7.97236
C	-7.97378
▁make	-7.97389
▁dis	-7.97606
▁Council	-7.97933
▁ya	-7.98315
ers	-7.9833
pa	-7.98679
ada	-7.98992
▁social	-7.99073
is	-7.99701
▁&#9	-8.0067
▁countries	-8.01264
▁them	-8.01492
▁Señor	-8.02105
▁Europa	-8.0221
▁because	-8.02224
ic	-8.02754
5	-8.02798
▁just	-8.03181
▁how	-8.03685
▁hacer	-8.03772
▁And	-8.03903
▁lugar	-8.03947
▁such	-8.04268
ja	-8.04503
les	-8.04756
▁important	-8.04908
▁tanto	-8.05204
▁am	-8.05265
w	-8.05846
▁política	-8.05945
el	-8.0616
ting	-8.06503
▁per	-8.06794
▁most	-8.06798
▁EU	-8.06981
▁first	-8.07071
▁use	-8.07288
gra	-8.07633
▁than	-8.08289
D	-8.08929
▁take	-8.08968
▁support	-8.09058
▁desde	-8.09071
▁5	-8.09122
be	-8.09143
res	-8.09656
▁way	-8.09887
▁Me	-8.10029
▁well	-8.1033
tu	-8.10351
▁now	-8.11897
vo	-8.12155
▁c	-8.12205
ke	-8.12656
▁gran	-8.12807
▁F	-8.1309
▁over	-8.13203
▁public	-8.13746
▁So	-8.13912
▁años	-8.1425
▁19	-8.14385
qui	-8.14929
▁trabajo	-8.15195
▁hay	-8.15197
po	-8.15338
▁between	-8.15562
▁T	-8.15698
▁where	-8.15877
▁those	-8.17095
▁Pa	-8.17162
S	-8.1718
va	-8.17375
▁place	-8.17453
▁control	-8.17518
▁many	-8.17761
▁D	-8.18134
▁his	-8.18138
▁debe	-8.18218
com	-8.19103
▁part	-8.19258
ent	-8.19484
▁For	-8.19581
▁vez	-8.19845
▁tiempo	-8.20316
▁cuando	-8.21216
▁importante	-8.21343
za	-8.21527
man	-8.21541
ría	-8.21607
at	-8.21668
▁personas	-8.21781
pe	-8.21808
▁To	-8.21955
vi	-8.22396
▁had	-8.22491
jo	-8.22855
▁Ca	-8.23117
▁10	-8.23153
L	-8.23188
▁hecho	-8.23276
▁made	-8.23905
▁nos	-8.23935
T	-8.24065
▁two	-8.24684
▁así	-8.24997
▁good	-8.25079
4	-8.25202
cer	-8.25222
tra	-8.25277
▁sector	-8.25507
rse	-8.25544
▁están	-8.25699
▁being	-8.25961
▁sea	-8.26286
▁even	-8.2633
▁information	-8.26739
lu	-8.26839
▁ca	-8.27029
et	-8.27057
U	-8.27186
che	-8.27417
▁po	-8.2748
tro	-8.27594
▁porque	-8.27713
▁Le	-8.27715
fe	-8.28236
P	-8.28543
▁world	-8.2855
▁general	-8.28959
▁va	-8.29006
8	-8.29127
▁esto	-8.29377
um	-8.29716
▁M	-8.30156
▁may	-8.30451
▁Europeo	-8.30679
▁right	-8.30747
▁cuenta	-8.3082
▁years	-8.30986
▁policy	-8.31017
gen	-8.31056
▁personal	-8.31694
▁under	-8.3183
▁cada	-8.32259
ive	-8.32334
▁UE	-8.32451
sh	-8.32502
▁hasta	-8.32568
▁nuestra	-8.32825
▁otros	-8.33024
▁L	-8.33098
ni	-8.33458
▁He	-8.33478
pi	-8.33592
án	-8.33711
gi	-8.34013
▁señor	-8.34091
▁Ha	-8.34134
▁want	-8.34229
▁nuestro	-8.34261
▁información	-8.34265
▁ex	-8.34321
▁dos	-8.34396
un	-8.34472
mi	-8.34849
▁ver	-8.35066
▁U	-8.35083
tor	-8.35305
▁Esta	-8.35852
▁mundo	-8.35921
▁see	-8.3625
▁If	-8.36401
▁year	-8.36527
M	-8.3734
▁know	-8.38105
▁desarrollo	-8.38108
▁Lo	-8.38229
▁bien	-8.38337
▁here	-8.38548
bo	-8.38745
encia	-8.38772
ion	-8.3933
ki	-8.39394
per	-8.39706
▁acuerdo	-8.39746
▁sido	-8.40277
ad	-8.403
iendo	-8.40344
▁say	-8.40463
▁derechos	-8.40858
▁ni	-8.41085
▁human	-8.41495
▁W	-8.41641
▁Las	-8.41652
▁market	-8.41843
ú	-8.42087
▁año	-8.42127
▁Su	-8.42268
ven	-8.42304
▁fue	-8.42443
ida	-8.42507
▁decir	-8.42536
▁order	-8.42638
▁real	-8.42757
▁sólo	-8.42942
▁Co	-8.43128
▁estos	-8.43174
▁mismo	-8.43352
▁K	-8.43461
cha	-8.43603
▁tu	-8.43791
nte	-8.43921
A	-8.44522
▁Este	-8.44579
▁You	-8.44971
B	-8.45051
ando	-8.45058
men	-8.45598
ver	-8.45642
▁pueden	-8.45827
▁fact	-8.45844
▁think	-8.45895
nos	-8.45979
▁plan	-8.4614
▁pa	-8.46256
▁development	-8.4627
ron	-8.4638
▁rights	-8.46406
▁through	-8.46596
ados	-8.46641
▁system	-8.47099
▁could	-8.47191
▁area	-8.47439
▁Ba	-8.47458
▁20	-8.47553
io	-8.47653
▁As	-8.47735
min	-8.48092
▁same	-8.48147
▁sistema	-8.48246
tas	-8.48913
▁todas	-8.49104
▁country	-8.49373
▁point	-8.49809
tal	-8.49836
00	-8.49961
▁durante	-8.503
nd	-8.50386
▁posible	-8.50482
▁R	-8.50643
▁hi	-8.5067
▁Para	-8.50813
▁comp	-8.51106
▁seguridad	-8.51536
gu	-8.51541
▁economic	-8.51613
▁hemos	-8.51616
▁com	-8.51701
tes	-8.51752
ón	-8.51877
▁embargo	-8.52533
▁There	-8.52585
▁political	-8.52813
▁does	-8.52816
▁much	-8.53093
ces	-8.53122
▁caso	-8.53413
▁Pro	-8.53438
▁against	-8.53559
E	-8.53594
▁mayor	-8.5367
▁come	-8.53846
▁bo	-8.53913
▁Li	-8.54071
▁process	-8.5415
ever	-8.54163
▁9	-8.54735
F	-8.54802
▁hace	-8.54868
▁país	-8.54908
▁0	-8.55054
▁ahora	-8.5516
▁believe	-8.55298
dor	-8.55671
▁nuestros	-8.55774
ies	-8.55833
▁mejor	-8.55847
id	-8.55888
6	-8.55963
▁Ro	-8.56192
age	-8.56211
▁Sin	-8.56228
▁fin	-8.56569
▁H	-8.56991
tin	-8.5717
▁uno	-8.57265
ine	-8.57442
▁Po	-8.57526
▁propuesta	-8.57539
▁number	-8.57784
▁mercado	-8.57871
land	-8.57876
▁find	-8.57915
▁therefore	-8.57958
▁Vi	-8.58024
▁own	-8.58143
▁favor	-8.58348
▁día	-8.58473
▁help	-8.58597
ist	-8.58669
▁great	-8.58805
▁cualquier	-8.58993
amp	-8.59119
▁inter	-8.59168
las	-8.59334
▁sino	-8.59343
▁after	-8.59545
▁imp	-8.5956
▁Bo	-8.59692
▁go	-8.60176
▁donde	-8.60231
▁said	-8.60266
▁possible	-8.60447
ria	-8.60982
amos	-8.61281
▁within	-8.61318
▁different	-8.61363
▁tipo	-8.61721
▁get	-8.61791
ul	-8.61801
▁ayuda	-8.61875
▁Mi	-8.61906
▁momento	-8.62075
tic	-8.62309
▁tan	-8.62579
▁ejemplo	-8.62921
▁car	-8.62924
▁mar	-8.63039
bi	-8.63117
I	-8.63221
▁international	-8.63264
▁situación	-8.6341
▁bar	-8.63559
▁pi	-8.63973
ant	-8.64014
▁mucho	-8.64035
▁Mo	-8.64116
con	-8.64223
▁both	-8.64338
nt	-8.64339
car	-8.64349
tar	-8.64426
▁total	-8.64454
not	-8.64468
▁local	-8.64665
▁6	-8.64801
▁trata	-8.64838
em	-8.64925
7	-8.64937
ente	-8.65004
▁view	-8.65481
▁nuevo	-8.65552
▁usted	-8.65886
▁qué	-8.66095
ling	-8.66215
▁That	-8.66281
▁Esto	-8.66352
▁servicios	-8.6687
▁manera	-8.66957
mer	-8.67134
▁agreement	-8.67506
▁tienen	-8.67512
G	-8.67862
▁sub	-8.6796
▁give	-8.67972
▁cu	-8.68177
▁15	-8.68376
▁N	-8.68533
▁free	-8.68565
▁respecto	-8.68624
est	-8.68664
▁vi	-8.69236
▁12	-8.69266
▁cuestión	-8.69272
▁national	-8.69451
der	-8.69495
▁present	-8.69518
▁final	-8.69611
▁every	-8.69688
▁vida	-8.69696
ol	-8.69764
▁p	-8.69793
▁crisis	-8.69796
▁hoy	-8.69818
▁programa	-8.69888
▁course	-8.7018
bre	-8.70284
▁ello	-8.70373
▁tener	-8.70477
▁room	-8.70486
▁menos	-8.705
▁proceso	-8.70621
mp	-8.70861
▁Pero	-8.71065
▁legal	-8.71085
sión	-8.71165
▁issue	-8.71187
▁without	-8.7148
ran	-8.71502
▁Commissioner	-8.71615
im	-8.71746
▁punto	-8.71758
am	-8.718
ness	-8.71897
▁vote	-8.72146
▁her	-8.72179
ru	-8.72381
▁access	-8.72736
▁still	-8.72777
▁global	-8.72789
▁before	-8.72828
▁ve	-8.72832
▁medidas	-8.72967
▁today	-8.73102
9	-8.73342
ian	-8.73496
▁situation	-8.73621
ac	-8.73624
▁dar	-8.73659
▁ma	-8.73862
adas	-8.73955
j	-8.7398
emos	-8.74056
▁tra	-8.74066
▁Di	-8.7414
▁ciudadanos	-8.7415
can	-8.74225
cen	-8.74284
▁question	-8.74607
▁set	-8.74744
N	-8.74771
tions	-8.74974
▁level	-8.75031
▁ciudad	-8.75205
sta	-8.75422
tos	-8.75487
▁since	-8.75493
▁solo	-8.75671
▁future	-8.75743
▁Sr	-8.75777
ud	-8.75917
▁But	-8.76116
▁Te	-8.7622
he	-8.76249
▁aquí	-8.76314
dores	-8.76343
▁Sa	-8.76505
tre	-8.76528
▁nombre	-8.7665
▁Do	-8.76669
ut	-8.7672
▁day	-8.76916
▁7	-8.76942
▁used	-8.76964
▁estas	-8.77038
▁adopt	-8.77179
cho	-8.77212
▁V	-8.7727
▁respect	-8.77273
▁habitaciones	-8.7735
sion	-8.77599
▁base	-8.77699
ble	-8.77713
▁rooms	-8.77724
fu	-8.7773
bra	-8.77737
▁case	-8.778
▁proposal	-8.77948
ance	-8.78188
cri	-8.78297
ial	-8.78314
▁algo	-8.78568
▁hand	-8.78664
▁long	-8.78712
▁centro	-8.7884
ió	-8.78864
ización	-8.78967
▁services	-8.79067
▁medio	-8.79402
▁tenemos	-8.79527
▁already	-8.79702
▁Mar	-8.79708
▁algunos	-8.79712
▁An	-8.79732
ho	-8.79869
cion	-8.79989
ista	-8.80033
ld	-8.80056
▁Un	-8.80108
▁act	-8.80154
du	-8.80206
ber	-8.80286
▁antes	-8.8035
cy	-8.80353
▁man	-8.80473
▁high	-8.80556
fa	-8.80624
den	-8.80667
▁actual	-8.80744
V	-8.80828
▁eso	-8.80865
▁primer	-8.80982
los	-8.81189
▁30	-8.81451
▁te	-8.81512
▁back	-8.81921
▁law	-8.8204
fi	-8.82044
era	-8.8222
▁example	-8.82383
_	-8.8258
▁pe	-8.82752
▁otro	-8.82889
nce	-8.82918
▁otras	-8.82947
▁last	-8.83032
▁productos	-8.83082
▁form	-8.83412
cas	-8.83438
▁problema	-8.83571
▁certain	-8.83775
▁San	-8.84053
▁poder	-8.84126
ty	-8.84166
O	-8.84422
▁small	-8.84547
▁nosotros	-8.84684
tive	-8.84714
▁health	-8.8476
▁Ra	-8.84957
ence	-8.84957
▁Ta	-8.85019
▁Committee	-8.85366
▁ofrece	-8.85496
ban	-8.85587
ina	-8.8562
mb	-8.85793
▁clear	-8.85795
▁end	-8.85847
ntes	-8.8609
▁les	-8.86117
▁necesario	-8.8619
aciones	-8.86332
▁Internet	-8.86388
▁available	-8.8657
▁call	-8.86689
▁provide	-8.86808
▁service	-8.87086
▁calidad	-8.87139
▁best	-8.87485
▁problem	-8.8769
▁put	-8.87753
▁result	-8.87801
rio	-8.88043
▁ban	-8.88351
▁primera	-8.88459
▁otra	-8.88576
▁regard	-8.88685
ger	-8.88698
▁ro	-8.88752
▁par	-8.88911
▁ámbito	-8.89034
zo	-8.89072
▁datos	-8.89193
istas	-8.89243
▁large	-8.89298
▁each	-8.89478
ler	-8.89592
▁18	-8.89626
ster	-8.89691
ced	-8.89774
▁common	-8.90033
▁All	-8.90109
▁art	-8.90148
▁city	-8.90153
lla	-8.90269
gar	-8.90301
▁cual	-8.90466
▁life	-8.90503
▁including	-8.90516
▁hope	-8.90527
▁close	-8.90531
dica	-8.90539
iva	-8.90557
▁Howev	-8.90557
▁toda	-8.90619
ise	-8.90723
rán	-8.90814
▁open	-8.90998
▁dicho	-8.91238
▁trans	-8.91282
ha	-8.91372
ary	-8.91387
▁8	-8.91491
▁modo	-8.91659
si	-8.91701
▁Tambié	-8.91822
▁financial	-8.91856
▁Grupo	-8.91971
ate	-8.92003
ous	-8.92075
ual	-8.92089
ana	-8.92168
ez	-8.9224
mon	-8.92263
▁cómo	-8.9228
gue	-8.92312
▁11	-8.92359
▁muchos	-8.92379
▁nivel	-8.92383
ng	-8.92535
▁especial	-8.92542
▁three	-8.92609
▁ensure	-8.92621
cción	-8.92636
▁Da	-8.92687
▁did	-8.92864
▁futuro	-8.93015
▁podemos	-8.93181
▁means	-8.93532
cal	-8.93587
▁europea	-8.93609
wi	-8.93611
▁era	-8.93617
ros	-8.93731
ton	-8.93805
▁podría	-8.93918
▁du	-8.93995
▁través	-8.94038
▁ese	-8.94264
ec	-8.94276
▁compar	-8.94308
aria	-8.94387
▁millones	-8.94466
▁measures	-8.94566
▁problemas	-8.94595
▁empresas	-8.94694
▁citizens	-8.94793
▁during	-8.94879
▁humanos	-8.94892
▁24	-8.95166
▁fa	-8.95259
▁few	-8.95318
ue	-8.95482
▁modern	-8.95804
R	-8.95814
▁deben	-8.96133
▁limit	-8.96339
▁tres	-8.96402
▁apoyo	-8.96424
▁estamos	-8.96501
ren	-8.96571
▁derecho	-8.96574
▁special	-8.96746
▁web	-8.96845
▁play	-8.96859
fer	-8.97038
▁continue	-8.97088
▁going	-8.97163
▁able	-8.97187
titu	-8.97215
▁mo	-8.97246
ka	-8.97324
▁Pe	-8.97425
▁site	-8.97544
▁next	-8.97711
▁increase	-8.97949
▁uso	-8.98042
▁look	-8.98136
▁name	-8.98186
▁nueva	-8.98209
ya	-8.98385
port	-8.98409
▁change	-8.98454
▁idea	-8.98469
▁consider	-8.98485
▁objetivo	-8.98622
ph	-8.98657
▁civil	-8.98694
▁después	-8.98752
▁ho	-8.98764
▁too	-8.98877
▁taken	-8.98878
ex	-8.99061
▁At	-8.99172
▁DE	-8.99172
▁debemos	-8.99329
▁hu	-8.9939
ible	-8.99393
▁why	-8.99496
ita	-8.99526
▁agree	-8.99539
▁down	-8.9965
ante	-8.99707
▁position	-8.99767
▁far	-9.0017
▁water	-9.00221
▁energy	-9.0025
▁mas	-9.00281
▁siempre	-9.00413
▁areas	-9.00418
▁fundamental	-9.0044
▁sa	-9.00452
▁quality	-9.00468
▁women	-9.00542
ales	-9.00633
ight	-9.0071
ismo	-9.00804
pla	-9.00809
▁acceso	-9.0082
▁What	-9.00937
▁creo	-9.0097
cl	-9.01044
▁mis	-9.0119
▁b	-9.01235
▁They	-9.01268
wa	-9.01391
▁internacional	-9.01502
▁li	-9.01593
▁indica	-9.01624
▁Comisario	-9.01632
lle	-9.01673
▁really	-9.01762
▁f	-9.02114
▁products	-9.02296
▁servicio	-9.02398
▁second	-9.02577
▁red	-9.03136
▁2009	-9.03272
mar	-9.03365
vers	-9.03378
ct	-9.03511
▁haya	-9.03543
▁account	-9.03656
▁sitio	-9.04348
X	-9.04518
▁business	-9.0465
H	-9.04669
▁group	-9.04705
▁security	-9.04722
▁Ho	-9.04852
▁action	-9.05012
ña	-9.0525
▁número	-9.05307
vis	-9.05319
ero	-9.05449
▁fe	-9.05509
▁protección	-9.05681
rra	-9.05819
▁sal	-9.05823
▁había	-9.05899
ite	-9.06006
▁marco	-9.06232
▁Car	-9.06279
ities	-9.06388
▁stay	-9.06404
▁Pre	-9.06429
und	-9.06439
ré	-9.06483
▁again	-9.06546
chi	-9.06636
▁relación	-9.06651
op	-9.06734
ste	-9.06762
▁fi	-9.06952
▁better	-9.07009
▁cerca	-9.07089
▁line	-9.07267
▁she	-9.07359
miento	-9.07475
▁económica	-9.07544
spec	-9.07572
▁United	-9.07688
ie	-9.07814
▁Pi	-9.07951
▁necessary	-9.08002
▁On	-9.08016
▁power	-9.08068
ard	-9.08086
▁data	-9.08117
▁condiciones	-9.08304
▁shall	-9.08345
▁problems	-9.08455
▁Ar	-9.0867
▁Fa	-9.0869
▁será	-9.08697
▁Na	-9.08702
▁ponente	-9.0875
▁given	-9.08816
*	-9.08857
▁cultural	-9.09059
iza	-9.09065
▁mujeres	-9.09352
ario	-9.09482
▁become	-9.09504
W	-9.09514
▁based	-9.09527
▁offers	-9.09591
▁individual	-9.09661
124	-9.09698
▁gracias	-9.09755
less	-9.09824
▁House	-9.09883
▁capital	-9.09963
▁tal	-9.09987
▁J	-9.10056
▁cooperation	-9.10061
▁Can	-9.10107
bu	-9.10221
lin	-9.10388
▁located	-9.10458
▁na	-9.1063
tri	-9.10634
▁zona	-9.10901
▁Community	-9.10957
▁etc	-9.10958
tan	-9.11171
gre	-9.11389
▁Ne	-9.1145
▁protection	-9.11526
ability	-9.11572
▁experience	-9.11663
▁ante	-9.11712
▁gas	-9.1179
▁main	-9.11796
ap	-9.11836
mor	-9.11925
▁Ja	-9.11956
▁Be	-9.12042
▁Z	-9.12057
amente	-9.12068
▁wish	-9.12187
▁unos	-9.12188
▁rec	-9.12267
▁pregunta	-9.12361
pp	-9.12515
▁Una	-9.12545
▁quiero	-9.12607
▁hacia	-9.12612
▁&#	-9.12617
▁central	-9.12698
▁Our	-9.12791
▁misma	-9.12817
▁super	-9.13008
▁cooperación	-9.1301
=	-9.13022
▁achieve	-9.13084
▁home	-9.13309
▁poco	-9.13501
▁esa	-9.1353
▁agua	-9.13538
▁Com	-9.13608
▁working	-9.13612
▁budget	-9.13667
▁común	-9.13744
pro	-9.13763
tura	-9.13905
▁parece	-9.13946
▁centre	-9.13985
▁línea	-9.14002
ice	-9.14035
K	-9.14094
▁salud	-9.14105
▁million	-9.14231
▁With	-9.14284
▁making	-9.14389
ff	-9.14449
▁food	-9.14512
▁X	-9.14538
duc	-9.14627
▁mu	-9.14658
▁ob	-9.14756
ner	-9.14775
▁trade	-9.14847
▁rapporteur	-9.14941
▁Estado	-9.14943
▁pu	-9.15155
ish	-9.1537
▁proyecto	-9.15406
▁transport	-9.15518
▁aplicación	-9.15532
▁children	-9.15647
amiento	-9.15686
▁person	-9.15738
▁m	-9.15749
▁14	-9.15805
▁buena	-9.15884
Y	-9.15928
▁debería	-9.16071
▁things	-9.16085
▁nuestras	-9.1615
▁cosas	-9.16191
▁Fi	-9.16222
▁Group	-9.16262
▁something	-9.16342
▁Ri	-9.16366
▁state	-9.1642
stra	-9.16975
ino	-9.17028
icia	-9.17064
▁further	-9.17106
▁25	-9.17231
fra	-9.17274
ism	-9.173
▁fo	-9.17445
▁resolution	-9.17487
▁Bar	-9.17586
▁2008	-9.17622
▁old	-9.17813
line	-9.17824
▁grandes	-9.1784
▁Como	-9.17928
ER	-9.17947
▁text	-9.18134
▁vista	-9.18145
▁ellos	-9.1823
▁diferentes	-9.18428
▁dentro	-9.18475
▁ask	-9.18492
for	-9.18501
remos	-9.18511
ful	-9.18575
▁always	-9.18583
▁don	-9.18652
▁natural	-9.18657
mento	-9.18691
mark	-9.18801
cre	-9.18841
▁around	-9.18913
▁representa	-9.18984
fo	-9.19056
gan	-9.19079
▁offer	-9.19085
ture	-9.19177
▁cor	-9.192
ction	-9.19253
▁needs	-9.19346
▁ideal	-9.19361
▁lucha	-9.19398
▁concern	-9.19432
▁tras	-9.19639
▁show	-9.19739
▁document	-9.19751
tain	-9.19833
▁whether	-9.19878
ito	-9.19887
▁directive	-9.19888
ES	-9.20073
til	-9.20133
▁term	-9.20136
▁another	-9.20168
▁while	-9.20268
val	-9.20277
▁St	-9.20371
▁desea	-9.20405
▁together	-9.20434
▁materia	-9.20449
▁lead	-9.20482
▁whole	-9.2052
▁then	-9.20676
▁visit	-9.20943
▁Lu	-9.20965
entes	-9.21082
▁atención	-9.2121
▁Bu	-9.21351
ship	-9.21544
izar	-9.21569
▁cambio	-9.21588
lar	-9.21631
▁público	-9.21701
▁welcome	-9.21759
▁material	-9.21765
▁Ga	-9.21841
▁permite	-9.21863
▁matter	-9.21949
▁im	-9.21985
▁design	-9.22061
▁incluso	-9.22085
end	-9.22099
▁Cha	-9.22145
▁europeo	-9.22145
▁done	-9.2218
▁13	-9.22272
▁ambiente	-9.22404
▁period	-9.22412
▁estar	-9.22434
▁mal	-9.22472
▁bajo	-9.22499
▁opinión	-9.22522
▁full	-9.22599
▁Jo	-9.2261
ries	-9.22706
▁research	-9.22764
▁2007	-9.2277
▁da	-9.2292
▁subject	-9.22939
▁issues	-9.22966
▁ne	-9.23001
▁00	-9.23075
▁role	-9.2315
rea	-9.23151
▁bring	-9.23272
▁When	-9.2331
▁tema	-9.23333
ward	-9.23346
▁turn	-9.23503
▁garantizar	-9.23504
▁haber	-9.2361
▁50	-9.23613
we	-9.23664
▁respuesta	-9.23742
▁Ademá	-9.23744
▁found	-9.23756
▁allow	-9.23774
idos	-9.23831
▁determina	-9.2385
par	-9.23924
cent	-9.24015
cos	-9.24179
▁list	-9.24214
ak	-9.24321
▁Tratado	-9.24354
ras	-9.24482
▁enjoy	-9.24489
▁transporte	-9.24493
king	-9.24561
side	-9.24866
▁kind	-9.24983
mit	-9.25174
▁represent	-9.25325
¡	-9.25367
▁government	-9.25374
▁compromiso	-9.25486
▁artículo	-9.255
tivo	-9.25511
▁16	-9.25614
▁refer	-9.25625
tur	-9.25626
▁cost	-9.25647
▁mayoría	-9.25665
▁resolución	-9.25793
▁emp	-9.25866
▁algunas	-9.25869
▁programme	-9.25883
izado	-9.25941
▁yo	-9.25991
one	-9.26001
▁These	-9.26035
▁normas	-9.26036
ieron	-9.2609
hi	-9.26143
▁anti	-9.26179
▁ti	-9.26294
▁muchas	-9.26355
▁start	-9.26493
iones	-9.26511
000	-9.26549
▁aún	-9.26551
▁europeos	-9.26637
▁terms	-9.26656
▁remain	-9.26666
▁pasado	-9.26713
▁libre	-9.26788
led	-9.26789
bor	-9.268
▁post	-9.26814
mas	-9.26872
▁sí	-9.26905
▁además	-9.26935
▁specific	-9.26993
ier	-9.27091
▁ju	-9.2711
▁responsabilidad	-9.2745
▁nuevos	-9.27451
▁políticas	-9.27492
▁importancia	-9.27573
sol	-9.27579
▁papel	-9.27589
▁extra	-9.27641
▁estado	-9.27835
▁media	-9.27957
▁sentido	-9.27964
▁especialmente	-9.28031
▁encuentra	-9.28081
▁favour	-9.28093
▁Wi	-9.28263
▁rep	-9.28313
▁decision	-9.28337
▁reach	-9.28347
▁thank	-9.28427
▁euro	-9.28501
▁Gobierno	-9.28607
▁off	-9.28712
▁Señorías	-9.28763
dio	-9.28793
▁casa	-9.28796
▁energía	-9.28806
▁semana	-9.28823
▁sociedad	-9.29054
gui	-9.29067
▁seguir	-9.2907
▁recursos	-9.29149
▁2000	-9.29229
▁ven	-9.29257
▁competencia	-9.2926
▁Bi	-9.29328
▁nacionales	-9.29384
▁Mu	-9.29454
cur	-9.2958
▁arm	-9.2963
▁perfect	-9.2974
ect	-9.29897
tt	-9.29943
▁called	-9.29975
▁feel	-9.30013
aunque	-9.30031
▁100	-9.30035
▁necesidad	-9.30158
▁conditions	-9.30193
imos	-9.30298
AL	-9.30462
AR	-9.30647
gro	-9.30674
▁paso	-9.3068
▁short	-9.30729
▁create	-9.30793
▁Ni	-9.30826
▁económico	-9.30829
▁Ka	-9.30966
▁pueblo	-9.31002
▁Unidos	-9.31002
▁horas	-9.31011
▁crear	-9.31017
▁third	-9.31026
▁considera	-9.31056
▁using	-9.31194
▁empleo	-9.31256
▁cre	-9.31279
▁investigación	-9.31419
▁meeting	-9.31433
way	-9.31444
ano	-9.31466
▁him	-9.31493
▁happen	-9.31637
pone	-9.31804
▁share	-9.32027
▁auto	-9.32071
▁largo	-9.32088
▁address	-9.32124
▁último	-9.32133
rica	-9.32157
▁grupo	-9.32239
▁principio	-9.32443
▁gentlemen	-9.32536
▁among	-9.32543
ft	-9.32636
▁Cu	-9.32675
▁página	-9.32676
tiva	-9.32817
▁current	-9.3284
rt	-9.32852
▁significa	-9.33033
▁equipo	-9.33072
▁Pu	-9.3327
▁podrá	-9.33289
▁queda	-9.33568
▁reserva	-9.33626
▁Así	-9.33658
▁exist	-9.33777
▁Mrs	-9.33802
▁17	-9.33849
▁ab	-9.3389
▁software	-9.33957
cia	-9.34103
ambi	-9.34121
▁pie	-9.34145
ral	-9.34183
▁less	-9.34203
▁encontrar	-9.3422
▁approach	-9.34273
▁duda	-9.34311
au	-9.34329
▁segundo	-9.34376
▁air	-9.34415
▁little	-9.34875
▁guarantee	-9.34999
▁environment	-9.35013
▁propuestas	-9.35018
▁Per	-9.35109
▁basis	-9.35123
lic	-9.3514
▁project	-9.35165
▁serious	-9.35175
▁force	-9.35183
▁hora	-9.35264
▁Presidenta	-9.35292
▁program	-9.35373
pre	-9.35392
▁live	-9.35401
▁cause	-9.35483
▁gustaría	-9.35485
▁State	-9.35591
▁orden	-9.35609
▁progress	-9.3566
▁gente	-9.35661
▁China	-9.35666
▁Or	-9.35676
bla	-9.35712
tó	-9.35763
▁Ju	-9.35851
▁application	-9.35856
ign	-9.3591
▁valor	-9.35963
▁location	-9.35965
▁realmente	-9.36006
▁adapt	-9.36069
table	-9.36072
▁New	-9.36075
▁opinion	-9.362
▁mediante	-9.36203
▁test	-9.36221
▁week	-9.36228
▁señora	-9.36246
▁care	-9.36285
ura	-9.36317
▁tri	-9.36345
▁2006	-9.36439
oc	-9.36479
▁experiencia	-9.36563
▁actividades	-9.36803
▁mean	-9.36823
su	-9.36919
▁mundial	-9.37044
▁nuevas	-9.37048
dad	-9.37101
▁regional	-9.37155
ring	-9.37165
▁non	-9.37225
▁International	-9.3725
▁Señora	-9.37254
▁region	-9.37314
▁existe	-9.37371
▁Madam	-9.37413
▁away	-9.37461
▁Dis	-9.37477
IT	-9.37777
▁improve	-9.37854
nes	-9.37882
▁original	-9.37885
▁resources	-9.37925
▁multi	-9.38027
▁cuanto	-9.3804
▁crea	-9.38092
▁US	-9.38136
▁risk	-9.38157
▁junto	-9.38233
▁alta	-9.38361
▁empresa	-9.38378
▁niños	-9.38435
▁especially	-9.3849
ally	-9.38553
ncia	-9.3885
cra	-9.38887
dic	-9.38923
▁causa	-9.38927
▁single	-9.39004
ther	-9.39025
▁mention	-9.3932
▁field	-9.39343
▁amplia	-9.39445
▁presente	-9.39488
▁presupuesto	-9.39549
▁acerca	-9.39622
▁effective	-9.39691
▁cuestiones	-9.39806
ancia	-9.39839
▁reform	-9.39874
▁tax	-9.39901
▁propia	-9.39946
▁language	-9.40071
▁objetivos	-9.40146
ure	-9.40147
AN	-9.40155
▁money	-9.40311
▁Cor	-9.40323
▁strong	-9.40385
cul	-9.40402
▁Presidencia	-9.4043
ios	-9.40548
ges	-9.40583
▁interior	-9.40602
iz	-9.40633
▁building	-9.40696
bles	-9.40701
ical	-9.40812
▁libertad	-9.40845
▁espacio	-9.40877
▁production	-9.40882
▁various	-9.40997
▁pass	-9.4102
▁towards	-9.4103
OS	-9.41109
▁type	-9.41172
▁Creo	-9.41177
▁Treaty	-9.4123
▁juego	-9.41283
▁afecta	-9.41288
nia	-9.41308
▁video	-9.41421
▁enmiendas	-9.41432
▁pública	-9.41487
▁rules	-9.4152
▁Hay	-9.41551
▁él	-9.41763
istic	-9.41839
▁capacidad	-9.41851
▁2010	-9.41871
▁request	-9.41875
▁celebra	-9.41882
▁staff	-9.42112
▁historia	-9.42174
stru	-9.42278
▁nacional	-9.42327
nder	-9.42481
▁importantes	-9.42513
▁realidad	-9.42529
ast	-9.42537
xi	-9.42569
▁let	-9.42609
▁integra	-9.42629
▁simple	-9.42799
▁house	-9.42849
nas	-9.42857
▁major	-9.42873
▁producción	-9.42893
cía	-9.43001
enta	-9.43042
▁sent	-9.43079
▁activities	-9.4309
▁industry	-9.43226
▁pueda	-9.43254
▁companies	-9.43277
▁product	-9.4337
▁General	-9.43372
▁nada	-9.43404
▁reason	-9.43442
arse	-9.43464
▁realizar	-9.43477
▁Tra	-9.43479
▁reforma	-9.43483
▁least	-9.4351
▁Man	-9.43511
▁bu	-9.43748
▁pay	-9.43767
eg	-9.43767
▁initiative	-9.43863
OR	-9.43865
▁contain	-9.43908
▁institutions	-9.43929
▁práctica	-9.43991
idas	-9.44018
▁claro	-9.44027
mm	-9.44207
▁genera	-9.4422
ivo	-9.44237
mission	-9.44246
▁riesgo	-9.44247
▁prevent	-9.44401
▁pues	-9.44515
▁once	-9.44599
▁company	-9.4461
▁World	-9.44682
▁express	-9.44712
▁llegar	-9.44755
▁Ti	-9.44831
▁principal	-9.44845
▁difficult	-9.45208
▁cabo	-9.4521
▁Gu	-9.45276
▁forward	-9.45288
▁interés	-9.45365
▁clientes	-9.45421
ig	-9.45455
▁días	-9.45503
▁demand	-9.45509
▁pasa	-9.45518
▁excellent	-9.45537
cio	-9.45582
bri	-9.456
▁page	-9.45648
▁opportunity	-9.45691
ving	-9.45696
▁poner	-9.45701
▁family	-9.4572
▁dispone	-9.45737
▁gobierno	-9.45781
gg	-9.45785
▁keep	-9.45799
▁itself	-9.45822
▁necesita	-9.45855
▁Ex	-9.46013
▁tomar	-9.46017
hor	-9.4605
ko	-9.46065
▁contact	-9.46191
▁gestión	-9.46206
idades	-9.46269
▁behalf	-9.46309
vert	-9.46318
▁exp	-9.46375
ador	-9.46468
▁network	-9.46534
▁mejorar	-9.46538
▁past	-9.46653
▁key	-9.46748
rro	-9.46808
▁book	-9.46854
▁programas	-9.46862
▁color	-9.4688
cro	-9.46882
▁texto	-9.46964
▁framework	-9.47029
aje	-9.47049
▁pri	-9.47144
RE	-9.47146
▁following	-9.47181
▁col	-9.47239
▁aid	-9.47355
▁veces	-9.47428
ones	-9.4743
▁plazo	-9.4744
tivos	-9.47531
▁actually	-9.47559
▁economía	-9.47571
lor	-9.47591
ple	-9.47655
▁km	-9.47664
▁move	-9.47733
▁bi	-9.47738
▁escrito	-9.47743
▁environmental	-9.47775
isation	-9.47812
enda	-9.47869
▁w	-9.47871
▁quisiera	-9.47875
▁four	-9.4788
ide	-9.47963
▁quite	-9.48072
int	-9.48145
eva	-9.48252
▁necesaria	-9.48275
ized	-9.48304
▁siguiente	-9.48371
▁ladies	-9.48414
▁instituciones	-9.48526
▁última	-9.48551
▁cierto	-9.48585
having	-9.48591
▁organiz	-9.4869
puesta	-9.48754
▁región	-9.48774
▁razón	-9.48833
▁speak	-9.48861
tel	-9.48898
▁resultado	-9.48948
▁taking	-9.48989
▁war	-9.49262
cor	-9.49273
▁Ad	-9.4938
▁content	-9.49453
▁event	-9.49458
tica	-9.49513
▁directiva	-9.49693
▁education	-9.49896
▁complete	-9.50003
EC	-9.50132
most	-9.50179
ot	-9.50253
▁fuera	-9.50319
▁quiere	-9.50401
sen	-9.50435
bro	-9.50498
▁lot	-9.50557
▁único	-9.50572
▁amendments	-9.50653
▁mientras	-9.50657
om	-9.50673
▁several	-9.50693
▁face	-9.50726
met	-9.50762
▁legislation	-9.50785
▁excelente	-9.50871
▁decisión	-9.50882
▁wide	-9.50893
▁i	-9.5094
▁posición	-9.50962
▁motivo	-9.5101
▁familia	-9.51036
▁Go	-9.51073
▁persona	-9.51081
▁include	-9.51146
▁2005	-9.51172
nova	-9.51193
▁van	-9.51228
▁mano	-9.51248
▁medida	-9.51269
up	-9.51273
▁practice	-9.51323
tribu	-9.51327
+	-9.51327
▁estrategia	-9.51435
▁rest	-9.51445
▁might	-9.51445
mis	-9.51511
▁21	-9.51571
ou	-9.51578
cial	-9.51713
▁oportunidad	-9.51789
▁creación	-9.51834
▁heart	-9.5184
▁2004	-9.51969
rre	-9.52065
▁minutes	-9.52066
▁TV	-9.52239
▁industrial	-9.52332
▁management	-9.52344
▁interest	-9.52414
Q	-9.52516
▁relativa	-9.52552
ores	-9.52588
▁minutos	-9.52699
antes	-9.52881
▁essential	-9.52926
ef	-9.52977
cional	-9.52983
▁factor	-9.52993
ño	-9.53017
▁legislación	-9.53031
tle	-9.53055
▁campo	-9.53161
bol	-9.53166
▁never	-9.53286
▁gana	-9.53343
▁reg	-9.53374
▁acción	-9.53451
▁industria	-9.53461
▁thing	-9.53596
ü	-9.53809
▁obstante	-9.53837
▁todavía	-9.53842
▁Web	-9.54045
iente	-9.54132
▁falta	-9.54162
udi	-9.54163
▁estoy	-9.54167
▁until	-9.54224
▁proposals	-9.54463
▁entonces	-9.54547
▁resulta	-9.54583
▁difícil	-9.54671
$	-9.54707
▁private	-9.54711
▁UN	-9.54899
ating	-9.54907
▁ningún	-9.54957
▁light	-9.55091
▁produce	-9.5532
tado	-9.55386
▁draw	-9.55395
▁Barcelona	-9.55432
▁aim	-9.55445
ctor	-9.55483
▁safety	-9.55581
▁40	-9.55584
ated	-9.55611
▁alto	-9.55613
rios	-9.5562
▁funciona	-9.55659
▁function	-9.5581
▁utilizar	-9.55814
tter	-9.56026
▁society	-9.56103
▁sería	-9.56141
ze	-9.56235
▁viaje	-9.56272
▁opera	-9.56391
▁presenta	-9.56409
▁ayudar	-9.56433
▁travel	-9.56436
CE	-9.56459
▁suficiente	-9.56557
ement	-9.56563
▁fully	-9.56619
▁freedom	-9.56639
oso	-9.56665
▁My	-9.56701
▁yet	-9.56709
▁nuclear	-9.56733
mina	-9.5686
▁implement	-9.56873
▁side	-9.56945
▁Pri	-9.57044
▁contenido	-9.57047
▁accept	-9.57092
▁similar	-9.57112
▁población	-9.57194
▁Je	-9.57215
▁grave	-9.57225
▁hours	-9.57242
▁require	-9.57344
▁One	-9.57535
▁lleva	-9.57556
fre	-9.5759
▁concerned	-9.57645
▁enter	-9.57711
osa	-9.57733
▁authorities	-9.5778
▁normal	-9.57781
▁Ver	-9.57789
▁utiliza	-9.57906
▁sur	-9.57923
AS	-9.57994
▁border	-9.58036
van	-9.58038
▁attention	-9.58081
ín	-9.58142
▁discuss	-9.58222
ile	-9.58257
terna	-9.58387
▁sure	-9.58388
▁policies	-9.58399
▁Ahora	-9.58543
▁resultados	-9.5859
▁siendo	-9.58803
▁Derecho	-9.58918
▁step	-9.58926
▁enmienda	-9.58998
▁days	-9.59
ging	-9.5902
▁card	-9.59086
▁importance	-9.59124
▁often	-9.59198
▁check	-9.59313
▁members	-9.59326
▁votación	-9.59332
▁fácil	-9.59342
▁serie	-9.59362
let	-9.59365
tory	-9.59507
via	-9.5962
▁rath	-9.59669
SE	-9.5978
rnos	-9.59903
▁protect	-9.6002
qua	-9.60035
▁pesca	-9.60079
pul	-9.60123
posi	-9.60163
▁extreme	-9.60332
ised	-9.60339
▁understand	-9.60442
▁due	-9.60452
▁May	-9.605
uel	-9.60507
▁autoridades	-9.60566
▁plantea	-9.60603
▁seem	-9.60643
▁young	-9.60681
the	-9.60696
▁responsibility	-9.60882
▁value	-9.60885
▁medios	-9.60895
▁posibilidad	-9.6092
▁Servicio	-9.60924
▁implica	-9.60932
▁revis	-9.60938
▁near	-9.60974
▁lista	-9.60997
▁systems	-9.61004
és	-9.61016
▁game	-9.61074
▁llevar	-9.6109
▁éxito	-9.61095
▁export	-9.61206
▁financiera	-9.61237
▁viola	-9.61282
▁direct	-9.61301
▁front	-9.61337
▁comunicación	-9.6135
▁dinero	-9.614
▁words	-9.61553
▁ninguna	-9.6159
▁Sol	-9.61675
▁provision	-9.61681
▁solución	-9.61681
fil	-9.61701
▁deal	-9.61719
▁ago	-9.61721
▁town	-9.61731
▁price	-9.61871
▁version	-9.61899
▁sistemas	-9.61906
▁Israel	-9.62016
ula	-9.62056
▁Members	-9.62133
cado	-9.62238
▁conjunto	-9.62276
▁señal	-9.62291
▁pesar	-9.62295
▁provided	-9.62298
▁restaurante	-9.62336
▁fight	-9.62361
wn	-9.62431
▁san	-9.62471
▁left	-9.6249
▁trabajadores	-9.62574
▁fuerte	-9.62756
▁seguro	-9.62914
cin	-9.62997
▁plu	-9.63026
▁diputados	-9.63053
▁miembro	-9.6308
▁image	-9.63221
▁record	-9.63242
▁principle	-9.63393
▁Desde	-9.63471
mun	-9.63565
▁talk	-9.63571
▁dan	-9.63574
▁Comp	-9.6358
▁Service	-9.63587
cido	-9.63627
▁answer	-9.63707
▁animal	-9.63713
▁22	-9.63797
▁fuerza	-9.63812
▁rural	-9.63845
▁greater	-9.63887
▁2003	-9.64018
▁precio	-9.64044
▁via	-9.64056
▁mantener	-9.64105
▁balance	-9.64116
▁frente	-9.64122
▁Euro	-9.64176
▁groups	-9.64239
▁existen	-9.64239
▁fund	-9.64272
viv	-9.64294
▁compet	-9.64448
▁digital	-9.64478
▁responsible	-9.64537
vision	-9.64544
▁focus	-9.64668
▁fall	-9.64782
▁sociales	-9.64855
▁Hoteles	-9.64874
▁Russia	-9.64883
▁puesto	-9.6491
▁efecto	-9.64934
▁Central	-9.65055
▁Spanish	-9.6507
▁hard	-9.65155
DA	-9.65181
▁night	-9.65221
▁stand	-9.65252
vic	-9.65411
▁Now	-9.65434
0	-9.6544
▁space	-9.65471
▁habla	-9.65532
ju	-9.65619
EL	-9.65772
tors	-9.65852
▁strategy	-9.65909
▁conseguir	-9.66094
cle	-9.66101
▁meses	-9.66129
▁comercio	-9.66244
▁sala	-9.6627
о	-9.66299
▁grupos	-9.66316
▁casos	-9.6646
▁prepar	-9.66693
bil	-9.6671
lí	-9.66724
jar	-9.66755
▁moment	-9.66766
▁proyectos	-9.66824
▁diferencia	-9.66841
▁ten	-9.66885
by	-9.66963
▁igual	-9.66988
è	-9.67019
llo	-9.67141
▁read	-9.67144
▁minor	-9.67163
▁employment	-9.67208
▁charge	-9.67279
▁orienta	-9.67303
▁asunto	-9.6733
▁principales	-9.67376
▁tendrá	-9.67379
▁dice	-9.67406
▁político	-9.67418
ions	-9.67499
bar	-9.675
▁along	-9.67533
arios	-9.67595
▁station	-9.67644
▁euros	-9.67702
lá	-9.67705
▁según	-9.67731
▁exterior	-9.67776
▁crecimiento	-9.67789
▁model	-9.68034
▁internal	-9.68068
▁cap	-9.68069
▁buen	-9.68135
▁online	-9.68194
▁dado	-9.68202
▁peace	-9.68215
▁2002	-9.68224
▁varios	-9.68317
ification	-9.68319
▁precios	-9.68339
▁decisiones	-9.68376
ris	-9.6838
▁situado	-9.6848
▁Directiva	-9.68482
illa	-9.68487
▁head	-9.68583
ificación	-9.68612
▁casi	-9.6871
▁mil	-9.68715
▁2001	-9.68726
▁Wa	-9.68742
▁mejora	-9.68769
▁objeto	-9.68844
▁proposed	-9.68923
nico	-9.68985
tch	-9.69003
▁easy	-9.69078
▁solution	-9.69104
▁range	-9.69142
▁dirección	-9.6923
▁marca	-9.69289
▁American	-9.69294
▁Final	-9.69324
▁primero	-9.69364
our	-9.69388
▁Que	-9.69417
▁community	-9.69467
▁puntos	-9.695
▁totalmente	-9.69507
bur	-9.69508
50	-9.69556
▁positive	-9.69572
▁beautiful	-9.69664
▁ocupa	-9.6969
▁class	-9.69751
▁clearly	-9.69788
dra	-9.69796
▁star	-9.69882
▁regula	-9.69924
▁internacionales	-9.69932
ire	-9.69956
▁known	-9.6998
▁mañana	-9.70027
▁Th	-9.70078
▁commitment	-9.7011
▁website	-9.70142
AC	-9.70237
▁Minister	-9.70245
ON	-9.70294
▁link	-9.70364
fla	-9.70371
▁date	-9.70388
▁operation	-9.70464
▁relaciones	-9.70497
▁popular	-9.70501
▁23	-9.7055
▁above	-9.70572
▁puedan	-9.70603
▁regulation	-9.7061
▁stop	-9.70664
▁prueba	-9.70705
▁professional	-9.70707
nza	-9.70708
▁option	-9.70781
▁sean	-9.70835
▁send	-9.70849
▁enough	-9.7087
▁technology	-9.70893
poli	-9.70929
▁return	-9.70937
▁committee	-9.70966
act	-9.71001
▁appear	-9.71065
▁esencial	-9.71125
cru	-9.71133
izada	-9.71177
simply	-9.7122
▁fondos	-9.71248
▁depend	-9.71265
▁breakfast	-9.71266
▁prop	-9.71302
▁growth	-9.71353
ow	-9.7137
▁regiones	-9.71376
▁respond	-9.71376
▁sta	-9.71413
▁package	-9.71419
LA	-9.71421
▁estrellas	-9.71572
her	-9.71595
▁involved	-9.71604
▁points	-9.71688
▁months	-9.71709
▁Fin	-9.71891
▁EUR	-9.71975
▁men	-9.72056
▁internet	-9.72057
▁propio	-9.72064
▁modelo	-9.72119
▁How	-9.72132
voted	-9.72141
put	-9.72173
IS	-9.72181
▁facilities	-9.72202
▁promote	-9.72228
▁conven	-9.72236
ium	-9.7226
▁Ch	-9.72507
té	-9.72557
ona	-9.72568
ising	-9.72571
▁luego	-9.72597
▁tool	-9.726
▁Gi	-9.72619
▁economy	-9.72718
▁bus	-9.72727
▁tell	-9.72752
▁results	-9.72872
▁supuesto	-9.73085
▁camino	-9.731
▁conduct	-9.73131
▁formula	-9.73162
▁Col	-9.73183
▁regular	-9.73262
illo	-9.73269
▁paz	-9.73307
▁workers	-9.73307
▁estructura	-9.73326
▁lograr	-9.73327
bal	-9.73331
ker	-9.73363
▁observa	-9.73386
▁sign	-9.73408
▁living	-9.73431
▁impact	-9.73451
▁espera	-9.73469
▁doing	-9.73487
ah	-9.73628
vin	-9.73656
▁big	-9.73683
▁democracia	-9.73754
ify	-9.73792
ach	-9.73809
▁aspectos	-9.73938
ps	-9.73947
▁population	-9.73948
vie	-9.74032
▁negociaciones	-9.74034
▁cantidad	-9.74091
▁amount	-9.74096
▁discussion	-9.74152
▁próximo	-9.74197
▁addition	-9.74215
▁implementation	-9.74245
flu	-9.74249
out	-9.74371
▁competition	-9.74414
gri	-9.74446
ped	-9.74464
▁prefer	-9.74495
ifica	-9.74601
▁projects	-9.74622
▁efforts	-9.74631
▁trabaja	-9.74746
icio	-9.7482
▁treatment	-9.74833
▁team	-9.74836
▁extend	-9.74989
▁office	-9.75076
▁alguna	-9.75097
▁Presidency	-9.75155
▁políticos	-9.75198
▁develop	-9.75234
▁mejores	-9.75286
▁Ya	-9.75305
▁saber	-9.75312
▁única	-9.75329
fin	-9.75333
▁Sra	-9.75384
▁iniciativa	-9.75406
▁technical	-9.75413
▁habitación	-9.75456
zi	-9.75591
dro	-9.75595
▁Val	-9.75605
▁conocimiento	-9.75655
▁meet	-9.75675
▁times	-9.75678
▁recent	-9.75754
▁restaurant	-9.75764
▁paquete	-9.7582
▁upon	-9.75911
net	-9.75975
▁run	-9.75977
▁últimos	-9.76007
▁et	-9.76067
▁acaba	-9.76087
▁dejar	-9.76121
▁Cuand	-9.76194
▁road	-9.76302
▁completa	-9.76316
▁queremos	-9.76318
▁procedimiento	-9.76357
ties	-9.7638
▁significant	-9.76439
ían	-9.76477
▁forest	-9.76509
▁source	-9.76568
▁necesidades	-9.76615
▁conserva	-9.76656
▁reco	-9.76675
▁Asunto	-9.76717
▁toma	-9.76766
adores	-9.76767
para	-9.76921
ö	-9.76944
▁Office	-9.77038
cing	-9.77069
▁standards	-9.7712
cord	-9.772
▁hold	-9.77201
log	-9.77221
▁aplica	-9.77375
tación	-9.77384
▁purpose	-9.77446
▁palabras	-9.77491
▁America	-9.775
mbra	-9.77509
▁bio	-9.77524
▁creat	-9.77598
row	-9.77618
▁democracy	-9.77625
rico	-9.7765
pen	-9.7767
▁others	-9.77738
▁provides	-9.77815
torio	-9.77817
▁clean	-9.77822
az	-9.7786
VI	-9.77871
▁currently	-9.7798
▁partes	-9.78005
▁school	-9.78036
▁five	-9.7807
▁Government	-9.7812
▁incorpora	-9.78171
▁mind	-9.78198
▁estaba	-9.78236
▁regions	-9.7824
▁democratic	-9.78348
ró	-9.78391
▁propone	-9.78432
▁character	-9.78538
ugh	-9.78541
char	-9.78658
▁escala	-9.78783
ep	-9.78794
▁climate	-9.78798
▁Fu	-9.78811
▁receive	-9.78828
igo	-9.78838
▁cuatro	-9.78861
▁everything	-9.78867
▁cover	-9.789
nea	-9.78903
▁basic	-9.7892
▁method	-9.7898
▁communication	-9.7902
▁entrada	-9.79029
▁Internacional	-9.79043
▁corre	-9.79051
▁zonas	-9.79073
▁add	-9.79087
▁themselves	-9.79293
▁baño	-9.79475
▁negotiations	-9.796
ists	-9.79641
▁Let	-9.79653
▁Cámara	-9.79682
▁hablar	-9.79693
▁refiere	-9.79699
▁enable	-9.79749
▁questions	-9.79757
▁fueron	-9.79795
▁evitar	-9.79799
▁Sta	-9.79831
ér	-9.79832
▁ideas	-9.79885
▁maintain	-9.79977
bel	-9.79997
ments	-9.80032
AT	-9.80044
▁appropriate	-9.80071
zca	-9.80176
▁realizado	-9.80184
▁Reglamento	-9.80233
ED	-9.80378
▁raise	-9.80437
▁cases	-9.80469
▁views	-9.80519
▁needed	-9.80564
▁apply	-9.80605
▁apartment	-9.80704
▁demás	-9.80741
PA	-9.80764
▁informa	-9.80771
20	-9.80779
▁playa	-9.80788
▁1999	-9.80803
ordina	-9.80838
▁obtener	-9.80955
▁tierra	-9.81007
▁familiar	-9.81027
▁fair	-9.81081
▁training	-9.81108
▁Fe	-9.81157
▁developing	-9.8117
▁activa	-9.81186
eros	-9.81237
▁socio	-9.81255
▁strengthen	-9.81349
▁período	-9.81402
▁South	-9.81483
bat	-9.81514
AD	-9.81528
▁held	-9.81609
nica	-9.81648
▁follow	-9.8167
▁plant	-9.81679
misión	-9.81684
▁principios	-9.81712
board	-9.81775
stro	-9.81778
▁suite	-9.81786
▁Qué	-9.81793
▁Ru	-9.81873
roga	-9.81876
hu	-9.81945
▁culture	-9.82016
EN	-9.82047
▁interests	-9.82048
▁asegurar	-9.82106
tera	-9.82162
▁puedo	-9.82165
volv	-9.82171
ego	-9.82214
▁reducir	-9.823
▁import	-9.8235
lan	-9.82372
▁au	-9.8242
▁eco	-9.82422
▁mensaje	-9.82432
▁dura	-9.82593
▁establish	-9.8281
▁proporciona	-9.8281
imiento	-9.82813
▁treat	-9.82825
RA	-9.82934
▁success	-9.8297
▁000	-9.8304
▁debido	-9.83072
▁Qui	-9.83092
▁esfuerzos	-9.83161
unt	-9.83209
▁apoya	-9.83235
▁comfortable	-9.83251
ció	-9.83299
▁evaluación	-9.83342
▁Chi	-9.83362
▁diseño	-9.83366
ento	-9.83377
ena	-9.83413
▁interpret	-9.83416
▁procedure	-9.83445
▁consumidores	-9.83446
▁noche	-9.83477
▁tecnología	-9.83532
30	-9.83593
▁esos	-9.83694
▁obra	-9.838
▁previous	-9.83812
form	-9.83858
▁nature	-9.83893
ub	-9.83907
▁dia	-9.83931
▁investiga	-9.83934
▁presentar	-9.83948
▁Ve	-9.84006
▁Du	-9.84037
▁deseo	-9.84087
▁haga	-9.84124
mple	-9.84153
ize	-9.84165
TE	-9.84184
▁transfer	-9.84188
▁Court	-9.84196
▁permit	-9.84202
▁aquellos	-9.84268
▁Va	-9.84284
vel	-9.84362
▁required	-9.84363
▁size	-9.84427
▁organisation	-9.84429
▁Yo	-9.84456
▁u	-9.84514
▁sigue	-9.84517
rig	-9.84543
▁costs	-9.84557
▁true	-9.84562
▁select	-9.8462
▁connection	-9.84695
▁producto	-9.84697
▁ci	-9.8479
▁relat	-9.84827
▁makes	-9.8488
▁sab	-9.84917
presión	-9.84923
lica	-9.84967
▁consulta	-9.84984
vid	-9.84999
▁Pla	-9.85022
▁spa	-9.85073
▁Spain	-9.85166
▁técnica	-9.8523
mu	-9.85244
▁diálogo	-9.85248
▁tenido	-9.85254
▁disfrutar	-9.85277
▁though	-9.85483
TA	-9.85484
cept	-9.85589
▁segunda	-9.85594
toria	-9.85607
▁apoyar	-9.85622
▁tranquil	-9.85654
▁foto	-9.85687
mic	-9.85718
mé	-9.85751
cciones	-9.85754
▁statement	-9.85786
SA	-9.85793
▁prove	-9.85821
▁context	-9.85897
LE	-9.8594
▁walk	-9.85951
▁India	-9.85962
▁exc	-9.85986
▁manifest	-9.85995
▁according	-9.86013
▁27	-9.86064
▁Bal	-9.86087
▁Air	-9.86105
ins	-9.86122
▁organizaciones	-9.86132
cc	-9.86145
▁confirm	-9.86314
pira	-9.86384
▁demasiado	-9.86386
▁vistas	-9.8646
▁condition	-9.86467
temp	-9.86472
▁error	-9.86516
▁nunca	-9.86576
eja	-9.86608
▁player	-9.86669
▁recon	-9.86674
▁Nuestro	-9.86674
▁dicha	-9.86743
▁busca	-9.86747
▁trabajar	-9.86767
cier	-9.86779
▁Hi	-9.868
▁investment	-9.86818
▁combat	-9.86833
е	-9.86963
ias	-9.86963
▁elabora	-9.87026
▁concentra	-9.87027
▁Sch	-9.87031
▁looking	-9.87112
▁60	-9.87258
aba	-9.87272
▁ampliación	-9.87274
▁referencia	-9.87301
▁partir	-9.87306
cien	-9.87402
rich	-9.87415
▁acciones	-9.87419
▁inform	-9.87474
▁longer	-9.87477
▁comunidad	-9.8753
▁France	-9.87618
▁music	-9.87696
quí	-9.87711
▁ejercicio	-9.8778
▁tratamiento	-9.8782
▁cuales	-9.8782
▁Esper	-9.87905
▁majority	-9.88225
ien	-9.88232
▁deliver	-9.88348
vari	-9.88351
lia	-9.8836
▁pr	-9.88399
а	-9.88432
▁history	-9.88434
▁Thank	-9.88451
abilidad	-9.88481
har	-9.88574
▁fuente	-9.88592
▁votado	-9.88614
▁exact	-9.88693
én	-9.88713
▁Inter	-9.88713
▁establecer	-9.88715
▁Hu	-9.8881
▁Roma	-9.8889
▁cultura	-9.889
▁vital	-9.88903
▁item	-9.88905
▁aplicar	-9.88977
▁love	-9.88981
mal	-9.8899
▁Puede	-9.89059
▁draft	-9.89135
RO	-9.89212
▁intereses	-9.89309
▁land	-9.89311
▁seek	-9.89316
▁anterior	-9.8936
▁ella	-9.89367
▁target	-9.89374
▁Park	-9.89385
▁effect	-9.8939
▁ground	-9.89435
▁Some	-9.89449
▁learn	-9.89526
visión	-9.89529
▁Dr	-9.89573
▁radio	-9.89634
▁objective	-9.89663
▁ofrecer	-9.89673
▁pool	-9.89673
▁knowledge	-9.89702
▁throughout	-9.89734
▁try	-9.89794
▁labor	-9.89813
▁After	-9.89836
▁acepta	-9.89883
▁ir	-9.89893
▁computer	-9.89937
IN	-9.90013
▁comercial	-9.90017
▁tenía	-9.90043
▁distribu	-9.90044
ira	-9.90055
▁reduce	-9.90181
▁included	-9.90235
▁Naciones	-9.90255
▁benefit	-9.90255
▁Gran	-9.90282
▁comes	-9.90405
▁Lisboa	-9.90426
rlo	-9.90454
▁related	-9.90499
▁siglo	-9.90566
▁author	-9.90578
rup	-9.90597
▁planta	-9.90641
legi	-9.90662
▁parties	-9.90672
▁rate	-9.90688
rí	-9.90715
▁created	-9.90784
▁user	-9.90786
▁Africa	-9.908
▁produc	-9.90805
dora	-9.90885
▁educación	-9.90915
▁lado	-9.90923
▁participación	-9.90986
▁mini	-9.90987
figura	-9.9101
▁firm	-9.91012
▁structure	-9.91047
win	-9.91072
medi	-9.91121
▁writing	-9.91123
▁España	-9.91155
ably	-9.91185
▁mail	-9.91232
▁crucial	-9.91246
spite	-9.91296
▁dé	-9.91313
▁relax	-9.9133
▁pago	-9.91336
▁adoptar	-9.91392
▁agricultural	-9.91402
una	-9.91447
tir	-9.91451
▁formación	-9.9147
▁comment	-9.91525
guard	-9.91535
▁cinco	-9.91547
▁either	-9.91554
▁esté	-9.91617
▁mí	-9.91627
ization	-9.91641
▁conflict	-9.91681
scribe	-9.91683
▁jóvenes	-9.91696
mbre	-9.91707
▁enorme	-9.91712
▁adecuada	-9.91728
▁log	-9.91849
▁transform	-9.91905
▁stage	-9.91949
▁Of	-9.91977
▁considerable	-9.92013
▁solicita	-9.92029
▁funds	-9.92036
ecto	-9.92044
▁usar	-9.92047
tina	-9.92074
и	-9.92077
dir	-9.92158
▁crime	-9.92163
▁elimina	-9.92171
▁herramienta	-9.92181
▁organization	-9.92283
▁programmes	-9.92352
tá	-9.92372
▁choice	-9.92437
rum	-9.92479
▁outside	-9.92533
use	-9.92589
▁fiscal	-9.92683
▁contribution	-9.92715
▁across	-9.92717
CI	-9.9277
▁compañía	-9.92871
▁Todos	-9.92958
▁bastante	-9.93002
▁agrícola	-9.93047
▁movement	-9.93073
ug	-9.93128
▁enfoque	-9.93133
▁experiment	-9.93211
more	-9.93264
▁join	-9.93373
ear	-9.93487
▁floor	-9.93526
▁death	-9.93658
▁soon	-9.93661
▁Lisbon	-9.93717
▁took	-9.93735
▁aumento	-9.93785
ix	-9.93855
▁contacto	-9.93855
han	-9.9386
▁estable	-9.93885
▁official	-9.93922
▁motor	-9.93933
▁recibir	-9.93961
▁nothing	-9.93972
▁permitir	-9.94014
▁changes	-9.94045
▁camp	-9.94051
.1	-9.94068
▁although	-9.94086
▁task	-9.94122
▁cut	-9.94156
serv	-9.94205
▁fecha	-9.9422
tima	-9.94234
▁Ge	-9.9427
▁serán	-9.94304
.5	-9.94316
▁aware	-9.94326
ball	-9.9437
▁correct	-9.9438
▁incluye	-9.94396
▁Social	-9.94409
mica	-9.94469
▁clara	-9.94477
tico	-9.9448
▁agenda	-9.94513
▁top	-9.94538
gent	-9.94553
▁urban	-9.94554
▁estima	-9.94616
▁eficaz	-9.9467
▁hacerlo	-9.94715
▁instalaciones	-9.94723
▁aire	-9.94751
▁tarea	-9.94845
▁Unidas	-9.94892
▁Article	-9.94909
▁cocina	-9.94911
▁bas	-9.9498
▁varias	-9.94985
▁contexto	-9.9501
▁lack	-9.95031
▁contrario	-9.95063
▁participa	-9.95091
▁events	-9.95097
▁colegas	-9.95201
ib	-9.95202
▁método	-9.9527
▁message	-9.95277
▁vía	-9.95319
▁valores	-9.9538
▁designed	-9.9539
▁comunitaria	-9.95457
▁leave	-9.95486
▁disco	-9.95536
▁gene	-9.95562
▁seen	-9.95635
vir	-9.95649
▁joint	-9.9566
▁español	-9.95679
qual	-9.95704
▁came	-9.95706
▁reunión	-9.95712
▁equal	-9.95716
lega	-9.95741
ivos	-9.9575
▁file	-9.95771
▁europeas	-9.95826
print	-9.95851
à	-9.95857
▁carga	-9.95916
▁quien	-9.95934
▁directly	-9.96004
▁comunitario	-9.96008
▁director	-9.9601
▁equip	-9.96015
MA	-9.96024
▁safe	-9.96062
▁guerra	-9.96085
lt	-9.96104
ería	-9.96148
▁www	-9.96285
pra	-9.96322
▁friendly	-9.96386
cida	-9.96417
▁explica	-9.96436
▁modifi	-9.96438
▁dialogue	-9.96441
▁Che	-9.96488
▁response	-9.96556
hy	-9.96559
▁standard	-9.96622
▁tele	-9.96625
▁French	-9.96685
▁Sal	-9.96692
▁visita	-9.96705
▁creation	-9.96748
▁conflicto	-9.96872
▁concreta	-9.96872
▁bank	-9.96918
▁superior	-9.96938
▁ustedes	-9.96963
▁lugares	-9.97
▁Windows	-9.97017
▁cast	-9.97102
len	-9.97129
▁mon	-9.9716
▁bit	-9.97198
▁From	-9.97226
▁foreign	-9.97292
▁identifica	-9.97354
ok	-9.97414
IC	-9.97469
ST	-9.97508
▁qui	-9.97511
▁got	-9.9753
▁developed	-9.97562
TO	-9.97563
▁conference	-9.97577
avi	-9.97605
ora	-9.97606
▁study	-9.97646
volu	-9.97664
▁Fund	-9.97672
igu	-9.97779
fini	-9.97805
▁Au	-9.97877
ular	-9.97885
ors	-9.97923
nel	-9.97986
▁versión	-9.9799
▁active	-9.98097
gin	-9.98124
tric	-9.98133
▁objectives	-9.98206
ified	-9.98211
▁expert	-9.98213
▁Affairs	-9.9823
▁pat	-9.9833
▁reduc	-9.9844
vio	-9.98454
▁alcanzar	-9.9846
tent	-9.98467
▁Ac	-9.98485
sis	-9.98525
burg	-9.98596
▁financiación	-9.98644
bin	-9.98653
▁conclusion	-9.98655
▁usuarios	-9.98658
▁solamente	-9.98675
plaza	-9.98689
▁peligro	-9.98712
▁necesitamos	-9.98728
▁actividad	-9.98733
ughter	-9.98753
▁ellas	-9.98763
▁tarde	-9.98795
▁style	-9.98798
▁ref	-9.98811
▁Sur	-9.98976
▁relations	-9.99029
▁preocupa	-9.99032
▁continua	-9.99047
▁Son	-9.99068
puesto	-9.99071
▁sense	-9.99072
▁sound	-9.99081
▁Costa	-9.99169
▁presta	-9.99182
▁poor	-9.99244
▁haciendo	-9.99248
▁potential	-9.99254
▁observ	-9.9927
▁combina	-9.99336
▁compra	-9.99342
▁Nor	-9.9938
▁Tribunal	-9.99401
ew	-9.99416
▁edificio	-9.99436
▁Latin	-9.99463
gua	-9.99464
€	-9.99484
▁actualmente	-9.99517
tores	-9.99517
▁FR	-9.99521
▁bueno	-9.99603
▁die	-9.99604
▁setting	-9.9961
plo	-9.99692
▁app	-9.99758
▁concerning	-9.99786
▁six	-9.99795
hold	-9.99848
▁traditional	-9.99863
qu	-9.99866
▁interven	-9.99878
▁Ber	-9.99937
▁perspectiva	-10.0002
▁obliga	-10.0016
▁organización	-10.002
pensa	-10.0021
cimiento	-10.0021
▁esas	-10.0024
▁customers	-10.0027
ping	-10.0028
▁decisions	-10.0033
▁hombres	-10.0034
▁estilo	-10.0035
▁please	-10.0036
▁states	-10.0041
Г	-10.0061
nom	-10.0067
itar	-10.007
▁guests	-10.0074
set	-10.0075
▁presentado	-10.0079
▁desarrollar	-10.0083
▁She	-10.0098
▁center	-10.0099
▁table	-10.0102
▁incluido	-10.0103
▁sport	-10.0103
del	-10.0105
▁cur	-10.0114
▁Mer	-10.012
▁bed	-10.0125
▁miles	-10.0127
▁host	-10.0128
▁comunica	-10.0137
▁tren	-10.014
▁cierta	-10.0157
▁Ke	-10.0159
▁invita	-10.0165
▁clase	-10.0166
▁client	-10.0167
▁militar	-10.0175
pu	-10.0182
low	-10.0183
rie	-10.019
▁secret	-10.0193
▁Camp	-10.0198
▁quienes	-10.0199
▁Bas	-10.0199
▁Ab	-10.0205
estre	-10.0205
▁reflect	-10.0207
▁disc	-10.0211
10	-10.0215
▁complement	-10.022
zar	-10.0221
▁Fo	-10.0227
▁arte	-10.023
ken	-10.023
С	-10.0233
▁pen	-10.0237
▁enfrenta	-10.0242
tivas	-10.0246
ä	-10.0255
▁beach	-10.0256
▁begin	-10.0257
▁disease	-10.0258
▁century	-10.0259
▁review	-10.0267
▁teléfono	-10.0269
▁Amendment	-10.027
▁Turkey	-10.0272
▁Convention	-10.0274
▁Ko	-10.0274
▁By	-10.0275
▁Reg	-10.028
▁jobs	-10.0286
clar	-10.0287
▁half	-10.029
▁Im	-10.0292
▁tengo	-10.0293
▁additional	-10.0295
▁tenga	-10.0296
ñ	-10.0298
▁respeto	-10.0298
н	-10.0298
▁Fondo	-10.0302
▁amenaza	-10.0315
▁disposición	-10.032
▁Rusia	-10.0322
▁origin	-10.0325
mil	-10.0334
gon	-10.0335
▁requirements	-10.0336
ult	-10.034
▁imagen	-10.0344
▁job	-10.0348
▁función	-10.0352
▁representative	-10.0356
▁bathroom	-10.0359
▁relevant	-10.0364
▁amendment	-10.0369
ham	-10.037
▁constituye	-10.0371
▁equipped	-10.0373
▁Ci	-10.0375
parti	-10.0382
▁credit	-10.0382
ica	-10.0382
▁términos	-10.0382
▁encourage	-10.0383
▁muestra	-10.0389
▁llega	-10.0391
▁thought	-10.0393
▁locales	-10.0394
pri	-10.0395
▁unique	-10.0398
cita	-10.0403
ici	-10.0408
▁Ministro	-10.0409
▁clave	-10.0411
▁IN	-10.0415
wood	-10.0419
org	-10.0421
▁club	-10.0424
▁dijo	-10.0426
▁resto	-10.0429
▁apartamento	-10.0437
▁Comunidad	-10.0439
▁National	-10.044
▁nu	-10.0442
▁hacen	-10.0442
▁venta	-10.0447
▁interesa	-10.045
▁completely	-10.0454
▁features	-10.0462
▁micro	-10.0469
▁preguntas	-10.0472
egu	-10.0475
▁afirma	-10.0476
▁disponible	-10.0481
▁pasar	-10.0481
▁asked	-10.0487
▁body	-10.0492
CA	-10.0493
▁received	-10.0493
▁reproduc	-10.0499
▁palabra	-10.0501
▁usuario	-10.0501
▁carry	-10.0506
▁month	-10.0511
cade	-10.0512
ious	-10.0514
ang	-10.0517
▁grande	-10.0517
▁component	-10.0523
▁member	-10.0524
▁double	-10.0529
▁York	-10.0532
▁curso	-10.0535
▁users	-10.0551
gt	-10.0552
ney	-10.0553
▁cross	-10.0559
▁drug	-10.0561
▁child	-10.0561
▁Tenemo	-10.0565
ade	-10.0565
▁fundamentales	-10.0566
▁Turquía	-10.0566
▁Asamblea	-10.0567
anza	-10.0578
▁ley	-10.0585
▁fail	-10.0586
▁introduce	-10.059
▁insist	-10.0594
▁avoid	-10.0594
▁expresa	-10.0597
▁consecuencia	-10.0598
organ	-10.0598
▁define	-10.0604
▁Está	-10.0605
tuvo	-10.0612
grade	-10.0614
▁proteger	-10.0622
▁realiza	-10.0624
▁situated	-10.0625
▁indeed	-10.0627
▁cambiar	-10.0629
▁calle	-10.063
▁successful	-10.0632
usa	-10.0635
▁later	-10.0636
▁everyone	-10.0639
có	-10.064
▁CO	-10.0647
body	-10.0651
▁Ven	-10.0657
ç	-10.0658
▁Art	-10.0663
pac	-10.0664
▁completo	-10.0664
▁cambios	-10.0665
▁Her	-10.0668
▁penal	-10.0671
▁rent	-10.0671
DE	-10.0672
▁alrededor	-10.0677
▁deberían	-10.0677
▁criminal	-10.0678
▁goal	-10.0679
lent	-10.0684
▁reasons	-10.0685
.2	-10.0691
zz	-10.0696
.0	-10.0696
▁obtain	-10.0708
▁construcción	-10.071
IP	-10.0712
▁Quiero	-10.0714
var	-10.0715
mbo	-10.0728
▁street	-10.073
▁tarjeta	-10.0732
▁Hemos	-10.0739
▁gal	-10.0742
▁regarding	-10.0749
▁sexual	-10.0749
▁lengua	-10.0752
▁acuerdos	-10.0754
pli	-10.0755
▁amplio	-10.0759
▁Asia	-10.0766
▁aeropuerto	-10.0766
▁fisher	-10.0766
▁asocia	-10.0768
▁cliente	-10.0771
▁muerte	-10.0771
▁80	-10.0771
▁200	-10.0775
neo	-10.0778
carried	-10.0778
80	-10.078
▁partido	-10.0784
▁Bri	-10.0787
▁animales	-10.0788
▁28	-10.0791
▁established	-10.0798
pren	-10.0801
▁Madrid	-10.0811
▁comisión	-10.0816
▁claramente	-10.0823
▁oferta	-10.0825
▁termina	-10.0828
▁expect	-10.0828
▁directamente	-10.0836
▁Rights	-10.0838
struc	-10.0845
SO	-10.0846
▁específica	-10.0846
▁word	-10.086
▁Ki	-10.0861
AM	-10.0881
ley	-10.0881
jan	-10.0882
▁English	-10.0883
where	-10.0883
▁existing	-10.0884
▁low	-10.0885
▁temas	-10.0886
▁Comisaria	-10.0889
▁26	-10.0893
▁aspecto	-10.0894
▁correo	-10.0898
▁Not	-10.0904
▁sostenible	-10.0905
▁violencia	-10.0912
stitution	-10.0913
Z	-10.0914
▁Sho	-10.0914
▁machine	-10.0915
▁direction	-10.0924
▁attack	-10.0929
▁efectos	-10.0935
▁aquel	-10.0943
®	-10.0948
▁rapid	-10.0957
mática	-10.0959
▁suffer	-10.0962
▁Vo	-10.0971
▁payment	-10.0973
▁comerciales	-10.0973
▁Room	-10.0984
▁release	-10.0989
▁detail	-10.0995
▁Mon	-10.0996
▁difference	-10.0997
▁encuentran	-10.1002
▁CD	-10.1005
▁mira	-10.1006
tract	-10.1009
▁Tur	-10.1012
ará	-10.1012
▁Cal	-10.1016
aron	-10.1019
▁adult	-10.1019
▁concept	-10.1042
▁electrónico	-10.1045
bia	-10.1048
▁sustainabl	-10.1052
ell	-10.1053
AP	-10.1065
▁compromise	-10.1067
▁simplemente	-10.1073
▁tradicional	-10.1077
ux	-10.108
▁gr	-10.109
▁Plan	-10.1091
▁self	-10.1095
▁violence	-10.1097
▁reducción	-10.1107
▁hospital	-10.1108
▁trip	-10.1113
▁Am	-10.1114
▁volver	-10.1118
▁search	-10.1119
ai	-10.112
▁guest	-10.1125
▁31	-10.1127
▁hear	-10.1127
▁nice	-10.113
▁integración	-10.113
▁verdad	-10.1132
▁estudio	-10.1134
▁evidente	-10.1136
▁opt	-10.1136
▁algún	-10.1138
▁click	-10.1141
▁damage	-10.1142
▁Paris	-10.1142
▁positivo	-10.1145
▁beginning	-10.1146
bilidad	-10.1148
RI	-10.1152
▁thus	-10.1155
▁stress	-10.1156
wer	-10.1157
▁Pen	-10.1157
▁establecimiento	-10.1163
▁II	-10.1163
▁consecuencias	-10.1172
▁menudo	-10.1181
▁doble	-10.1185
▁reglamento	-10.1186
▁labour	-10.1187
▁June	-10.1188
▁carácter	-10.1189
light	-10.1189
▁capacity	-10.1191
▁Fer	-10.1192
▁cargo	-10.1194
▁independiente	-10.1197
ID	-10.1204
▁comfort	-10.1212
media	-10.1216
▁built	-10.1216
▁consumers	-10.1217
▁Spa	-10.1218
▁relativo	-10.123
▁soluciones	-10.123
▁train	-10.1238
▁includes	-10.1238
▁Iraq	-10.1244
▁baja	-10.1246
▁coming	-10.1246
sha	-10.1246
▁rule	-10.1249
▁autor	-10.1249
▁principles	-10.1252
▁commercial	-10.1255
shop	-10.1257
▁naturaleza	-10.1258
▁airport	-10.1262
pic	-10.1263
J	-10.1264
▁values	-10.1265
▁allí	-10.1266
▁contribute	-10.1267
tical	-10.1288
plica	-10.1289
NO	-10.1293
▁vol	-10.1299
cies	-10.13
▁Second	-10.13
▁Mil	-10.1304
▁recently	-10.1307
dia	-10.1308
▁Santa	-10.132
▁concreto	-10.1325
▁early	-10.1326
▁impuesto	-10.1328
▁electric	-10.1339
▁entire	-10.1339
▁fondo	-10.1342
▁Inc	-10.1348
lé	-10.135
▁perhaps	-10.1353
▁Gra	-10.1357
tz	-10.1359
▁Mont	-10.1363
▁patent	-10.1365
▁29	-10.1371
▁military	-10.1377
▁island	-10.1378
▁recomend	-10.1382
dera	-10.1382
▁Free	-10.1386
▁aceptar	-10.1386
gun	-10.1391
▁December	-10.1395
▁aspects	-10.1396
cula	-10.1397
▁depende	-10.1413
▁pedir	-10.1414
▁pequeñas	-10.1415
▁court	-10.1418
▁recordar	-10.1419
▁libro	-10.1421
▁tercer	-10.1422
▁contiene	-10.1423
▁consult	-10.1424
▁contract	-10.1429
▁adhesión	-10.1429
▁luz	-10.1434
▁aumentar	-10.1441
▁tales	-10.1443
▁cosa	-10.1444
refore	-10.1445
▁enlargement	-10.1449
▁crédito	-10.145
▁advance	-10.145
UR	-10.1452
▁doubt	-10.1455
▁picture	-10.1462
ji	-10.147
▁exchange	-10.1472
▁área	-10.1472
▁junio	-10.1473
▁antiguo	-10.1476
▁thousand	-10.1482
▁assistance	-10.1484
т	-10.1485
▁procede	-10.1489
ourselves	-10.1495
▁Portugal	-10.1495
▁firme	-10.1502
▁visto	-10.1506
▁concepto	-10.1509
▁negocios	-10.151
▁cumplir	-10.1511
cup	-10.1517
▁elecciones	-10.1519
▁God	-10.152
▁sale	-10.1524
▁broad	-10.1526
SI	-10.1534
▁presented	-10.1536
▁confianza	-10.154
▁Business	-10.1546
▁espero	-10.1548
lf	-10.1548
▁wine	-10.1552
▁Human	-10.1553
ética	-10.1555
▁speed	-10.1559
▁fast	-10.1568
▁decided	-10.1573
▁alimentos	-10.1574
▁considered	-10.1576
▁preserv	-10.1579
▁priority	-10.1585
▁intenta	-10.1585
▁Gal	-10.1585
▁Estoy	-10.1586
▁whose	-10.1586
▁complex	-10.1589
▁à	-10.159
▁avance	-10.1592
ME	-10.1596
bul	-10.1606
▁respeta	-10.161
▁exige	-10.1612
▁tratar	-10.1613
▁solutions	-10.1616
▁garantiza	-10.1619
▁recommend	-10.1625
▁profesional	-10.1629
▁confi	-10.164
▁governments	-10.1646
pt	-10.1646
▁press	-10.1648
▁advantage	-10.1654
▁famous	-10.1654
▁started	-10.1655
HO	-10.1657
▁Isla	-10.1657
▁mercados	-10.1659
▁Del	-10.1662
▁quickly	-10.1666
▁providing	-10.1678
▁aporta	-10.1679
endo	-10.1682
▁party	-10.1684
▁lives	-10.1688
▁opportunities	-10.1688
▁compensa	-10.1689
▁niveles	-10.1696
▁install	-10.1698
▁ésta	-10.1704
▁reto	-10.1704
gna	-10.1709
SS	-10.1711
▁First	-10.1722
valu	-10.1724
▁corazón	-10.1725
LO	-10.173
▁teach	-10.1733
▁mismos	-10.1736
▁cama	-10.1741
▁límite	-10.1743
▁Gracias	-10.1748
▁manage	-10.1756
▁fraud	-10.1756
▁detalle	-10.1757
▁nor	-10.1758
▁levels	-10.1759
▁Dios	-10.1764
▁photo	-10.1764
▁billion	-10.1769
▁intervención	-10.1779
▁reject	-10.178
▁Eso	-10.179
▁35	-10.1791
▁ill	-10.1796
75	-10.18
▁EE	-10.1805
▁mecanismo	-10.1819
cip	-10.1821
▁responsable	-10.1823
▁age	-10.1824
▁funding	-10.1828
▁property	-10.1831
eño	-10.184
▁igualdad	-10.1846
▁foot	-10.1848
ip	-10.1849
▁pequeño	-10.1854
gel	-10.1855
▁Sha	-10.1856
▁decide	-10.1865
▁Francia	-10.187
MP	-10.1871
tec	-10.1873
▁prices	-10.1874
{	-10.1879
dge	-10.1881
▁judicial	-10.1884
▁saying	-10.1884
▁mountain	-10.1888
▁quizá	-10.1889
▁discover	-10.1891
▁Development	-10.1892
▁Linux	-10.1895
▁markets	-10.1899
▁display	-10.1899
bli	-10.19
▁East	-10.1911
▁relation	-10.1916
▁abandon	-10.1919
cil	-10.1921
▁Mundial	-10.1922
▁máximo	-10.1922
curso	-10.1922
▁ever	-10.1923
▁compromet	-10.193
▁warm	-10.193
▁oficial	-10.193
▁farm	-10.1931
▁Reino	-10.1932
▁equipment	-10.1932
▁Tu	-10.1938
▁code	-10.1941
▁Pal	-10.1942
▁documento	-10.1949
NA	-10.1953
▁progreso	-10.1953
▁origen	-10.1955
▁especie	-10.1955
▁defend	-10.1956
▁norte	-10.1957
▁Real	-10.1957
▁choose	-10.1967
▁90	-10.1968
▁fishing	-10.1969
ología	-10.197
▁deberá	-10.1977
▁His	-10.1978
script	-10.1978
▁verdadera	-10.198
▁transmit	-10.198
▁completamente	-10.1982
▁pun	-10.1982
▁matters	-10.1987
▁affect	-10.1987
pol	-10.1988
ound	-10.1997
▁Gar	-10.1998
IA	-10.2003
ático	-10.2006
iv	-10.2007
▁fit	-10.2016
▁serve	-10.202
▁allows	-10.2022
▁transparencia	-10.2024
▁pressure	-10.2026
▁Villa	-10.203
▁proper	-10.2037
▁City	-10.2037
▁territorio	-10.2038
▁poverty	-10.2042
▁reciente	-10.2043
60	-10.2044
▁War	-10.2045
▁garantía	-10.2046
▁edad	-10.2049
▁reception	-10.205
▁Star	-10.205
rin	-10.205
▁Nuestra	-10.2057
▁efficient	-10.2067
▁build	-10.2072
▁unit	-10.2074
▁Aunque	-10.2075
}	-10.2079
fort	-10.2079
▁consumer	-10.2081
▁pain	-10.2084
▁privado	-10.2085
ique	-10.2091
ola	-10.2093
▁laboral	-10.2094
lea	-10.2095
▁próxima	-10.21
▁participar	-10.2107
▁Kosovo	-10.211
cé	-10.2112
▁estudia	-10.2115
▁asistencia	-10.2122
▁movimiento	-10.2123
▁sectores	-10.2123
▁film	-10.2129
▁beneficios	-10.2131
▁conformidad	-10.2131
▁requiere	-10.2133
▁marcha	-10.2134
▁criterios	-10.2141
▁behind	-10.2144
▁reference	-10.2144
▁salva	-10.2146
▁pobreza	-10.2146
▁increasing	-10.215
▁Austria	-10.2152
▁oil	-10.2153
▁attempt	-10.2154
▁deberíamos	-10.2155
▁performance	-10.2157
▁dicta	-10.2158
bir	-10.2162
▁análisis	-10.2171
▁conferencia	-10.2175
▁elementos	-10.2181
cel	-10.2181
Ã	-10.2184
▁prepared	-10.2188
▁supone	-10.219
▁entorno	-10.2193
MS	-10.2194
▁resolver	-10.2199
▁figure	-10.22
▁actions	-10.2205
▁Usted	-10.2206
▁effects	-10.2207
▁500	-10.2208
▁Ben	-10.221
pel	-10.2212
▁integration	-10.2214
▁terceros	-10.2216
▁consiguiente	-10.222
▁Har	-10.2221
▁desayuno	-10.2226
▁German	-10.2231
▁introduc	-10.2239
▁terrorist	-10.2241
▁Please	-10.2251
▁Unido	-10.2254
▁diciembre	-10.2259
▁section	-10.2259
▁brought	-10.2268
▁garden	-10.2268
▁Here	-10.2268
▁activity	-10.2274
▁centra	-10.2277
spués	-10.228
▁70	-10.228
▁asuntos	-10.2281
▁carta	-10.2281
▁drive	-10.2286
▁highlight	-10.2287
▁March	-10.2294
tig	-10.2299
▁independent	-10.2307
just	-10.2309
▁comentario	-10.231
▁harm	-10.2313
▁sabemos	-10.2314
lig	-10.2315
▁instrumentos	-10.2316
▁razones	-10.232
▁holiday	-10.2321
▁suma	-10.2327
▁Centro	-10.2327
▁respecta	-10.233
ticos	-10.2331
tividad	-10.2332
gle	-10.2345
▁Red	-10.2346
▁cancel	-10.2358
time	-10.237
▁green	-10.2371
▁coopera	-10.2372
glo	-10.2378
tru	-10.2384
▁cuyo	-10.2386
▁giving	-10.239
▁coche	-10.239
▁promover	-10.2391
▁farmer	-10.2398
▁Amsterdam	-10.24
taria	-10.2401
▁instrument	-10.2417
▁friends	-10.2418
▁fabric	-10.2422
▁propiedad	-10.2427
meter	-10.2429
▁partners	-10.2445
▁external	-10.2452
▁metros	-10.2458
mid	-10.246
▁destaca	-10.2462
▁Green	-10.247
▁sort	-10.2478
▁vamos	-10.2485
▁Mediterranean	-10.2488
▁improvement	-10.2497
▁disponibles	-10.2498
▁correcta	-10.2506
▁effort	-10.2507
▁avanza	-10.2509
▁Centre	-10.2513
▁interesante	-10.2515
▁transparent	-10.252
▁bedroom	-10.2521
▁relationship	-10.2522
▁Durante	-10.2524
▁break	-10.2529
▁Conferencia	-10.2537
▁shown	-10.2538
▁Restaurant	-10.254
▁disposiciones	-10.2541
▁prima	-10.2543
▁solicitud	-10.2543
▁estancia	-10.2544
▁dimension	-10.2551
▁obvious	-10.2551
illas	-10.2553
▁aprobación	-10.2556
▁Republic	-10.2558
zu	-10.2563
cular	-10.2565
▁circun	-10.2565
▁padre	-10.2566
▁vend	-10.2568
ette	-10.2574
▁explain	-10.2574
▁contribuir	-10.2575
▁escuela	-10.2578
▁enviar	-10.2581
▁cuidado	-10.2582
mático	-10.2583
▁Bro	-10.2587
▁régimen	-10.2593
▁colaboración	-10.2595
▁takes	-10.2595
▁closed	-10.2597
▁jurídico	-10.2605
▁update	-10.2611
▁October	-10.2612
▁wait	-10.2618
▁Tho	-10.2624
▁declaración	-10.2627
▁instrumento	-10.2628
▁responder	-10.2629
▁01	-10.263
▁oportunidades	-10.2632
ándose	-10.2632
▁reading	-10.2632
▁provoca	-10.2643
▁tourist	-10.2643
▁pension	-10.2645
▁decid	-10.2647
▁Conference	-10.2648
40	-10.2649
rom	-10.2649
▁measure	-10.2651
EM	-10.2653
▁Cómo	-10.2661
▁fire	-10.2661
▁vehículo	-10.2664
▁sesión	-10.2667
▁propose	-10.2672
▁categoría	-10.2673
▁cuerpo	-10.2674
▁procedimientos	-10.2678
▁prohib	-10.268
▁mayores	-10.2683
É	-10.2689
▁plena	-10.2691
▁profesionales	-10.2692
▁session	-10.2692
ENT	-10.2695
▁televisión	-10.2697
▁votar	-10.2704
▁música	-10.2711
▁monitor	-10.2713
▁Germany	-10.2715
▁adecuado	-10.2716
▁encontr	-10.2716
▁trying	-10.2717
▁atmosphere	-10.2719
▁practical	-10.2721
ific	-10.2724
▁conocer	-10.2726
▁Debemos	-10.2736
▁camera	-10.2739
▁habría	-10.274
▁thanks	-10.2747
▁leading	-10.275
▁posibilidades	-10.2753
preci	-10.2754
▁percent	-10.2758
▁Director	-10.2759
▁1998	-10.2763
▁República	-10.2765
gado	-10.2772
▁EN	-10.2778
▁código	-10.278
pond	-10.2784
▁files	-10.2806
▁voluntad	-10.2811
▁registro	-10.2815
▁solidarity	-10.2817
▁added	-10.2823
DO	-10.2823
▁submitted	-10.2826
▁cámara	-10.2827
ute	-10.2833
▁police	-10.2835
▁North	-10.2839
▁positiva	-10.2842
▁piscina	-10.2844
▁recognise	-10.2848
▁est	-10.2851
▁administra	-10.2851
▁huge	-10.2852
▁Bulgaria	-10.2854
▁engine	-10.2859
▁Further	-10.286
▁Mari	-10.2864
▁status	-10.2865
hood	-10.287
▁congratulate	-10.287
ison	-10.287
▁Italian	-10.2874
▁download	-10.2874
arch	-10.2876
▁pleased	-10.2879
▁Since	-10.288
▁cuarto	-10.2882
▁disp	-10.2884
▁300	-10.2886
▁voto	-10.2886
▁spirit	-10.2887
▁negotiat	-10.2888
▁fronteras	-10.2889
gla	-10.289
▁Bank	-10.2895
▁criteria	-10.2895
bon	-10.2896
▁Asimismo	-10.2899
TI	-10.29
▁deep	-10.2902
▁mucha	-10.2902
▁funcione	-10.2908
▁pal	-10.2908
▁abierto	-10.2911
▁claim	-10.2916
▁January	-10.2917
▁técnico	-10.2923
▁divers	-10.2924
▁incluir	-10.2924
▁shows	-10.2935
▁mechanism	-10.2936
▁salida	-10.2938
▁possibility	-10.2945
▁firma	-10.2948
▁distintos	-10.2949
scripción	-10.2952
▁prácticas	-10.2954
▁legislative	-10.2955
▁reduction	-10.2957
ística	-10.2961
▁phone	-10.2962
▁reality	-10.2963
▁Directive	-10.2968
▁Todo	-10.2973
▁vigor	-10.2975
▁seis	-10.2982
▁intend	-10.2992
▁September	-10.2993
▁accommodation	-10.2994
▁buy	-10.3004
▁África	-10.301
▁impacto	-10.3013
hr	-10.3014
▁Ste	-10.3016
▁ilegal	-10.3019
▁works	-10.302
▁Gen	-10.3022
▁funcionamiento	-10.3029
▁Club	-10.303
▁Western	-10.3039
▁presencia	-10.3049
▁instead	-10.3049
▁importa	-10.3059
▁climático	-10.3073
▁usual	-10.3073
▁illegal	-10.3075
▁golf	-10.3076
▁interesting	-10.3077
▁recommendation	-10.3079
▁apartado	-10.308
▁email	-10.3083
▁conclude	-10.3087
▁propios	-10.3088
jado	-10.3093
▁1996	-10.3098
▁sufri	-10.3106
▁Za	-10.3111
▁fija	-10.3112
▁FAO	-10.3113
▁útil	-10.3121
▁suggest	-10.3129
▁justo	-10.313
▁Rule	-10.3131
▁alternative	-10.3132
pet	-10.3132
front	-10.3136
▁terreno	-10.3138
▁Alemania	-10.3141
blo	-10.3143
▁agricultura	-10.3151
▁Tri	-10.3152
▁waste	-10.3152
▁costes	-10.3154
fund	-10.3158
▁financieros	-10.316
mate	-10.3161
▁procedures	-10.3161
▁wanted	-10.3163
▁higher	-10.3163
▁pequeña	-10.3164
▁article	-10.3166
▁fri	-10.3169
▁potencial	-10.3169
▁terrorism	-10.317
▁Pan	-10.317
▁preciso	-10.3176
▁coast	-10.3181
▁block	-10.3184
▁defensa	-10.3185
▁resist	-10.3185
▁estabilidad	-10.3186
q	-10.3187
satisf	-10.3188
▁execut	-10.3188
▁sex	-10.3192
▁satisfacción	-10.3193
uch	-10.3196
▁mostrar	-10.3198
▁exclusive	-10.3205
▁register	-10.3205
▁Health	-10.3206
MO	-10.321
▁morning	-10.3221
▁expresar	-10.3221
▁esfuerzo	-10.3222
▁breve	-10.3222
▁Ten	-10.3223
▁parking	-10.3228
▁costa	-10.323
▁estación	-10.3231
▁Casa	-10.3234
▁efectiva	-10.3234
▁abordar	-10.3239
▁highly	-10.3239
▁fun	-10.324
ative	-10.3247
▁supply	-10.325
▁complica	-10.3251
pong	-10.3251
▁redes	-10.3251
ivity	-10.3255
▁remember	-10.3256
▁repeat	-10.326
▁tro	-10.327
▁solidaridad	-10.3271
▁diferente	-10.3278
▁Well	-10.3278
suring	-10.328
CH	-10.3281
▁November	-10.3283
▁llama	-10.3286
rían	-10.3291
▁conexión	-10.3291
▁responsables	-10.3295
▁reports	-10.3296
▁terrorismo	-10.3296
▁adelante	-10.3296
70	-10.3297
▁store	-10.3298
▁Grand	-10.3304
mber	-10.3306
PS	-10.3307
▁bad	-10.331
▁Google	-10.3311
▁Estamos	-10.3316
iano	-10.3319
▁aumenta	-10.332
▁Bra	-10.3323
▁vehicle	-10.3323
▁Nacional	-10.3326
DI	-10.333
▁autoriza	-10.3336
▁Public	-10.3337
▁transparency	-10.3338
over	-10.3341
▁Entre	-10.3342
▁goes	-10.3343
gli	-10.3344
▁Party	-10.3345
▁series	-10.3348
▁useful	-10.3349
▁distance	-10.3357
▁Desarrollo	-10.3358
▁Bur	-10.336
▁talking	-10.336
▁fase	-10.3363
▁Nos	-10.3365
▁daño	-10.3368
▁opción	-10.3369
▁Quisiera	-10.3372
▁innovation	-10.3375
▁Tre	-10.3379
ung	-10.3381
▁challenge	-10.3389
▁actuar	-10.3396
▁estudios	-10.3401
▁anything	-10.3402
SP	-10.3408
▁former	-10.341
▁idioma	-10.3413
peri	-10.3414
▁cambia	-10.3418
hibi	-10.3419
▁éste	-10.3419
▁justicia	-10.3419
▁puestos	-10.3419
▁visa	-10.343
▁formal	-10.3431
▁candidato	-10.3436
▁quiet	-10.3437
▁pan	-10.3441
▁Dur	-10.3446
▁perform	-10.3458
▁descubri	-10.3461
▁finally	-10.3465
osos	-10.3467
▁histórico	-10.3468
с	-10.3468
▁líder	-10.347
▁plenamente	-10.3471
XI	-10.3471
▁revisión	-10.3477
▁Er	-10.3483
ek	-10.3483
▁Every	-10.3487
gh	-10.3489
mobil	-10.3492
▁pocos	-10.3493
р	-10.3504
▁heard	-10.3509
▁Trans	-10.3509
▁employ	-10.3509
▁Fue	-10.351
▁cuya	-10.3511
▁rid	-10.3513
▁Acuerdo	-10.3517
▁desarrolla	-10.3519
▁comunes	-10.3523
•	-10.3528
▁isla	-10.3529
▁vino	-10.3534
view	-10.3535
▁anual	-10.3537
▁Hoy	-10.3543
▁contar	-10.3544
▁preocupación	-10.3549
▁imágenes	-10.355
▁British	-10.3552
▁object	-10.3552
▁spend	-10.3553
▁pretende	-10.3555
▁limited	-10.3555
▁App	-10.3557
▁navega	-10.3557
▁urge	-10.3557
▁regulations	-10.3561
▁round	-10.3567
▁entrega	-10.3569
▁demanda	-10.357
▁eye	-10.3571
▁ratific	-10.3571
▁reviews	-10.3573
▁tomorrow	-10.3581
▁víctimas	-10.3583
▁1995	-10.3591
▁separate	-10.3591
▁Nations	-10.3593
▁América	-10.3593
▁sabe	-10.3594
▁village	-10.36
▁sold	-10.3602
▁occur	-10.3605
▁consequences	-10.3606
▁1997	-10.3621
▁convenient	-10.3633
▁supported	-10.3633
lip	-10.3639
▁pensar	-10.364
▁iniciativas	-10.3654
▁People	-10.3657
osas	-10.3658
iga	-10.3659
▁note	-10.3661
▁hizo	-10.3663
▁terrace	-10.3663
▁announce	-10.3664
iera	-10.3667
▁justice	-10.3669
▁challenges	-10.367
Á	-10.3671
▁ciudades	-10.3672
▁elections	-10.3675
▁chance	-10.3676
▁worth	-10.3676
▁presidente	-10.3677
▁colleagues	-10.3677
▁determine	-10.3679
▁Booking	-10.368
▁stability	-10.3681
▁cree	-10.3685
▁steps	-10.3687
▁screen	-10.3695
▁edit	-10.3699
▁mes	-10.3703
▁admit	-10.3709
PE	-10.371
▁flow	-10.3711
▁speech	-10.3712
▁precisamente	-10.3713
▁puerta	-10.3714
▁PL	-10.3717
▁track	-10.3718
OM	-10.3721
▁prior	-10.3725
▁descarga	-10.3726
ridge	-10.3727
ini	-10.373
▁monetar	-10.3733
▁32	-10.3735
▁anima	-10.3738
▁hombre	-10.3747
▁Tour	-10.3751
NE	-10.3752
ically	-10.3767
▁somos	-10.3771
▁distribución	-10.3777
▁park	-10.3779
▁Bel	-10.3779
▁jurídica	-10.3782
▁reserve	-10.3783
▁rates	-10.3785
▁blog	-10.3786
▁medium	-10.3788
▁rechaza	-10.3789
bb	-10.379
▁Pra	-10.3792
▁committ	-10.3793
IL	-10.3795
▁distancia	-10.3803
▁careful	-10.3806
mul	-10.3814
▁empezar	-10.3817
▁ventaja	-10.3817
▁accession	-10.3819
▁variedad	-10.3821
▁comodidad	-10.3822
▁relacionada	-10.3822
▁educa	-10.3828
▁listen	-10.3832
▁below	-10.3834
▁instruments	-10.3839
▁campaign	-10.3842
▁inversión	-10.3843
▁habrá	-10.3848
▁remove	-10.3858
▁students	-10.3859
▁denomina	-10.3863
registr	-10.3872
▁Fra	-10.3873
▁universal	-10.3876
temporary	-10.3877
▁áreas	-10.3879
▁door	-10.3883
▁Even	-10.3887
▁allowed	-10.3891
ndido	-10.3897
▁assessment	-10.3899
ient	-10.3902
▁Guest	-10.3903
▁partnership	-10.391
▁creado	-10.3915
▁ubicación	-10.3916
▁count	-10.3922
▁voice	-10.3924
▁profit	-10.3924
▁resident	-10.393
▁dificultades	-10.3938
fico	-10.3949
▁cell	-10.395
▁Puerto	-10.3951
▁Risa	-10.3951
▁gain	-10.3957
0,000	-10.3958
▁búsqueda	-10.3958
▁Italia	-10.3958
ima	-10.3959
▁remind	-10.396
▁applied	-10.3964
▁tampoco	-10.3967
▁Bueno	-10.3968
▁Cada	-10.3972
▁mat	-10.3977
▁Bla	-10.3981
▁mode	-10.3983
▁benefits	-10.3987
ibilidad	-10.3989
iff	-10.3989
▁Poli	-10.3992
NI	-10.3993
▁valid	-10.3993
▁visual	-10.3994
eccion	-10.4001
▁confortable	-10.4002
matic	-10.4003
▁secure	-10.4009
▁octubre	-10.4012
▁documentos	-10.4012
▁pursu	-10.4015
▁moderno	-10.4017
▁liberal	-10.4032
▁prioridad	-10.4038
▁combine	-10.4039
▁consumo	-10.404
99	-10.404
ctic	-10.4041
▁went	-10.4042
▁Wal	-10.4044
▁occasion	-10.4045
▁pequeños	-10.4047
▁emplea	-10.4049
▁llamada	-10.4052
dicated	-10.4052
▁Agricultur	-10.4053
▁restaurants	-10.4053
▁desarrollado	-10.4053
▁financiero	-10.4058
▁July	-10.4059
▁offering	-10.4059
▁Italy	-10.4059
▁tamaño	-10.406
▁motion	-10.4062
▁ciento	-10.4062
▁scientific	-10.4065
mico	-10.4065
IB	-10.4066
▁contribuye	-10.4072
▁mínimo	-10.4076
▁cara	-10.408
▁Rooms	-10.4081
ental	-10.4084
▁Are	-10.409
▁desire	-10.4092
▁Sea	-10.4092
▁campaña	-10.4093
▁considerar	-10.4094
▁voy	-10.41
▁fish	-10.4101
▁deriva	-10.4102
▁amigos	-10.4108
ella	-10.4112
▁monitoring	-10.4113
▁lectura	-10.4115
▁voting	-10.4116
▁Exp	-10.4127
▁sufficient	-10.4136
▁details	-10.4137
▁Flo	-10.4139
▁paid	-10.414
▁llegado	-10.4141
▁llamado	-10.4145
▁bath	-10.4146
▁sé	-10.415
▁variety	-10.4164
▁condena	-10.4168
▁oficina	-10.4171
▁posee	-10.4174
▁pedido	-10.4181
▁proporcionar	-10.4182
▁septiembre	-10.4182
▁aparece	-10.4185
▁distribution	-10.4186
▁mencionado	-10.4189
▁demonstrate	-10.4189
▁agencia	-10.4193
▁flexible	-10.4193
в	-10.4196
lock	-10.42
▁energética	-10.4206
▁crítica	-10.4208
▁asociación	-10.4211
▁facilita	-10.4213
▁actuales	-10.4214
▁cuál	-10.4215
▁organismo	-10.4218
rac	-10.4221
▁latest	-10.4225
▁allá	-10.4227
65	-10.4227
▁obligation	-10.4227
▁beneficia	-10.4232
▁puerto	-10.4242
▁agriculture	-10.4249
▁Nu	-10.4251
▁nadie	-10.4251
▁mayo	-10.4254
▁probably	-10.4257
#	-10.426
0.000	-10.4264
▁rápida	-10.4265
tom	-10.4268
▁tecnologías	-10.4273
▁getting	-10.4274
▁scale	-10.4278
▁incluyendo	-10.428
▁piece	-10.4285
▁constante	-10.4285
▁threat	-10.4286
▁marzo	-10.4288
shi	-10.4294
▁guide	-10.4296
▁corresponde	-10.4299
uta	-10.4304
berg	-10.4308
▁diversos	-10.4312
▁businesses	-10.4313
▁cable	-10.4316
IM	-10.4323
abil	-10.4324
▁rápido	-10.4328
▁helpful	-10.433
▁democrática	-10.4333
▁mujer	-10.4334
AG	-10.4336
▁analysis	-10.4338
▁telephone	-10.4342
▁entender	-10.4348
▁tengan	-10.435
▁financia	-10.4351
▁map	-10.4356
dem	-10.4361
▁Apart	-10.4363
▁gastos	-10.4364
▁produced	-10.4367
▁save	-10.4368
▁Debian	-10.4369
▁constant	-10.4374
▁comida	-10.4377
▁influence	-10.438
▁construct	-10.4395
▁historic	-10.4396
.3	-10.4398
▁directo	-10.4399
▁Today	-10.4403
▁antigua	-10.4409
tip	-10.4413
▁absolutely	-10.4415
IF	-10.4415
▁grant	-10.4423
▁enero	-10.4428
▁DVD	-10.443
▁Natural	-10.4434
▁hostel	-10.4439
▁especiales	-10.4444
gráfica	-10.4446
▁fear	-10.4447
▁continuar	-10.445
chan	-10.4452
top	-10.4453
▁paper	-10.4454
▁urgent	-10.4455
ili	-10.4456
▁annual	-10.4456
▁podrán	-10.4466
▁apart	-10.4468
cious	-10.4468
▁easily	-10.447
▁consciente	-10.4475
▁específico	-10.4479
▁growing	-10.4489
MI	-10.4493
▁clic	-10.4493
▁domina	-10.4495
▁cabe	-10.4495
▁establece	-10.4499
graph	-10.4512
▁Control	-10.4513
▁entrar	-10.4517
▁humana	-10.4525
▁rein	-10.4525
▁necesitan	-10.4526
▁reservation	-10.4527
▁beyond	-10.4531
▁representantes	-10.4534
aña	-10.4535
▁consideration	-10.454
▁coste	-10.4549
ology	-10.4549
▁conjunta	-10.4551
▁lujo	-10.4551
▁únicamente	-10.4553
▁minimum	-10.4554
▁colega	-10.4554
▁participation	-10.4555
ão	-10.4558
▁wrong	-10.4558
▁consiste	-10.456
▁impre	-10.4563
▁rápidamente	-10.4563
▁Primer	-10.4564
▁intercambio	-10.4564
▁continent	-10.4566
▁volume	-10.457
▁alimenta	-10.4572
UU	-10.4576
▁archivos	-10.4579
▁Security	-10.4579
▁sell	-10.4579
▁alojamiento	-10.4581
▁construction	-10.4585
lógica	-10.4589
▁kill	-10.459
▁cohesión	-10.4591
▁Medio	-10.4593
▁participate	-10.4594
▁High	-10.4595
▁Seguridad	-10.4595
cket	-10.4596
▁abierta	-10.4596
▁felicitar	-10.4597
▁innovación	-10.4599
mov	-10.4602
▁vacaciones	-10.4603
▁asigna	-10.4606
▁noviembre	-10.4608
▁protest	-10.4615
▁hour	-10.4618
Habitaciones	-10.4619
stone	-10.462
▁02	-10.4621
▁establecido	-10.4622
▁Many	-10.4622
▁relacionados	-10.4626
▁Front	-10.4626
▁infraestructura	-10.4627
zado	-10.4633
posición	-10.4637
▁Programa	-10.4639
▁elements	-10.4639
▁HIV	-10.4644
▁comenzar	-10.4658
▁eran	-10.4658
referred	-10.4664
▁grow	-10.4668
▁sometimes	-10.467
▁actualidad	-10.4671
tran	-10.4672
▁características	-10.4674
▁drink	-10.4676
bell	-10.468
▁carretera	-10.4681
▁pena	-10.4684
▁April	-10.4684
▁custom	-10.4692
▁viene	-10.4693
▁Comité	-10.4697
house	-10.4697
▁African	-10.4703
▁ejecución	-10.4703
▁colabora	-10.4711
ET	-10.4715
load	-10.4715
cop	-10.4715
▁Although	-10.4716
▁families	-10.4717
▁fan	-10.4718
▁patient	-10.4723
▁tráfico	-10.4725
▁pronto	-10.4725
▁podía	-10.4726
▁ocasión	-10.4729
▁Tiene	-10.4736
▁West	-10.4737
▁mix	-10.4747
▁prison	-10.4749
▁shower	-10.4759
▁implemented	-10.4763
pur	-10.4764
▁generation	-10.4765
▁recibido	-10.4767
part	-10.4769
▁ahí	-10.4779
place	-10.4784
▁democrático	-10.4784
▁conoce	-10.4786
▁Ireland	-10.4795
▁counter	-10.4799
▁deporte	-10.48
▁saben	-10.4802
tant	-10.481
▁ofrecen	-10.4813
▁sirve	-10.4818
▁virtual	-10.4821
▁detect	-10.4821
▁victims	-10.4824
▁permanente	-10.4829
▁....	-10.4831
logical	-10.4832
▁médico	-10.4832
▁señalar	-10.4834
▁posterior	-10.4835
▁opciones	-10.4836
CO	-10.4837
▁consist	-10.484
▁terraza	-10.484
▁approved	-10.4844
▁Act	-10.4848
▁watch	-10.4853
▁utilización	-10.4854
▁facilitar	-10.4855
ional	-10.486
▁path	-10.4862
▁subraya	-10.4864
▁purchase	-10.4865
▁affected	-10.4869
▁selecciona	-10.487
▁gusta	-10.487
ku	-10.4874
CU	-10.4878
▁neighbour	-10.488
▁Cuba	-10.488
▁Monetar	-10.4881
▁Your	-10.4881
PO	-10.4892
▁bloque	-10.4893
▁diversas	-10.4893
▁Agreement	-10.4897
▁alternativa	-10.4904
▁reforzar	-10.4905
ware	-10.4906
▁University	-10.4911
ificar	-10.4922
▁cifra	-10.4928
▁finance	-10.4928
lina	-10.4929
▁infrastructure	-10.4929
▁feed	-10.493
▁cohesion	-10.4943
▁sole	-10.4947
▁estándar	-10.4947
▁shopping	-10.4948
▁invite	-10.4955
▁happy	-10.4956
timo	-10.4959
▁diez	-10.4961
CT	-10.4964
▁spoke	-10.4969
▁encontrará	-10.4971
▁Mc	-10.4975
uni	-10.4975
▁daily	-10.4975
▁permita	-10.4976
▁feature	-10.4976
▁podamos	-10.4979
▁Política	-10.4981
▁emisiones	-10.4988
▁immediately	-10.4989
▁Norte	-10.4991
▁rise	-10.4995
uándo	-10.4995
85	-10.5002
▁minute	-10.5003
▁equilibrio	-10.5006
▁quieren	-10.5009
▁Use	-10.5015
▁degree	-10.5028
▁declara	-10.5029
▁Brazil	-10.503
▁coordinación	-10.503
efficiency	-10.5031
▁cities	-10.5034
▁owner	-10.5036
▁confirma	-10.5044
▁accordanc	-10.5047
▁prioridades	-10.5048
▁universit	-10.5049
▁achiev	-10.505
▁esperanza	-10.5051
▁Part	-10.5053
▁More	-10.5056
▁sitting	-10.5058
▁UK	-10.5059
▁Nueva	-10.5061
▁London	-10.5066
▁materiales	-10.5074
▁clima	-10.5076
▁finish	-10.5078
▁Just	-10.5079
▁tasa	-10.5079
▁pérdida	-10.5083
▁written	-10.509
▁historical	-10.5091
▁Cap	-10.5092
▁operat	-10.5095
▁resolve	-10.5096
▁genuine	-10.5097
▁arrive	-10.5098
▁futura	-10.5101
▁directa	-10.5102
▁cook	-10.5102
▁utilizado	-10.5102
▁fellow	-10.5105
▁teniendo	-10.5109
▁strategic	-10.5111
▁regime	-10.5113
▁inmigración	-10.5115
habi	-10.5115
vil	-10.5116
▁Irlanda	-10.5116
▁enfermedades	-10.5117
▁privada	-10.5119
▁larga	-10.512
▁refleja	-10.5122
▁Aplauso	-10.5126
▁máquina	-10.5129
▁correspondiente	-10.513
▁convince	-10.5138
▁inglés	-10.5139
▁Gui	-10.5139
▁hundred	-10.5143
▁emerge	-10.5146
▁Why	-10.5147
39	-10.5147
LI	-10.5148
▁stock	-10.5149
▁meta	-10.5151
▁grado	-10.5152
▁Applause	-10.5154
▁discrimination	-10.5166
▁requisitos	-10.5169
▁científico	-10.517
▁basa	-10.5178
mora	-10.518
▁involve	-10.5187
▁acompaña	-10.519
▁starting	-10.519
▁Socialist	-10.5196
▁technologies	-10.5198
▁reuniones	-10.5199
▁Argentina	-10.5201
▁calcula	-10.5206
▁conocido	-10.5214
ática	-10.5226
▁justifica	-10.5227
▁Mexico	-10.5227
▁moral	-10.523
▁priorities	-10.523
▁exigencias	-10.5237
ñe	-10.5244
▁ready	-10.5245
▁destino	-10.5245
▁candidate	-10.5246
▁virus	-10.5249
▁Constitution	-10.5251
▁naturales	-10.5251
▁mandato	-10.5252
▁continuación	-10.5252
▁principalmente	-10.5257
▁armas	-10.5262
64	-10.5263
▁restrict	-10.5263
▁Tal	-10.5263
▁Aquí	-10.5268
phi	-10.5276
▁2020	-10.5277
fen	-10.5282
▁COM	-10.5283
▁Click	-10.5283
▁maximum	-10.5291
▁esperar	-10.5295
▁trust	-10.5299
▁Todas	-10.53
▁window	-10.5302
▁reconocimiento	-10.5303
▁ocasiones	-10.5303
▁bomb	-10.5305
▁electronic	-10.531
▁tab	-10.5311
▁fill	-10.5312
▁lower	-10.5313
ille	-10.5314
mpa	-10.5323
▁paga	-10.5325
▁fl	-10.5334
nutri	-10.5337
▁surrounding	-10.5353
▁extent	-10.5353
▁básica	-10.5358
▁alone	-10.5359
▁fine	-10.5359
▁largest	-10.5367
▁kitchen	-10.5374
cci	-10.5379
.4	-10.538
▁eficacia	-10.538
▁district	-10.5387
▁imagina	-10.5392
▁Han	-10.5393
▁estará	-10.5396
▁menu	-10.5396
▁dispuesto	-10.5404
▁exercise	-10.5404
▁hubiera	-10.5405
▁simplifica	-10.5409
▁partida	-10.5411
▁promotion	-10.542
▁wall	-10.542
▁tratado	-10.5426
▁parque	-10.5427
▁izquierda	-10.5441
▁mesa	-10.5442
▁voluntar	-10.5445
▁moneda	-10.5451
▁offered	-10.5454
▁replace	-10.5464
▁unfortunate	-10.5469
▁establishment	-10.5472
▁Christ	-10.5475
▁route	-10.5477
capacit	-10.5479
aimed	-10.548
▁recepción	-10.548
▁correspond	-10.549
▁Airport	-10.549
▁bosque	-10.5493
▁proceed	-10.5494
▁Christian	-10.5495
▁basada	-10.5503
▁desempeñ	-10.5506
▁propuesto	-10.5508
▁regret	-10.5509
▁highest	-10.5509
▁accepted	-10.551
mini	-10.5511
▁alcance	-10.5524
49	-10.5527
▁coincid	-10.5527
cultura	-10.5531
▁mere	-10.5533
▁visitar	-10.5534
▁Best	-10.5535
▁initial	-10.5542
▁communities	-10.5543
▁alguien	-10.5545
▁delay	-10.555
▁summer	-10.5551
simismo	-10.5558
▁black	-10.5559
▁immigration	-10.557
▁disaster	-10.5572
▁merece	-10.5574
▁julio	-10.5574
▁servidor	-10.5582
▁http	-10.5583
▁walking	-10.5583
▁Open	-10.5583
AB	-10.5583
connect	-10.5586
▁analiza	-10.5586
▁format	-10.5587
▁complejo	-10.5595
▁substance	-10.5596
ificado	-10.5597
ibility	-10.5601
▁server	-10.5607
▁whom	-10.5612
▁Don	-10.5616
▁season	-10.5627
▁añadir	-10.5632
▁published	-10.5632
▁seven	-10.5634
tero	-10.5636
lico	-10.5637
tario	-10.5641
▁irre	-10.5644
▁coherent	-10.5646
▁permitirá	-10.5647
ij	-10.5648
▁Lord	-10.5648
▁finales	-10.5648
15	-10.5653
▁pagar	-10.566
▁forget	-10.5662
▁Global	-10.5663
▁parliament	-10.5664
▁recientemente	-10.5666
▁intención	-10.5667
▁comprende	-10.5672
▁Banco	-10.5675
▁Mor	-10.5677
▁confidence	-10.5681
▁33	-10.5684
ik	-10.5685
▁estén	-10.5685
▁critic	-10.5687
▁minister	-10.5688
▁escucha	-10.5689
▁formato	-10.5691
▁Plaza	-10.5693
▁income	-10.57
▁myself	-10.5706
▁assist	-10.5707
▁administración	-10.572
▁trato	-10.572
▁Colombia	-10.5727
▁defender	-10.5734
▁refuge	-10.5736
▁tradition	-10.5738
▁pilot	-10.5742
▁fulfil	-10.5743
▁errores	-10.5746
▁planes	-10.5748
▁incluida	-10.5749
▁acceder	-10.5758
▁critical	-10.5764
▁comunidades	-10.5764
OL	-10.5769
▁carbon	-10.5777
▁discriminación	-10.5777
▁interact	-10.5781
▁consta	-10.5783
dina	-10.5783
DS	-10.5784
▁libera	-10.5785
▁invest	-10.5788
▁white	-10.5789
ológico	-10.5792
ístico	-10.5793
▁Saint	-10.5796
▁fresh	-10.58
▁except	-10.581
▁Other	-10.5813
▁traffic	-10.5815
VA	-10.5819
▁argument	-10.5831
▁concede	-10.5833
▁estudiantes	-10.5836
▁agradable	-10.5836
▁television	-10.5838
▁overall	-10.5839
▁inside	-10.5846
▁siguen	-10.5849
luc	-10.585
▁ambos	-10.5853
▁juicio	-10.5854
▁Suite	-10.5855
▁vulnerable	-10.5855
▁habit	-10.5855
▁Center	-10.5856
▁agricultores	-10.5857
plan	-10.5859
▁producir	-10.5882
▁perspective	-10.5882
▁aprobado	-10.5884
▁speaking	-10.5887
point	-10.589
SD	-10.589
▁Entonces	-10.5898
▁manual	-10.5899
▁fines	-10.5902
▁Pact	-10.5908
▁intention	-10.5918
▁etiqueta	-10.5918
▁repeti	-10.592
▁encanta	-10.5922
▁deposit	-10.5924
▁fruit	-10.593
▁Schengen	-10.5932
▁pobres	-10.5932
ident	-10.5936
▁pantalla	-10.5939
integr	-10.5942
▁menor	-10.5944
▁emissions	-10.5944
▁introducir	-10.5946
covered	-10.5948
▁Island	-10.5949
▁circumstances	-10.5951
▁capaz	-10.5957
▁accident	-10.5957
position	-10.5959
86	-10.5959
ecause	-10.5961
▁envía	-10.5961
▁tend	-10.5967
▁CON	-10.5969
ví	-10.5969
▁periodo	-10.5971
▁Partido	-10.5976
▁frecuencia	-10.5988
▁hot	-10.5989
▁conecta	-10.6
▁specifically	-10.6001
▁collection	-10.6006
US	-10.6006
▁Economic	-10.601
▁installation	-10.6011
▁John	-10.6013
▁velocidad	-10.6017
▁basado	-10.6025
bru	-10.6028
▁realiz	-10.603
▁Microsoft	-10.6034
▁brinda	-10.6035
▁improving	-10.6038
▁write	-10.6042
▁Policy	-10.6043
▁manner	-10.6051
▁guidelines	-10.6052
▁opening	-10.6058
▁lejos	-10.606
▁encarga	-10.6062
▁institucional	-10.6069
▁impose	-10.6087
▁estrecha	-10.6095
▁effectively	-10.6102
▁radical	-10.6115
▁collect	-10.6119
▁numerous	-10.6124
▁Hol	-10.6135
▁spread	-10.6136
▁petición	-10.6142
▁humano	-10.6144
▁understanding	-10.6156
▁inicial	-10.6159
▁story	-10.616
▁swimming	-10.6162
▁pleno	-10.6164
▁considero	-10.6165
▁podido	-10.6167
ological	-10.6167
▁competitividad	-10.6171
▁Muchas	-10.6176
▁bilateral	-10.6185
▁System	-10.6193
▁flor	-10.6195
▁species	-10.6197
▁south	-10.6201
▁celebr	-10.6204
▁vota	-10.6205
▁comprehensive	-10.6205
▁USA	-10.6205
▁contempla	-10.6214
▁espíritu	-10.6224
▁ataque	-10.6227
▁numerosos	-10.6229
▁México	-10.6231
▁adopción	-10.6231
▁leyes	-10.6233
▁montaña	-10.6236
▁Sub	-10.6237
▁tree	-10.6241
▁neither	-10.6241
▁competitive	-10.6243
▁learning	-10.6249
▁sencilla	-10.625
▁construir	-10.6253
▁flight	-10.6255
▁turismo	-10.6259
gia	-10.6259
▁profunda	-10.6261
▁structural	-10.6262
л	-10.627
▁Información	-10.627
▁institutional	-10.627
▁Op	-10.6275
zó	-10.6275
▁prevención	-10.6277
▁buscar	-10.6277
▁abril	-10.628
▁encontramos	-10.628
▁urgente	-10.6284
▁surf	-10.6285
▁ejecuta	-10.6287
▁licencia	-10.6289
▁exploit	-10.6291
▁recibe	-10.6293
▁zone	-10.6297
▁consistent	-10.6297
▁Van	-10.6298
▁medical	-10.63
▁operaciones	-10.6312
▁August	-10.6316
▁topic	-10.6322
▁voz	-10.6322
▁reconocer	-10.6323
▁heat	-10.6329
▁instalación	-10.6331
▁union	-10.6331
▁Convención	-10.634
▁Más	-10.6354
▁arrest	-10.6356
▁VIH	-10.6365
▁match	-10.6368
▁presupuestaria	-10.6369
▁operate	-10.6371
▁Universidad	-10.6374
▁mantenimiento	-10.6374
▁Transport	-10.6381
▁THE	-10.6385
▁contrato	-10.6388
▁trabajando	-10.6392
▁archivo	-10.6395
▁became	-10.6396
▁contribución	-10.6398
RT	-10.64
▁dispositivo	-10.6402
44	-10.6406
▁adicional	-10.6415
▁promise	-10.6418
▁almacena	-10.6426
▁notice	-10.6433
▁summit	-10.6433
▁título	-10.6434
▁gave	-10.6443
▁acondicionado	-10.6445
▁sauna	-10.6445
▁coordination	-10.6453
▁intentar	-10.6455
▁administrative	-10.6458
▁policía	-10.6458
▁eliminar	-10.6461
▁Anti	-10.6466
bio	-10.6469
▁ubicado	-10.6471
hel	-10.6473
▁touch	-10.6478
▁attend	-10.6482
▁promoting	-10.649
▁Vice	-10.6497
▁solar	-10.6506
▁buffet	-10.6506
▁incluyen	-10.6511
▁destacar	-10.6515
▁Brasil	-10.6518
▁Mag	-10.6519
▁examine	-10.652
BA	-10.6524
▁Auto	-10.653
▁strict	-10.6532
▁administration	-10.654
▁película	-10.6543
▁Lin	-10.6551
▁selection	-10.6555
▁previsto	-10.6559
▁Emp	-10.6563
room	-10.6563
▁mainly	-10.6564
▁Vol	-10.6568
▁desafío	-10.6574
▁changed	-10.6582
▁Consider	-10.6582
▁comprobar	-10.6582
tabled	-10.6586
▁letter	-10.6589
sistencia	-10.659
▁While	-10.6591
88	-10.6596
▁enfermedad	-10.6599
▁Ku	-10.6599
▁Salud	-10.6604
▁quién	-10.6606
▁cadena	-10.6608
▁February	-10.6609
▁celebrar	-10.6613
▁productores	-10.6615
▁Verde	-10.6617
▁residuos	-10.6619
ónica	-10.6623
▁enhance	-10.663
▁Cumbre	-10.6631
▁complace	-10.6632
▁passenger	-10.6634
▁yourself	-10.6634
▁dealing	-10.6635
filia	-10.6637
▁bienestar	-10.6642
jun	-10.6642
▁demostrado	-10.6646
▁chair	-10.6647
▁satellite	-10.665
▁Environment	-10.6668
▁expertos	-10.6669
▁president	-10.6672
▁fomentar	-10.6676
▁infect	-10.6683
▁previa	-10.6687
▁river	-10.6688
TER	-10.6697
▁circulación	-10.67
▁scope	-10.6701
▁emit	-10.6701
▁unemployment	-10.6702
▁bodies	-10.6705
▁trial	-10.6712
▁prensa	-10.6716
▁compatible	-10.6717
▁aplicaciones	-10.672
▁inversiones	-10.6722
▁paragraph	-10.6723
▁anuncia	-10.6723
say	-10.6729
▁born	-10.6731
americano	-10.6732
▁actitud	-10.6732
▁doctor	-10.6737
▁studies	-10.6744
к	-10.6749
▁Work	-10.675
▁began	-10.6753
▁adoption	-10.6754
IG	-10.6757
▁verdadero	-10.6762
▁individuales	-10.6766
fru	-10.6769
▁Time	-10.677
▁época	-10.6771
▁introduction	-10.6773
▁invent	-10.6773
▁verano	-10.6777
▁aprobar	-10.6778
▁association	-10.6782
▁divide	-10.6784
▁promoción	-10.6786
▁vuelo	-10.6787
▁propósito	-10.6789
exclu	-10.6793
▁vivir	-10.6794
▁channel	-10.6798
▁diseñado	-10.6801
▁exigi	-10.6812
adora	-10.6812
▁elemento	-10.6813
▁03	-10.6813
▁mantiene	-10.6814
▁presence	-10.6816
▁ordenador	-10.6823
▁estaban	-10.6825
▁presidency	-10.683
▁becoming	-10.6835
▁Existe	-10.6837
▁customer	-10.6838
▁couple	-10.6839
▁PPE	-10.6843
▁llamar	-10.6844
▁150	-10.6845
▁elegir	-10.6845
▁intervention	-10.6847
▁facing	-10.6859
▁spacious	-10.686
▁defence	-10.6862
▁Sól	-10.6866
▁estadounidense	-10.6866
▁Each	-10.6867
▁condición	-10.6871
▁audio	-10.6873
▁incrementa	-10.6873
▁expand	-10.6877
▁ampliar	-10.6878
▁charm	-10.6881
▁partner	-10.6882
▁examina	-10.6885
▁opiniones	-10.6888
ffi	-10.6891
▁expression	-10.6893
▁wonderful	-10.6898
▁ACP	-10.6902
▁cuisine	-10.6903
▁río	-10.6904
▁humanitarian	-10.6905
▁órgano	-10.6905
▁básico	-10.691
▁regionales	-10.6916
▁average	-10.6917
▁brief	-10.6918
▁Media	-10.6922
▁motiva	-10.6931
▁suspend	-10.6932
NS	-10.6937
▁elegante	-10.6939
▁movilidad	-10.6945
▁peaceful	-10.6946
IO	-10.6947
▁signal	-10.6955
▁numerosas	-10.6957
▁Justicia	-10.6959
▁protected	-10.6961
▁introducción	-10.6962
▁Paul	-10.6974
▁tarifa	-10.6976
▁fee	-10.6977
▁aprovechar	-10.6979
▁belong	-10.6981
▁caja	-10.6987
▁Constitución	-10.699
culo	-10.6991
▁Day	-10.6996
▁carrera	-10.7
flex	-10.7003
fle	-10.7003
IR	-10.7004
▁absolutamente	-10.7007
tegrated	-10.7011
▁evidence	-10.7012
▁mental	-10.7014
▁Ph	-10.7015
gó	-10.7019
▁copia	-10.702
▁corto	-10.7021
▁colour	-10.703
▁cumplimiento	-10.7032
▁selección	-10.7038
▁clasifica	-10.7043
▁sucede	-10.7045
▁Justice	-10.7046
▁properly	-10.7048
▁Regulation	-10.705
▁instance	-10.7051
▁difficulties	-10.7052
▁Win	-10.7057
▁resort	-10.7061
▁1994	-10.7066
▁expresión	-10.7069
▁brand	-10.707
▁enlace	-10.7071
▁modificar	-10.7078
▁procesa	-10.7084
▁sustain	-10.7087
▁inclu	-10.7096
▁powerful	-10.71
▁running	-10.7101
▁Australia	-10.7102
▁obligación	-10.7102
▁rodea	-10.7105
OC	-10.7106
▁400	-10.7111
▁protocol	-10.7112
▁planning	-10.7112
▁cata	-10.7112
▁tourism	-10.7113
▁logrado	-10.7117
EP	-10.7121
▁máxima	-10.7125
▁proveedor	-10.7125
▁precisely	-10.7131
▁Crea	-10.7135
▁electoral	-10.7138
▁carne	-10.714
▁managed	-10.7142
AND	-10.7147
▁tendencia	-10.7149
▁aproximadamente	-10.715
▁Any	-10.7153
▁adequate	-10.7159
▁Uni	-10.7161
fica	-10.7164
▁saw	-10.7171
▁agencies	-10.7173
▁abuse	-10.7178
▁Barroso	-10.7179
▁permanent	-10.7183
▁mitad	-10.719
▁Trade	-10.719
▁duty	-10.7191
▁practica	-10.7196
ológica	-10.7199
▁aspect	-10.7201
▁emphasise	-10.7201
▁coffee	-10.7204
▁blood	-10.7205
▁existencia	-10.7208
▁negocia	-10.7216
▁won	-10.7218
chu	-10.722
▁photograph	-10.722
▁seguimiento	-10.7221
▁Porque	-10.7223
▁Organización	-10.7224
PI	-10.7236
▁oppose	-10.7238
▁monta	-10.724
▁failure	-10.7242
▁worldwide	-10.7243
▁gama	-10.7247
▁Rome	-10.7248
▁abrir	-10.725
CC	-10.725
▁Also	-10.7254
▁engage	-10.7255
▁monument	-10.7257
▁Chile	-10.7258
▁cerrado	-10.727
RES	-10.7272
ciente	-10.7272
▁razonable	-10.7295
▁competitivenes	-10.7295
▁syn	-10.7296
▁wind	-10.7299
▁decidir	-10.73
▁Once	-10.7303
▁desplaza	-10.7303
▁compartir	-10.7305
muestran	-10.7309
▁typical	-10.7309
▁conclusiones	-10.7314
▁consum	-10.7315
▁root	-10.7324
▁Only	-10.7332
ulation	-10.7332
▁premio	-10.7333
▁solve	-10.7335
▁Market	-10.7336
▁definition	-10.7338
▁Association	-10.7339
qué	-10.7341
▁conseguido	-10.7341
▁anyone	-10.7341
▁lib	-10.7347
▁tercera	-10.735
▁Tele	-10.7355
▁anteriores	-10.7355
▁increasingly	-10.7356
▁vaya	-10.7361
▁acogedor	-10.7372
▁coloca	-10.7372
▁inspira	-10.7374
▁residencia	-10.7374
▁capaces	-10.7378
▁Sala	-10.7379
▁Hace	-10.7381
▁comienzo	-10.7388
▁earlier	-10.74
▁probablemente	-10.7401
▁contamina	-10.7404
▁appeal	-10.7405
▁segura	-10.7405
▁aprender	-10.7406
riz	-10.741
▁condemn	-10.741
▁currency	-10.7413
▁continuo	-10.7416
▁escuchar	-10.742
▁presentación	-10.742
▁1990	-10.7421
▁elección	-10.7426
▁ambas	-10.7429
▁guarda	-10.743
▁PT	-10.7431
▁negative	-10.7431
interested	-10.7434
▁convention	-10.7437
▁favorable	-10.7443
▁someone	-10.7445
▁finalmente	-10.7447
▁Most	-10.7459
zen	-10.746
▁dónde	-10.7461
▁Spe	-10.7461
▁agradecer	-10.7467
▁primari	-10.7467
ING	-10.7469
▁explora	-10.747
cub	-10.7472
▁café	-10.7472
▁automat	-10.7479
▁adoptado	-10.7481
▁producido	-10.7483
pha	-10.7485
▁physical	-10.7487
▁ambiental	-10.7487
▁pide	-10.7491
▁derecha	-10.7494
▁Juan	-10.7494
▁Bre	-10.7494
▁servir	-10.7497
▁sight	-10.7507
©	-10.7512
▁combatir	-10.7517
▁driver	-10.7523
▁Check	-10.7524
▁informar	-10.7538
▁beneficio	-10.7543
▁hogar	-10.7546
▁asilo	-10.7546
TH	-10.7548
▁medioambiental	-10.7551
▁Regional	-10.7553
▁asylum	-10.7554
▁reduced	-10.7556
▁mobile	-10.7557
▁According	-10.7557
▁Gentoo	-10.756
▁adicionales	-10.7561
▁slow	-10.7563
▁uniform	-10.7565
▁earth	-10.7566
ologi	-10.7569
▁extranjero	-10.7574
▁extensive	-10.7578
▁safeguard	-10.7579
▁cheap	-10.759
▁Firstly	-10.759
▁prevention	-10.7602
▁década	-10.7608
ifi	-10.7608
nations	-10.7615
▁metal	-10.7616
▁Brussels	-10.7618
▁science	-10.762
▁square	-10.762
▁asegura	-10.7625
▁peso	-10.7628
▁Romania	-10.7631
▁viven	-10.7639
▁relative	-10.764
▁Palestinian	-10.7641
▁97	-10.7645
▁influencia	-10.7646
▁ruta	-10.7652
▁citizen	-10.766
▁diversidad	-10.766
ò	-10.7662
▁franc	-10.7663
▁financing	-10.7667
▁Reco	-10.7671
▁iniciar	-10.7674
▁entry	-10.7677
▁honor	-10.7687
▁comprar	-10.7687
▁constituyen	-10.7688
90	-10.769
▁parliamentary	-10.7693
ético	-10.7695
▁authority	-10.7696
▁piensa	-10.7697
▁situaciones	-10.7701
▁consumidor	-10.7704
▁govern	-10.7705
▁fuel	-10.7706
▁musical	-10.7706
▁mapa	-10.7708
▁Golf	-10.7713
▁Segú	-10.7717
▁signed	-10.7717
▁fichero	-10.7723
▁verde	-10.7738
▁conclusión	-10.7742
▁evolución	-10.7744
▁eight	-10.7745
▁unacceptable	-10.7745
▁expected	-10.7747
▁normativa	-10.775
▁otherwise	-10.7752
▁Breakfast	-10.7755
craft	-10.7755
tró	-10.7764
▁gratuito	-10.7767
▁statistic	-10.7767
▁Cuenta	-10.7768
▁alojar	-10.7772
▁outcome	-10.778
▁sensible	-10.7784
▁command	-10.7787
▁followed	-10.7788
▁Fre	-10.7795
▁entirely	-10.7795
▁OF	-10.7797
▁concrete	-10.7801
▁recognition	-10.7807
CR	-10.7814
▁madre	-10.7814
hayan	-10.7817
▁infantil	-10.783
▁correcto	-10.7835
▁suministro	-10.784
▁suelo	-10.7844
▁race	-10.7849
▁Administra	-10.7853
▁halla	-10.7861
▁Georgia	-10.7862
cí	-10.7864
▁Moreover	-10.7868
▁appreciate	-10.7876
▁torno	-10.7877
▁associated	-10.788
▁cumple	-10.7882
▁postura	-10.7885
sky	-10.7887
▁alimentaria	-10.7888
▁planeta	-10.7889
▁shape	-10.7891
▁Necesita	-10.7891
▁exactamente	-10.7895
hotel	-10.79
▁intento	-10.7901
▁consultation	-10.7902
▁negocio	-10.7902
estra	-10.7905
▁definición	-10.7907
▁ocurre	-10.7908
▁destinado	-10.791
▁temporal	-10.7919
▁gratuita	-10.7927
▁efectu	-10.7931
▁barco	-10.7932
▁hablando	-10.7934
▁constitute	-10.7936
▁beaches	-10.7937
▁febrero	-10.7939
▁Budget	-10.7942
▁menores	-10.7944
▁reitera	-10.7946
▁elaboración	-10.7951
ê	-10.7955
▁girl	-10.796
▁served	-10.7961
▁north	-10.7961
▁pour	-10.7963
▁Serbia	-10.7964
▁avanzar	-10.7965
▁Personal	-10.7967
▁procedente	-10.7971
stream	-10.7972
▁pienso	-10.7973
▁innovador	-10.7979
▁superficie	-10.7979
▁Bruselas	-10.7981
bé	-10.7982
▁eficiencia	-10.7987
▁casino	-10.7992
▁prestar	-10.7994
▁Irish	-10.7999
▁TM	-10.8002
▁huéspedes	-10.8014
▁hacemos	-10.8039
▁madera	-10.8042
м	-10.8044
▁declaraciones	-10.8045
▁truly	-10.8048
▁demuestra	-10.8049
72	-10.8051
▁Casino	-10.8053
▁llevado	-10.8061
▁definitiva	-10.8062
▁grab	-10.8063
▁apertura	-10.8067
▁gradual	-10.8073
▁contest	-10.8075
▁elevado	-10.8081
wise	-10.8082
▁caracter	-10.8088
▁darle	-10.8091
▁instant	-10.8092
▁delegation	-10.8095
▁recognize	-10.81
▁destroy	-10.8101
▁declare	-10.8102
▁utilizando	-10.8105
▁sentir	-10.8108
lógico	-10.8109
▁perder	-10.8111
▁equipadas	-10.8117
migrants	-10.8121
▁valle	-10.8123
▁Marco	-10.8124
EG	-10.8128
▁convertir	-10.8136
▁desempleo	-10.8138
yendo	-10.8144
▁Kingdom	-10.8149
▁mother	-10.8163
▁taste	-10.8166
▁innovative	-10.8167
▁Unfortunate	-10.8168
▁ahead	-10.8172
▁solid	-10.8174
▁Otro	-10.8177
▁Research	-10.8178
▁satisfacer	-10.8179
▁linked	-10.8182
▁siquiera	-10.8182
▁eficiente	-10.8184
▁revela	-10.8187
▁adjust	-10.8187
▁participantes	-10.819
▁employees	-10.8194
46	-10.8196
▁mencionar	-10.8199
▁cumbre	-10.8202
▁Estrategia	-10.8209
▁Summit	-10.821
▁discuti	-10.8213
▁Carta	-10.8215
▁sorprende	-10.8222
▁Out	-10.8223
▁dangerous	-10.8225
▁cami	-10.8227
▁conciencia	-10.8229
ika	-10.8232
▁enormous	-10.8233
62	-10.8239
▁villa	-10.8251
▁pacientes	-10.8253
▁substantial	-10.8256
OP	-10.8258
▁incident	-10.8261
▁estructurales	-10.8263
▁Alguno	-10.8267
▁generación	-10.8274
▁legislativo	-10.8275
▁tendría	-10.8277
▁reconoce	-10.8279
güe	-10.8282
▁alcohol	-10.8285
▁furnished	-10.8286
▁siga	-10.8287
SC	-10.8288
▁goza	-10.8292
▁móvil	-10.8293
▁terrible	-10.8293
▁convertido	-10.8296
▁cine	-10.8301
82	-10.831
▁symbol	-10.8311
▁editor	-10.8324
68	-10.8324
▁Home	-10.8328
▁cultivo	-10.8341
▁spent	-10.8341
▁creciente	-10.8342
▁memoria	-10.835
▁género	-10.8354
tile	-10.8355
dding	-10.8361
▁obligaciones	-10.8361
▁Shi	-10.8363
▁subsidiar	-10.8364
▁opposition	-10.8364
▁famoso	-10.8364
▁chic	-10.8365
cture	-10.8371
▁destination	-10.8372
▁Tro	-10.8377
▁Over	-10.8381
▁perfectamente	-10.8384
Democrats	-10.8386
▁ubica	-10.8388
▁acontecimientos	-10.839
▁dólares	-10.8404
EF	-10.8405
▁Information	-10.8407
tended	-10.8409
▁recomendaciones	-10.8419
▁Nosotro	-10.8419
▁identify	-10.8422
▁Protocol	-10.8424
▁profesor	-10.8424
▁lamentable	-10.843
éis	-10.8436
▁scheme	-10.8439
▁independencia	-10.844
▁alarm	-10.8447
▁menú	-10.8448
▁panel	-10.8449
▁diploma	-10.8455
ô	-10.8458
▁territorial	-10.846
▁elegant	-10.846
▁pleasant	-10.8463
▁acknowledge	-10.8473
▁ticket	-10.8473
▁habitantes	-10.8477
▁railway	-10.8483
▁button	-10.8483
▁Asociación	-10.8487
pending	-10.849
GA	-10.8494
▁Game	-10.8497
▁equality	-10.8499
▁yesterday	-10.8504
▁equivalent	-10.8505
▁otorga	-10.8505
▁resid	-10.8507
▁oposición	-10.8508
▁producers	-10.8511
▁Greece	-10.8519
47	-10.8519
▁gusto	-10.8527
▁Chinese	-10.8538
▁immediate	-10.8549
▁colleague	-10.855
▁legislativa	-10.8552
▁Agenda	-10.8552
▁tomado	-10.8552
▁demostrar	-10.8554
▁exit	-10.8556
▁attitude	-10.8557
▁kid	-10.8561
▁Safety	-10.8561
▁moving	-10.8568
▁flexibilidad	-10.8568
▁interno	-10.8572
▁examinar	-10.8572
▁salir	-10.8577
▁decidido	-10.8579
▁eat	-10.8581
▁2013	-10.8586
▁visible	-10.8589
▁domestic	-10.859
▁Grecia	-10.859
▁elegido	-10.859
▁EADS	-10.8591
▁WTO	-10.8592
▁esperamos	-10.8597
tech	-10.8598
▁dimensión	-10.8613
▁Product	-10.8615
▁instruct	-10.862
▁Locate	-10.8623
▁translation	-10.8625
FA	-10.8626
▁succeed	-10.8628
▁easier	-10.8643
▁terminar	-10.8644
▁church	-10.8646
▁dirige	-10.8648
▁refugiados	-10.8651
▁municipal	-10.8658
▁assess	-10.8658
▁putting	-10.8659
▁corta	-10.866
▁Programme	-10.8663
▁realizada	-10.8664
▁jugar	-10.8664
TR	-10.8665
TS	-10.8666
▁danger	-10.8666
▁emphasis	-10.8677
ponemos	-10.868
▁margin	-10.8684
▁institución	-10.8686
▁encuentro	-10.8691
▁alcanzado	-10.8695
▁Ciudad	-10.8696
▁surgi	-10.8698
▁resume	-10.87
▁honest	-10.87
hill	-10.8702
▁Qua	-10.8702
▁parcial	-10.8709
▁rue	-10.8711
elle	-10.8716
▁preparation	-10.8717
▁impossible	-10.872
▁acusa	-10.8729
▁habido	-10.873
▁continente	-10.8732
▁potencia	-10.8733
▁Festival	-10.8736
▁Monte	-10.874
▁término	-10.8741
▁ciencia	-10.8748
▁greatest	-10.8748
▁spot	-10.876
▁1992	-10.877
▁honourable	-10.8771
▁Nav	-10.8773
▁technique	-10.8775
▁empleados	-10.8776
▁ayer	-10.8777
▁pudiera	-10.8778
56	-10.878
AI	-10.8782
▁Agencia	-10.8789
▁olvidar	-10.879
▁burden	-10.8792
▁horizon	-10.8795
▁Great	-10.8799
▁Oriente	-10.8804
▁arrival	-10.8805
▁fundamento	-10.8807
▁Arab	-10.8807
▁Gold	-10.8808
▁truth	-10.8811
▁ducha	-10.8811
▁naturalmente	-10.8814
▁obstáculo	-10.8827
▁comun	-10.8829
▁rendimiento	-10.8831
▁Foreign	-10.8831
▁empresarial	-10.8833
▁soporte	-10.8838
▁database	-10.8839
▁phase	-10.8841
▁transition	-10.8841
▁sesiones	-10.8845
▁surprise	-10.8848
▁provincia	-10.8848
▁judge	-10.8848
▁impulsa	-10.8862
EE	-10.8862
▁salón	-10.8864
▁exhaust	-10.8867
▁barrio	-10.8869
66	-10.8871
▁tribunal	-10.8875
▁ONU	-10.8876
▁José	-10.8876
▁disponibilidad	-10.8878
▁medicine	-10.8878
▁withdraw	-10.8879
▁Software	-10.8882
▁aprecia	-10.8886
▁siete	-10.8887
▁competence	-10.8889
▁Museum	-10.8889
▁respalda	-10.889
IV	-10.8893
▁Middle	-10.8897
▁religious	-10.8897
▁quiera	-10.8898
▁argumento	-10.8903
▁arregl	-10.8904
▁Berlin	-10.8913
▁OMC	-10.8915
▁debatir	-10.8919
▁landscape	-10.8919
▁Third	-10.8921
▁cabeza	-10.8929
▁territory	-10.8942
▁precisa	-10.8942
▁diversity	-10.8948
▁aboga	-10.8949
87	-10.8951
▁declaration	-10.8951
stood	-10.8952
▁manufacturer	-10.8952
▁consumption	-10.8955
▁fumadores	-10.8957
▁apare	-10.8962
▁facilitate	-10.8962
▁variable	-10.8963
▁anuncio	-10.8964
▁Convenio	-10.8966
▁Humanos	-10.8966
▁delibera	-10.8968
▁mutual	-10.8973
Í	-10.8979
adura	-10.8986
▁boat	-10.8995
▁flexibility	-10.9007
hum	-10.9012
▁hip	-10.9014
▁applies	-10.9016
▁estricta	-10.9016
▁wonder	-10.9017
▁rock	-10.9022
▁aclara	-10.9025
▁endorse	-10.9029
▁budgetar	-10.903
▁Street	-10.9038
tendrán	-10.9041
▁Foundation	-10.9045
▁hincapié	-10.9047
▁presupuestario	-10.9049
▁middle	-10.9049
▁Cultura	-10.9056
▁cumpli	-10.9059
▁Mientras	-10.9064
▁liberalización	-10.9065
▁inmediatamente	-10.9069
▁convierte	-10.9071
▁anticipa	-10.9072
▁David	-10.9074
▁PRO	-10.9082
▁Acta	-10.9086
▁Playa	-10.9088
stated	-10.9097
▁surround	-10.9099
▁inaceptable	-10.9106
▁Torre	-10.9111
▁Exteriores	-10.9116
▁seminar	-10.9119
▁fabricante	-10.9125
▁cuestionario	-10.9131
VE	-10.9136
▁Opera	-10.9144
▁blanco	-10.9153
▁medicina	-10.9153
▁adoptada	-10.9156
organised	-10.9164
▁saving	-10.9164
▁automatically	-10.9167
▁museo	-10.9175
▁brain	-10.9175
▁museum	-10.9176
▁identidad	-10.9176
active	-10.918
▁affair	-10.9181
▁satélite	-10.9181
▁festival	-10.9186
▁jugadores	-10.9187
59	-10.9188
▁collective	-10.919
▁expenditure	-10.9201
▁Industria	-10.9208
▁paisaje	-10.9208
78	-10.921
▁igualmente	-10.9217
▁assure	-10.9228
▁violent	-10.9229
▁attach	-10.9231
▁accidente	-10.9232
▁membership	-10.9233
book	-10.9236
▁Japan	-10.9239
84	-10.9241
▁acoge	-10.9248
▁preparado	-10.9251
▁Liberal	-10.9252
▁ignora	-10.9253
▁evaluation	-10.9253
▁dream	-10.9254
CP	-10.9257
▁belleza	-10.9259
▁Univision	-10.9268
▁gather	-10.9278
▁smoking	-10.9278
▁eventual	-10.9282
ographic	-10.9285
▁kept	-10.9286
▁podremos	-10.9291
▁visitors	-10.9291
▁sanciones	-10.9292
▁changing	-10.9293
▁menciona	-10.9301
▁election	-10.9302
puso	-10.9304
▁absoluto	-10.9305
MB	-10.9305
▁multilateral	-10.9308
▁pasajeros	-10.9308
nother	-10.9316
▁actua	-10.9321
▁preocupaciones	-10.9324
▁extension	-10.9326
▁ventana	-10.9332
▁gender	-10.9334
▁imposible	-10.9335
Гі	-10.9344
▁luxury	-10.9348
▁sensitive	-10.9353
▁concert	-10.9357
▁Where	-10.9359
▁flag	-10.936
76	-10.9364
▁threaten	-10.9367
▁corner	-10.9368
▁creemos	-10.9371
▁vídeo	-10.9374
▁científica	-10.938
▁beneficiar	-10.9386
▁undertake	-10.9388
▁Prime	-10.9389
▁frequent	-10.9391
▁implant	-10.9391
▁vivo	-10.9395
▁mistake	-10.9398
200	-10.9399
▁shops	-10.9402
▁2011	-10.9409
▁presentation	-10.9412
▁drop	-10.9413
▁meters	-10.9415
▁combination	-10.9422
▁Libro	-10.9422
▁mezcla	-10.9423
▁agentes	-10.9427
▁ingredient	-10.9437
▁Desk	-10.9438
work	-10.9443
▁Food	-10.945
▁elected	-10.9461
UN	-10.9461
▁británico	-10.9464
▁Beach	-10.9465
▁exposición	-10.9465
▁ambitious	-10.9475
73	-10.9475
▁País	-10.9476
▁MEP	-10.9478
▁guía	-10.948
▁culpa	-10.9481
▁responsibilit	-10.9482
▁plataforma	-10.9484
▁Nevertheless	-10.949
▁availability	-10.9492
67	-10.9492
▁tackle	-10.9495
▁llegada	-10.9496
▁prestigio	-10.9497
▁francés	-10.9498
▁evaluar	-10.9499
▁prospect	-10.9503
▁aborda	-10.9504
▁platform	-10.951
▁transferencia	-10.9526
▁humanitaria	-10.9534
▁Super	-10.9542
▁destinada	-10.9545
▁architecture	-10.9547
▁permiso	-10.9548
▁Agency	-10.9555
▁Valencia	-10.9557
▁title	-10.956
▁Design	-10.9562
▁Ambiente	-10.9562
▁autoridad	-10.9566
▁bill	-10.9572
▁turístico	-10.9579
torial	-10.9582
▁investigation	-10.9586
▁ministro	-10.9588
▁disfruta	-10.9596
IE	-10.9596
▁Rotary	-10.9597
▁attractions	-10.9599
▁recurr	-10.9601
▁calm	-10.9601
▁submit	-10.9603
▁suitable	-10.9607
▁Under	-10.9614
▁Fax	-10.9615
▁reasonable	-10.9625
▁impresión	-10.9629
▁surface	-10.9665
▁himself	-10.9667
▁dirigida	-10.9667
▁conforme	-10.9668
RC	-10.9671
▁desempeñar	-10.9677
▁encima	-10.9681
▁inferior	-10.9684
▁especifica	-10.9684
▁Civil	-10.9686
▁Yugoslav	-10.9689
▁niño	-10.9693
▁Popular	-10.9695
79	-10.9695
▁etapa	-10.9697
▁prohibición	-10.9698
▁cultiva	-10.9708
77	-10.9715
▁lift	-10.9718
▁califica	-10.9725
▁earn	-10.9733
ografía	-10.9738
▁peor	-10.9744
▁Women	-10.9754
AF	-10.9756
▁Informe	-10.9762
▁1993	-10.9769
▁blue	-10.9769
▁insurance	-10.9773
▁bienvenida	-10.9773
▁acceptable	-10.978
▁Turkish	-10.978
▁iglesia	-10.9784
▁woman	-10.9786
▁pure	-10.9788
▁conocida	-10.9788
▁Martin	-10.979
▁claridad	-10.9792
▁fotografía	-10.9797
▁Alliance	-10.9797
▁significativa	-10.9803
▁joven	-10.9805
▁dynamic	-10.981
▁afford	-10.9812
▁Black	-10.9813
▁alojado	-10.9814
PR	-10.9826
▁piso	-10.9828
▁Facilities	-10.9831
▁arquitectura	-10.9832
▁beauty	-10.9833
▁levanta	-10.9833
▁italiano	-10.9834
▁virtud	-10.9838
▁traged	-10.9838
▁deserve	-10.984
▁alguno	-10.9848
д	-10.9849
▁ajusta	-10.9851
▁captura	-10.9852
▁modera	-10.9853
▁described	-10.9871
▁fiesta	-10.9877
п	-10.9885
ville	-10.9887
alefacción	-10.9891
▁pick	-10.9895
pression	-10.9895
▁supervisión	-10.9896
▁advice	-10.9898
▁Angel	-10.9904
▁icon	-10.9905
▁publish	-10.9905
▁aplicable	-10.9906
▁felt	-10.9907
▁obligado	-10.9907
▁empeza	-10.9907
▁abajo	-10.991
▁llena	-10.9911
▁vecinos	-10.9915
▁restriction	-10.9927
▁albergue	-10.9929
▁proportion	-10.9936
▁mandate	-10.9937
▁Hasta	-10.9948
▁Photo	-10.9951
▁planteamiento	-10.9952
▁Canada	-10.9954
▁comportamiento	-10.9955
▁consenso	-10.9955
▁norma	-10.9956
▁preparar	-10.9962
▁reclama	-10.9965
▁Parque	-10.9967
penas	-10.997
▁imagine	-10.9974
▁Power	-10.9979
▁foundation	-10.998
▁tendremos	-10.9987
▁AIDS	-10.9989
▁Interior	-10.999
▁vivienda	-10.9995
▁chemical	-11.0006
▁metres	-11.0007
▁tropical	-11.0008
▁gratis	-11.001
▁Network	-11.0018
▁arrange	-11.0019
▁interface	-11.0024
HA	-11.0025
▁habitual	-11.0033
▁modificación	-11.0035
▁histórica	-11.0039
▁inmigrantes	-11.0049
▁asumir	-11.0049
medioambientales	-11.0052
▁worse	-11.0053
▁push	-11.0054
▁golpe	-11.0056
▁Visit	-11.0062
▁Resort	-11.0072
▁convertirse	-11.0072
▁discrimina	-11.0074
▁continuing	-11.0075
activa	-11.0077
▁recuperación	-11.0079
▁exclusivamente	-11.0082
▁universidad	-11.0085
▁observación	-11.0088
▁Sabe	-11.009
▁NL	-11.0091
▁indispensable	-11.0093
▁agosto	-11.0096
▁situada	-11.0101
▁criticism	-11.0116
thinking	-11.0117
▁temperatura	-11.0122
▁edición	-11.013
▁organizado	-11.0139
▁Fundamental	-11.0143
▁excepcional	-11.0145
▁Indeed	-11.0148
▁energético	-11.0149
▁aprobada	-11.0151
▁Report	-11.0151
▁informal	-11.0152
▁pertenece	-11.0154
▁Video	-11.0158
▁scene	-11.0173
▁discurso	-11.0178
▁tuvier	-11.0179
▁Book	-11.018
▁dollar	-11.018
▁realización	-11.0184
▁sentence	-11.0185
▁connected	-11.0189
▁renewable	-11.0189
▁agency	-11.0192
▁física	-11.0195
▁sacar	-11.0199
▁temperature	-11.0199
▁continúa	-11.0199
▁leisure	-11.0201
ográfico	-11.0201
▁reveal	-11.0205
▁talent	-11.021
▁technological	-11.0213
▁fixed	-11.0217
▁aéreo	-11.0219
▁exceptional	-11.0228
▁inevitabl	-11.0238
▁paseo	-11.0239
▁chosen	-11.0243
GB	-11.0245
▁alquiler	-11.0246
▁Mediterráneo	-11.025
▁Excel	-11.0258
▁assume	-11.026
▁desgracia	-11.0261
▁copy	-11.0265
▁background	-11.0269
▁célula	-11.0281
▁explore	-11.029
▁Good	-11.029
▁convencido	-11.0293
▁explota	-11.0299
▁birth	-11.0317
▁activist	-11.0319
▁governance	-11.032
▁optimis	-11.0321
▁capable	-11.0324
▁awareness	-11.0329
▁Question	-11.033
▁restaur	-11.0331
▁excursion	-11.0332
▁contaminación	-11.0345
▁negociación	-11.0346
▁Royal	-11.0352
▁restore	-11.0355
▁explotación	-11.0366
▁múltiple	-11.0366
▁Fundación	-11.037
▁bound	-11.0378
clav	-11.038
▁father	-11.0383
▁negativa	-11.0386
▁memory	-11.0394
▁800	-11.0395
▁dormitorio	-11.0395
â	-11.0405
▁debt	-11.0421
▁persist	-11.0421
▁identifie	-11.0422
▁piedra	-11.0432
▁accessible	-11.0436
▁Minutes	-11.0437
▁formulario	-11.0439
▁Greek	-11.0441
▁kilómetros	-11.0443
▁discharge	-11.0445
▁exhibition	-11.0445
▁White	-11.0445
▁suggestion	-11.0449
▁Actualmente	-11.0451
▁funcionarios	-11.0455
▁concluir	-11.0455
▁consensus	-11.0455
titled	-11.0456
▁250	-11.0456
▁distrito	-11.0459
▁Czech	-11.0461
▁ojos	-11.0465
▁School	-11.0467
▁length	-11.0469
▁particip	-11.0471
▁permitido	-11.0472
▁license	-11.0473
▁faith	-11.0481
▁Ukraine	-11.0493
▁increíble	-11.0493
▁instalar	-11.0494
▁biggest	-11.0495
▁Charter	-11.0495
▁privacy	-11.0499
▁exception	-11.0505
ception	-11.0506
▁arbitrar	-11.0511
▁independence	-11.0513
69	-11.0518
▁Museo	-11.0521
▁catástrofe	-11.0529
▁preparación	-11.0532
▁Express	-11.0535
▁abuso	-11.0542
▁religion	-11.0549
▁wild	-11.0555
▁efectivo	-11.0555
▁llamamiento	-11.0556
▁platos	-11.0566
▁ponga	-11.0573
▁Institute	-11.0588
▁Ucrania	-11.0588
▁Chamber	-11.059
▁monopol	-11.0596
▁flat	-11.0603
▁oblig	-11.0604
▁relaciona	-11.0607
▁privilege	-11.062
▁Energy	-11.0622
▁constructive	-11.0623
▁temporada	-11.0624
▁battle	-11.0628
▁transaction	-11.0632
▁agradecimiento	-11.0634
▁arise	-11.0641
▁division	-11.0641
▁consejo	-11.0655
▁dining	-11.0662
▁approximately	-11.0663
▁caracteriza	-11.0668
▁dinner	-11.0673
▁Albania	-11.0673
▁arriba	-11.0685
▁refuse	-11.0687
▁strength	-11.0687
▁pleasure	-11.0687
▁compliance	-11.0706
▁Texas	-11.0712
▁Special	-11.0713
▁vuelta	-11.0714
▁Bosnia	-11.0718
▁retraso	-11.0724
▁manipula	-11.0728
scrito	-11.073
iéramos	-11.0743
▁limpia	-11.0747
▁gubernamental	-11.0757
▁existence	-11.0761
▁petróleo	-11.0765
iéndose	-11.0767
▁jardín	-11.0769
▁cena	-11.0769
▁debida	-11.0775
▁automáticamente	-11.0777
▁parlamentaria	-11.0784
▁pista	-11.0784
▁Comercio	-11.079
▁PYME	-11.0792
ábamos	-11.0792
▁añadido	-11.0794
▁intelectual	-11.0796
▁aérea	-11.0803
▁involvement	-11.0805
▁compañero	-11.0806
▁Rural	-11.0808
aught	-11.081
▁acelera	-11.0811
▁Two	-11.0813
▁Franc	-11.0818
▁impedir	-11.0819
▁estratégica	-11.0821
▁Enjoy	-11.0827
▁recoge	-11.083
▁trading	-11.0835
▁lobby	-11.0837
▁delegación	-11.0844
▁robot	-11.0845
▁schedule	-11.0846
▁identity	-11.0846
▁Japón	-11.0848
▁actuación	-11.0855
▁armonización	-11.0856
▁movie	-11.0858
▁Eastern	-11.0858
▁directrices	-11.0877
▁solicit	-11.0881
credible	-11.0881
▁recovery	-11.0883
▁department	-11.0888
▁lounge	-11.0888
▁reconocido	-11.0891
▁Tengo	-11.0892
▁turística	-11.0908
▁definir	-11.091
▁quick	-11.0911
enterprises	-11.0914
ísimo	-11.0921
▁expone	-11.0925
▁prevé	-11.0929
▁participants	-11.0931
▁Portuguese	-11.0935
▁frecuente	-11.0935
▁medianas	-11.094
▁suerte	-11.0941
▁sanitaria	-11.0944
▁incremento	-11.0954
▁nearby	-11.0959
▁River	-11.096
▁extremadamente	-11.0967
▁2.0	-11.0968
▁llegue	-11.0972
▁equit	-11.0973
▁Netherlands	-11.0973
▁Londres	-11.0973
▁poblaciones	-11.0973
▁circuit	-11.0979
▁combustible	-11.0981
▁impresionante	-11.0981
EO	-11.0982
▁disposal	-11.0986
▁sencillo	-11.0988
▁aprendizaje	-11.099
▁politics	-11.099
▁mínima	-11.0992
▁botón	-11.0992
▁opposite	-11.0998
▁strategies	-11.0998
▁Ofrece	-11.1009
▁catch	-11.1009
▁Palace	-11.1011
▁supplement	-11.1015
▁overlook	-11.1019
▁tradición	-11.1026
west	-11.1033
▁estimula	-11.1041
▁suele	-11.1047
▁surge	-11.1056
▁whil	-11.1057
▁possibilities	-11.1062
▁atrás	-11.1069
▁insert	-11.1069
▁exclusiva	-11.107
▁Reserva	-11.1071
unci	-11.1079
▁diciendo	-11.1084
▁chain	-11.1085
americana	-11.1087
▁Class	-11.1088
▁column	-11.1097
▁Sierra	-11.1101
▁rail	-11.1102
▁contradict	-11.1104
▁ajuste	-11.1105
▁definite	-11.1105
▁fenómeno	-11.1106
▁III	-11.1113
credit	-11.1114
▁dispute	-11.1114
▁distinct	-11.1119
▁dedicado	-11.1127
▁Consult	-11.1129
mount	-11.113
▁rang	-11.113
▁electrónica	-11.1145
▁denuncia	-11.1149
▁compact	-11.115
▁multiple	-11.116
▁glass	-11.1162
у	-11.1168
▁trafficking	-11.117
▁Demócrata	-11.117
▁magn	-11.1172
▁ultra	-11.1173
▁envío	-11.1176
▁dirigir	-11.1181
▁Square	-11.1181
▁Muchos	-11.1186
▁category	-11.119
▁ancient	-11.1191
▁configuración	-11.1196
▁inmediato	-11.1207
▁París	-11.1207
▁collaboration	-11.1209
▁approval	-11.1215
▁Assembly	-11.1241
▁individuo	-11.1243
▁straight	-11.1244
▁wealth	-11.1244
▁seguido	-11.1247
▁núcleo	-11.125
▁fashion	-11.1252
▁confident	-11.1254
▁infring	-11.1255
▁parlamentario	-11.1267
▁enseña	-11.127
tergubernamental	-11.1274
▁Earth	-11.128
▁Poker	-11.1282
ifique	-11.1284
aux	-11.1287
▁Polonia	-11.1289
▁muerto	-11.1292
▁Online	-11.1293
▁Music	-11.1301
▁dirigido	-11.1304
▁Washington	-11.1311
▁classic	-11.1311
▁urgencia	-11.1319
▁glad	-11.1337
▁cáncer	-11.135
▁operativo	-11.1358
▁Board	-11.1362
▁cláusula	-11.1365
▁Federal	-11.1372
▁wage	-11.1374
▁Strategy	-11.1374
▁attractive	-11.1385
▁radia	-11.1393
▁Michel	-11.1396
▁Instituto	-11.1409
▁artificial	-11.1418
▁prolong	-11.1418
▁pilar	-11.1433
▁Before	-11.1438
▁advertising	-11.1448
▁calendario	-11.1448
▁encuentre	-11.1448
▁quarter	-11.1451
▁sovereign	-11.1457
▁driving	-11.1462
▁francesa	-11.1462
▁wave	-11.1464
▁Garden	-11.1466
▁Skype	-11.1468
▁southern	-11.1468
▁Belarus	-11.1471
▁emergency	-11.1471
▁California	-11.1473
▁limpieza	-11.1475
▁sharing	-11.1478
▁irregular	-11.1488
▁Premio	-11.1491
condicion	-11.1492
▁extraordinaria	-11.1493
▁registration	-11.1493
▁obstacle	-11.1495
▁aceptable	-11.1498
▁visitantes	-11.1508
▁witness	-11.151
▁vigente	-11.1511
▁minibar	-11.1513
mouth	-11.1516
▁ONG	-11.1517
▁departamento	-11.1521
▁fascina	-11.1528
sanctions	-11.1531
▁negativo	-11.1537
▁inclusión	-11.1542
▁comité	-11.1546
▁journalist	-11.1548
▁liberalisation	-11.1554
▁escenario	-11.1562
▁expensive	-11.1564
▁amazing	-11.1566
▁flujo	-11.1567
▁Sunday	-11.157
▁ruido	-11.1578
▁Company	-11.1582
▁profile	-11.1585
▁economies	-11.1586
▁ignore	-11.1588
▁sleep	-11.1593
▁vous	-11.1601
▁cerebro	-11.1606
▁flota	-11.1607
▁maintenance	-11.1613
▁Four	-11.1618
▁Procedure	-11.162
▁quantit	-11.1624
▁dishes	-11.1628
▁soporta	-11.1629
▁reaction	-11.163
▁dificulta	-11.163
▁Friday	-11.1635
▁journey	-11.1635
▁Multi	-11.1638
▁Ladie	-11.1641
▁palestino	-11.1644
▁diputado	-11.1669
▁qualified	-11.1671
▁Sweden	-11.1678
▁excepción	-11.1683
▁disappear	-11.1687
▁ethnic	-11.1687
▁sangre	-11.1699
▁Blue	-11.1704
▁automóvil	-11.1707
▁famosa	-11.1713
▁expense	-11.1717
▁abarca	-11.1726
tergovernmental	-11.175
▁propietario	-11.175
▁kernel	-11.1751
field	-11.1758
▁emocion	-11.1758
·	-11.176
▁decorated	-11.1764
▁Tierra	-11.1769
▁sujeto	-11.1772
▁Permítanme	-11.1778
▁obtenido	-11.178
▁intellectual	-11.1787
▁residence	-11.1789
▁hardware	-11.179
▁perdido	-11.1792
▁barrier	-11.1794
▁democrat	-11.1799
▁outstanding	-11.1801
▁Palestin	-11.1801
▁significativo	-11.1805
▁boot	-11.1811
▁reducida	-11.1812
▁fantastic	-11.1812
▁mobility	-11.1822
▁clause	-11.1823
▁applicable	-11.1828
▁Church	-11.183
▁appointed	-11.1833
TRA	-11.1849
▁liquid	-11.1849
▁impulso	-11.1853
▁leadership	-11.1858
▁storage	-11.1865
▁voluntario	-11.1879
▁Cuál	-11.1884
▁occidental	-11.1888
▁affiliate	-11.1897
icul	-11.1905
▁Sistema	-11.1908
▁pollution	-11.1911
▁vínculo	-11.1915
▁Mexican	-11.1922
▁inteligente	-11.1922
▁planned	-11.1932
▁Legal	-11.1939
▁comienza	-11.1941
▁ritmo	-11.195
▁Palacio	-11.1955
▁vessel	-11.1969
▁azul	-11.1974
poniendo	-11.1976
▁Monday	-11.198
▁binding	-11.198
▁pretty	-11.1985
▁bebida	-11.1987
▁conversaciones	-11.1987
▁pronuncia	-11.1999
▁excessive	-11.2006
▁reinforce	-11.2013
▁dominio	-11.2013
▁enterprise	-11.2021
▁ought	-11.2022
▁Robert	-11.2031
▁Venezuela	-11.2031
determin	-11.2034
▁reliabl	-11.2036
▁enseñanza	-11.2037
▁UNESCO	-11.2055
▁Smok	-11.2061
▁coordinate	-11.2065
▁manifiesto	-11.2076
▁administrativa	-11.2076
▁outdoor	-11.2081
▁grateful	-11.2092
▁unilateral	-11.2092
▁bottom	-11.2102
▁emergencia	-11.2106
▁traducción	-11.2106
▁browser	-11.2109
▁Suecia	-11.2109
▁alemán	-11.2111
▁avec	-11.2116
▁jugador	-11.2125
▁criterio	-11.2127
▁restricciones	-11.2135
▁password	-11.2138
▁subsequent	-11.2151
▁pillar	-11.2151
▁province	-11.2154
assembl	-11.2157
▁Project	-11.2163
▁Dutch	-11.2166
▁arrangements	-11.2166
▁debajo	-11.2168
▁utilice	-11.2177
▁Arch	-11.2181
▁Travel	-11.2182
▁Santiago	-11.2182
▁eficaces	-11.2184
▁Organization	-11.2194
▁capítulo	-11.2199
▁SMEs	-11.2207
▁Congress	-11.2211
▁Europol	-11.2212
▁afternoon	-11.2218
▁catalog	-11.2218
▁vigilancia	-11.2218
▁Situado	-11.222
▁murder	-11.2222
▁migration	-11.2225
▁Korea	-11.2239
▁operators	-11.2253
▁toilet	-11.2269
▁vuelve	-11.227
▁Canadá	-11.2273
▁corriente	-11.228
rticula	-11.2282
▁oído	-11.2286
▁revolution	-11.2297
▁leaving	-11.2311
▁Management	-11.2318
▁Pueblo	-11.232
▁weekend	-11.2327
▁Común	-11.2328
▁industries	-11.2333
▁Protection	-11.2333
▁orgullo	-11.2333
▁instancia	-11.2338
▁spring	-11.2345
▁struggle	-11.2347
▁exceed	-11.2348
▁valuable	-11.2348
▁espectacular	-11.2354
▁peligroso	-11.2357
▁Education	-11.2359
▁hermano	-11.2365
▁racism	-11.2369
▁Cyprus	-11.2374
▁Francisco	-11.2383
▁Incluso	-11.239
▁examen	-11.2391
▁deficit	-11.2393
▁riqueza	-11.2395
▁Alguna	-11.2396
▁Oficina	-11.2403
▁cometido	-11.2416
▁thorough	-11.2422
▁regalo	-11.2424
▁estadísticas	-11.2424
▁fragment	-11.2427
europe	-11.2439
utiliz	-11.2448
thereby	-11.2448
▁pesquera	-11.2449
▁atractivo	-11.2456
▁aircraft	-11.2458
▁Swedish	-11.2466
▁titular	-11.2469
vienen	-11.2472
▁apropiado	-11.2485
▁Bolivia	-11.2485
▁Económico	-11.2488
▁biblioteca	-11.2488
▁worry	-11.2488
▁miedo	-11.2489
▁Macedonia	-11.2495
▁prevenir	-11.25
▁Mallorca	-11.2502
▁impression	-11.2511
▁Financial	-11.2512
▁heritage	-11.2515
▁courage	-11.2515
▁transición	-11.2515
▁Egypt	-11.2522
▁registrado	-11.2523
▁coordinat	-11.2523
▁heavy	-11.2527
▁expectations	-11.253
▁afrontar	-11.2531
▁Department	-11.2534
cepcion	-11.2537
parecen	-11.2541
▁remote	-11.2545
▁Thursday	-11.2547
▁ausencia	-11.2551
▁inmediata	-11.2558
▁Croatia	-11.2559
▁Miembro	-11.2561
▁viejo	-11.2562
▁Comentarios	-11.2566
ГЎ	-11.2569
▁apparent	-11.2569
▁allocate	-11.2572
▁Luego	-11.259
▁presidencia	-11.2593
▁broadcast	-11.2599
▁sensor	-11.2604
▁Hostelsclub	-11.2608
▁persecu	-11.2616
▁sugerencia	-11.2623
▁entertainment	-11.2631
▁ferrocarril	-11.2638
▁amenities	-11.2638
▁winter	-11.2639
▁frame	-11.2647
▁Kong	-11.2658
▁déficit	-11.2668
▁ejército	-11.2668
▁severe	-11.2669
▁ciclo	-11.2678
▁possib	-11.2688
▁Usuario	-11.2688
▁probable	-11.2697
▁vigila	-11.2712
▁bicicleta	-11.2713
▁colonial	-11.2715
▁desastre	-11.2726
certainty	-11.2731
▁mineral	-11.2734
▁turco	-11.2741
▁porcentaje	-11.2745
▁inclusion	-11.2763
▁tortura	-11.2773
▁escribir	-11.2773
▁aplique	-11.2773
▁mostrado	-11.2775
ICA	-11.2778
▁raíz	-11.2778
▁exclude	-11.2779
▁inaugura	-11.278
eiro	-11.2787
▁aprovecha	-11.2791
▁estatuto	-11.2796
▁construido	-11.2801
▁desarroll	-11.2805
▁Follow	-11.2816
▁patrimonio	-11.2816
▁segment	-11.282
▁Nikon	-11.2826
▁advise	-11.2828
▁símbolo	-11.2833
▁Through	-11.2841
▁invertir	-11.2841
▁refiero	-11.2844
▁reunir	-11.2845
▁encanto	-11.2845
▁junta	-11.2858
▁recuerdo	-11.2861
▁Pública	-11.2864
▁balcony	-11.2877
▁gobernanza	-11.288
▁exclusivo	-11.2882
▁contribut	-11.2884
▁estratégico	-11.2894
▁Player	-11.2895
▁hermosa	-11.2898
▁Description	-11.2902
▁explanation	-11.2905
Ú	-11.2907
▁wrote	-11.2907
▁detallada	-11.2907
▁prevista	-11.2908
▁neuro	-11.2911
▁corporate	-11.2917
▁éstos	-11.2918
▁suministra	-11.292
▁garantice	-11.2928
▁1991	-11.2928
▁boutique	-11.293
▁involucra	-11.2935
▁modificaciones	-11.294
▁politicians	-11.2945
tengamos	-11.2946
▁fortalecer	-11.2948
▁instalado	-11.2951
▁referendum	-11.2953
▁manufacture	-11.2958
▁equivoca	-11.2958
▁newspaper	-11.2961
▁string	-11.2966
▁translate	-11.2967
▁Atlantic	-11.2969
▁Ésta	-11.2974
▁Quizá	-11.2989
▁regulatory	-11.2992
ы	-11.2994
▁Maastricht	-11.2994
▁práctico	-11.2997
▁corrupción	-11.3007
▁literal	-11.3011
▁Afghanistan	-11.3025
▁Word	-11.3031
▁Secretary	-11.3033
▁pesquero	-11.3035
▁viernes	-11.3035
▁conducir	-11.3046
▁acumula	-11.3051
я	-11.3059
▁massive	-11.306
▁detrás	-11.3062
▁tabaco	-11.3064
▁JavaScript	-11.3066
▁Rumanía	-11.3069
▁acquire	-11.3085
▁resource	-11.3086
▁ahorro	-11.3086
▁Kyoto	-11.3087
▁accesible	-11.3087
▁Congreso	-11.3092
▁médica	-11.3093
▁Chipre	-11.3093
▁Program	-11.3102
stabiliz	-11.3103
▁corruption	-11.3116
▁Nigeria	-11.3116
▁furniture	-11.3121
▁overcome	-11.3129
▁copyright	-11.3131
▁incentive	-11.3132
▁default	-11.3139
▁neutral	-11.3144
▁sanitario	-11.3147
▁ocean	-11.3148
▁depósito	-11.315
▁agrega	-11.3154
word	-11.3156
▁precise	-11.3167
▁encouraging	-11.3176
å	-11.3186
▁Cruz	-11.3187
▁cielo	-11.319
▁aparato	-11.3193
▁Enterprise	-11.3194
▁religiosa	-11.3197
▁Copenhagen	-11.3205
▁student	-11.3205
▁throw	-11.3209
▁suprim	-11.3214
▁fruta	-11.3215
▁Amnesty	-11.322
▁strike	-11.3221
▁descend	-11.3225
▁aceite	-11.3227
▁Podría	-11.3232
▁breath	-11.3234
▁profundo	-11.3236
▁disciplina	-11.3242
▁alcanza	-11.3243
▁Iglesia	-11.3249
▁expectativas	-11.3265
▁periódico	-11.3268
▁welfare	-11.3276
▁separado	-11.3278
▁Friendly	-11.3279
▁parlamento	-11.3281
▁Meeting	-11.3282
▁trabaj	-11.3287
▁Investigación	-11.3289
▁debía	-11.3297
▁domain	-11.3298
▁subvenciones	-11.33
▁satisfecho	-11.3305
▁Deposit	-11.3307
▁proof	-11.3317
▁Digital	-11.3321
▁recinto	-11.3329
▁cerrar	-11.3331
▁vacuna	-11.3334
▁Ecuador	-11.3337
▁bright	-11.3342
▁unanimous	-11.3345
▁renovated	-11.335
▁Welcome	-11.3358
▁torture	-11.3369
▁delighted	-11.3373
▁electro	-11.3376
▁gift	-11.3378
▁Custom	-11.338
▁ambicioso	-11.3385
▁Oriental	-11.3388
▁honour	-11.3391
▁aprendi	-11.3394
▁legitimate	-11.3404
▁subsidie	-11.3409
▁Access	-11.341
▁undertaking	-11.3417
▁promesa	-11.3417
▁marítimo	-11.3425
▁Especial	-11.3425
▁Luxembourg	-11.3428
▁utilidad	-11.3428
▁modificada	-11.3428
▁MySQL	-11.3436
▁architect	-11.3446
▁comenzó	-11.3447
▁devasta	-11.345
▁lunch	-11.3452
▁credibilidad	-11.3463
▁moviliza	-11.3463
▁Hostel	-11.3466
▁Executive	-11.3479
▁ocurrido	-11.3487
▁George	-11.3493
▁female	-11.3495
▁auténtica	-11.3501
▁switch	-11.3509
▁winning	-11.352
▁decisive	-11.3528
▁enviado	-11.3531
▁Apartamento	-11.3547
▁laboratorio	-11.3566
▁competitiva	-11.3582
▁empieza	-11.3585
▁sólida	-11.3585
▁ceremon	-11.359
▁cycle	-11.3591
▁cierre	-11.3593
▁Framework	-11.3598
▁cubierta	-11.3607
▁somewhat	-11.3609
▁spectacular	-11.3609
▁ideolog	-11.3611
ólogo	-11.3618
▁scientist	-11.362
▁comisiones	-11.3623
▁Salvador	-11.3631
ísima	-11.364
▁fleet	-11.3643
▁Afganistán	-11.3648
▁Structural	-11.3648
▁absolute	-11.365
▁dinámica	-11.3661
▁lunes	-11.3666
▁subsidiariedad	-11.3667
QUE	-11.367
▁fracaso	-11.367
▁module	-11.367
▁library	-11.3678
▁Trabajo	-11.3681
▁cruza	-11.3681
▁Antonio	-11.3692
▁computadora	-11.3692
ography	-11.3694
nstead	-11.3694
▁supplier	-11.3697
▁score	-11.3703
▁flood	-11.3711
ultimately	-11.3719
▁facilidad	-11.3722
▁Indonesia	-11.3725
▁constituir	-11.3725
▁maritime	-11.3728
▁settlement	-11.3733
▁crítico	-11.3733
▁behaviour	-11.3736
▁fruto	-11.3745
▁tobacco	-11.3747
▁absurd	-11.3747
▁Michael	-11.3755
▁Siempre	-11.3766
▁excesiva	-11.3778
▁buques	-11.3779
▁tecnológico	-11.3786
▁jueves	-11.3792
▁audiovisual	-11.3797
▁Consumer	-11.38
▁organic	-11.3801
▁Saturday	-11.3805
▁proyec	-11.3812
▁secador	-11.3816
▁indígena	-11.3819
▁destrucción	-11.3821
▁advocate	-11.3828
▁communicate	-11.3828
▁analyse	-11.3828
▁hicieron	-11.3833
▁brutal	-11.3837
ficient	-11.3842
▁pendiente	-11.3842
▁Jesus	-11.3843
▁stimulat	-11.3847
▁NGOs	-11.385
▁privacidad	-11.3853
▁relieve	-11.3856
▁pedimos	-11.3856
▁gobern	-11.3858
▁repercusiones	-11.3861
▁préstamo	-11.3867
▁album	-11.3871
communications	-11.3873
▁Japanese	-11.3876
▁defensor	-11.389
▁cuadra	-11.3895
▁alemana	-11.3898
▁véa	-11.3901
▁credibility	-11.3904
▁pattern	-11.3904
▁Cualquier	-11.3912
▁accompanie	-11.3915
▁await	-11.3916
▁atmósfera	-11.3918
▁admira	-11.3918
▁stick	-11.392
▁teatro	-11.3921
▁blind	-11.3927
▁Berlín	-11.3937
▁GNU	-11.3937
▁peticiones	-11.3937
▁predict	-11.3943
▁certificado	-11.3946
▁dignit	-11.3952
▁constitutional	-11.3955
▁liderazgo	-11.3963
▁accurate	-11.3966
▁stories	-11.3966
▁apropiada	-11.3969
▁optimiza	-11.3972
▁apunta	-11.3974
▁Balcanes	-11.3977
▁produzca	-11.3988
▁Perhaps	-11.3991
▁Protecció	-11.3995
♫	-11.4
▁índice	-11.4003
▁módulo	-11.4005
▁esfera	-11.4007
▁resoluciones	-11.4008
▁vinculante	-11.4008
▁extremo	-11.4012
▁discapacidad	-11.402
▁roof	-11.4029
▁bacteria	-11.4037
▁destruction	-11.4038
▁Conserva	-11.4039
▁silencio	-11.4045
▁italiana	-11.4051
tuvimos	-11.4063
▁Private	-11.4068
▁autobús	-11.4085
▁emotion	-11.4089
▁interfere	-11.41
▁detriment	-11.4106
▁chapter	-11.4117
▁colectivo	-11.4117
▁insuficiente	-11.4126
▁Holiday	-11.4131
▁mantenido	-11.414
▁Mujer	-11.4141
±	-11.4356
ß	-11.4451
Ó	-11.4525
з	-11.4661
ل	-11.5327
\	-11.5346
ь	-11.5748
г	-11.5748
ا	-11.5929
б	-11.6121
й	-11.6294
Ñ	-11.6744
š	-11.6895
ï	-11.7362
Р	-11.7518
î	-11.7661
Ђ	-11.7689
č	-11.7714
ي	-11.7935
ч	-11.7948
£	-11.8765
α	-11.9316
В	-11.9566
ì	-11.9586
х	-11.9665
ù	-12.0834
ł	-12.1336
ø	-12.1915
õ	-12.2202
Ћ	-12.2364
ı	-12.2603
ж	-12.2637
ë	-12.2691
ć	-12.2855
ι	-12.3078
ο	-12.3335
َ	-12.3592
τ	-12.3886
ε	-12.3947
є	-12.4196
Š	-12.4363
ş	-12.4427
ю	-12.4468
Ќ	-12.4689
ن	-12.4714
μ	-12.4822
æ	-12.489
ń	-12.489
ц	-12.4941
Ö	-12.5553
Â	-12.5644
م	-12.5681
¶	-12.5921
~	-12.6025
ر	-12.6158
و	-12.6362
ш	-12.664
⁄	-12.7209
û	-12.7284
і	-12.737
ν	-12.7523
ă	-12.7667
ž	-12.7915
ت	-12.7996
Ç	-12.8042
σ	-12.8229
ę	-12.8396
‹	-12.842
י	-12.8456
ã	-12.8655
‡	-12.8825
♪	-12.8925
ś	-12.8938
ф	-12.8951
ו	-12.9286
π	-12.9312
ρ	-12.9728
ب	-12.9742
د	-12.977
œ	-12.988
ą	-13.0177
ð	-13.022
Љ	-13.0617
κ	-13.0752
Ü	-13.0921
̈	-13.103
щ	-13.1076
ż	-13.1171
ā	-13.1219
›	-13.1219
^	-13.1395
ý	-13.1708
§	-13.1758
س	-13.1876
́	-13.2013
λ	-13.21
ة	-13.224
ع	-13.2328
Њ	-13.2453
ה	-13.2471
Å	-13.2507
υ	-13.2544
→	-13.2598
э	-13.2672
ő	-13.2746
ه	-13.3162
À	-13.3259
ל	-13.3476
¦	-13.3596
η	-13.3637
Ø	-13.3883
ί	-13.3987
È	-13.4114
ك	-13.4438
ğ	-13.4933
Û	-13.5143
ς	-13.5503
‰	-13.5601
ת	-13.5675
П	-13.57
Н	-13.5876
א	-13.6185
ό	-13.6237
Ε	-13.629
О	-13.6558
І	-13.6612
ف	-13.6612
А	-13.6639
ė	-13.6639
Ï	-13.6777
ř	-13.6833
מ	-13.6833
М	-13.6861
ά	-13.6861
δ	-13.7116
ě	-13.7348
К	-13.7436
ב	-13.7436
ש	-13.7496
؟	-13.7646
ѓ	-13.7737
ї	-13.786
×	-13.8047
Ä	-13.811
γ	-13.8142
ר	-13.8206
′	-13.8302
¬	-13.8631
ň	-13.8732
Џ	-13.8732
Ґ	-13.8902
&	-13.9073
ی	-13.9145
Т	-13.9215
¢	-13.9286
İ	-13.9358
Ì	-13.9502
ق	-13.9502
ج	-13.9539
ή	-13.9576
−	-13.9576
ش	-13.9761
έ	-13.9836
أ	-13.9836
ْ	-13.9911
Č	-14.0103
ĝ	-14.022
Ё	-14.0259
θ	-14.0378
ъ	-14.0701
ÿ	-14.0742
ٌ	-14.0783
ע	-14.0783
ū	-14.112
خ	-14.112
▪	-14.1206
Ô	-14.1293
¤	-14.1337
Α	-14.1558
Д	-14.1648
נ	-14.1738
Ê	-14.183
ω	-14.2063
И	-14.2301
،	-14.2301
χ	-14.2446
ם	-14.2446
ح	-14.2495
†	-14.2644
Б	-14.2896
У	-14.2999
Ў	-14.3051
ī	-14.3208
Ò	-14.3421
Τ	-14.3584
כ	-14.3695
ƒ	-14.3862
ח	-14.3919
ط	-14.4033
Е	-14.4206
β	-14.4265
ד	-14.4265
ĉ	-14.4323
ţ	-14.4323
إ	-14.4383
Є	-14.4383
Ž	-14.4442
―	-14.4442
ј	-14.4502
ص	-14.4623
ў	-14.4994
ز	-14.4994
中	-14.4994
ľ	-14.5058
‐	-14.5186
ŭ	-14.525
ύ	-14.5714
פ	-14.6129
ק	-14.6129
Î	-14.62
套	-14.6343
Л	-14.6343
Ý	-14.6636
Ð	-14.6636
Õ	-14.6711
÷	-14.6711
đ	-14.6711
ů	-14.6786
ى	-14.6786
※	-14.6786
●	-14.7171
Ν	-14.7329
Ι	-14.7329
Æ	-14.749
ث	-14.749
ض	-14.749
Ο	-14.7571
ź	-14.7819
þ	-14.7903
★	-14.7988
Þ	-14.8246
ŝ	-14.8422
φ	-14.8422
ō	-14.8512
ё	-14.8512
的	-14.8784
¥	-14.897
ک	-14.897
צ	-14.8971
З	-14.9065
台	-14.9065
全	-14.955
غ	-14.965
ן	-14.965
љ	-14.9853
Ј	-15.0166
年	-15.0489
►	-15.0489
按	-15.0489
壓	-15.0598
ศ	-15.0598
。	-15.0598
Ф	-15.071
พ	-15.071
ذ	-15.0822
ѕ	-15.0822
Э	-15.0822
년	-15.0936
摩	-15.105
ა	-15.2021
油	-15.2149
Ł	-15.2411
ט	-15.2411
ա	-15.2544
Ş	-15.2679
̄	-15.2679
■	-15.2679
工	-15.2679
ร	-15.2679
ĵ	-15.3239
ṛ	-15.3384
一	-15.3384
ξ	-15.3531
њ	-15.3531
ג	-15.3531
ז	-15.3531
ი	-15.3531
ე	-15.3831
文	-15.4141
Μ	-15.4141
』	-15.43
・	-15.43
ώ	-15.4462
Х	-15.4462
ס	-15.4462
่	-15.4792
─	-15.4792
日	-15.4792
ќ	-15.4962
이	-15.4962
Ч	-15.5134
、	-15.5309
า	-15.5309
北	-15.5309
人	-15.5488
出	-15.5488
ť	-15.567
ِ	-15.567
ّ	-15.567
ր	-15.5855
ء	-15.5855
图	-15.5855
스	-15.6044
ṇ	-15.6236
本	-15.6236
น	-15.6236
อ	-15.6632
ե	-15.6836
어	-15.6836
◆	-15.7045
上	-15.7045
ն	-15.7257
ー	-15.7257
核	-15.7475
Ш	-15.7697
ű	-15.7697
는	-15.7697
เ	-15.7697
ً	-15.7924
不	-15.7924
语	-15.8157
하	-15.8157
Ц	-15.8157
美	-15.8157
گ	-15.8395
大	-15.8639
ئ	-15.8639
̃	-15.8639
♥	-15.8639
『	-15.8639
Ѕ	-15.8889
̤	-15.8889
国	-15.8889
ո	-15.9145
Η	-15.9145
Ω	-15.9145
ま	-15.9408
̇	-15.9408
ך	-15.9408
ო	-15.9408
い	-15.9408
Π	-15.9679
新	-15.9679
Я	-15.9679
რ	-15.9679
მ	-15.9679
简	-15.9956
Ĉ	-15.9956
џ	-15.9956
ว	-15.9956
ก	-15.9956
指	-16.0242
ћ	-16.0242
ի	-16.0242
ლ	-16.0242
す	-16.0242
Ж	-16.0536
آ	-16.0536
ს	-16.0536
ั	-16.0536
了	-16.0536
̧	-16.0839
り	-16.0839
有	-16.0839
라	-16.1152
ง	-16.1152
下	-16.1152
를	-16.1152
에	-16.1152
我	-16.1152
Κ	-16.1474
ُ	-16.1474
で	-16.1474
語	-16.1474
ζ	-16.1474
海	-16.1474
是	-16.1808
ə	-16.1808
ท	-16.1808
ĕ	-16.1808
ŏ	-16.1808
ะ	-16.1808
三	-16.1808
니	-16.1808
다	-16.1808
บ	-16.1808
ี	-16.1808
可	-16.1808
る	-16.1808
ґ	-16.2152
ย	-16.2152
在	-16.2152
Ρ	-16.251
₤	-16.251
시	-16.251
Β	-16.251
ิ	-16.251
と	-16.251
ظ	-16.288
ų	-16.288
र	-16.288
დ	-16.288
≥	-16.288
网	-16.288
의	-16.288
지	-16.288
ď	-16.288
ǎ	-16.288
っ	-16.288
ւ	-16.3265
Ż	-16.3265
̊	-16.3265
Ю	-16.3265
⇢	-16.3265
پ	-16.3265
ン	-16.3265
ा	-16.3665
้	-16.3665
↑	-16.3665
【	-16.3665
】	-16.3665
Ë	-16.3665
う	-16.3665
な	-16.3665
ม	-16.3665
ส	-16.3665
て	-16.3665
個	-16.4081
̍	-16.4081
←	-16.4081
博	-16.4081
娜	-16.4081
県	-16.4081
舞	-16.4081
ื	-16.4081
和	-16.4081
京	-16.4081
名	-16.4081
分	-16.4516
居	-16.4516
ң	-16.4516
ნ	-16.4516
≈	-16.4516
科	-16.4516
있	-16.4516
Δ	-16.4516
մ	-16.4516
გ	-16.4516
ค	-16.4516
以	-16.4516
し	-16.4516
楊	-16.4971
ս	-16.4971
体	-16.4971
入	-16.4971
租	-16.4971
국	-16.4971
来	-16.4971
로	-16.4971
の	-16.4971
ē	-16.5447
ṣ	-16.5447
į	-16.5447
چ	-16.5447
天	-16.5447
物	-16.5447
고	-16.5447
습	-16.5447
으	-16.5447
인	-16.5447
ด	-16.5447
た	-16.5947
Γ	-16.5947
म	-16.5947
片	-16.5947
Œ	-16.5947
ˆ	-16.5947
լ	-16.5947
յ	-16.5947
ṳ	-16.5947
◎	-16.5947
乐	-16.5947
雷	-16.5947
情	-16.5947
ħ	-16.6473
ғ	-16.6473
կ	-16.6473
⇒	-16.6473
场	-16.6473
载	-16.6473
顶	-16.6473
서	-16.6473
을	-16.6473
ķ	-16.6473
就	-16.6473
か	-16.6473
に	-16.6473
Ī	-16.7029
가	-16.7029
տ	-16.7029
प	-16.7029
೯	-16.7029
ầ	-16.7029
√	-16.7029
∞	-16.7029
を	-16.7029
市	-16.7029
心	-16.7029
站	-16.7029
艳	-16.7029
수	-16.7029
ә	-16.7029
这	-16.7029
公	-16.7029
泉	-16.7029
切	-16.7617
更	-16.7617
Χ	-16.7617
元	-16.7617
실	-16.7617
Ć	-16.7617
ŕ	-16.7617
क	-16.7617
學	-16.7617
活	-16.7617
相	-16.7617
頂	-16.7617
შ	-16.7617
第	-16.7617
知	-16.7617
色	-16.7617
女	-16.8242
刘	-16.8242
ṁ	-16.8242
加	-16.8242
手	-16.8242
神	-16.8242
ी	-16.8242
्	-16.8242
≤	-16.8242
○	-16.8242
♣	-16.8242
き	-16.8242
溫	-16.8242
爱	-16.8242
能	-16.8242
金	-16.8242
사	-16.8242
영	-16.8242
合	-16.8242
思	-16.8242
月	-16.8242
用	-16.8242
한	-16.8242
も	-16.8242
ล	-16.8908
容	-16.8908
机	-16.8908
े	-16.8909
ვ	-16.8909
̋	-16.8909
ψ	-16.8909
多	-16.8909
方	-16.8909
王	-16.8909
클	-16.8909
は	-16.8909
子	-16.8909
杨	-16.8909
为	-16.8909
Й	-16.9623
ү	-16.9623
թ	-16.9623
운	-16.9623
ế	-16.9623
↓	-16.9623
个	-16.9623
娱	-16.9623
成	-16.9623
林	-16.9623
椅	-16.9623
赌	-16.9623
명	-16.9623
오	-16.9623
트	-16.9623
೧	-16.9623
ტ	-16.9623
李	-16.9623
正	-16.9623
生	-16.9623
西	-16.9623
공	-16.9623
區	-16.9623
取	-16.9623
ุ	-16.9623
地	-16.9623
外	-16.9623
れ	-16.9623
こ	-16.9623
기	-17.0392
ต	-17.0392
城	-17.0392
山	-17.0392
建	-17.0392
路	-17.0392
비	-17.0392
ư	-17.0392
ो	-17.0392
ห	-17.0392
園	-17.0392
老	-17.0392
迅	-17.0392
항	-17.0392
交	-17.0392
开	-17.0392
二	-17.0392
面	-17.0392
猜	-17.1225
የ	-17.1225
ं	-17.1225
店	-17.1225
나	-17.1225
ђ	-17.1225
ા	-17.1225
ป	-17.1225
უ	-17.1225
只	-17.1225
器	-17.1225
崎	-17.1225
直	-17.1225
言	-17.1225
리	-17.1225
Ù	-17.1225
୦	-17.1225
୨	-17.1225
ረ	-17.1225
በ	-17.1225
객	-17.1225
십	-17.1225
우	-17.1225
재	-17.1225
제	-17.1225
持	-17.1225
股	-17.1225
际	-17.1225
ბ	-17.1225
ข	-17.2134
Ă	-17.2134
ț	-17.2134
̀	-17.2134
Φ	-17.2134
է	-17.2134
ց	-17.2134
ใ	-17.2134
ờ	-17.2134
く	-17.2134
イ	-17.2134
也	-17.2134
兒	-17.2134
川	-17.2134
或	-17.2134
涩	-17.2134
竹	-17.2134
용	-17.2134
타	-17.2134
페	-17.2134
～	-17.2134
Ą	-17.2134
ˈ	-17.2134
һ	-17.2134
会	-17.2134
屄	-17.2134
木	-17.2134
見	-17.2134
ɛ	-17.2134
他	-17.2134
们	-17.2134
安	-17.2134
目	-17.2134
ธ	-17.2135
客	-17.2135
银	-17.2135
Σ	-17.2135
特	-17.2135
あ	-17.2135
见	-17.2135
が	-17.2135
豆	-17.3134
ひ	-17.3134
わ	-17.3134
化	-17.3134
Υ	-17.3134
价	-17.3134
做	-17.3134
ṅ	-17.3134
学	-17.3134
支	-17.3134
腹	-17.3134
Ÿ	-17.3134
ș	-17.3134
̆	-17.3134
դ	-17.3134
न	-17.3134
य	-17.3134
ấ	-17.3134
▸	-17.3134
◙	-17.3134
☻	-17.3134
♦	-17.3134
剥	-17.3134
忻	-17.3134
湯	-17.3134
辑	-17.3134
近	-17.3134
钙	-17.3134
ņ	-17.3134
ि	-17.3134
东	-17.3134
士	-17.3134
小	-17.3134
当	-17.3134
雄	-17.3134
颖	-17.3134
드	-17.3134
원	-17.3134
자	-17.3134
家	-17.3134
经	-17.3134
道	-17.3134
寓	-17.3135
管	-17.3135
ช	-17.3135
灣	-17.3135
保	-17.3135
高	-17.3135
だ	-17.3135
内	-17.3135
ロ	-17.3135
間	-17.3135
易	-17.4245
ト	-17.4246
拿	-17.4246
电	-17.4246
ग	-17.4246
回	-17.4246
很	-17.4246
御	-17.4246
民	-17.4246
男	-17.4246
衣	-17.4246
评	-17.4246
超	-17.4246
重	-17.4246
त	-17.4246
ન	-17.4246
ṭ	-17.4246
ộ	-17.4246
│	-17.4246
♀	-17.4246
✿	-17.4246
け	-17.4246
五	-17.4246
信	-17.4246
利	-17.4246
半	-17.4246
妻	-17.4246
少	-17.4246
报	-17.4246
水	-17.4246
込	-17.4246
过	-17.4246
通	-17.4246
께	-17.4246
래	-17.4246
속	-17.4246
언	-17.4246
유	-17.4246
แ	-17.4246
ạ	-17.4246
コ	-17.4246
十	-17.4246
等	-17.4246
你	-17.4246
到	-17.4246
量	-17.4246
ხ	-17.4246
時	-17.4246
整	-17.5495
設	-17.5495
数	-17.5496
야	-17.5496
ら	-17.5496
ッ	-17.5496
ǐ	-17.5496
修	-17.5496
所	-17.5496
無	-17.5496
种	-17.5496
音	-17.5496
Ę	-17.5496
Ğ	-17.5496
ʃ	-17.5496
ʒ	-17.5496
ʼ	-17.5496
Ы	-17.5496
ҡ	-17.5496
۞	-17.5496
ज	-17.5496
ल	-17.5496
व	-17.5496
ह	-17.5496
೦	-17.5496
თ	-17.5496
☆	-17.5496
ん	-17.5496
亿	-17.5496
代	-17.5496
余	-17.5496
作	-17.5496
南	-17.5496
发	-17.5496
吧	-17.5496
含	-17.5496
品	-17.5496
四	-17.5496
寺	-17.5496
振	-17.5496
收	-17.5496
最	-17.5496
模	-17.5496
程	-17.5496
空	-17.5496
網	-17.5496
青	-17.5496
교	-17.5496
귀	-17.5496
며	-17.5496
보	-17.5496
선	-17.5496
아	-17.5496
여	-17.5496
준	-17.5496
현	-17.5496
환	-17.5496
Ľ	-17.5496
ơ	-17.5496
չ	-17.5496
ồ	-17.5496
参	-17.5496
已	-17.5496
泡	-17.5496
洗	-17.5496
设	-17.5496
降	-17.5496
գ	-17.5496
喜	-17.5496
膚	-17.5496
승	-17.5496
限	-17.5496
კ	-17.5496
よ	-17.5496
ウ	-17.5496
カ	-17.6924
度	-17.6924
照	-17.6924
ক	-17.6924
โ	-17.6924
功	-17.6924
國	-17.6924
明	-17.6924
要	-17.6924
접	-17.6924
Ĵ	-17.6924
ु	-17.6924
া	-17.6924
力	-17.6924
座	-17.6924
格	-17.6924
说	-17.6924
ર	-17.6924
吗	-17.6924
比	-17.6924
游	-17.6924
長	-17.6924
문	-17.6924
ċ	-17.6924
Ĝ	-17.6924
ɔ	-17.6924
ұ	-17.6924
ब	-17.6924
્	-17.6924
็	-17.6924
์	-17.6924
ም	-17.6924
ậ	-17.6924
ề	-17.6924
ớ	-17.6924
」	-17.6924
ス	-17.6924
侯	-17.6924
優	-17.6924
古	-17.6924
吴	-17.6924
景	-17.6924
棍	-17.6924
看	-17.6924
示	-17.6924
约	-17.6924
绪	-17.6924
自	-17.6924
茶	-17.6924
行	-17.6924
解	-17.6924
车	-17.6924
都	-17.6924
風	-17.6924
내	-17.6924
람	-17.6924
얼	-17.6924
입	-17.6924
중	-17.6924
했	-17.6924
회	-17.6924
ղ	-17.6924
պ	-17.6924
ქ	-17.6924
服	-17.6924
次	-17.6924
财	-17.6924
问	-17.6924
성	-17.6924
前	-17.6924
司	-17.6924
票	-17.6924
背	-17.6924
함	-17.6924
富	-17.6924
流	-17.6924
其	-17.6924
将	-17.6924
ド	-17.6924
画	-17.6925
ቀ	-17.8591
ተ	-17.8591
普	-17.8591
華	-17.8591
商	-17.8591
ҙ	-17.8591
フ	-17.8591
定	-17.8591
控	-17.8591
ち	-17.8591
推	-17.8591
為	-17.8591
立	-17.8591
파	-17.8591
ĺ	-17.8591
Ř	-17.8591
ढ	-17.8591
༢	-17.8591
ც	-17.8591
せ	-17.8591
ク	-17.8591
伊	-17.8591
卓	-17.8591
庆	-17.8591
打	-17.8591
据	-17.8591
晏	-17.8591
牙	-17.8591
稲	-17.8591
親	-17.8591
만	-17.8591
Ь	-17.8591
ը	-17.8591
ք	-17.8591
ף	-17.8591
ई	-17.8591
฿	-17.8591
་	-17.8591
ህ	-17.8591
መ	-17.8591
ር	-17.8591
ሻ	-17.8591
አ	-17.8591
ኣ	-17.8591
እ	-17.8591
ው	-17.8591
ዓ	-17.8591
ይ	-17.8591
ገ	-17.8591
ጨ	-17.8591
ጽ	-17.8591
፣	-17.8591
ợ	-17.8591
お	-17.8591
つ	-17.8591
ラ	-17.8591
レ	-17.8591
之	-17.8591
仅	-17.8591
先	-17.8591
務	-17.8591
各	-17.8591
吉	-17.8591
向	-17.8591
基	-17.8591
変	-17.8591
太	-17.8591
姦	-17.8591
布	-17.8591
张	-17.8591
志	-17.8591
意	-17.8591
揃	-17.8591
暖	-17.8591
業	-17.8591
死	-17.8591
江	-17.8591
池	-17.8591
浴	-17.8591
献	-17.8591
珠	-17.8591
理	-17.8591
系	-17.8591
若	-17.8591
诺	-17.8591
酸	-17.8591
钧	-17.8591
體	-17.8591
권	-17.8591
너	-17.8591
도	-17.8591
온	-17.8591
편	-17.8591
화	-17.8591
ʾ	-17.8591
ː	-17.8591
भ	-17.8591
ผ	-17.8591
及	-17.8591
句	-17.8591
另	-17.8591
呼	-17.8591
場	-17.8591
後	-17.8591
得	-17.8591
提	-17.8591
援	-17.8591
東	-17.8591
波	-17.8591
배	-17.8591
想	-17.8591
Ʀ	-17.8591
完	-17.8591
性	-17.8591
護	-17.8591
ご	-17.8591
召	-17.8591
Ɲ	-17.8591
ຸ	-17.8591
师	-17.8591
ジ	-17.8591
去	-17.8591
存	-17.8591
两	-18.0591
后	-18.0591
些	-18.0591
部	-18.0591
集	-18.0591
Ե	-18.0591
对	-18.0591
陈	-18.0591
퍼	-18.0591
じ	-18.0591
求	-18.0591
起	-18.0591
ɑ	-18.0591
จ	-18.0591
共	-18.0591
叫	-18.0591
永	-18.0591
脑	-18.0591
Ψ	-18.0591
则	-18.0591
友	-18.0591
啦	-18.0591
夫	-18.0591
突	-18.0591
裸	-18.0591
送	-18.0591
透	-18.0591
钱	-18.0591
関	-18.0591
ĸ	-18.0591
ɨ	-18.0591
ʻ	-18.0591
ΐ	-18.0591
հ	-18.0591
ץ	-18.0591
ؤ	-18.0591
ـ	-18.0591
श	-18.0591
़	-18.0591
ै	-18.0591
ક	-18.0591
ે	-18.0591
ો	-18.0591
୧	-18.0591
ไ	-18.0591
ቶ	-18.0591
ኦ	-18.0591
ክ	-18.0591
ả	-18.0591
ọ	-18.0591
ữ	-18.0591
ἰ	-18.0591
↔	-18.0591
□	-18.0591
◊	-18.0591
エ	-18.0591
タ	-18.0591
マ	-18.0591
与	-18.0591
乗	-18.0591
井	-18.0591
八	-18.0591
刀	-18.0591
动	-18.0591
协	-18.0591
号	-18.0591
头	-18.0591
奥	-18.0591
宁	-18.0591
局	-18.0591
展	-18.0591
常	-18.0591
式	-18.0591
愛	-18.0591
斗	-18.0591
术	-18.0591
松	-18.0591
此	-18.0591
每	-18.0591
气	-18.0591
熨	-18.0591
玲	-18.0591
甜	-18.0591
石	-18.0591
福	-18.0591
紗	-18.0591
縣	-18.0591
纱	-18.0591
线	-18.0591
苍	-18.0591
被	-18.0591
请	-18.0591
越	-18.0591
車	-18.0591
还	-18.0591
里	-18.0591
锋	-18.0591
门	-18.0591
陀	-18.0591
风	-18.0591
館	-18.0591
首	-18.0591
과	-18.0591
김	-18.0591
대	-18.0591
든	-18.0591
또	-18.0591
모	-18.0591
및	-18.0591
엠	-18.0591
연	-18.0591
쿤	-18.0591
호	-18.0591
ฝ	-18.0591
ニ	-18.0591
ミ	-18.0591
泰	-18.0591
温	-18.0591
구	-18.0591
미	-18.0591
Ģ	-18.0591
탑	-18.0591
源	-18.0591
置	-18.0591
資	-18.0591
配	-18.0591
采	-18.0591
苑	-18.0591
洋	-18.0591
覧	-18.0591
制	-18.0591
晟	-18.0591
ถ	-18.0591
ダ	-18.0591
哪	-18.3091
希	-18.3091
构	-18.3091
蔻	-18.3091
几	-18.3091
于	-18.3091
仁	-18.3091
円	-18.3091
球	-18.3091
請	-18.3091
ֿ	-18.3091
장	-18.3091
Ɩ	-18.3091
ड	-18.3091
०	-18.3091
ল	-18.3091
૦	-18.3091
光	-18.3091
受	-18.3091
拉	-18.3091
班	-18.3091
紧	-18.3091
萄	-18.3091
阿	-18.3091
黄	-18.3091
버	-18.3091
ġ	-18.3091
ˇ	-18.3091
举	-18.3091
德	-18.3091
排	-18.3091
板	-18.3091
様	-18.3091
眼	-18.3091
龙	-18.3091
牌	-18.3091
Ē	-18.3091
ĥ	-18.3091
ļ	-18.3091
Ź	-18.3091
Ơ	-18.3091
ǵ	-18.3091
ɐ	-18.3091
ɾ	-18.3091
ʺ	-18.3091
̣	-18.3091
̵	-18.3091
қ	-18.3091
ҳ	-18.3091
ө	-18.3091
ծ	-18.3091
؛	-18.3091
۩	-18.3091
ट	-18.3091
थ	-18.3091
स	-18.3091
।	-18.3091
ય	-18.3091
વ	-18.3091
ી	-18.3091
୭	-18.3091
೬	-18.3091
೮	-18.3091
ซ	-18.3091
๑	-18.3091
༠	-18.3091
ḍ	-18.3091
ằ	-18.3091
ể	-18.3091
ễ	-18.3091
ỉ	-18.3091
ị	-18.3091
ự	-18.3091
ἀ	-18.3091
‵	-18.3091
∀	-18.3091
∈	-18.3091
┼	-18.3091
▼	-18.3091
☼	-18.3091
♠	-18.3091
え	-18.3091
ど	-18.3091
ゃ	-18.3091
ょ	-18.3091
ズ	-18.3091
テ	-18.3091
ナ	-18.3091
メ	-18.3091
万	-18.3091
丝	-18.3091
习	-18.3091
付	-18.3091
低	-18.3091
便	-18.3091
俄	-18.3091
值	-18.3091
免	-18.3091
减	-18.3091
刚	-18.3091
判	-18.3091
别	-18.3091
华	-18.3091
卦	-18.3091
听	-18.3091
告	-18.3091
命	-18.3091
囧	-18.3091
园	-18.3091
址	-18.3091
均	-18.3091
增	-18.3091
好	-18.3091
宝	-18.3091
宮	-18.3091
届	-18.3091
巧	-18.3091
巴	-18.3091
幹	-18.3091
广	-18.3091
引	-18.3091
必	-18.3091
応	-18.3091
快	-18.3091
您	-18.3091
惠	-18.3091
截	-18.3091
才	-18.3091
折	-18.3091
拍	-18.3091
掉	-18.3091
教	-18.3091
春	-18.3091
样	-18.3091
楠	-18.3091
楽	-18.3091
步	-18.3091
法	-18.3091
泳	-18.3091
洛	-18.3091
浦	-18.3091
消	-18.3091
淫	-18.3091
清	-18.3091
満	-18.3091
漢	-18.3091
灾	-18.3091
爸	-18.3091
状	-18.3091
甸	-18.3091
番	-18.3091
益	-18.3091
社	-18.3091
祝	-18.3091
稽	-18.3091
節	-18.3091
組	-18.3091
维	-18.3091
缸	-18.3091
罗	-18.3091
群	-18.3091
考	-18.3091
者	-18.3091
腰	-18.3091
茂	-18.3091
葡	-18.3091
蒸	-18.3091
蔡	-18.3091
藤	-18.3091
街	-18.3091
袜	-18.3091
観	-18.3091
診	-18.3091
议	-18.3091
讯	-18.3091
话	-18.3091
谈	-18.3091
账	-18.3091
购	-18.3091
選	-18.3091
錯	-18.3091
鏮	-18.3091
門	-18.3091
關	-18.3091
队	-18.3091
防	-18.3091
陶	-18.3091
露	-18.3091
页	-18.3091
颗	-18.3091
食	-18.3091
글	-18.3091
되	-18.3091
럽	-18.3091
려	-18.3091
릭	-18.3091
면	-18.3091
민	-18.3091
박	-18.3091
반	-18.3091
신	-18.3091
써	-18.3091
위	-18.3091
즈	-18.3091
찾	-18.3091
Щ	-18.3091
आ	-18.3091
ি	-18.3091
初	-18.3091
戴	-18.3091
朱	-18.3091
柳	-18.3091
欢	-18.3091
玉	-18.3091
礎	-18.3091
赤	-18.3091
동	-18.3091
ϊ	-18.3091
世	-18.3091
婷	-18.3091
字	-18.3091
村	-18.3091
洪	-18.3091
深	-18.3091
界	-18.3091
着	-18.3091
而	-18.3091
藝	-18.3091
题	-18.3091
님	-18.3091
바	-18.3091
발	-18.3091
상	-18.3091
출	-18.3091
备	-18.3091
跳	-18.3091
ณ	-18.3091
夹	-18.3091
底	-18.3091
桩	-18.3091
藏	-18.3091
实	-18.3091
夜	-18.3091
豐	-18.3091
囲	-18.3091
狗	-18.3091
筱	-18.3091
や	-18.3091
動	-18.3091
擇	-18.3091
期	-18.3092
同	-18.6424
憶	-18.6424
記	-18.6424
遊	-18.6424
调	-18.6424
香	-18.6424
師	-18.6424
望	-18.6424
遍	-18.6424
წ	-18.6424
改	-18.6424
铭	-18.6424
ู	-18.6424
享	-18.6424
放	-18.6424
版	-18.6424
申	-18.6424
白	-18.6424
纽	-18.6424
艺	-18.6424
վ	-18.6424
ए	-18.6424
द	-18.6424
જ	-18.6424
મ	-18.6424
ુ	-18.6424
今	-18.6424
否	-18.6424
唸	-18.6424
损	-18.6424
施	-18.6424
节	-18.6424
蘭	-18.6424
证	-18.6424
酒	-18.6424
경	-18.6424
들	-18.6424
ĩ	-18.6424
Ļ	-18.6424
Ń	-18.6424
Ō	-18.6424
ʁ	-18.6424
̨	-18.6424
Έ	-18.6424
Θ	-18.6424
Ҡ	-18.6424
շ	-18.6424
ջ	-18.6424
ֹ	-18.6424
ू	-18.6424
ত	-18.6424
ં	-18.6424
୪	-18.6424
୫	-18.6424
୯	-18.6424
ฟ	-18.6424
ึ	-18.6424
༡	-18.6424
ི	-18.6424
ზ	-18.6424
ძ	-18.6424
ệ	-18.6424
ố	-18.6424
ứ	-18.6424
ừ	-18.6424
‟	-18.6424
⌘	-18.6424
☎	-18.6424
☺	-18.6424
「	-18.6424
み	-18.6424
ァ	-18.6424
ア	-18.6424
チ	-18.6424
ペ	-18.6424
ル	-18.6424
九	-18.6424
亚	-18.6424
件	-18.6424
伯	-18.6424
估	-18.6424
位	-18.6424
儀	-18.6424
兼	-18.6424
农	-18.6424
勢	-18.6424
即	-18.6424
原	-18.6424
变	-18.6424
吹	-18.6424
嘉	-18.6424
团	-18.6424
報	-18.6424
姐	-18.6424
宣	-18.6424
專	-18.6424
尋	-18.6424
屋	-18.6424
州	-18.6424
并	-18.6424
幸	-18.6424
形	-18.6424
息	-18.6424
恶	-18.6424
態	-18.6424
找	-18.6424
拆	-18.6424
拟	-18.6424
接	-18.6424
換	-18.6424
搅	-18.6424
料	-18.6424
时	-18.6424
星	-18.6424
智	-18.6424
會	-18.6424
查	-18.6424
桂	-18.6424
桃	-18.6424
棋	-18.6424
歌	-18.6424
歡	-18.6424
段	-18.6424
氣	-18.6424
洲	-18.6424
测	-18.6424
浜	-18.6424
浮	-18.6424
溜	-18.6424
漫	-18.6424
火	-18.6424
灰	-18.6424
現	-18.6424
痛	-18.6424
皮	-18.6424
眉	-18.6424
碁	-18.6424
綠	-18.6424
级	-18.6424
職	-18.6424
腿	-18.6424
英	-18.6424
葉	-18.6424
製	-18.6424
视	-18.6424
計	-18.6424
计	-18.6424
记	-18.6424
该	-18.6424
谢	-18.6424
貴	-18.6424
资	-18.6424
述	-18.6424
電	-18.6424
需	-18.6424
革	-18.6424
飛	-18.6424
飞	-18.6424
駸	-18.6424
간	-18.6424
게	-18.6424
격	-18.6424
능	-18.6424
닉	-18.6424
르	-18.6424
마	-18.6424
말	-18.6424
목	-18.6424
범	-18.6424
셔	-18.6424
옥	-18.6424
월	-18.6424
은	-18.6424
정	-18.6424
천	-18.6424
카	-18.6424
택	-18.6424
해	-18.6424
ǔ	-18.6424
ম	-18.6424
汤	-18.6424
注	-18.6424
跨	-18.6424
開	-18.6424
果	-18.6424
讓	-18.6424
较	-18.6424
進	-18.6424
院	-18.6424
除	-18.6424
골	-18.6424
ピ	-18.6424
事	-18.6424
从	-18.6424
访	-18.6424
작	-18.6424
Ƭ	-18.6424
リ	-18.6424
争	-18.6424
如	-18.6424
律	-18.6424
达	-18.6424
间	-18.6424
给	-18.6424
ํ	-18.6424
监	-18.6424
ぐ	-18.6425
バ	-18.6425
ば	-18.6425
質	-18.6425
象	-19.1423
净	-19.1424
季	-19.1424
そ	-19.1424
ォ	-19.1424
业	-19.1424
乎	-19.1424
対	-19.1424
編	-19.1424
別	-19.1424
數	-19.1424
旅	-19.1424
树	-19.1424
概	-19.1424
演	-19.1424
环	-19.1424
線	-19.1424
備	-19.1424
政	-19.1424
ण	-19.1424
ॉ	-19.1424
२	-19.1424
૨	-19.1424
ས	-19.1424
პ	-19.1424
ふ	-19.1424
具	-19.1424
咬	-19.1424
嘟	-19.1424
奈	-19.1424
干	-19.1424
止	-19.1424
湧	-19.1424
络	-19.1424
耀	-19.1424
臂	-19.1424
螳	-19.1424
멤	-19.1424
활	-19.1424
Մ	-19.1424
च	-19.1424
ন	-19.1424
દ	-19.1424
પ	-19.1424
ષ	-19.1424
བ	-19.1424
乏	-19.1424
住	-19.1424
兵	-19.1424
圆	-19.1424
島	-19.1424
怡	-19.1424
払	-19.1424
桑	-19.1424
滋	-19.1424
盘	-19.1424
茨	-19.1424
邱	-19.1424
鏡	-19.1424
阀	-19.1424
附	-19.1424
静	-19.1424
顾	-19.1424
디	-19.1424
칸	-19.1424
吊	-19.1424
探	-19.1424
掻	-19.1424
損	-19.1424
暂	-19.1424
泥	-19.1424
足	-19.1424
過	-19.1424
Ā	-19.1424
Ů	-19.1424
ŵ	-19.1424
Ɗ	-19.1424
Ƒ	-19.1424
Ƙ	-19.1424
ƛ	-19.1424
Ɯ	-19.1424
Ʒ	-19.1424
Ƹ	-19.1424
Ȥ	-19.1424
ɒ	-19.1424
ɪ	-19.1424
ʐ	-19.1424
̡	-19.1424
ͼ	-19.1424
Ώ	-19.1424
Λ	-19.1424
Ҳ	-19.1424
Ӝ	-19.1424
Դ	-19.1424
ְ	-19.1424
ָ	-19.1424
१	-19.1424
ই	-19.1424
র	-19.1424
ઇ	-19.1424
ગ	-19.1424
ચ	-19.1424
ટ	-19.1424
ડ	-19.1424
ધ	-19.1424
લ	-19.1424
સ	-19.1424
૧	-19.1424
୬	-19.1424
೨	-19.1424
೪	-19.1424
೫	-19.1424
೭	-19.1424
ฯ	-19.1424
๊	-19.1424
ຄ	-19.1424
ນ	-19.1424
ວ	-19.1424
ັ	-19.1424
།	-19.1424
༧	-19.1424
༨	-19.1424
༩	-19.1424
ཅ	-19.1424
པ	-19.1424
ཟ	-19.1424
ུ	-19.1424
ྤ	-19.1424
ྱ	-19.1424
ླ	-19.1424
ẵ	-19.1424
ẹ	-19.1424
ẽ	-19.1424
ỏ	-19.1424
ở	-19.1424
ụ	-19.1424
ῖ	-19.1424
ῥ	-19.1424
‖	-19.1424
‧	-19.1424
‿	-19.1424
∂	-19.1424
∴	-19.1424
∼	-19.1424
└	-19.1424
╞	-19.1424
█	-19.1424
░	-19.1424
▲	-19.1424
◇	-19.1424
◦	-19.1424
◯	-19.1424
☏	-19.1424
☑	-19.1424
♂	-19.1424
♕	-19.1424
Ⰶ	-19.1424
〜	-19.1424
ぎ	-19.1424
ざ	-19.1424
ぶ	-19.1424
む	-19.1424
ろ	-19.1424
オ	-19.1424
グ	-19.1424
ケ	-19.1424
サ	-19.1424
ツ	-19.1424
ネ	-19.1424
ビ	-19.1424
プ	-19.1424
专	-19.1424
且	-19.1424
丨	-19.1424
临	-19.1424
乳	-19.1424
予	-19.1424
产	-19.1424
仍	-19.1424
仲	-19.1424
份	-19.1424
伝	-19.1424
伦	-19.1424
佈	-19.1424
佐	-19.1424
佑	-19.1424
何	-19.1424
佰	-19.1424
佳	-19.1424
使	-19.1424
侍	-19.1424
倫	-19.1424
假	-19.1424
健	-19.1424
储	-19.1424
像	-19.1424
內	-19.1424
兩	-19.1424
军	-19.1424
冠	-19.1424
决	-19.1424
况	-19.1424
列	-19.1424
势	-19.1424
区	-19.1424
卡	-19.1424
却	-19.1424
历	-19.1424
压	-19.1424
双	-19.1424
反	-19.1424
叟	-19.1424
右	-19.1424
哈	-19.1424
售	-19.1424
啊	-19.1424
善	-19.1424
喔	-19.1424
嗎	-19.1424
嘛	-19.1424
噴	-19.1424
嚇	-19.1424
坊	-19.1424
坐	-19.1424
培	-19.1424
塾	-19.1424
声	-19.1424
壱	-19.1424
壳	-19.1424
复	-19.1424
妈	-19.1424
妹	-19.1424
媛	-19.1424
嫁	-19.1424
宅	-19.1424
守	-19.1424
宫	-19.1424
宵	-19.1424
寅	-19.1424
實	-19.1424
寸	-19.1424
导	-19.1424
封	-19.1424
導	-19.1424
尾	-19.1424
屈	-19.1424
屏	-19.1424
属	-19.1424
岛	-19.1424
岩	-19.1424
岭	-19.1424
崔	-19.1424
左	-19.1424
巨	-19.1424
平	-19.1424
庫	-19.1424
廥	-19.1424
强	-19.1424
彦	-19.1424
影	-19.1424
彻	-19.1424
復	-19.1424
徳	-19.1424
徵	-19.1424
总	-19.1424
恢	-19.1424
悦	-19.1424
悩	-19.1424
惀	-19.1424
感	-19.1424
慧	-19.1424
戒	-19.1424
技	-19.1424
投	-19.1424
担	-19.1424
拒	-19.1424
挡	-19.1424
捌	-19.1424
握	-19.1424
搞	-19.1424
摇	-19.1424
撤	-19.1424
操	-19.1424
敢	-19.1424
斯	-19.1424
朗	-19.1424
材	-19.1424
柏	-19.1424
柴	-19.1424
根	-19.1424
案	-19.1424
棒	-19.1424
橘	-19.1424
橙	-19.1424
檢	-19.1424
欣	-19.1424
款	-19.1424
氏	-19.1424
汇	-19.1424
汉	-19.1424
没	-19.1424
治	-19.1424
況	-19.1424
洒	-19.1424
津	-19.1424
淹	-19.1424
添	-19.1424
減	-19.1424
激	-19.1424
炎	-19.1424
炮	-19.1424
烈	-19.1424
烤	-19.1424
热	-19.1424
然	-19.1424
焼	-19.1424
煙	-19.1424
燰	-19.1424
爪	-19.1424
琉	-19.1424
琢	-19.1424
琴	-19.1424
璐	-19.1424
甫	-19.1424
當	-19.1424
病	-19.1424
症	-19.1424
痘	-19.1424
療	-19.1424
百	-19.1424
省	-19.1424
瞎	-19.1424
码	-19.1424
砂	-19.1424
破	-19.1424
碳	-19.1424
磨	-19.1424
禁	-19.1424
禪	-19.1424
秀	-19.1424
称	-19.1424
稱	-19.1424
稼	-19.1424
穿	-19.1424
端	-19.1424
签	-19.1424
箱	-19.1424
篆	-19.1424
糖	-19.1424
約	-19.1424
紅	-19.1424
紓	-19.1424
素	-19.1424
經	-19.1424
繁	-19.1424
纸	-19.1424
组	-19.1424
绝	-19.1424
续	-19.1424
编	-19.1424
罪	-19.1424
署	-19.1424
羽	-19.1424
翁	-19.1424
習	-19.1424
翻	-19.1424
育	-19.1424
脱	-19.1424
臨	-19.1424
臺	-19.1424
舒	-19.1424
航	-19.1424
舫	-19.1424
般	-19.1424
草	-19.1424
荣	-19.1424
获	-19.1424
莹	-19.1424
萧	-19.1424
葱	-19.1424
蔓	-19.1424
薬	-19.1424
處	-19.1424
衛	-19.1424
裂	-19.1424
裕	-19.1424
觀	-19.1424
观	-19.1424
角	-19.1424
討	-19.1424
論	-19.1424
證	-19.1424
论	-19.1424
讼	-19.1424
识	-19.1424
诉	-19.1424
译	-19.1424
详	-19.1424
课	-19.1424
豪	-19.1424
貢	-19.1424
賀	-19.1424
賓	-19.1424
贄	-19.1424
贞	-19.1424
贡	-19.1424
货	-19.1424
贱	-19.1424
贷	-19.1424
赈	-19.1424
走	-19.1424
軍	-19.1424
輿	-19.1424
软	-19.1424
辣	-19.1424
農	-19.1424
运	-19.1424
进	-19.1424
适	-19.1424
逃	-19.1424
选	-19.1424
造	-19.1424
連	-19.1424
避	-19.1424
醫	-19.1424
錦	-19.1424
鐸	-19.1424
铎	-19.1424
销	-19.1424
锦	-19.1424
键	-19.1424
镜	-19.1424
阶	-19.1424
陳	-19.1424
隆	-19.1424
隳	-19.1424
雀	-19.1424
雅	-19.1424
離	-19.1424
雲	-19.1424
震	-19.1424
預	-19.1424
頭	-19.1424
颐	-19.1424
频	-19.1424
额	-19.1424
馬	-19.1424
马	-19.1424
魁	-19.1424
麻	-19.1424
거	-19.1424
귑	-19.1424
금	-19.1424
달	-19.1424
더	-19.1424
된	-19.1424
등	-19.1424
따	-19.1424
떤	-19.1424
레	-19.1424
른	-19.1424
릅	-19.1424
막	-19.1424
맞	-19.1424
방	-19.1424
뱅	-19.1424
법	-19.1424
빅	-19.1424
세	-19.1424
숙	-19.1424
싱	-19.1424
않	-19.1424
없	-19.1424
었	-19.1424
요	-19.1424
웁	-19.1424
웨	-19.1424
일	-19.1424
쟤	-19.1424
참	-19.1424
친	-19.1424
침	-19.1424
키	-19.1424
터	-19.1424
티	-19.1424
팔	-19.1424
펜	-19.1424
포	-19.1424
표	-19.1424
학	-19.1424
할	-19.1424
합	-19.1424
향	-19.1424
형	-19.1424
희	-19.1424
Ъ	-19.1424
ἄ	-19.1424
呆	-19.1424
垂	-19.1424
敷	-19.1424
汁	-19.1424
話	-19.1424
遇	-19.1424
Չ	-19.1424
丽	-19.1424
云	-19.1424
依	-19.1424
冤	-19.1424
千	-19.1424
官	-19.1424
実	-19.1424
寄	-19.1424
嶺	-19.1424
庄	-19.1424
擦	-19.1424
精	-19.1424
紙	-19.1424
菲	-19.1424
落	-19.1424
蒋	-19.1424
赶	-19.1424
무	-19.1424
크	-19.1424
ほ	-19.1424
关	-19.1424
刷	-19.1424
包	-19.1424
卖	-19.1424
欧	-19.1424
疾	-19.1424
秉	-19.1424
积	-19.1424
経	-19.1424
踏	-19.1424
迎	-19.1424
返	-19.1424
那	-19.1424
뀌	-19.1424
록	-19.1424
슈	-19.1424
전	-19.1424
𐌰	-19.1424
𐌽	-19.1424
𐍃	-19.1424
味	-19.1424
Ɠ	-19.1424
ງ	-19.1424
ດ	-19.1424
ຖ	-19.1424
ມ	-19.1424
シ	-19.1424
因	-19.1424
堪	-19.1424
尽	-19.1424
弘	-19.1424
括	-19.1424
早	-19.1424
显	-19.1424
析	-19.1424
棕	-19.1424
榈	-19.1424
熱	-19.1424
移	-19.1424
耳	-19.1424
蘊	-19.1424
讨	-19.1424
转	-19.1424
钢	-19.1424
锈	-19.1424
预	-19.1424
颜	-19.1424
ユ	-19.1424
単	-19.1425
範	-19.1425
簡	-19.1425
結	-19.1425
気	-19.1425
!	-20.0823
Đ	-20.1419
厂	-20.142
Ї	-20.1421
Ő	-20.1422
Ţ	-20.1423
丁	-20.1424
墾	-20.1424
待	-20.1424
書	-20.1424
港	-20.1424
細	-20.1424
陸	-20.1424
Կ	-20.1424
供	-20.1424
湖	-20.1424
級	-20.1424
這	-20.1424
遠	-20.1424
類	-20.1424
Ċ	-20.1424
ሰ	-20.1424
ቴ	-20.1424
ፕ	-20.1424
倉	-20.1424
停	-20.1424
偶	-20.1424
危	-20.1424
君	-20.1424
問	-20.1424
宜	-20.1424
役	-20.1424
惧	-20.1424
滑	-20.1424
炒	-20.1424
烧	-20.1424
燃	-20.1424
続	-20.1424
雪	-20.1424
때	-20.1424
ܖ	-20.1424
๖	-20.1424
價	-20.1424
勝	-20.1424
塗	-20.1424
廨	-20.1424
慣	-20.1424
梢	-20.1424
絞	-20.1424
貰	-20.1424
贈	-20.1424
飾	-20.1424
駻	-20.1424
[	-20.1424
]	-20.1424
Ġ	-20.1424
Ķ	-20.1424
Ň	-20.1424
ŋ	-20.1424
Ť	-20.1424
ũ	-20.1424
ŷ	-20.1424
ɘ	-20.1424
ɤ	-20.1424
ɫ	-20.1424
ɲ	-20.1424
ʀ	-20.1424
ʊ	-20.1424
ʔ	-20.1424
ʤ	-20.1424
ʦ	-20.1424
ʧ	-20.1424
ˊ	-20.1424
ˋ	-20.1424
̂	-20.1424
̪	-20.1424
̯	-20.1424
̱	-20.1424
̶	-20.1424
Ξ	-20.1424
ϋ	-20.1424
Շ	-20.1424
՝	-20.1424
՞	-20.1424
բ	-20.1424
զ	-20.1424
խ	-20.1424
ձ	-20.1424
ռ	-20.1424
փ	-20.1424
օ	-20.1424
ּ	-20.1424
ٍ	-20.1424
अ	-20.1424
ख	-20.1424
छ	-20.1424
ष	-20.1424
ौ	-20.1424
আ	-20.1424
এ	-20.1424
গ	-20.1424
ট	-20.1424
ব	-20.1424
য	-20.1424
়	-20.1424
ী	-20.1424
ে	-20.1424
ো	-20.1424
্	-20.1424
આ	-20.1424
એ	-20.1424
ણ	-20.1424
થ	-20.1424
બ	-20.1424
શ	-20.1424
હ	-20.1424
િ	-20.1424
ฑ	-20.1424
ษ	-20.1424
ๆ	-20.1424
๗	-20.1424
༦	-20.1424
ཱ	-20.1424
ღ	-20.1424
ᛋ	-20.1424
ᮬ	-20.1424
ḥ	-20.1424
ẩ	-20.1424
ẫ	-20.1424
ẳ	-20.1424
ặ	-20.1424
Ẹ	-20.1424
ẻ	-20.1424
ổ	-20.1424
ỡ	-20.1424
ủ	-20.1424
Ὑ	-20.1424
‒	-20.1424
‛	-20.1424
‣	-20.1424
₠	-20.1424
₩	-20.1424
♭	-20.1424
♯	-20.1424
➽	-20.1424
《	-20.1424
》	-20.1424
び	-20.1424
へ	-20.1424
ぼ	-20.1424
ェ	-20.1424
セ	-20.1424
デ	-20.1424
ヘ	-20.1424
ボ	-20.1424
ャ	-20.1424
ュ	-20.1424
ㄅ	-20.1424
ㄊ	-20.1424
ㄕ	-20.1424
ㄞ	-20.1424
ㄟ	-20.1424
主	-20.1424
么	-20.1424
乘	-20.1424
乾	-20.1424
亦	-20.1424
亲	-20.1424
仔	-20.1424
任	-20.1424
伏	-20.1424
但	-20.1424
來	-20.1424
俣	-20.1424
們	-20.1424
儿	-20.1424
兌	-20.1424
典	-20.1424
再	-20.1424
写	-20.1424
冲	-20.1424
冶	-20.1424
准	-20.1424
処	-20.1424
券	-20.1424
則	-20.1424
劇	-20.1424
助	-20.1424
勁	-20.1424
升	-20.1424
单	-20.1424
又	-20.1424
史	-20.1424
叶	-20.1424
唐	-20.1424
單	-20.1424
囑	-20.1424
圍	-20.1424
圖	-20.1424
土	-20.1424
坎	-20.1424
坛	-20.1424
坤	-20.1424
处	-20.1424
夏	-20.1424
夠	-20.1424
妖	-20.1424
妞	-20.1424
妨	-20.1424
始	-20.1424
婦	-20.1424
嫕	-20.1424
嫩	-20.1424
嫳	-20.1424
孩	-20.1424
室	-20.1424
宿	-20.1424
屆	-20.1424
岡	-20.1424
巽	-20.1424
帝	-20.1424
帮	-20.1424
帽	-20.1424
幾	-20.1424
広	-20.1424
序	-20.1424
張	-20.1424
微	-20.1424
徽	-20.1424
忆	-20.1424
念	-20.1424
态	-20.1424
怒	-20.1424
惯	-20.1424
愿	-20.1424
慢	-20.1424
慮	-20.1424
慾	-20.1424
懇	-20.1424
戏	-20.1424
战	-20.1424
扇	-20.1424
抠	-20.1424
护	-20.1424
抱	-20.1424
招	-20.1424
拨	-20.1424
挑	-20.1424
授	-20.1424
故	-20.1424
敬	-20.1424
於	-20.1424
族	-20.1424
无	-20.1424
暫	-20.1424
曲	-20.1424
未	-20.1424
权	-20.1424
条	-20.1424
标	-20.1424
桥	-20.1424
梨	-20.1424
检	-20.1424
楢	-20.1424
極	-20.1424
榔	-20.1424
樂	-20.1424
樣	-20.1424
機	-20.1424
檳	-20.1424
欲	-20.1424
歐	-20.1424
殊	-20.1424
污	-20.1424
汶	-20.1424
沖	-20.1424
泽	-20.1424
淡	-20.1424
渡	-20.1424
渴	-20.1424
潮	-20.1424
濟	-20.1424
点	-20.1424
烦	-20.1424
焦	-20.1424
煩	-20.1424
牵	-20.1424
牽	-20.1424
狀	-20.1424
獎	-20.1424
獨	-20.1424
獲	-20.1424
玩	-20.1424
玷	-20.1424
甘	-20.1424
田	-20.1424
由	-20.1424
甲	-20.1424
留	-20.1424
畸	-20.1424
畿	-20.1424
疣	-20.1424
疵	-20.1424
疽	-20.1424
痊	-20.1424
痴	-20.1424
癌	-20.1424
發	-20.1424
盛	-20.1424
真	-20.1424
眾	-20.1424
睡	-20.1424
短	-20.1424
硬	-20.1424
禮	-20.1424
离	-20.1424
種	-20.1424
稿	-20.1424
穩	-20.1424
穴	-20.1424
究	-20.1424
章	-20.1424
笑	-20.1424
筆	-20.1424
篇	-20.1424
类	-20.1424
縮	-20.1424
终	-20.1424
绞	-20.1424
统	-20.1424
缆	-20.1424
缚	-20.1424
羲	-20.1424
聆	-20.1424
职	-20.1424
联	-20.1424
聖	-20.1424
聞	-20.1424
聽	-20.1424
肃	-20.1424
肤	-20.1424
肺	-20.1424
胃	-20.1424
胎	-20.1424
胜	-20.1424
脚	-20.1424
腦	-20.1424
腫	-20.1424
腳	-20.1424
腸	-20.1424
艮	-20.1424
花	-20.1424
苹	-20.1424
茜	-20.1424
蕩	-20.1424
虑	-20.1424
虚	-20.1424
虫	-20.1424
血	-20.1424
表	-20.1424
装	-20.1424
裏	-20.1424
览	-20.1424
訃	-20.1424
訊	-20.1424
訓	-20.1424
訪	-20.1424
訴	-20.1424
試	-20.1424
詳	-20.1424
誕	-20.1424
誠	-20.1424
談	-20.1424
諧	-20.1424
警	-20.1424
讣	-20.1424
许	-20.1424
误	-20.1424
谷	-20.1424
貯	-20.1424
貼	-20.1424
賣	-20.1424
负	-20.1424
贮	-20.1424
贳	-20.1424
贸	-20.1424
费	-20.1424
赠	-20.1424
赢	-20.1424
趚	-20.1424
跡	-20.1424
躁	-20.1424
身	-20.1424
輔	-20.1424
轩	-20.1424
迁	-20.1424
连	-20.1424
達	-20.1424
遞	-20.1424
適	-20.1424
邑	-20.1424
邺	-20.1424
郝	-20.1424
野	-20.1424
銘	-20.1424
鋊	-20.1424
鑚	-20.1424
针	-20.1424
错	-20.1424
闻	-20.1424
阪	-20.1424
阳	-20.1424
陕	-20.1424
陰	-20.1424
陵	-20.1424
陽	-20.1424
際	-20.1424
障	-20.1424
雕	-20.1424
難	-20.1424
霆	-20.1424
霊	-20.1424
霸	-20.1424
非	-20.1424
靠	-20.1424
項	-20.1424
頖	-20.1424
顺	-20.1424
颢	-20.1424
養	-20.1424
饰	-20.1424
馆	-20.1424
鲣	-20.1424
鸩	-20.1424
鸯	-20.1424
黎	-20.1424
黑	-20.1424
點	-20.1424
齡	-20.1424
龐	-20.1424
각	-20.1424
갔	-20.1424
강	-20.1424
결	-20.1424
곤	-20.1424
규	-20.1424
그	-20.1424
낭	-20.1424
냻	-20.1424
넷	-20.1424
데	-20.1424
둑	-20.1424
랑	-20.1424
료	-20.1424
몬	-20.1424
번	-20.1424
별	-20.1424
빛	-20.1424
뻐	-20.1424
생	-20.1424
설	-20.1424
소	-20.1424
송	-20.1424
안	-20.1424
알	-20.1424
약	-20.1424
Ś	-20.1424
Ě	-20.1424
ˌ	-20.1424
Ό	-20.1424
ଠ	-20.1424
樹	-20.1424
載	-20.1424
鎙	-20.1424
Ȼ	-20.1424
Ά	-20.1424
Փ	-20.1424
ִ	-20.1424
ছ	-20.1424
並	-20.1424
朕	-20.1424
校	-20.1424
涂	-20.1424
眠	-20.1424
笔	-20.1424
试	-20.1424
負	-20.1424
較	-20.1424
阁	-20.1424
딩	-20.1424
ખ	-20.1424
ภ	-20.1424
互	-20.1424
佛	-20.1424
凡	-20.1424
杀	-20.1424
毁	-20.1424
派	-20.1424
浪	-20.1424
胆	-20.1424
致	-20.1424
莎	-20.1424
許	-20.1424
唱	-20.1425
宛	-20.1425
患	-20.1425
浙	-20.1425
鸳	-20.1425
さ	-20.1425
ョ	-20.1425
構	-20.1425
著	-20.1425
轮	-20.1425
Ѓ	-20.1425
°	-20.1426
ぱ	-20.1426
周	-20.1426
末	-20.1426
