<s>	0
<pad>	0
</s>	0
<unk>	0
s	-3.27279
▁,	-3.44252
▁.	-3.67259
;	-3.75585
▁	-3.89312
▁de	-3.94714
apos	-3.98297
▁the	-4.0041
&	-4.11696
▁of	-4.62318
▁la	-4.65756
▁and	-4.71804
▁a	-4.73302
▁to	-4.73933
▁et	-4.80293
e	-4.90245
▁in	-4.93932
▁l	-4.94993
▁le	-5.04901
▁à	-5.05487
▁d	-5.12666
▁&	-5.12912
▁les	-5.14557
▁des	-5.23439
-	-5.26403
@	-5.29167
▁@	-5.32647
▁en	-5.37875
▁is	-5.47177
▁un	-5.51479
d	-5.59295
ing	-5.59352
r	-5.60968
▁que	-5.64464
▁est	-5.66446
▁du	-5.66556
quot	-5.68626
▁that	-5.68993
▁for	-5.73397
▁une	-5.74973
▁pour	-5.7927
ed	-5.8348
er	-5.84142
▁on	-5.84388
t	-5.89562
▁dans	-5.9012
es	-5.90146
(	-5.94921
)	-5.95321
▁qui	-6.06829
▁I	-6.07049
▁sur	-6.09219
▁be	-6.13099
y	-6.13982
▁with	-6.15868
▁The	-6.1769
▁au	-6.17757
:	-6.23507
▁are	-6.2418
ly	-6.24482
▁par	-6.26651
n	-6.27159
▁-	-6.30888
▁this	-6.36716
ment	-6.37075
▁ce	-6.38124
▁nous	-6.3919
▁it	-6.39367
▁pas	-6.40569
▁we	-6.43201
é	-6.4681
▁vous	-6.48425
▁you	-6.4859
▁as	-6.48646
▁il	-6.48898
.	-6.48939
▁by	-6.49391
▁not	-6.51911
▁plus	-6.53071
▁have	-6.53824
al	-6.5536
▁or	-6.5721
a	-6.57639
▁ne	-6.62618
▁qu	-6.6425
▁will	-6.6554
▁an	-6.67295
▁s	-6.6736
▁ou	-6.67535
▁A	-6.70901
▁at	-6.71127
▁from	-6.72243
▁avec	-6.72283
▁se	-6.72333
▁C	-6.74532
▁which	-6.7579
ant	-6.7631
o	-6.77265
▁Le	-6.78563
▁sont	-6.79904
m	-6.80376
▁n	-6.8111
nt	-6.81407
▁La	-6.83182
re	-6.83986
ation	-6.84135
▁has	-6.87088
ent	-6.87302
▁L	-6.87679
i	-6.88192
▁all	-6.8845
▁aux	-6.89825
▁S	-6.90725
▁can	-6.98089
?	-6.98262
l	-7.00954
▁was	-7.05034
/	-7.05255
▁Commission	-7.08333
c	-7.1012
▁être	-7.10872
▁je	-7.11717
u	-7.1176
▁c	-7.12281
▁our	-7.13099
▁re	-7.14359
▁your	-7.14804
h	-7.16356
▁In	-7.18859
▁European	-7.19226
▁ont	-7.21074
▁cette	-7.22925
▁Les	-7.24037
le	-7.25398
▁also	-7.25479
▁Il	-7.26233
g	-7.27058
or	-7.27567
ons	-7.28185
z	-7.28501
in	-7.28615
!	-7.28732
ur	-7.2908
▁but	-7.29396
able	-7.31017
▁M	-7.32354
▁Union	-7.3259
te	-7.33184
ra	-7.3385
ion	-7.33998
▁their	-7.35613
▁été	-7.36519
▁sa	-7.38011
▁We	-7.38693
▁son	-7.39817
▁more	-7.40413
▁Je	-7.42277
▁P	-7.42338
▁comme	-7.4301
ez	-7.44004
it	-7.44029
▁mais	-7.4504
▁It	-7.45339
▁y	-7.45361
▁do	-7.45483
▁B	-7.45531
f	-7.45896
▁its	-7.46496
▁...	-7.47107
▁tout	-7.47751
is	-7.47777
▁would	-7.47866
▁me	-7.48252
th	-7.48506
▁so	-7.48541
▁one	-7.49204
▁votre	-7.4979
▁fait	-7.49818
ée	-7.50015
▁been	-7.50019
▁This	-7.50624
▁1	-7.51238
▁Europe	-7.52147
ir	-7.52361
▁si	-7.53284
k	-7.53836
en	-7.53933
▁Nous	-7.54223
▁En	-7.54714
p	-7.552
▁E	-7.56954
x	-7.56984
ch	-7.58503
ar	-7.58812
▁leur	-7.59306
▁should	-7.5955
il	-7.60325
ité	-7.60364
▁ces	-7.60461
li	-7.60521
▁pays	-7.60581
▁dé	-7.61601
us	-7.62544
▁2	-7.62644
▁new	-7.62875
▁D	-7.63169
on	-7.63291
▁they	-7.63484
ter	-7.63702
3	-7.63933
▁G	-7.64604
és	-7.64612
▁other	-7.64671
▁Mr	-7.65064
▁entre	-7.65273
▁about	-7.66129
1	-7.66194
▁bien	-7.67018
la	-7.67072
▁même	-7.68003
▁time	-7.68729
ne	-7.68961
▁information	-7.70762
▁must	-7.70782
▁no	-7.71541
▁there	-7.71762
▁up	-7.71933
▁faire	-7.71933
at	-7.72736
▁important	-7.73026
▁peut	-7.7329
b	-7.73318
▁aussi	-7.73357
▁very	-7.73428
▁like	-7.73585
▁notre	-7.73763
an	-7.73907
▁T	-7.75489
▁F	-7.75642
ro	-7.76581
▁con	-7.76689
▁européenne	-7.769
▁p	-7.7739
▁autres	-7.77446
▁out	-7.77722
▁who	-7.78118
ie	-7.78789
ance	-7.78863
▁elle	-7.79113
▁tous	-7.79553
ll	-7.79731
age	-7.80536
▁non	-7.80543
▁3	-7.80721
ic	-7.81032
ve	-7.81428
▁place	-7.81827
▁part	-7.82
et	-7.8374
▁é	-7.83847
▁these	-7.84263
▁only	-7.84656
▁très	-7.84839
▁any	-7.85175
▁rapport	-7.85323
st	-7.85475
▁us	-7.85603
▁4	-7.8573
▁people	-7.86252
▁j	-7.86399
▁ré	-7.86544
▁President	-7.86597
ate	-7.86963
▁également	-7.87321
▁O	-7.88213
ia	-7.88295
el	-7.88764
▁K	-7.88803
ées	-7.88926
▁if	-7.89548
▁point	-7.89947
▁report	-7.90321
2	-7.90487
%	-7.91188
ity	-7.91342
▁19	-7.9136
▁Re	-7.91368
ement	-7.92468
▁De	-7.92509
▁R	-7.92831
▁what	-7.92979
▁my	-7.93287
▁services	-7.9344
▁J	-7.93469
▁question	-7.94131
im	-7.94616
na	-7.95059
▁ses	-7.95644
ta	-7.96137
ine	-7.96173
▁he	-7.96269
▁work	-7.96697
ri	-7.97121
▁Si	-7.97574
▁nos	-7.97926
S	-7.98525
ge	-7.99083
▁N	-7.99393
▁were	-7.99617
▁politique	-8.00261
tion	-8.00763
id	-8.01313
ad	-8.01487
▁m	-8.01786
ers	-8.01948
▁&#9	-8.02225
▁pro	-8.02445
▁public	-8.02873
T	-8.03087
▁use	-8.03287
▁into	-8.03461
▁when	-8.03613
w	-8.03666
▁site	-8.03707
▁service	-8.04034
▁support	-8.0429
▁5	-8.05064
▁deux	-8.05539
▁avons	-8.06151
ci	-8.06297
▁make	-8.06568
▁such	-8.06578
▁sans	-8.07007
▁than	-8.07151
me	-8.07215
▁some	-8.07255
ive	-8.07259
▁possible	-8.07392
▁États	-8.07876
▁ainsi	-8.08205
▁membres	-8.08541
um	-8.08622
▁car	-8.08969
▁need	-8.09138
B	-8.092
▁ai	-8.09256
ait	-8.09663
▁his	-8.09876
▁e	-8.10012
▁dis	-8.10157
▁hotel	-8.10535
lo	-8.10947
▁Monsieur	-8.10971
de	-8.11081
▁over	-8.11083
D	-8.11173
▁well	-8.11514
▁first	-8.11643
▁situation	-8.12054
▁hôtel	-8.12079
ma	-8.1225
▁H	-8.12412
am	-8.12438
P	-8.12477
▁them	-8.12553
5	-8.12846
v	-8.13382
▁Parliament	-8.13509
▁ils	-8.13653
ique	-8.1381
ions	-8.13834
▁co	-8.1397
00	-8.14482
▁accord	-8.14893
que	-8.1504
▁may	-8.15167
▁countries	-8.1532
eur	-8.15343
▁Pour	-8.15394
ol	-8.15579
▁just	-8.15791
ul	-8.15802
▁Canada	-8.15846
▁Parlement	-8.16603
di	-8.16787
▁t	-8.16915
▁most	-8.17189
▁Conseil	-8.17274
▁10	-8.17443
té	-8.17509
ry	-8.1758
▁States	-8.19238
▁Member	-8.19479
amp	-8.19678
▁où	-8.19727
▁doit	-8.20162
M	-8.20197
▁cas	-8.20413
▁Ce	-8.20662
▁For	-8.20782
▁am	-8.20897
L	-8.21069
▁now	-8.21457
▁way	-8.21572
ist	-8.21665
▁W	-8.21667
ce	-8.21831
▁travail	-8.22458
to	-8.22497
▁pre	-8.22534
co	-8.22564
▁Council	-8.22705
▁dont	-8.22814
▁take	-8.23214
▁between	-8.2323
▁because	-8.23265
▁Président	-8.23526
▁Hotel	-8.2372
▁Ma	-8.24267
▁autre	-8.24479
ke	-8.24645
ca	-8.24847
▁V	-8.25172
▁To	-8.2529
▁where	-8.25331
min	-8.25788
ise	-8.26586
▁many	-8.27329
au	-8.27475
va	-8.27587
▁centre	-8.27659
F	-8.2792
▁mon	-8.2819
▁On	-8.28533
▁ma	-8.28585
▁leurs	-8.28595
ence	-8.28605
▁under	-8.28945
▁ex	-8.29207
▁contre	-8.29356
▁two	-8.29721
▁per	-8.30111
▁européen	-8.30571
U	-8.30816
▁world	-8.31147
▁international	-8.31211
ti	-8.31374
ut	-8.31793
▁those	-8.31976
isation	-8.32009
▁years	-8.32305
▁temps	-8.32371
▁good	-8.32786
▁If	-8.32894
ux	-8.32912
▁Con	-8.33066
▁had	-8.33192
pe	-8.33206
▁soit	-8.33247
▁made	-8.33277
ill	-8.33358
mo	-8.33551
ven	-8.33604
C	-8.34117
▁long	-8.34132
ni	-8.34182
▁EU	-8.34275
com	-8.34683
▁And	-8.34737
▁monde	-8.35556
▁g	-8.35966
che	-8.36137
aux	-8.3666
▁programme	-8.36744
▁développement	-8.37279
▁hui	-8.37626
▁ci	-8.37746
▁You	-8.37813
▁year	-8.37927
▁pré	-8.3804
▁encore	-8.38084
ies	-8.38375
▁social	-8.38748
ard	-8.38864
▁va	-8.38915
▁right	-8.38958
▁Vous	-8.3933
▁respect	-8.39992
ou	-8.40095
ton	-8.40416
G	-8.40487
▁inter	-8.4062
ac	-8.40806
▁being	-8.41311
les	-8.41503
▁protection	-8.41598
▁avoir	-8.41802
mp	-8.42452
▁était	-8.42487
be	-8.42698
▁plan	-8.42703
▁sera	-8.42773
nd	-8.43175
ig	-8.43634
tic	-8.4364
▁personnes	-8.43658
ten	-8.43691
▁As	-8.43763
▁vos	-8.43795
▁vote	-8.44129
▁Dans	-8.44471
▁order	-8.45085
ga	-8.45177
▁toute	-8.45257
▁donc	-8.45496
▁policy	-8.45545
▁cela	-8.45652
▁20	-8.45688
O	-8.45894
▁di	-8.45907
▁large	-8.46129
▁toutes	-8.46149
▁Un	-8.46265
▁droits	-8.46503
▁U	-8.46789
▁through	-8.46872
▁Et	-8.46891
▁vie	-8.47028
▁Se	-8.47221
▁see	-8.47462
ais	-8.47489
▁own	-8.47696
lé	-8.47749
▁position	-8.47809
▁main	-8.47947
os	-8.48131
▁national	-8.48137
8	-8.4825
▁compte	-8.48394
▁fin	-8.4871
▁afin	-8.49135
tre	-8.49151
man	-8.49505
▁droit	-8.49717
no	-8.49985
go	-8.50081
▁how	-8.50542
▁Al	-8.50638
eurs	-8.50653
▁want	-8.50714
▁system	-8.50755
▁fois	-8.50962
▁particular	-8.51014
▁imp	-8.51154
▁po	-8.51195
ld	-8.51212
ire	-8.51216
▁6	-8.51275
ner	-8.51323
▁comp	-8.51329
E	-8.51466
ré	-8.51638
▁development	-8.51831
▁He	-8.5206
▁even	-8.52092
as	-8.52245
▁proposition	-8.52747
ue	-8.52843
▁same	-8.52926
▁action	-8.52968
ary	-8.53027
▁So	-8.53055
A	-8.53136
▁peuvent	-8.53215
▁sous	-8.53388
▁help	-8.53493
▁Mar	-8.53568
▁know	-8.53719
▁ch	-8.54174
aire	-8.54584
est	-8.54612
▁système	-8.54879
4	-8.55152
ger	-8.55264
▁sécurité	-8.56172
▁après	-8.56205
V	-8.56234
ér	-8.56244
▁Ro	-8.56397
▁human	-8.56442
▁could	-8.5645
▁here	-8.56901
▁avant	-8.57091
vons	-8.57333
▁f	-8.57718
▁fact	-8.5786
▁jour	-8.57862
ront	-8.5788
ure	-8.57888
▁cadre	-8.58006
▁transport	-8.58113
▁conditions	-8.58221
ère	-8.58264
▁access	-8.58824
▁after	-8.58859
▁number	-8.5891
un	-8.59026
tro	-8.59212
7	-8.59233
ho	-8.59377
▁7	-8.59429
ated	-8.59729
▁economic	-8.60007
if	-8.60101
tra	-8.60268
▁demande	-8.60354
▁market	-8.60681
mi	-8.60734
op	-8.60759
ver	-8.60804
ian	-8.6093
▁base	-8.61031
vi	-8.61082
▁country	-8.61303
N	-8.61365
▁8	-8.61396
ty	-8.61445
▁moins	-8.61459
▁does	-8.61641
▁marché	-8.61753
▁produits	-8.61776
ite	-8.61909
mb	-8.62006
▁find	-8.62144
▁directive	-8.62257
▁cet	-8.62306
▁Mo	-8.62384
▁b	-8.62567
▁grand	-8.62734
▁budget	-8.62926
▁think	-8.62962
ous	-8.63197
▁ville	-8.63311
▁vers	-8.63362
▁partie	-8.63429
▁grande	-8.63797
urs	-8.64008
▁say	-8.64064
sse	-8.64153
ial	-8.6418
▁port	-8.64227
▁end	-8.64229
▁faut	-8.64477
▁An	-8.64612
▁nom	-8.64677
▁app	-8.64696
▁Pro	-8.64792
▁area	-8.6489
▁change	-8.64906
▁St	-8.64975
▁bar	-8.65018
▁dire	-8.65111
qui	-8.65198
▁questions	-8.65934
do	-8.6597
▁ca	-8.6623
è	-8.66282
▁moment	-8.66363
▁matière	-8.66365
▁process	-8.66638
▁lui	-8.66934
▁free	-8.67014
▁groupe	-8.67142
▁go	-8.67408
▁within	-8.67497
▁certain	-8.67519
▁rights	-8.67788
▁Au	-8.67908
▁st	-8.67967
▁both	-8.67978
▁There	-8.68344
▁Cette	-8.68665
▁9	-8.68688
▁br	-8.68715
▁suis	-8.68794
▁aujourd	-8.68935
▁0	-8.69072
▁much	-8.69106
▁15	-8.69114
▁form	-8.69188
▁against	-8.69825
▁12	-8.69907
▁production	-8.69967
▁used	-8.70062
▁Li	-8.7008
der	-8.70159
par	-8.70159
▁get	-8.70421
▁political	-8.70541
▁available	-8.70588
▁bon	-8.70693
io	-8.70705
ot	-8.70977
▁mise	-8.71165
▁doivent	-8.71267
▁recherche	-8.71318
▁vi	-8.71433
▁provide	-8.71499
▁continue	-8.71511
▁vue	-8.71722
em	-8.7227
vis	-8.72622
▁page	-8.72826
▁manière	-8.72904
▁Sa	-8.72937
▁depuis	-8.7301
▁great	-8.73058
▁Mais	-8.73087
▁No	-8.73226
▁peu	-8.73326
▁2009	-8.73338
son	-8.73423
▁aide	-8.73487
▁chambres	-8.73609
▁Pa	-8.73679
he	-8.73748
▁exemple	-8.73778
▁course	-8.73891
▁niveau	-8.73996
oc	-8.74152
ière	-8.74227
ck	-8.74241
▁seulement	-8.74425
ale	-8.7447
bo	-8.7451
▁Vi	-8.74642
▁raison	-8.74777
▁future	-8.75045
▁déjà	-8.75239
▁before	-8.75248
ling	-8.75261
▁without	-8.75443
▁toujours	-8.75662
▁première	-8.75689
▁different	-8.75727
▁nombre	-8.75962
▁local	-8.76045
ction	-8.76057
▁qualité	-8.7614
▁her	-8.76245
▁Internet	-8.76299
▁cours	-8.76414
gi	-8.76423
▁Une	-8.76424
▁regard	-8.76661
▁But	-8.76705
▁30	-8.76884
▁rapporteur	-8.76917
▁tant	-8.77165
6	-8.77346
▁set	-8.77455
ide	-8.77466
ting	-8.77501
▁All	-8.77518
con	-8.77654
▁gouvernement	-8.77823
ag	-8.77921
▁view	-8.78025
▁com	-8.7817
▁ra	-8.78301
▁année	-8.78324
▁prix	-8.78354
▁day	-8.78538
lu	-8.78705
I	-8.78718
▁high	-8.78903
▁issue	-8.78962
cul	-8.78996
▁total	-8.79006
▁believe	-8.79125
ier	-8.79179
▁give	-8.79197
▁pense	-8.79255
▁sommes	-8.79811
▁then	-8.79825
▁Par	-8.79827
,	-8.7988
ris	-8.79925
▁Bo	-8.80043
val	-8.80115
▁Elle	-8.80118
▁économique	-8.80159
iv	-8.80352
▁cause	-8.80374
ak	-8.80432
▁18	-8.80478
▁jusqu	-8.80496
▁Ba	-8.80515
ness	-8.80545
▁premier	-8.80703
▁Ca	-8.80768
▁chaque	-8.80913
▁pouvez	-8.81246
▁secteur	-8.81329
▁including	-8.81438
▁nouveau	-8.81817
▁lieu	-8.81844
▁ici	-8.81974
▁said	-8.82132
▁room	-8.82208
▁24	-8.82327
▁UE	-8.82565
▁man	-8.8273
▁Do	-8.82731
▁last	-8.82916
vo	-8.83041
▁still	-8.83153
▁quelques	-8.83396
ile	-8.83397
▁therefore	-8.83666
▁mar	-8.83766
ap	-8.84099
▁contact	-8.84365
▁avez	-8.84473
▁second	-8.8451
H	-8.84513
▁back	-8.84608
▁face	-8.84622
tes	-8.84826
▁application	-8.84845
ating	-8.84862
▁version	-8.84873
▁real	-8.84932
▁each	-8.85015
▁lors	-8.85089
ba	-8.85145
▁données	-8.85254
▁beaucoup	-8.85298
▁agreement	-8.85326
rez	-8.85337
▁mis	-8.86057
▁life	-8.8613
▁sub	-8.86269
gu	-8.8627
▁années	-8.86334
▁level	-8.86387
ight	-8.86501
ual	-8.86518
▁fi	-8.86628
▁Z	-8.8669
124	-8.868
▁dit	-8.86992
▁today	-8.87108
▁health	-8.87516
ted	-8.8769
▁ligne	-8.87724
▁commission	-8.87808
▁ceux	-8.88147
▁h	-8.88235
▁débat	-8.88268
▁every	-8.88447
▁pr	-8.88462
▁v	-8.88733
per	-8.88796
▁Fa	-8.88839
▁France	-8.88889
ha	-8.89216
tte	-8.89262
▁rooms	-8.89451
▁financial	-8.89694
▁&#	-8.89761
▁That	-8.89867
ign	-8.89949
▁business	-8.8997
▁mesures	-8.90006
▁law	-8.9019
▁example	-8.902
ay	-8.90328
▁pi	-8.90381
hi	-8.905
▁nouvelle	-8.90518
act	-8.90568
▁À	-8.9059
tant	-8.9061
ient	-8.90761
▁special	-8.90905
▁voudrais	-8.90946
▁products	-8.90984
ler	-8.91082
▁Y	-8.91162
▁institutions	-8.91189
▁façon	-8.91352
ative	-8.91354
▁offre	-8.91501
▁région	-8.91607
eux	-8.91678
aient	-8.91712
▁art	-8.91728
▁best	-8.91789
▁k	-8.91809
▁case	-8.91822
▁w	-8.91968
▁minutes	-8.92001
▁bas	-8.92035
▁small	-8.92208
▁voir	-8.92265
▁elles	-8.92428
▁X	-8.92462
▁present	-8.92463
▁allow	-8.92733
▁présent	-8.92747
▁politiques	-8.92801
▁bo	-8.92817
and	-8.92872
ible	-8.92894
▁Co	-8.9297
ors	-8.92971
▁ensemble	-8.93
▁2008	-8.93042
▁problème	-8.93212
▁permet	-8.93318
▁Me	-8.93648
▁open	-8.93716
▁during	-8.93745
▁ans	-8.93767
tu	-8.94111
▁plusieurs	-8.94176
ster	-8.94372
▁importance	-8.94417
▁bi	-8.94638
▁comment	-8.94677
▁trouve	-8.948
ical	-8.94873
▁name	-8.94906
▁fl	-8.94945
▁accès	-8.95038
bi	-8.95123
▁Be	-8.95161
▁already	-8.95281
▁besoin	-8.95423
▁population	-8.95522
▁since	-8.95534
R	-8.9556
▁mer	-8.95622
▁ensure	-8.95645
▁11	-8.95786
▁type	-8.95846
ille	-8.95966
▁Po	-8.96112
▁At	-8.96154
lin	-8.96165
up	-8.96279
mes	-8.96282
▁prendre	-8.96364
▁alors	-8.96545
▁parce	-8.96738
ast	-8.96762
▁unique	-8.96805
▁santé	-8.96847
W	-8.96881
K	-8.96889
▁rec	-8.96922
str	-8.97025
▁propose	-8.97178
▁charge	-8.97291
▁cannot	-8.9763
▁contrôle	-8.97804
▁Te	-8.97875
▁dernière	-8.97905
▁clients	-8.97937
▁off	-8.98006
land	-8.98054
▁communication	-8.98115
ities	-8.9815
▁three	-8.98191
▁soutien	-8.98231
▁debate	-8.9835
▁hand	-8.98394
▁quality	-8.98408
ante	-8.98474
▁air	-8.98512
▁projet	-8.98589
▁pouvoir	-8.98675
▁mettre	-8.98702
▁Car	-8.98839
▁solution	-8.98854
da	-8.98902
line	-8.98909
ct	-8.98923
▁moi	-8.98945
▁certains	-8.99077
▁entreprises	-8.99213
▁homme	-8.99238
▁too	-8.99248
▁call	-8.99297
▁close	-8.99326
▁domaine	-8.99516
gé	-8.99626
qu	-8.99846
ph	-9.00081
▁agit	-9.00187
▁environnement	-9.00189
ow	-9.00239
▁rep	-9.00251
$	-9.00276
▁bonne	-9.00451
▁play	-9.00522
iste	-9.0075
mm	-9.00755
▁data	-9.00971
▁attention	-9.00992
▁sens	-9.01011
▁savoir	-9.01264
▁suite	-9.01351
▁look	-9.01352
om	-9.01416
▁mesure	-9.01418
▁gr	-9.01436
▁tu	-9.01556
▁sujet	-9.0177
▁few	-9.01826
▁excellent	-9.01851
▁date	-9.01875
▁effet	-9.0198
▁Commissioner	-9.02256
▁enfants	-9.02275
▁design	-9.0243
▁op	-9.02609
▁informations	-9.02712
▁trois	-9.02757
▁rest	-9.0284
▁based	-9.0284
▁forme	-9.0289
▁sector	-9.02907
▁pa	-9.02975
▁put	-9.0315
▁account	-9.03168
▁processus	-9.03256
ator	-9.0333
bre	-9.03353
ang	-9.03368
int	-9.03419
▁sou	-9.03495
▁ni	-9.03597
fa	-9.03612
▁global	-9.03872
▁concernant	-9.03984
▁chose	-9.04069
▁able	-9.04145
▁président	-9.04149
▁Ha	-9.04262
▁tra	-9.04406
▁come	-9.04419
▁control	-9.04473
▁simple	-9.04514
▁commercial	-9.04629
▁utilisation	-9.04652
ru	-9.04716
▁fa	-9.04967
og	-9.04986
ateur	-9.0511
▁Committee	-9.05213
▁means	-9.05307
▁government	-9.05391
▁found	-9.05432
▁act	-9.0546
▁test	-9.0549
▁she	-9.05584
▁2010	-9.05644
▁culture	-9.05693
▁experience	-9.05713
▁power	-9.05794
ish	-9.05844
▁clear	-9.05858
▁They	-9.05902
lic	-9.05907
▁met	-9.05993
iser	-9.06051
▁là	-9.06224
▁common	-9.06245
▁Our	-9.06245
▁result	-9.06346
▁particulier	-9.06481
ren	-9.06497
one	-9.06573
▁Ne	-9.06588
rant	-9.06598
ach	-9.06981
▁visit	-9.06991
▁International	-9.07003
▁down	-9.07103
po	-9.07121
▁far	-9.07132
iques	-9.07251
▁concerne	-9.07293
use	-9.07369
▁Or	-9.07437
▁product	-9.07475
▁efforts	-9.07703
▁proposal	-9.07762
▁direct	-9.07786
ienne	-9.07802
▁fond	-9.08268
▁points	-9.08341
▁water	-9.08352
▁programmes	-9.08361
rait	-9.08423
▁personnel	-9.08462
▁citoyens	-9.0852
▁What	-9.08816
▁force	-9.08829
▁offers	-9.08891
aires	-9.09034
▁city	-9.09065
▁did	-9.09138
ture	-9.09228
▁next	-9.09248
gue	-9.09282
▁security	-9.09289
▁i	-9.09339
▁tax	-9.09367
▁Fi	-9.09405
▁However	-9.09487
▁2007	-9.09564
rons	-9.09634
▁problem	-9.09643
▁aim	-9.09689
▁abord	-9.0974
▁Ta	-9.09754
▁dernier	-9.09763
mon	-9.0991
tain	-9.0992
▁anti	-9.10146
▁avait	-9.1029
elle	-9.10517
▁don	-9.10555
▁seront	-9.10596
uv	-9.10599
▁sein	-9.10624
▁Di	-9.1063
Y	-9.10645
▁become	-9.10709
▁fonction	-9.10875
▁société	-9.10886
▁personal	-9.11029
vers	-9.11222
▁ba	-9.11246
▁Lo	-9.11322
ka	-9.1133
▁line	-9.11433
▁hope	-9.11541
▁amendement	-9.1157
less	-9.11624
▁person	-9.11756
▁stay	-9.11766
▁offer	-9.11875
ex	-9.11957
end	-9.11964
tique	-9.12012
▁Web	-9.12069
ki	-9.12115
▁ro	-9.12306
▁Des	-9.12488
▁post	-9.12626
▁gestion	-9.12667
▁better	-9.12683
ally	-9.12706
9	-9.12723
▁while	-9.1283
▁With	-9.12834
▁su	-9.12844
tor	-9.12909
▁salle	-9.12959
▁list	-9.12979
▁notamment	-9.13146
▁location	-9.1327
ber	-9.13348
▁fr	-9.13448
rie	-9.13474
▁auto	-9.13556
side	-9.13865
▁group	-9.13882
cu	-9.1391
▁problèmes	-9.13925
▁trans	-9.13986
ien	-9.14001
▁mois	-9.14182
serv	-9.14188
▁14	-9.1423
▁state	-9.14271
X	-9.14338
▁restaurant	-9.14349
ette	-9.14351
men	-9.14412
▁women	-9.14423
▁femmes	-9.1454
▁message	-9.14718
▁occasion	-9.1479
▁selon	-9.14807
▁petit	-9.15195
isme	-9.15352
▁New	-9.15531
ized	-9.15789
▁nature	-9.15995
▁utiliser	-9.16137
jo	-9.1623
ip	-9.16251
▁nécessaire	-9.1631
ub	-9.16373
▁nombreux	-9.16622
▁US	-9.1663
▁50	-9.16636
tin	-9.16688
▁effective	-9.16724
▁ten	-9.16907
▁pla	-9.16923
▁home	-9.16942
pos	-9.17188
ability	-9.1722
▁why	-9.17454
▁opinion	-9.17484
ice	-9.17505
od	-9.17571
▁energy	-9.17581
▁areas	-9.17588
▁taken	-9.17644
▁trade	-9.17757
lect	-9.17815
▁measures	-9.17838
ins	-9.17886
▁shall	-9.18006
▁pendant	-9.18055
pa	-9.18108
▁pay	-9.18243
cher	-9.18264
▁really	-9.18446
▁demand	-9.18483
▁agree	-9.1857
▁ta	-9.18601
our	-9.1862
▁internationale	-9.18626
nant	-9.18643
▁United	-9.18667
▁25	-9.18693
▁parties	-9.18701
ron	-9.18705
▁research	-9.18716
▁eu	-9.1874
cal	-9.18758
ration	-9.18795
▁old	-9.1883
▁etc	-9.1904
▁pu	-9.19436
▁project	-9.19477
▁million	-9.19528
▁Ra	-9.19667
▁personne	-9.19775
ism	-9.19977
▁given	-9.20066
▁commun	-9.20067
_	-9.20107
▁fil	-9.2017
éri	-9.20768
▁needs	-9.20854
▁13	-9.20878
▁vis	-9.20949
▁individual	-9.20983
du	-9.21005
▁laquelle	-9.21015
nce	-9.2104
▁children	-9.21184
▁full	-9.21409
▁citizens	-9.21498
▁millions	-9.21591
▁établissement	-9.21598
▁activités	-9.21632
▁necessary	-9.21666
▁nouveaux	-9.21695
▁article	-9.21745
▁accept	-9.21821
▁16	-9.22099
▁rôle	-9.22129
ER	-9.2213
▁around	-9.22182
▁17	-9.22211
▁going	-9.22244
▁nouvelles	-9.22295
▁Ces	-9.22332
▁contain	-9.22364
▁These	-9.22375
▁Mi	-9.2238
▁Paris	-9.22386
▁pourquoi	-9.22423
tal	-9.22462
*	-9.22573
▁using	-9.2271
▁Ar	-9.22714
raient	-9.22738
▁É	-9.2279
▁ab	-9.22798
ES	-9.22953
▁100	-9.23062
▁fourni	-9.23176
▁legal	-9.23219
▁working	-9.2335
met	-9.23591
▁address	-9.2362
▁document	-9.23755
tribu	-9.23801
▁again	-9.23986
▁making	-9.24011
▁2006	-9.24014
▁modern	-9.24098
▁quand	-9.24139
wa	-9.24252
▁always	-9.24272
▁remain	-9.24318
▁progress	-9.24343
tri	-9.2436
▁food	-9.24549
ec	-9.24739
▁Ch	-9.24752
ification	-9.24762
euse	-9.24774
mit	-9.24826
▁o	-9.24925
fe	-9.24944
▁further	-9.24981
lle	-9.25104
▁mal	-9.25128
▁Unis	-9.2521
▁maintenant	-9.25266
▁wish	-9.25313
pri	-9.25447
ful	-9.25492
▁San	-9.2556
▁show	-9.25584
▁emploi	-9.25686
▁share	-9.25694
▁issues	-9.25767
▁web	-9.25834
▁rem	-9.2584
▁When	-9.25851
▁Na	-9.25911
▁relations	-9.25983
tur	-9.25996
▁located	-9.26034
▁ha	-9.26149
mar	-9.26167
▁men	-9.26231
▁trop	-9.2628
▁Group	-9.26355
▁commune	-9.26492
▁Th	-9.26503
▁table	-9.26549
ick	-9.26619
▁équipe	-9.2682
▁règlement	-9.26918
▁État	-9.26947
▁another	-9.27101
▁œuvre	-9.27147
▁game	-9.27211
▁devrait	-9.27236
▁lit	-9.27284
▁week	-9.27463
▁fe	-9.27523
▁sign	-9.27542
▁économie	-9.27614
▁problems	-9.27636
▁cl	-9.27862
▁care	-9.27969
ize	-9.2806
▁période	-9.28147
▁propos	-9.2815
▁Cela	-9.28186
▁specific	-9.28186
out	-9.28301
▁déc	-9.2845
▁reach	-9.28506
▁ban	-9.2864
▁gu	-9.28657
▁subject	-9.2867
▁impact	-9.28681
AR	-9.2872
▁role	-9.28783
▁carte	-9.28884
▁reste	-9.29065
▁soient	-9.29106
▁limit	-9.29149
▁direction	-9.29233
▁acc	-9.29312
gen	-9.29396
▁compris	-9.29454
vent	-9.29492
j	-9.29606
▁whether	-9.29752
▁image	-9.29772
ces	-9.29791
▁Ho	-9.29972
▁tour	-9.30026
▁ho	-9.30065
▁risk	-9.30076
▁final	-9.30193
▁sociale	-9.30287
▁celui	-9.30397
▁min	-9.30596
▁Madame	-9.30625
ug	-9.30665
▁together	-9.30693
▁condition	-9.30827
éré	-9.30854
way	-9.30951
▁efficace	-9.31001
▁Ad	-9.31029
mis	-9.31145
▁produit	-9.31297
ja	-9.31569
gent	-9.31645
iers	-9.31691
▁current	-9.31715
▁affaires	-9.31736
▁step	-9.31754
▁sport	-9.31769
▁court	-9.31784
ateurs	-9.31805
▁short	-9.31848
▁start	-9.31977
lement	-9.32097
rou	-9.32107
▁initiative	-9.32218
▁euro	-9.32257
▁mot	-9.32304
let	-9.32342
▁bring	-9.32424
ç	-9.32477
▁aucun	-9.32549
▁entreprise	-9.32605
▁Jo	-9.32625
▁however	-9.32706
▁Wi	-9.32828
▁000	-9.32831
▁section	-9.32852
▁parti	-9.32854
▁company	-9.33013
▁four	-9.33039
▁pouvons	-9.33042
und	-9.33125
▁coopération	-9.33141
▁solutions	-9.33209
▁create	-9.33233
▁whole	-9.33248
▁management	-9.33305
▁mode	-9.33435
▁objectif	-9.33491
▁attend	-9.33534
▁DE	-9.33597
▁industrie	-9.33602
▁2000	-9.33652
▁style	-9.33817
▁welcome	-9.33853
mé	-9.33884
ud	-9.33919
▁traité	-9.33942
▁crise	-9.34163
ze	-9.34282
nc	-9.34391
▁cooperation	-9.34405
▁civil	-9.34411
king	-9.3443
▁major	-9.34439
▁sites	-9.34476
▁Gu	-9.34494
pt	-9.34571
▁active	-9.34686
▁term	-9.34736
▁énergie	-9.34892
▁liste	-9.34905
▁Can	-9.34986
▁meeting	-9.3509
▁House	-9.35103
▁inform	-9.35105
▁station	-9.35113
nal	-9.35185
▁formation	-9.35211
▁capital	-9.35242
mission	-9.35323
▁publique	-9.35343
▁environment	-9.35471
▁contribution	-9.35482
ning	-9.35564
▁Du	-9.35566
art	-9.35689
▁famille	-9.35718
▁request	-9.35757
▁serait	-9.35942
▁text	-9.35994
▁2005	-9.36023
▁terme	-9.36031
▁terms	-9.36098
▁content	-9.36179
era	-9.3618
né	-9.36216
▁enjoy	-9.36271
▁responsabilité	-9.3649
▁building	-9.36587
▁présente	-9.36744
▁period	-9.36893
▁bou	-9.36974
▁family	-9.36979
▁compar	-9.36997
▁existe	-9.37011
▁celle	-9.37109
▁ask	-9.37175
▁vol	-9.37187
qué	-9.37198
▁résolution	-9.37234
we	-9.37324
za	-9.37339
▁expérience	-9.37345
▁jours	-9.37465
car	-9.37518
▁Ja	-9.37556
▁Canadian	-9.37557
▁Community	-9.3756
ju	-9.37602
▁increase	-9.37694
rain	-9.37784
▁pourrait	-9.37876
tan	-9.37878
▁tri	-9.3789
nu	-9.38041
▁mé	-9.38081
▁concern	-9.38095
▁eau	-9.38118
▁something	-9.38432
▁sûr	-9.38679
▁décision	-9.38751
▁donné	-9.3882
ade	-9.38912
▁univers	-9.38961
cer	-9.39002
▁approach	-9.39129
▁Ex	-9.39217
▁French	-9.39225
▁program	-9.39236
tenir	-9.39272
▁appel	-9.39365
▁cha	-9.39389
nes	-9.39502
▁font	-9.39646
▁dialogue	-9.39744
iens	-9.39838
dé	-9.39881
▁chambre	-9.39974
ché	-9.40089
▁train	-9.40289
by	-9.40329
▁lutte	-9.40341
▁him	-9.40437
▁activities	-9.40446
▁adapt	-9.40476
uff	-9.40483
▁actions	-9.40576
▁third	-9.40605
▁represent	-9.40613
▁things	-9.4067
▁code	-9.4082
▁called	-9.4085
▁mieux	-9.4088
▁propre	-9.40886
▁decision	-9.40943
ward	-9.40995
ran	-9.41077
ries	-9.41081
▁Comme	-9.41089
ook	-9.41111
▁feel	-9.41139
▁idée	-9.41311
bu	-9.41436
oir	-9.41462
▁done	-9.41515
▁passe	-9.41535
©	-9.41575
▁six	-9.41663
▁key	-9.41717
▁souvent	-9.41741
▁among	-9.41774
▁industry	-9.41826
port	-9.4184
ral	-9.41865
▁continu	-9.41892
▁various	-9.41906
fi	-9.41979
▁travers	-9.42062
▁turn	-9.42086
▁Centre	-9.42136
▁titre	-9.42183
▁hard	-9.42206
▁Bar	-9.42307
▁region	-9.42327
▁little	-9.42393
ON	-9.42452
ste	-9.42453
ose	-9.42483
▁stratégie	-9.4251
▁lorsque	-9.42612
▁matter	-9.4262
atif	-9.42655
bl	-9.42671
▁Mon	-9.42745
▁kind	-9.42813
▁members	-9.42863
rit	-9.4303
▁quelque	-9.43056
▁ressources	-9.43076
▁house	-9.43097
▁ski	-9.43213
▁live	-9.43305
▁resolution	-9.43401
RE	-9.43423
▁installation	-9.43431
▁class	-9.43475
▁field	-9.4355
▁puis	-9.4356
▁confirm	-9.43671
▁network	-9.43696
▁strong	-9.43703
ef	-9.43775
▁al	-9.43864
▁documents	-9.43887
for	-9.43931
▁Ver	-9.43946
▁double	-9.43948
▁assurer	-9.44034
fin	-9.44044
▁situé	-9.44072
isé	-9.44079
▁Saint	-9.44104
▁grâce	-9.44376
▁include	-9.44461
▁loi	-9.44531
▁avis	-9.44682
▁general	-9.44795
red	-9.44834
▁education	-9.44887
istes	-9.44938
▁seul	-9.45053
▁obtenir	-9.45096
ets	-9.45096
▁World	-9.45106
▁function	-9.4511
▁ve	-9.45135
▁écrit	-9.45152
▁book	-9.45207
uel	-9.45235
▁staff	-9.45319
▁film	-9.45329
▁différents	-9.45332
▁extra	-9.45429
▁partir	-9.45665
▁Mme	-9.45719
▁Ri	-9.45951
▁dispose	-9.4596
oli	-9.46057
▁texte	-9.46097
▁Ka	-9.46134
▁trouver	-9.46207
▁website	-9.46254
uit	-9.46284
▁TV	-9.46366
▁donner	-9.46408
▁language	-9.46409
▁mes	-9.46474
▁communautaire	-9.46512
rai	-9.46581
▁following	-9.46604
▁performance	-9.46673
ab	-9.46697
▁single	-9.46743
ring	-9.46755
▁idea	-9.46881
tim	-9.46903
▁companies	-9.46906
ain	-9.46952
▁basis	-9.4705
ker	-9.47129
▁keep	-9.47308
▁Pre	-9.47396
▁Cha	-9.47502
▁profit	-9.47547
▁ailleurs	-9.47615
▁objectifs	-9.47654
▁km	-9.47692
▁Cor	-9.4775
▁resources	-9.47769
▁central	-9.47856
▁général	-9.47867
ship	-9.47886
▁aucune	-9.48138
▁ri	-9.48288
▁juste	-9.48322
▁réponse	-9.4835
lant	-9.48363
▁bureau	-9.48379
igne	-9.48392
▁price	-9.48416
▁début	-9.48437
á	-9.48452
nel	-9.48474
▁pe	-9.48505
▁semaine	-9.48523
▁away	-9.48532
▁war	-9.48632
cip	-9.4868
nn	-9.48848
▁original	-9.4889
▁construction	-9.48999
▁positive	-9.4903
▁th	-9.49031
▁contenu	-9.49131
▁require	-9.49151
▁especially	-9.49204
▁private	-9.49214
▁provided	-9.49249
ai	-9.49268
▁lot	-9.49334
ong	-9.49372
▁2004	-9.49389
▁certaines	-9.49442
▁deal	-9.49487
▁guarantee	-9.49522
ifs	-9.49527
AN	-9.49581
▁médi	-9.49583
▁renseignements	-9.49598
▁Da	-9.49612
cre	-9.49644
▁value	-9.49739
▁croissance	-9.49861
▁maison	-9.49908
ath	-9.49978
▁constitue	-9.50066
av	-9.50104
▁nombreuses	-9.50122
▁40	-9.50153
▁several	-9.50175
▁vo	-9.50256
▁objet	-9.50258
▁mission	-9.50286
▁wide	-9.5034
▁complete	-9.50359
▁liberté	-9.50389
▁Notre	-9.50407
▁office	-9.50419
▁dés	-9.5047
▁gens	-9.50513
▁Su	-9.50533
▁créer	-9.50533
▁sp	-9.50654
istic	-9.50703
▁em	-9.50815
tel	-9.50829
vé	-9.50881
▁aid	-9.50881
▁avenir	-9.5089
wn	-9.51013
▁jamais	-9.51083
▁organisation	-9.51096
ina	-9.51155
eau	-9.51177
▁correct	-9.51182
▁donne	-9.51256
▁espace	-9.51306
▁least	-9.51309
▁pratique	-9.5131
▁étaient	-9.51378
▁machine	-9.51556
ple	-9.51559
▁eux	-9.5156
▁mail	-9.51639
▁heart	-9.51696
▁State	-9.51717
▁often	-9.51777
▁fer	-9.51788
▁cré	-9.518
vr	-9.51903
pre	-9.51905
▁chez	-9.52032
▁consider	-9.52225
tation	-9.52297
▁Euro	-9.5231
gg	-9.52344
▁21	-9.52432
▁zone	-9.5245
▁village	-9.52494
ule	-9.52502
▁team	-9.52552
▁justice	-9.52592
▁Tout	-9.52594
▁favour	-9.52632
▁création	-9.52711
mark	-9.52827
▁natural	-9.52849
▁serious	-9.5285
▁cor	-9.52855
pp	-9.52881
▁para	-9.52916
den	-9.52951
ble	-9.53129
▁light	-9.53129
IS	-9.53175
▁lib	-9.53325
▁Go	-9.53325
ques	-9.53397
▁travel	-9.53424
▁practice	-9.53502
naire	-9.53508
▁fort	-9.53522
▁ordre	-9.53528
▁membre	-9.53551
non	-9.53599
▁cost	-9.53645
▁range	-9.53672
▁porte	-9.53682
▁money	-9.53807
▁Bu	-9.53808
ét	-9.53851
▁vraiment	-9.53941
▁mort	-9.54037
erie	-9.54096
▁près	-9.54157
▁multi	-9.54221
▁intérieur	-9.54265
▁meilleure	-9.54301
▁ju	-9.54372
ü	-9.54435
▁add	-9.54552
▁music	-9.54567
struct	-9.54601
â	-9.54628
ix	-9.54658
▁adresse	-9.54735
▁jeunes	-9.54738
▁choix	-9.54792
▁return	-9.54811
▁intérêt	-9.54832
ko	-9.54846
▁effect	-9.54852
ati	-9.54943
▁Cl	-9.54943
▁interest	-9.54961
▁violence	-9.55005
tter	-9.55071
▁Nations	-9.55103
▁recommend	-9.55126
ther	-9.5515
▁thank	-9.55245
▁affect	-9.55245
▁link	-9.5526
particulièrement	-9.5532
iff	-9.55355
▁coup	-9.5538
▁utilisé	-9.55435
▁histoire	-9.5553
▁vente	-9.55538
▁crisis	-9.55651
ange	-9.55653
▁arm	-9.55679
▁juridique	-9.55684
▁addition	-9.55707
▁aider	-9.55733
▁concept	-9.55758
▁Ga	-9.5584
rc	-9.55908
▁reason	-9.55975
+	-9.56008
▁exc	-9.56009
ah	-9.56016
▁route	-9.56047
▁sorte	-9.5611
▁fonds	-9.56141
▁heure	-9.56146
her	-9.56207
▁faveur	-9.5622
▁ren	-9.56247
▁days	-9.56251
ches	-9.56258
ov	-9.56277
▁itself	-9.56289
ute	-9.5629
▁images	-9.56315
▁jeu	-9.56421
ana	-9.56433
▁chance	-9.56522
▁cuisine	-9.5653
ock	-9.56594
▁européens	-9.56608
▁dès	-9.56674
▁source	-9.56796
▁front	-9.56863
▁r	-9.56941
▁risque	-9.57051
▁télé	-9.57062
▁mondiale	-9.57129
nom	-9.57141
▁towards	-9.57208
▁ép	-9.57213
▁rules	-9.57219
ung	-9.5731
of	-9.5736
▁libre	-9.57418
isse	-9.57424
▁Dé	-9.57435
▁Act	-9.57448
chi	-9.57451
▁Ontario	-9.57463
pl	-9.57465
▁tel	-9.57475
▁égard	-9.57505
50	-9.57514
▁résultats	-9.57677
Г	-9.57729
▁growth	-9.5773
▁ça	-9.57739
▁projets	-9.57743
▁aspects	-9.57808
▁valeur	-9.57825
▁aura	-9.57832
▁Man	-9.5793
▁Est	-9.57959
▁moyen	-9.57969
▁Ter	-9.58087
ois	-9.58103
▁communauté	-9.58105
▁commerce	-9.58208
ales	-9.58252
▁side	-9.58294
▁client	-9.58299
▁traitement	-9.58352
▁opportunity	-9.58353
ages	-9.58403
▁once	-9.58406
ft	-9.58435
led	-9.58526
tar	-9.58532
unch	-9.58551
▁community	-9.58728
▁état	-9.58736
bar	-9.5897
cent	-9.59077
ines	-9.59085
▁plein	-9.59087
▁difficult	-9.59127
▁encourage	-9.59208
des	-9.59242
ving	-9.59262
the	-9.59384
▁participation	-9.59398
▁operation	-9.59415
▁might	-9.59418
▁surtout	-9.59419
▁res	-9.59457
▁until	-9.59493
ever	-9.59545
▁Mont	-9.59563
mer	-9.59625
▁reform	-9.5963
▁22	-9.59641
▁engagement	-9.59656
▁near	-9.59676
▁red	-9.59686
▁semble	-9.59716
▁Chi	-9.59727
fer	-9.5979
▁haut	-9.59874
▁prêt	-9.59934
▁having	-9.59997
▁Ré	-9.60008
▁améliorer	-9.60027
▁intervention	-9.60076
row	-9.60241
ev	-9.60258
over	-9.60333
▁forward	-9.60413
ium	-9.6043
nement	-9.60436
ssion	-9.60463
érer	-9.60478
can	-9.6068
▁administration	-9.60685
▁voie	-9.6072
▁pêche	-9.60751
je	-9.60796
▁capacité	-9.60844
▁crois	-9.60902
▁perfect	-9.61012
▁mi	-9.61067
▁appear	-9.6108
▁professional	-9.61186
ization	-9.61191
▁2003	-9.61224
▁rien	-9.61279
▁passé	-9.61315
▁environ	-9.61331
cur	-9.61342
pé	-9.61365
▁success	-9.61365
▁promotion	-9.61375
▁super	-9.61398
▁Qu	-9.61458
▁via	-9.61653
▁organisations	-9.61712
pro	-9.61721
▁young	-9.61894
▁difficile	-9.61939
▁Dr	-9.61965
▁never	-9.61992
AC	-9.62018
.0	-9.62055
ace	-9.6206
jou	-9.62077
uelle	-9.62096
▁protect	-9.62119
▁hours	-9.62127
shop	-9.62131
20	-9.62196
▁règles	-9.62229
▁video	-9.62254
▁revenu	-9.62261
▁rev	-9.62283
▁drive	-9.6231
▁online	-9.62338
▁Sp	-9.62407
▁stand	-9.62416
▁Pe	-9.62426
riv	-9.62526
abilité	-9.62546
▁photo	-9.62637
▁Convention	-9.62691
▁card	-9.62711
▁structure	-9.62859
▁environmental	-9.62878
▁required	-9.62971
▁Am	-9.62972
ough	-9.63068
▁record	-9.63134
lie	-9.6315
▁event	-9.63175
▁achieve	-9.63391
▁mini	-9.63398
▁ministre	-9.63422
lon	-9.63505
▁Grand	-9.63638
▁focus	-9.63647
char	-9.63674
▁modèle	-9.63687
30	-9.63811
cra	-9.63832
▁ver	-9.63869
▁check	-9.63882
ano	-9.63885
▁technologies	-9.63929
▁réseau	-9.63956
▁telle	-9.64019
▁school	-9.64165
▁possibilité	-9.64182
ail	-9.64226
▁différentes	-9.64249
▁Comp	-9.64267
nelle	-9.64305
▁combat	-9.64326
▁rend	-9.64377
▁sent	-9.64386
▁provides	-9.64409
▁sea	-9.64425
▁innovation	-9.64426
lay	-9.64444
▁policies	-9.64463
▁My	-9.64468
▁observ	-9.64481
▁cap	-9.64505
▁conseil	-9.64542
▁meet	-9.64617
▁pris	-9.64692
▁emp	-9.64862
voi	-9.64891
▁systems	-9.64896
▁quant	-9.64907
▁étant	-9.64915
▁One	-9.64927
ties	-9.64937
cle	-9.6495
▁file	-9.64966
ify	-9.64966
▁Service	-9.6497
▁quelle	-9.64998
ont	-9.65073
▁option	-9.65079
▁gentlemen	-9.6529
▁standard	-9.65318
▁prevent	-9.6534
▁mo	-9.65436
▁séjour	-9.65476
▁approche	-9.65481
▁langue	-9.65488
▁ob	-9.65582
log	-9.65649
▁yet	-9.65757
▁négociation	-9.65776
itaire	-9.65781
née	-9.65802
▁assistance	-9.65812
▁seule	-9.65856
▁model	-9.65863
▁choses	-9.65932
▁imm	-9.65979
▁framework	-9.6603
▁draw	-9.66074
ari	-9.66085
®	-9.66089
▁taking	-9.66105
▁bank	-9.66122
▁essential	-9.66141
▁côté	-9.66149
mor	-9.6619
▁Bi	-9.66242
cy	-9.66301
▁réforme	-9.66309
▁rather	-9.66338
▁investment	-9.66568
onne	-9.66596
▁commissaire	-9.66684
▁purpose	-9.66687
▁voyage	-9.6673
rac	-9.66824
▁00	-9.66841
▁Val	-9.66852
▁correspond	-9.66877
▁député	-9.67089
▁régions	-9.6716
▁cr	-9.67163
▁Uni	-9.6717
▁along	-9.67207
cycl	-9.6725
▁pl	-9.67274
▁internet	-9.673
lier	-9.67353
▁importe	-9.67408
▁analyse	-9.67508
LE	-9.67546
▁outre	-9.67653
▁training	-9.67662
▁normal	-9.6768
▁technology	-9.67735
▁tenu	-9.67753
▁proposé	-9.67784
iti	-9.67836
▁safety	-9.68036
lar	-9.68047
ised	-9.68061
▁UN	-9.68146
▁Assemblée	-9.68172
▁move	-9.68174
▁consult	-9.68202
▁quite	-9.68209
▁Sch	-9.68251
▁distribution	-9.68277
▁principe	-9.68344
SE	-9.68414
▁fully	-9.6843
▁élevé	-9.68447
win	-9.68459
▁Mrs	-9.68506
▁left	-9.68534
ures	-9.68564
▁cover	-9.68573
▁collègues	-9.68586
bit	-9.6866
▁suivant	-9.68687
oire	-9.68766
▁importante	-9.68853
▁tre	-9.68885
ê	-9.68889
pi	-9.68912
▁Commissaire	-9.68969
▁besoins	-9.68972
▁divers	-9.69029
▁develop	-9.6906
▁quel	-9.69096
▁char	-9.69097
▁speak	-9.6914
▁taux	-9.69141
▁association	-9.69264
ort	-9.6927
▁read	-9.69276
▁receive	-9.69285
▁Office	-9.69295
▁actuelle	-9.69349
▁Bas	-9.69379
tiques	-9.69382
▁heures	-9.69488
▁views	-9.69498
ME	-9.69531
▁society	-9.69556
▁night	-9.69583
▁session	-9.69594
ssent	-9.69595
table	-9.69646
fo	-9.69662
▁réunion	-9.69663
▁stock	-9.69712
▁Treaty	-9.69715
▁défini	-9.69761
▁economy	-9.69777
cop	-9.69798
▁amount	-9.6986
▁run	-9.69869
▁syn	-9.6989
▁hold	-9.69959
▁package	-9.69972
▁joue	-9.69975
▁El	-9.70018
▁Sur	-9.70027
▁fo	-9.70046
▁assist	-9.70136
▁behalf	-9.7015
ö	-9.70186
▁standards	-9.70193
▁Per	-9.70202
▁logiciel	-9.70259
nci	-9.70271
▁star	-9.70325
▁ref	-9.70379
▁infrastructure	-9.70521
low	-9.70667
▁danger	-9.70672
dition	-9.70766
har	-9.70791
0	-9.70795
▁police	-9.70939
▁space	-9.70959
ious	-9.71025
hor	-9.71166
▁connect	-9.71181
▁rendre	-9.71192
han	-9.71193
▁groupes	-9.71307
▁actually	-9.71339
une	-9.71389
▁above	-9.71644
▁guide	-9.71657
▁actuellement	-9.71673
▁cu	-9.71677
▁siècle	-9.71702
▁plupart	-9.71813
▁known	-9.71861
▁discussion	-9.71879
▁legislation	-9.71883
avi	-9.71899
▁bus	-9.71933
▁authorities	-9.71941
▁Madam	-9.71942
uve	-9.71971
▁animal	-9.71975
▁American	-9.72002
ndre	-9.72031
▁collect	-9.72116
▁60	-9.72188
▁perspective	-9.72379
▁suggest	-9.72398
iel	-9.72399
▁2001	-9.72489
▁garantir	-9.7265
▁easy	-9.72741
ges	-9.72807
▁23	-9.72913
AL	-9.72954
▁Government	-9.73039
▁How	-9.73054
▁générale	-9.73061
▁method	-9.7317
▁National	-9.73273
▁May	-9.73275
▁groups	-9.73319
▁character	-9.7335
▁terre	-9.73417
IT	-9.7343
▁instrument	-9.73448
▁related	-9.73564
▁ancien	-9.7365
▁Col	-9.73678
▁ayant	-9.73712
▁échange	-9.73733
▁China	-9.73736
▁agriculture	-9.73771
▁results	-9.73792
▁lequel	-9.73839
▁intention	-9.73862
▁quatre	-9.73935
▁understand	-9.73991
▁format	-9.7402
▁stop	-9.74049
▁Christ	-9.74081
▁town	-9.74161
▁2002	-9.74185
▁deuxième	-9.74192
AT	-9.74209
▁love	-9.74279
▁signal	-9.74279
▁wi	-9.74323
lor	-9.74423
▁autorités	-9.74429
▁systèmes	-9.7447
▁refus	-9.74519
▁sé	-9.74541
ya	-9.74561
▁sta	-9.74594
issement	-9.74629
▁adopted	-9.74663
▁responsibility	-9.74702
▁Ju	-9.74804
▁véritable	-9.74842
▁figure	-9.74844
▁Room	-9.74982
▁answer	-9.7504
bin	-9.75052
▁souhait	-9.75064
▁projects	-9.75069
▁past	-9.75076
▁plant	-9.75094
mat	-9.75111
▁context	-9.75165
▁déclaration	-9.75193
ory	-9.75301
▁essentiel	-9.75348
▁freedom	-9.75349
▁influence	-9.75446
▁visite	-9.75482
▁head	-9.75572
▁pied	-9.75604
ult	-9.75646
▁border	-9.75706
▁computer	-9.75745
▁responsible	-9.75776
place	-9.75801
▁software	-9.75811
▁invite	-9.75827
▁passer	-9.75934
▁Dis	-9.75966
▁costs	-9.76056
▁conséquence	-9.7608
▁lead	-9.76153
▁contract	-9.76279
abil	-9.76284
▁improve	-9.76349
▁significant	-9.76427
▁months	-9.76483
▁simplement	-9.76578
▁fall	-9.76578
af	-9.76594
lan	-9.76615
iez	-9.76636
ition	-9.76658
▁disposition	-9.76742
ttle	-9.7683
▁recent	-9.76842
▁tels	-9.76859
▁promote	-9.76968
▁maintain	-9.77069
▁thing	-9.77112
écu	-9.77142
▁défi	-9.77164
▁enter	-9.7719
▁frais	-9.77198
▁beautiful	-9.772
nne	-9.77208
▁rapidement	-9.77255
▁www	-9.77262
ologie	-9.7728
▁Ils	-9.77329
▁crime	-9.77357
ric	-9.77384
▁législation	-9.77407
▁Pi	-9.77467
▁relax	-9.77516
▁Art	-9.77611
▁mandat	-9.77657
rop	-9.7772
▁rate	-9.77721
▁concurrence	-9.77825
▁balance	-9.77886
quant	-9.77916
▁Com	-9.77961
OR	-9.77973
▁facilities	-9.77998
▁bu	-9.78012
cé	-9.7805
▁vrai	-9.7806
▁arrêt	-9.7807
ash	-9.78165
▁greater	-9.78174
▁haute	-9.78232
▁régime	-9.7826
▁réserve	-9.78308
▁présenté	-9.78317
▁instruments	-9.78454
▁Windows	-9.7849
▁technique	-9.78535
isée	-9.7859
▁competition	-9.78656
▁technical	-9.78692
▁ét	-9.78741
▁apply	-9.78846
▁visant	-9.78924
▁top	-9.78965
ifié	-9.7904
teur	-9.79054
▁pens	-9.79059
▁espère	-9.79067
▁finance	-9.79111
▁Ni	-9.79189
wi	-9.79285
▁send	-9.79428
▁held	-9.79578
▁amendments	-9.79611
▁commande	-9.79665
▁détail	-9.79697
▁répondre	-9.79729
qua	-9.79745
ature	-9.79753
▁peace	-9.79769
ists	-9.79911
▁commitment	-9.79922
tive	-9.79944
▁argent	-9.8006
▁permettre	-9.8008
ST	-9.80084
ème	-9.80097
▁impose	-9.80101
AS	-9.80115
▁plutôt	-9.80154
▁relation	-9.80188
form	-9.80191
▁techniques	-9.80213
▁ladies	-9.8025
▁concerned	-9.80275
▁words	-9.8028
▁exp	-9.80328
aine	-9.80339
▁connaissance	-9.80361
▁procédure	-9.80541
▁mod	-9.80567
▁changement	-9.80578
▁consommateurs	-9.80626
OS	-9.80665
EL	-9.80707
▁tradition	-9.80801
▁enable	-9.80821
▁cultural	-9.80831
▁road	-9.80849
▁five	-9.8089
▁méthode	-9.809
▁follow	-9.80936
ense	-9.80963
Q	-9.81001
▁chacun	-9.8101
▁Minister	-9.81038
▁établi	-9.8107
▁express	-9.81116
▁cinq	-9.81199
▁favor	-9.8122
=	-9.81228
▁davantage	-9.81293
▁fight	-9.81326
▁disponible	-9.81341
ole	-9.81361
ète	-9.81383
▁rural	-9.81385
pic	-9.81391
▁employment	-9.81447
▁increasing	-9.81533
▁devant	-9.81544
▁engage	-9.81545
▁appropriate	-9.81549
▁évaluation	-9.81566
▁strategy	-9.8159
▁origine	-9.81598
▁convention	-9.81598
▁big	-9.816
▁involved	-9.81661
▁across	-9.81668
▁cent	-9.81721
▁After	-9.81754
ny	-9.81763
▁économiques	-9.8182
▁initiatives	-9.8184
udi	-9.81949
.1	-9.81955
▁breakfast	-9.82018
▁nécessaires	-9.82024
net	-9.82044
▁note	-9.82049
▁living	-9.82056
▁paix	-9.8208
▁marque	-9.82117
▁êtes	-9.82121
▁simply	-9.82137
▁proposed	-9.82169
▁vidéo	-9.82253
▁official	-9.82258
▁member	-9.82258
grad	-9.82285
▁parmi	-9.82313
▁Tra	-9.82379
▁conserv	-9.82409
▁collaboration	-9.82442
▁gar	-9.82461
▁currently	-9.82481
▁moderne	-9.82504
▁idéal	-9.82527
▁sort	-9.82542
▁demander	-9.82551
▁user	-9.82622
▁éléments	-9.82651
▁autant	-9.82703
▁tell	-9.82731
vel	-9.82732
bor	-9.828
ève	-9.82888
▁please	-9.8294
▁fundamental	-9.82972
fect	-9.82977
▁First	-9.82989
ound	-9.83028
▁peuple	-9.83099
▁sol	-9.83146
▁nu	-9.83219
▁moyens	-9.83382
▁choice	-9.83421
▁forces	-9.8349
▁clairement	-9.83504
issant	-9.83531
▁customers	-9.83547
▁guerre	-9.83606
SA	-9.83618
▁financement	-9.83623
▁présidence	-9.83631
▁mu	-9.83687
ban	-9.83744
ore	-9.83796
▁proposals	-9.83857
▁retour	-9.83866
▁fruit	-9.83884
▁App	-9.83943
▁upon	-9.83947
▁vu	-9.83994
▁Cet	-9.83994
antes	-9.84028
ctor	-9.84051
tres	-9.84063
▁chef	-9.8407
▁réalisé	-9.84096
▁rapide	-9.84136
▁clean	-9.842
▁exclusive	-9.8422
▁land	-9.8423
▁manifest	-9.84248
▁Nord	-9.84281
▁spécial	-9.84302
▁talk	-9.8436
▁stage	-9.84385
ack	-9.84465
▁Ab	-9.84478
#	-9.84552
▁history	-9.84612
cor	-9.84614
▁applications	-9.8463
▁Avec	-9.84634
ani	-9.84703
▁ge	-9.84717
▁priorité	-9.84717
▁historique	-9.84717
▁enough	-9.84755
vie	-9.84776
▁types	-9.84783
▁opt	-9.84797
cour	-9.84811
▁regional	-9.84831
▁developing	-9.84841
gra	-9.84852
▁représentant	-9.84911
▁Air	-9.84999
▁lié	-9.85023
▁internal	-9.85027
▁durable	-9.85058
vit	-9.85062
▁euros	-9.8517
▁size	-9.85195
mobil	-9.85209
€	-9.85218
▁grave	-9.85263
▁others	-9.85308
bli	-9.85375
▁ago	-9.85377
▁représente	-9.85382
▁termes	-9.85415
▁tr	-9.85431
▁pou	-9.85473
▁EUR	-9.85506
▁principle	-9.85516
▁menu	-9.85519
▁hommes	-9.85527
▁distance	-9.85538
▁Africa	-9.85601
ase	-9.85613
pon	-9.85648
▁mention	-9.8566
poli	-9.85681
rent	-9.85725
▁Son	-9.85753
vient	-9.85764
▁sound	-9.85881
▁Pri	-9.85941
rus	-9.85999
▁Now	-9.86011
▁accueil	-9.8608
▁livre	-9.86103
▁financière	-9.86185
▁happen	-9.86197
▁needed	-9.8621
euses	-9.86259
▁1999	-9.8628
▁Mu	-9.86282
▁Gi	-9.86316
▁modification	-9.86337
bra	-9.86388
▁knowledge	-9.86425
▁pages	-9.86505
▁dimension	-9.86583
▁themselves	-9.86613
▁longue	-9.86687
▁disc	-9.86707
▁Bien	-9.86711
▁created	-9.86795
▁media	-9.86829
▁exige	-9.86833
▁Port	-9.86958
▁doute	-9.86975
▁crédit	-9.87121
▁bio	-9.87225
80	-9.87299
▁destiné	-9.87321
▁bain	-9.87357
lt	-9.87364
▁série	-9.87385
▁normes	-9.8741
▁ideal	-9.87413
illé	-9.87583
▁South	-9.87613
▁benefit	-9.87624
▁Après	-9.87642
▁téléphone	-9.87805
▁designed	-9.87808
▁déjeuner	-9.87876
▁impression	-9.87881
▁Some	-9.87995
ep	-9.88042
▁coût	-9.8806
▁collection	-9.88073
▁connection	-9.88074
activ	-9.88079
о	-9.8808
▁longer	-9.88193
▁century	-9.88206
▁either	-9.88232
▁nécessité	-9.88237
ans	-9.88247
▁adopt	-9.88318
▁esprit	-9.88324
▁sex	-9.88335
uc	-9.88388
gie	-9.88407
zo	-9.88495
▁Inter	-9.88537
▁looking	-9.88546
▁musique	-9.88566
▁souhaite	-9.88608
▁mind	-9.88654
▁meilleur	-9.8868
▁conduct	-9.88746
▁implementation	-9.88771
▁sais	-9.88784
▁intégr	-9.88828
▁foreign	-9.88902
▁treatment	-9.8894
▁bit	-9.89065
▁artist	-9.89073
▁col	-9.89096
▁effort	-9.89098
ably	-9.89169
▁makes	-9.89231
▁directement	-9.89266
▁Québec	-9.89273
▁clearly	-9.89335
▁Chine	-9.89355
▁mean	-9.89431
ane	-9.89439
▁limite	-9.89453
▁From	-9.8947
▁radio	-9.89471
▁démocratie	-9.89511
▁review	-9.89549
hu	-9.89559
▁She	-9.89628
▁install	-9.89662
mu	-9.8967
▁fail	-9.89723
êt	-9.89803
gré	-9.89844
▁gas	-9.89896
▁manque	-9.89921
graph	-9.89947
▁Cour	-9.89954
▁Ac	-9.89973
▁27	-9.89978
▁item	-9.90014
▁credit	-9.9002
▁exist	-9.90057
▁domaines	-9.90062
▁maximum	-9.9007
dict	-9.90173
aï	-9.90213
▁ferme	-9.90231
van	-9.90277
▁connu	-9.90312
▁permis	-9.90318
▁touch	-9.90408
,0	-9.9042
▁disponibles	-9.90438
▁adoption	-9.90476
▁activité	-9.90494
RA	-9.90511
▁prochaine	-9.90619
▁sure	-9.90684
▁bro	-9.907
▁cut	-9.90729
▁low	-9.90742
▁Members	-9.90747
▁Sud	-9.90751
▁joint	-9.90767
▁Hôtel	-9.90829
▁potential	-9.90847
▁départ	-9.9091
▁conséquent	-9.90941
ui	-9.91057
▁below	-9.91084
dica	-9.91105
NE	-9.91138
▁nor	-9.91153
▁vend	-9.91176
▁directly	-9.91212
fu	-9.91223
▁spa	-9.91279
▁committee	-9.91285
ira	-9.913
▁according	-9.91346
SS	-9.9135
▁devraient	-9.91376
nov	-9.9141
▁regulation	-9.91455
bri	-9.91465
▁agricole	-9.91465
▁learn	-9.91472
▁arrive	-9.9153
▁coll	-9.91542
▁éducation	-9.91551
ich	-9.91622
ib	-9.91673
▁el	-9.91758
rup	-9.91763
▁By	-9.9177
▁join	-9.91855
termin	-9.9194
▁dép	-9.91943
▁requirements	-9.92025
▁conférence	-9.92042
▁Court	-9.92052
▁developed	-9.9208
▁cat	-9.92119
▁che	-9.92172
▁author	-9.92218
▁démocratique	-9.92282
lev	-9.92291
q	-9.92312
▁forest	-9.92335
▁firm	-9.92347
▁lorsqu	-9.92422
▁workers	-9.92432
ff	-9.92518
▁true	-9.92528
▁America	-9.9264
▁times	-9.92647
▁fill	-9.9267
▁serve	-9.9273
10	-9.92772
▁science	-9.92796
▁permanent	-9.92805
ified	-9.92898
▁carrie	-9.92932
ping	-9.92941
▁marchés	-9.92946
▁vision	-9.92954
▁forte	-9.93028
▁parking	-9.93038
▁centrale	-9.93067
▁celles	-9.93084
▁everything	-9.93107
▁Char	-9.93124
IN	-9.93209
▁doing	-9.93213
▁previous	-9.93362
▁establish	-9.93412
▁ensuite	-9.93422
▁consultation	-9.93444
▁accessible	-9.93477
▁loin	-9.93505
▁ordinateur	-9.93519
▁grands	-9.93573
▁camp	-9.93607
▁aller	-9.93641
gar	-9.93728
▁treat	-9.93734
▁events	-9.93783
rom	-9.9388
▁gen	-9.93889
▁signifie	-9.93909
▁institution	-9.93912
▁changes	-9.93992
dit	-9.94056
.2	-9.9406
▁climate	-9.94063
▁Q	-9.94168
▁pain	-9.94217
▁réalité	-9.94237
ED	-9.94242
▁age	-9.94273
▁beach	-9.94325
▁complet	-9.94326
▁aff	-9.94339
▁though	-9.9437
▁outside	-9.94374
▁expression	-9.94393
▁réduire	-9.9444
LA	-9.9447
▁element	-9.94478
mont	-9.9448
▁cases	-9.94482
ît	-9.94497
put	-9.945
▁seek	-9.94509
▁exercice	-9.94607
gh	-9.94722
▁statement	-9.94739
nic	-9.94778
▁preuve	-9.94781
▁included	-9.94835
▁alimentaire	-9.94886
▁travailleurs	-9.94922
▁sale	-9.95001
▁endroit	-9.95179
▁soon	-9.95195
pens	-9.95244
ica	-9.95324
gress	-9.95331
▁maladie	-9.95333
▁habit	-9.95346
gation	-9.95377
▁God	-9.95471
▁technologie	-9.95525
▁province	-9.95553
▁comfortable	-9.95563
▁offrir	-9.95611
▁restaurants	-9.95625
▁Gra	-9.95667
▁climat	-9.95736
▁tiers	-9.95784
▁classe	-9.9582
▁ground	-9.95834
▁naturelle	-9.95918
▁prend	-9.95962
OU	-9.95977
▁sources	-9.96048
Ã	-9.96065
▁ever	-9.96079
▁éviter	-9.96112
▁entrée	-9.96113
▁minimum	-9.96131
▁banque	-9.9615
▁cur	-9.96178
▁Comment	-9.96207
▁Messieurs	-9.9623
▁additional	-9.96238
▁uniquement	-9.96265
▁répond	-9.96313
▁hé	-9.96341
▁Pu	-9.96343
▁Pol	-9.96404
▁Ko	-9.96452
▁throughout	-9.96476
▁exigences	-9.9658
▁sud	-9.96586
▁Afrique	-9.96608
▁General	-9.96632
▁spirit	-9.96674
▁comprend	-9.96687
▁Ru	-9.96742
▁Que	-9.96761
▁tea	-9.96788
▁safe	-9.96818
▁prise	-9.96905
▁désir	-9.96926
▁couleur	-9.96988
▁80	-9.97012
▁Lu	-9.97071
▁traditional	-9.97188
▁seen	-9.97301
▁discrimination	-9.97306
rée	-9.97314
▁fournir	-9.97332
▁reçu	-9.9734
ives	-9.9737
▁options	-9.97462
▁payment	-9.97565
▁mai	-9.97575
▁export	-9.97593
▁appelle	-9.97602
ates	-9.97617
▁succès	-9.97626
CH	-9.97722
▁mondial	-9.97733
▁prison	-9.97737
▁bed	-9.97755
▁parler	-9.9777
▁exploitation	-9.97795
ok	-9.97821
▁tard	-9.97826
▁fut	-9.97865
▁setting	-9.97895
▁target	-9.97898
tage	-9.97976
▁aurait	-9.97988
▁complex	-9.98007
IC	-9.98053
▁faible	-9.98081
▁guests	-9.98089
▁rent	-9.98113
dom	-9.98124
▁école	-9.98135
▁choisi	-9.98182
▁transfer	-9.98208
▁interests	-9.98287
iz	-9.98324
▁progrès	-9.98355
▁grandes	-9.9852
▁Hu	-9.9856
don	-9.98572
▁player	-9.98577
▁amélioration	-9.98596
ET	-9.98599
ume	-9.98678
▁discover	-9.98678
▁bois	-9.98686
▁fonctionne	-9.98763
▁dollars	-9.9879
▁regions	-9.98844
▁host	-9.9889
▁principal	-9.98903
▁rue	-9.98934
▁alternative	-9.98934
▁valid	-9.99016
ä	-9.9907
time	-9.99169
▁strengthen	-9.99234
▁réduction	-9.99242
TE	-9.99252
ependant	-9.99286
▁Mesda	-9.9933
▁responsable	-9.99414
▁Reg	-9.99463
▁étoiles	-9.99483
▁Dieu	-9.99496
▁électronique	-9.99537
▁exclu	-9.99546
▁comes	-9.99582
vid	-9.99591
▁concentr	-9.99622
▁walk	-9.99633
▁référence	-9.99644
▁micro	-9.99675
▁accompli	-9.99678
hr	-9.9969
xi	-9.99769
ites	-9.99776
▁democratic	-9.99786
▁democracy	-9.99849
▁capable	-9.99892
▁initial	-9.99911
▁funds	-9.99995
▁received	-10.0002
▁31	-10.0007
.5	-10.0009
rig	-10.001
▁relative	-10.001
▁assurance	-10.0015
▁remercier	-10.0023
▁dossier	-10.0028
ost	-10.0031
▁CO	-10.0032
▁child	-10.0036
▁petite	-10.0036
▁response	-10.0038
▁batt	-10.004
CE	-10.0044
▁cœur	-10.0052
▁suivi	-10.0055
vin	-10.0056
▁body	-10.0058
▁Please	-10.006
▁objective	-10.0062
MA	-10.0062
▁intérêts	-10.0068
▁strict	-10.0069
▁log	-10.0072
▁voiture	-10.0079
▁rencontre	-10.008
RI	-10.008
▁pool	-10.008
▁candidat	-10.0086
▁publication	-10.0087
▁Mal	-10.0087
▁chemin	-10.0092
J	-10.0094
▁Sta	-10.0095
viennent	-10.0096
▁study	-10.0097
berg	-10.0099
▁reflect	-10.0105
▁mass	-10.0107
▁implement	-10.0108
▁fair	-10.0112
▁hu	-10.0116
▁click	-10.012
▁permettant	-10.0121
▁gratuit	-10.0125
▁confortable	-10.0126
▁Sal	-10.0129
▁principale	-10.0133
▁Ven	-10.0134
▁EN	-10.0136
len	-10.0136
▁Tour	-10.0139
flu	-10.014
ik	-10.014
IP	-10.0142
▁Ge	-10.0142
▁basic	-10.0148
▁let	-10.0152
▁trait	-10.016
▁200	-10.0164
▁sc	-10.0179
▁essay	-10.0179
▁leave	-10.0182
ink	-10.0183
▁election	-10.0187
▁atteint	-10.019
▁produce	-10.019
▁montre	-10.0194
▁créé	-10.0195
▁conflit	-10.02
lation	-10.0206
▁Let	-10.0214
PS	-10.0217
▁Bureau	-10.0219
▁War	-10.0222
▁personnelle	-10.0222
tech	-10.0222
rap	-10.0224
▁apartment	-10.0233
are	-10.0238
▁opération	-10.0239
▁search	-10.024
▁Présidente	-10.024
▁ait	-10.0242
▁floor	-10.0244
ino	-10.0245
vert	-10.0248
▁équipé	-10.0248
çon	-10.025
▁North	-10.0251
▁genre	-10.0251
▁privé	-10.0251
▁scientifique	-10.0261
▁conference	-10.0262
cla	-10.0266
cro	-10.0266
60	-10.0268
▁insist	-10.0271
▁job	-10.0271
▁toutefois	-10.0273
▁obtain	-10.0273
app	-10.0273
ps	-10.0276
▁propres	-10.0279
light	-10.0284
bour	-10.0291
DA	-10.0292
▁users	-10.0296
cade	-10.0297
▁conflict	-10.0299
▁CD	-10.0304
▁June	-10.0308
▁try	-10.0316
▁Toutefois	-10.0316
▁majorité	-10.0325
▁immigration	-10.0328
▁reduce	-10.0337
▁estime	-10.0337
▁constant	-10.0339
▁budgétaire	-10.0345
▁affirm	-10.0349
▁caractère	-10.0351
▁photos	-10.0351
▁assez	-10.0352
ocrat	-10.0353
ada	-10.0353
▁extremely	-10.0355
▁telles	-10.0356
▁Thank	-10.0359
▁took	-10.036
▁Tous	-10.0364
▁assure	-10.0368
▁souteni	-10.0368
▁goal	-10.038
▁clair	-10.0382
▁renforcer	-10.0382
éli	-10.0385
col	-10.0396
▁décisions	-10.0396
ney	-10.0398
az	-10.0404
▁résultat	-10.0407
▁engine	-10.0411
ôt	-10.0412
tour	-10.0424
▁28	-10.0426
▁experts	-10.0428
▁coordination	-10.0429
gle	-10.0429
▁almost	-10.043
▁poste	-10.043
part	-10.0431
▁negotiations	-10.0438
▁aspect	-10.0443
▁depend	-10.0445
spec	-10.0446
▁voulons	-10.0448
▁terrain	-10.0455
▁death	-10.046
▁English	-10.046
ô	-10.0462
sen	-10.0463
▁précis	-10.0464
bb	-10.0468
▁appréci	-10.0471
▁plans	-10.0472
ham	-10.0479
ili	-10.0481
ken	-10.0481
ène	-10.0483
▁Depuis	-10.0488
▁nuit	-10.0489
▁contexte	-10.05
▁Presidency	-10.0508
▁quartier	-10.0511
▁continent	-10.0515
▁lack	-10.0518
▁Fo	-10.0522
▁plage	-10.0526
reg	-10.0529
▁task	-10.0535
▁appartement	-10.0536
▁regret	-10.054
▁features	-10.0541
▁permettra	-10.0543
▁March	-10.0544
▁II	-10.0545
▁usage	-10.0547
▁veut	-10.0555
fort	-10.0557
▁successful	-10.0561
bat	-10.0567
▁contraire	-10.057
▁friendly	-10.0582
▁voté	-10.0586
▁half	-10.0587
ria	-10.059
▁garantie	-10.0592
▁refer	-10.0593
asse	-10.0594
cord	-10.0603
▁paiement	-10.0615
▁Russie	-10.0619
▁Iran	-10.0622
▁includes	-10.0622
▁surface	-10.0626
▁early	-10.0627
gla	-10.0628
▁partenaires	-10.0631
▁véhicule	-10.0634
ley	-10.0642
▁poor	-10.0648
▁deliver	-10.0651
▁Russia	-10.0653
▁Fund	-10.0654
▁majority	-10.0657
▁writing	-10.0659
▁avaient	-10.0667
▁auprès	-10.067
а	-10.0673
▁parole	-10.0675
▁Park	-10.0678
▁trava	-10.0681
▁Har	-10.0683
▁former	-10.0685
▁Ser	-10.0691
▁recon	-10.0692
cin	-10.0693
▁Mac	-10.0696
▁nothing	-10.0699
▁26	-10.0699
▁pen	-10.0701
▁Inc	-10.0703
isant	-10.0704
▁property	-10.0705
▁vin	-10.0706
▁invest	-10.0706
▁phase	-10.071
▁travailler	-10.0712
▁save	-10.0712
▁réception	-10.0715
org	-10.0721
▁providing	-10.0722
▁month	-10.0724
▁actuel	-10.0733
prim	-10.0734
▁conclusion	-10.0739
▁advance	-10.0749
▁factor	-10.0752
▁dispositions	-10.0754
▁Israel	-10.0754
▁club	-10.0762
▁tarif	-10.0763
▁photograph	-10.0766
▁Nor	-10.0766
▁efficacité	-10.077
▁na	-10.0772
▁billion	-10.0775
▁temp	-10.0775
▁Certain	-10.0777
▁Vo	-10.0781
▁established	-10.0782
▁proche	-10.0782
▁supérieur	-10.0783
▁Star	-10.0786
ged	-10.079
ising	-10.079
▁dépend	-10.08
duc	-10.08
▁press	-10.08
▁exchange	-10.0801
omb	-10.0807
wer	-10.0815
▁confiance	-10.0816
▁belle	-10.0817
▁built	-10.0818
▁clé	-10.0818
▁humaine	-10.082
▁vois	-10.0821
▁entendu	-10.0823
▁territoire	-10.0825
▁cross	-10.0829
▁procedure	-10.0831
▁vert	-10.0834
▁existing	-10.0834
▁Article	-10.0834
▁picture	-10.0855
▁discussions	-10.0864
▁Association	-10.0867
▁equipped	-10.0868
▁equal	-10.0869
▁avoid	-10.0879
▁party	-10.0885
▁email	-10.0892
▁sense	-10.0894
▁cependant	-10.0896
▁quoi	-10.0903
▁Lorsqu	-10.0907
étique	-10.0915
tif	-10.0915
▁claim	-10.0918
▁militaire	-10.092
▁pratiques	-10.0925
gin	-10.093
▁representative	-10.0934
▁adult	-10.0938
▁creation	-10.094
▁numéro	-10.0941
▁Constitution	-10.0943
▁proximité	-10.0944
▁étend	-10.0944
▁90	-10.0945
▁grant	-10.0953
▁valeurs	-10.0958
ij	-10.0959
▁gain	-10.0969
▁Voici	-10.0972
▁violation	-10.0972
▁atteindre	-10.0973
▁parents	-10.0982
▁draft	-10.0985
▁extend	-10.0986
▁utilisateurs	-10.0988
cup	-10.0988
▁movement	-10.0993
▁introduce	-10.0994
cit	-10.0994
▁500	-10.0997
glo	-10.1
▁military	-10.1001
▁crucial	-10.1006
▁articles	-10.1008
▁objectives	-10.1014
▁transform	-10.102
▁participants	-10.103
▁accident	-10.1037
▁contribute	-10.1045
stat	-10.1047
▁mêmes	-10.1051
▁étrangère	-10.1055
▁zones	-10.106
cha	-10.1063
▁calcul	-10.1064
▁thus	-10.1069
ific	-10.1071
▁préfér	-10.1076
▁concerns	-10.1078
AM	-10.1083
gt	-10.1083
▁origin	-10.1083
í	-10.1084
▁partage	-10.1084
▁durant	-10.1086
éni	-10.1088
▁facile	-10.1092
éro	-10.11
viv	-10.1106
▁EC	-10.1107
▁concert	-10.1119
▁por	-10.112
▁update	-10.112
▁pan	-10.1124
▁self	-10.1125
▁propriété	-10.1127
▁pension	-10.1135
▁bord	-10.114
▁annonce	-10.114
▁compagnie	-10.1141
▁comfort	-10.1145
▁confort	-10.1153
▁prices	-10.1157
▁industrial	-10.1158
▁français	-10.1159
▁store	-10.1162
75	-10.1169
▁Bank	-10.1171
▁juin	-10.1177
▁privée	-10.118
▁equipment	-10.1183
е	-10.1186
uf	-10.1189
▁decisions	-10.119
aging	-10.119
▁December	-10.1194
▁wine	-10.1195
▁screen	-10.1196
Z	-10.1197
▁essentielle	-10.1198
MP	-10.1209
▁ship	-10.1209
▁comprendre	-10.1213
▁concerning	-10.1213
TA	-10.1215
rage	-10.1215
▁coûts	-10.1219
▁rempli	-10.122
▁statut	-10.1227
▁adhésion	-10.1227
▁stress	-10.1229
▁présenter	-10.1229
▁download	-10.1232
▁Bri	-10.1234
▁center	-10.1234
PA	-10.1239
▁protéger	-10.124
▁Ste	-10.1243
▁Enfin	-10.1248
▁complète	-10.1261
▁sold	-10.1262
▁Services	-10.1263
▁symbol	-10.1265
ero	-10.1265
▁x	-10.127
▁carry	-10.127
▁later	-10.1281
gre	-10.1287
▁East	-10.1288
▁aware	-10.129
▁states	-10.1292
▁vehicle	-10.1296
▁Che	-10.1297
▁trouverez	-10.1299
▁markets	-10.1302
grat	-10.1304
▁fan	-10.1305
▁thought	-10.1306
▁famous	-10.1308
édi	-10.1311
▁demandé	-10.1312
pin	-10.1315
▁fast	-10.1333
▁nationale	-10.1336
▁compl	-10.1342
▁unit	-10.1348
▁aéroport	-10.1348
▁York	-10.135
▁Fu	-10.1354
▁génér	-10.1355
▁peux	-10.1358
▁évolution	-10.1361
▁défense	-10.1362
▁Plus	-10.1364
É	-10.1364
nage	-10.1369
▁build	-10.1374
ulation	-10.1375
oo	-10.1375
▁Bro	-10.1379
ency	-10.1384
▁came	-10.1384
▁précédent	-10.1384
▁transaction	-10.1385
▁solid	-10.1386
EN	-10.1391
▁soir	-10.1392
▁regarding	-10.1393
▁puisse	-10.1395
▁nationaux	-10.1395
▁word	-10.1396
▁object	-10.1396
▁certainly	-10.1397
▁purchase	-10.1398
▁satellite	-10.1399
▁effectué	-10.1402
util	-10.1404
UR	-10.1405
▁Tre	-10.1409
▁prior	-10.1414
▁oil	-10.1417
▁attack	-10.1424
▁travaille	-10.1437
▁criminal	-10.1442
▁auteur	-10.1443
cut	-10.1443
more	-10.1444
cc	-10.1445
▁colleague	-10.1448
▁vient	-10.1449
▁mobile	-10.1451
▁mark	-10.1453
▁puisqu	-10.1456
▁Business	-10.146
til	-10.1462
pir	-10.1464
▁choose	-10.1464
▁montant	-10.147
gli	-10.147
▁ouvert	-10.1479
▁tend	-10.1479
matic	-10.1482
▁PC	-10.1486
▁Central	-10.1491
▁Villa	-10.1492
▁mou	-10.1499
▁arrange	-10.15
▁étape	-10.1501
70	-10.1502
ek	-10.1511
▁appareil	-10.1513
▁Free	-10.1519
▁advantage	-10.152
▁administrative	-10.152
▁américain	-10.1524
▁material	-10.1526
▁begin	-10.1527
▁got	-10.153
▁fichiers	-10.1531
▁occur	-10.1536
▁nice	-10.154
▁étude	-10.1544
▁repos	-10.1544
ology	-10.1545
▁champ	-10.1548
▁utilise	-10.1549
PE	-10.155
▁considered	-10.1553
▁étranger	-10.1554
▁jouer	-10.1554
▁Jean	-10.1557
▁indique	-10.156
▁ouverture	-10.156
itude	-10.1562
▁sociétés	-10.1564
▁fire	-10.1567
▁agricultural	-10.1567
▁partners	-10.1569
▁70	-10.1573
▁victim	-10.1573
▁erreur	-10.1574
▁combine	-10.1578
▁hear	-10.1578
▁Social	-10.1579
▁augmentation	-10.1586
▁jardin	-10.1587
▁ouverte	-10.1589
▁29	-10.1591
▁situated	-10.1592
tré	-10.1596
▁Sol	-10.1601
mic	-10.1603
▁color	-10.1603
▁perform	-10.1607
▁His	-10.1607
▁print	-10.1611
▁cro	-10.1612
▁principes	-10.1613
▁Information	-10.1613
▁cour	-10.1615
▁soins	-10.1619
▁damage	-10.162
II	-10.162
▁Ou	-10.1621
▁due	-10.1622
▁buy	-10.1632
▁Sha	-10.1633
▁Second	-10.1634
ware	-10.1636
▁exploit	-10.1637
▁délai	-10.1638
▁critique	-10.1641
▁whose	-10.1648
▁arriv	-10.1651
▁efficient	-10.1659
▁warm	-10.166
▁Ben	-10.1662
▁Plan	-10.1663
uré	-10.1664
▁volonté	-10.167
▁vital	-10.1677
▁décembre	-10.168
▁difference	-10.1698
▁intégration	-10.1698
▁entire	-10.1699
▁identifie	-10.1699
▁apporter	-10.17
▁études	-10.17
▁City	-10.1702
▁recently	-10.1705
▁télévision	-10.1706
▁levels	-10.1706
bul	-10.1706
▁journée	-10.1709
ibilité	-10.1719
▁display	-10.1727
▁asked	-10.1731
▁works	-10.1736
▁obligations	-10.1738
▁indépendant	-10.1738
▁Affairs	-10.1738
40	-10.1744
▁opposition	-10.1744
▁Development	-10.1749
▁architecture	-10.1751
▁everyone	-10.1754
▁Cre	-10.1756
▁tiens	-10.1759
EM	-10.1759
▁utile	-10.1761
▁Non	-10.1765
▁Since	-10.1767
▁....	-10.1768
▁matériel	-10.1775
▁discuss	-10.1775
ank	-10.1776
▁nord	-10.1779
▁relatives	-10.178
▁board	-10.1782
▁although	-10.1787
▁risques	-10.1788
▁destination	-10.1789
▁broad	-10.1796
mag	-10.1798
▁Bra	-10.1799
▁difficulté	-10.1808
▁approprié	-10.1809
▁opportunities	-10.181
▁Trans	-10.1815
SP	-10.1819
▁petites	-10.1822
▁Bal	-10.1822
ome	-10.1828
▁pat	-10.183
▁capacity	-10.1833
gro	-10.1834
èrent	-10.1837
bon	-10.1837
▁Institut	-10.1838
▁peine	-10.184
▁profiter	-10.1843
▁recommand	-10.1847
tori	-10.1849
▁speed	-10.1854
▁activity	-10.1856
▁cell	-10.1858
▁increased	-10.1861
▁values	-10.1861
и	-10.1861
▁exception	-10.1863
▁Cal	-10.1871
▁mentioned	-10.1876
▁développer	-10.1879
▁completely	-10.1879
▁introduction	-10.188
▁urgent	-10.1883
▁sustainable	-10.1884
▁Not	-10.1889
▁album	-10.1893
▁pourra	-10.1895
▁attitude	-10.1896
▁green	-10.1898
▁contient	-10.1899
▁sw	-10.19
▁ajouter	-10.1906
ped	-10.1909
oud	-10.191
▁jobs	-10.1912
▁income	-10.1918
ident	-10.1919
▁commence	-10.1937
▁fish	-10.1939
▁impossible	-10.1939
▁Nos	-10.1944
▁gamme	-10.1946
matique	-10.195
▁quickly	-10.1951
EC	-10.1952
▁beginning	-10.1961
▁avance	-10.1968
▁funding	-10.197
▁guest	-10.1971
ject	-10.1972
▁governments	-10.1973
▁coming	-10.1976
PI	-10.198
pol	-10.1982
▁Germany	-10.1984
▁paquet	-10.1987
▁voul	-10.1994
▁Of	-10.1995
▁garanti	-10.1999
▁cri	-10.1999
nz	-10.2
fici	-10.2001
CC	-10.2002
▁milieu	-10.2004
▁German	-10.2007
▁trip	-10.2019
▁campagne	-10.202
▁disease	-10.2023
mili	-10.2029
cou	-10.2031
▁anglais	-10.2035
▁vigueur	-10.2041
▁Amérique	-10.2048
▁tâche	-10.2048
▁35	-10.205
▁entier	-10.205
▁salon	-10.205
▁relevant	-10.2052
▁mots	-10.2053
▁garden	-10.2054
▁souligner	-10.2055
▁September	-10.2056
▁considéré	-10.2056
ado	-10.2064
labor	-10.2065
▁files	-10.2067
à	-10.2068
▁Montréal	-10.2071
▁gaz	-10.2075
▁students	-10.2078
▁conçu	-10.2078
▁probabl	-10.2082
▁réduit	-10.2083
▁independent	-10.2087
▁regular	-10.2092
▁rule	-10.2092
▁argument	-10.2094
▁époque	-10.21
tti	-10.2106
zi	-10.2107
▁holiday	-10.2113
ura	-10.2114
▁financiers	-10.2116
▁leading	-10.2116
▁piscine	-10.2118
▁tourist	-10.2121
▁involve	-10.2121
▁étudiant	-10.2123
▁scan	-10.2127
▁cherche	-10.2127
▁copie	-10.2127
RO	-10.213
▁agenda	-10.2133
▁attach	-10.2137
▁reasons	-10.2139
▁presented	-10.214
roll	-10.2141
▁réglementation	-10.2143
▁convient	-10.2143
▁street	-10.2143
▁added	-10.2146
▁suffer	-10.2148
▁Her	-10.2149
▁partenariat	-10.2153
▁considérable	-10.2155
▁Public	-10.2156
ête	-10.2165
▁gouvernements	-10.2168
RC	-10.2176
▁majeur	-10.2177
▁Here	-10.2179
▁fine	-10.2189
▁India	-10.2189
▁sanction	-10.219
▁CE	-10.2192
▁potentiel	-10.2192
▁Turkey	-10.2194
▁possède	-10.2195
▁avion	-10.2196
▁release	-10.2196
▁devenu	-10.2197
▁européennes	-10.2199
▁relationship	-10.2201
▁dix	-10.2202
▁enquête	-10.2203
▁mauvais	-10.2205
▁adopté	-10.2208
▁utilisée	-10.2219
VI	-10.222
▁moyenne	-10.2222
▁sélection	-10.2227
▁Min	-10.2227
▁Fe	-10.2232
hen	-10.2242
▁annual	-10.2246
▁dessus	-10.2248
▁fichier	-10.225
▁consist	-10.225
▁licence	-10.2251
▁Loi	-10.2258
▁organisé	-10.2259
▁distribut	-10.2263
▁similar	-10.2264
▁prove	-10.2271
atoire	-10.2276
▁October	-10.2277
▁taille	-10.2279
▁confi	-10.2284
▁rare	-10.2285
▁extrêmement	-10.2312
▁absence	-10.2313
▁climatique	-10.2314
ENT	-10.2315
cho	-10.2315
▁reference	-10.2317
pect	-10.2318
▁entraîne	-10.2324
▁January	-10.2324
▁découvrir	-10.2332
ida	-10.2336
AP	-10.2336
▁determine	-10.2339
▁expect	-10.2342
▁examin	-10.2346
▁Sea	-10.2347
pha	-10.2349
▁West	-10.2349
▁décor	-10.235
▁bathroom	-10.2351
▁blanc	-10.2352
▁seems	-10.2358
▁applicable	-10.236
▁petits	-10.236
▁Debian	-10.2362
SI	-10.2363
cré	-10.2363
organ	-10.2372
▁réussi	-10.2376
▁1998	-10.2379
▁septembre	-10.238
12	-10.2382
▁soumis	-10.2385
▁conduit	-10.2391
gan	-10.2397
▁Gar	-10.2399
issent	-10.2402
▁venir	-10.2404
▁annuel	-10.2406
▁enfin	-10.2406
▁déclaré	-10.2412
▁stabilité	-10.2414
▁Rights	-10.2415
▁command	-10.2417
▁pression	-10.2421
▁né	-10.2422
▁Mc	-10.2427
atory	-10.2427
▁élément	-10.2428
▁hors	-10.2434
▁sommet	-10.2441
▁Western	-10.2446
EP	-10.2454
▁deep	-10.2454
▁passion	-10.2457
▁Health	-10.246
▁administr	-10.2465
▁minute	-10.2466
▁audio	-10.2466
▁Cou	-10.2471
▁souhaitez	-10.2471
▁higher	-10.2477
▁series	-10.248
▁mouvement	-10.2483
load	-10.2483
▁votes	-10.2484
▁commentaires	-10.2486
▁piece	-10.2491
▁continuer	-10.2495
▁huge	-10.2496
▁particulière	-10.25
plo	-10.2502
ération	-10.2502
▁employ	-10.2508
▁parc	-10.251
▁sociaux	-10.2516
▁importantes	-10.2519
pul	-10.2524
▁Lisbon	-10.2528
clu	-10.2529
▁Site	-10.253
script	-10.253
▁investi	-10.2534
▁thème	-10.2538
▁principles	-10.2543
ND	-10.2547
▁énergétique	-10.2548
▁benefits	-10.2549
▁atmosphere	-10.255
▁profond	-10.2558
▁corps	-10.2563
▁proper	-10.2568
OM	-10.257
▁Gen	-10.2574
▁catégorie	-10.2577
comp	-10.2577
▁terrasse	-10.2578
▁existence	-10.258
▁consumers	-10.2583
▁phone	-10.2585
▁pose	-10.259
▁changements	-10.2593
▁agir	-10.2595
▁Etats	-10.26
▁devez	-10.2607
▁November	-10.2607
▁entièrement	-10.2615
oyez	-10.2628
▁critères	-10.263
▁break	-10.2632
itation	-10.2635
gate	-10.2637
▁actual	-10.264
pu	-10.2642
▁Finally	-10.2643
▁300	-10.2648
▁reviews	-10.2649
cept	-10.2651
DE	-10.2657
▁lecture	-10.266
▁pressure	-10.2664
▁reception	-10.2681
▁enfant	-10.2685
▁measure	-10.2685
▁import	-10.2685
éné	-10.2687
▁organization	-10.2689
▁différence	-10.2692
▁indeed	-10.2694
▁commencer	-10.2697
▁fraud	-10.2707
œ	-10.2708
▁menace	-10.271
chant	-10.2715
▁relatif	-10.2717
▁utilisateur	-10.2724
▁Turquie	-10.2725
▁mountain	-10.2726
▁déco	-10.2729
▁manufacture	-10.2732
▁agréable	-10.2741
▁dépenses	-10.2744
▁harm	-10.2745
▁oeuvre	-10.2748
▁started	-10.2748
▁île	-10.275
▁track	-10.275
▁contrat	-10.2752
▁examen	-10.2753
▁suivre	-10.2755
▁secret	-10.2762
▁limited	-10.2766
▁instant	-10.2775
▁Lisbonne	-10.2781
▁Franc	-10.2782
▁gros	-10.2792
▁Tu	-10.2793
cier	-10.2795
burg	-10.2796
▁attempt	-10.2797
▁Ti	-10.2802
▁plaisir	-10.2803
▁decided	-10.2804
DI	-10.2806
▁vont	-10.2809
ama	-10.281
▁prévoi	-10.281
▁promouvoir	-10.2814
▁mix	-10.2817
▁Bon	-10.282
▁Sou	-10.2821
▁reserve	-10.2822
▁animaux	-10.2823
▁programs	-10.2824
▁airport	-10.2826
▁rejet	-10.2829
▁financier	-10.283
▁Ob	-10.2833
▁Your	-10.2834
▁Rome	-10.2836
▁traffic	-10.2839
▁Allemagne	-10.284
▁Tri	-10.284
lig	-10.2844
▁civile	-10.2847
▁parfois	-10.285
▁nucléaire	-10.2854
▁popular	-10.286
▁intéressant	-10.2866
mul	-10.2868
▁prepared	-10.2871
▁Fonds	-10.2872
press	-10.288
▁effets	-10.2881
ât	-10.2881
▁compétences	-10.2882
▁mur	-10.2885
nent	-10.2887
mètre	-10.2897
▁parle	-10.2897
▁Em	-10.29
▁compromis	-10.2902
▁wait	-10.2903
▁janvier	-10.2904
▁longtemps	-10.2905
▁multiple	-10.2908
US	-10.2913
▁eff	-10.2914
asi	-10.2923
▁milliards	-10.2925
▁permettent	-10.2931
anda	-10.2932
▁femme	-10.2933
▁explain	-10.2936
▁élargissement	-10.2945
▁volume	-10.2946
▁fais	-10.2952
▁labour	-10.2962
▁courant	-10.2963
▁consumer	-10.2967
▁appoint	-10.2967
▁autour	-10.2973
▁Programme	-10.2977
▁John	-10.2978
▁décide	-10.2985
▁spend	-10.2986
▁takes	-10.2991
ella	-10.2991
▁assume	-10.2993
▁prop	-10.2995
▁développé	-10.2998
▁obtenu	-10.3002
▁rendu	-10.3011
▁octobre	-10.3013
▁sun	-10.3017
▁victimes	-10.302
▁événements	-10.3028
▁external	-10.303
▁rates	-10.3038
ically	-10.3039
▁thousand	-10.3042
▁respond	-10.3044
▁servi	-10.3049
н	-10.3056
▁thanks	-10.3058
▁Booking	-10.3063
▁consequence	-10.3064
ging	-10.3065
▁supply	-10.3066
▁outils	-10.3068
▁troisième	-10.3077
▁accepter	-10.308
▁récemment	-10.3092
▁pilot	-10.3095
▁prochain	-10.31
▁fun	-10.3101
▁nationales	-10.3106
▁paper	-10.3116
▁obstacle	-10.3119
▁présence	-10.312
▁obligation	-10.3121
bel	-10.3122
CI	-10.3125
▁Ve	-10.3127
▁explique	-10.3131
▁cre	-10.3132
▁Wal	-10.3135
▁appelé	-10.3139
oph	-10.3139
▁participer	-10.3143
▁patients	-10.3143
▁flow	-10.3151
▁marche	-10.3152
▁path	-10.3153
▁materials	-10.3157
gén	-10.3158
▁remarque	-10.3165
▁behind	-10.3166
▁lumière	-10.3166
▁agence	-10.3169
▁Paul	-10.317
▁secure	-10.3171
▁amendment	-10.3172
▁décidé	-10.3176
▁submitted	-10.3176
▁existant	-10.3177
▁jeux	-10.3177
▁Christian	-10.3179
▁serveur	-10.3182
▁achat	-10.3188
▁colon	-10.319
▁British	-10.3193
▁effects	-10.3196
▁details	-10.3196
▁extérieur	-10.3199
MS	-10.3203
▁riche	-10.3204
ielle	-10.3207
mble	-10.3207
▁moral	-10.3209
▁humains	-10.321
▁devenir	-10.3215
▁visa	-10.3215
▁Alors	-10.3216
▁Bur	-10.3226
▁nuclear	-10.3231
resse	-10.3236
▁emplois	-10.324
▁partnership	-10.3242
▁novembre	-10.3243
▁exposition	-10.3243
mod	-10.3243
▁complexe	-10.325
▁offert	-10.3254
▁Note	-10.3256
▁niveaux	-10.3261
▁invent	-10.3265
▁leaders	-10.3265
▁constitution	-10.3269
▁pauvreté	-10.3274
▁poverty	-10.3275
▁latest	-10.3275
▁brought	-10.3276
▁buffet	-10.328
hy	-10.3282
▁Human	-10.3285
▁réaliser	-10.3287
▁principaux	-10.329
▁établir	-10.329
SC	-10.3292
▁perhaps	-10.3293
▁July	-10.3294
▁Ki	-10.3297
▁fix	-10.3297
▁dû	-10.3298
▁faisant	-10.3303
hood	-10.3304
▁priority	-10.3306
▁Banque	-10.3307
▁écran	-10.3311
▁Ag	-10.3313
meter	-10.3316
uch	-10.3317
▁extension	-10.3323
▁responsables	-10.3324
▁prises	-10.3325
▁publié	-10.333
▁remercie	-10.3331
fra	-10.3335
▁union	-10.3341
▁separate	-10.3342
▁juge	-10.3343
▁server	-10.3343
▁attaque	-10.3344
▁highly	-10.3346
▁fixe	-10.3354
▁shown	-10.3362
▁durée	-10.3371
▁percent	-10.3372
▁lives	-10.3379
▁achieved	-10.338
▁consent	-10.3386
▁plat	-10.3386
▁adopter	-10.3387
▁réalis	-10.3395
▁rich	-10.3396
nier	-10.3396
▁oppose	-10.3398
▁contribuer	-10.3404
▁recommandation	-10.3416
▁bad	-10.3426
▁Ainsi	-10.3426
ède	-10.3427
▁giving	-10.343
▁instance	-10.3431
▁cou	-10.3431
▁Hi	-10.3433
▁structures	-10.3442
▁sell	-10.3443
▁lesquels	-10.3443
▁bâtiment	-10.3447
▁University	-10.3452
▁Linux	-10.3452
▁provisions	-10.3453
▁désormai	-10.3454
uck	-10.3455
▁shows	-10.3459
▁challenge	-10.3459
lot	-10.3463
▁Out	-10.3468
.3	-10.3469
▁terrorist	-10.347
▁device	-10.3474
▁Play	-10.3476
▁offering	-10.3478
▁45	-10.3482
▁variety	-10.3484
cient	-10.3485
▁easily	-10.349
▁presque	-10.3491
▁urgence	-10.3493
▁transition	-10.3497
▁conclusions	-10.3497
▁arr	-10.3499
▁futur	-10.3503
▁reconnu	-10.3504
▁spéciale	-10.3505
▁creating	-10.3507
▁32	-10.3512
AD	-10.3513
tract	-10.3514
▁couvert	-10.3519
▁chiffre	-10.352
▁integration	-10.3522
▁Amendment	-10.3524
▁Every	-10.3527
▁digital	-10.3531
atrice	-10.3533
▁Wa	-10.3535
▁hospital	-10.3539
▁fund	-10.3555
▁Auto	-10.3556
▁compromise	-10.3573
TI	-10.3574
▁profil	-10.3578
▁paragraphe	-10.3583
▁Quel	-10.3584
aries	-10.3591
▁parlementaire	-10.3592
▁lien	-10.3594
▁paid	-10.3595
▁vaste	-10.3595
▁couple	-10.3599
▁matters	-10.3601
suring	-10.3604
▁égalité	-10.3607
▁loss	-10.3611
▁ancienne	-10.3612
▁1997	-10.3617
▁drug	-10.3619
vant	-10.3632
▁assessment	-10.3634
▁emphasis	-10.364
▁telephone	-10.364
▁improvement	-10.3642
NG	-10.3642
▁Church	-10.3644
▁friends	-10.3644
▁facilement	-10.3649
lib	-10.3652
▁Ph	-10.3652
▁doubt	-10.3653
▁challenges	-10.3655
▁Green	-10.3659
▁venu	-10.3664
▁sha	-10.3673
▁associé	-10.3676
crib	-10.3679
▁investissement	-10.3686
EA	-10.369
▁mars	-10.3694
▁spécifique	-10.3695
▁restrict	-10.3696
ception	-10.3697
céd	-10.3698
▁Guest	-10.37
▁échelle	-10.3704
▁mécanisme	-10.3706
itive	-10.3709
▁notice	-10.371
▁expertise	-10.3712
▁Cap	-10.3713
▁indicate	-10.3714
▁park	-10.3714
yl	-10.3715
▁custom	-10.3716
pression	-10.3716
▁TM	-10.372
▁status	-10.3724
▁customer	-10.3727
▁eye	-10.3727
▁aliment	-10.3727
▁tête	-10.3729
▁Parti	-10.3733
▁envisage	-10.3736
▁Fer	-10.3741
▁tool	-10.3747
▁written	-10.3751
▁canadien	-10.376
▁tools	-10.3764
▁possibilités	-10.3765
aw	-10.3765
▁procédures	-10.3766
▁Bou	-10.3772
▁Conference	-10.3775
▁accommodation	-10.3781
▁suivante	-10.3784
▁leader	-10.3785
▁motion	-10.3801
▁stratégique	-10.3802
т	-10.3806
▁intégré	-10.3807
▁pursu	-10.3809
▁voix	-10.3825
▁Further	-10.3825
▁élections	-10.3837
position	-10.3841
▁reject	-10.3841
▁retrouve	-10.3842
▁devrion	-10.3842
▁IN	-10.3842
▁marketing	-10.3846
▁vacances	-10.3848
▁inclus	-10.3851
▁professionnels	-10.3851
NA	-10.3851
▁reduction	-10.3852
▁Microsoft	-10.3853
▁conception	-10.3856
▁vais	-10.3856
blo	-10.3856
▁favorable	-10.3862
▁proportion	-10.3864
uri	-10.3873
▁golf	-10.3874
▁professionnelle	-10.3877
▁bénéficie	-10.3877
▁die	-10.3879
▁rapid	-10.3879
▁déten	-10.3883
▁gauche	-10.3883
▁dessous	-10.3889
▁protocol	-10.3889
▁practical	-10.3893
▁soi	-10.3898
▁régul	-10.3902
▁applique	-10.3902
tom	-10.3906
▁module	-10.3907
house	-10.3907
▁Security	-10.3911
▁canadienne	-10.3917
▁nations	-10.3917
▁stable	-10.3922
▁employees	-10.3924
▁door	-10.3928
IL	-10.3929
quer	-10.393
lim	-10.3931
▁transparent	-10.3932
▁constituent	-10.3933
▁regulations	-10.3935
89	-10.3936
▁April	-10.3936
▁DVD	-10.3939
▁Qui	-10.3943
▁transparence	-10.3943
▁interface	-10.3945
▁cycle	-10.3946
▁surveillance	-10.3946
▁Are	-10.3952
ological	-10.3952
▁Exp	-10.3953
▁highlight	-10.3955
▁recevoir	-10.3956
▁chaleur	-10.3957
▁perte	-10.396
▁réalisation	-10.396
▁Use	-10.3962
▁label	-10.3965
▁calme	-10.3966
▁régionale	-10.397
▁Party	-10.3972
▁touche	-10.3978
▁communities	-10.398
▁Republic	-10.398
▁criteria	-10.398
▁Hor	-10.3984
▁colour	-10.3987
▁island	-10.3988
tto	-10.399
▁Italie	-10.399
▁faites	-10.3991
LI	-10.3991
▁vot	-10.3995
▁Win	-10.3999
▁Club	-10.4
izing	-10.4
▁spécifiques	-10.4003
shi	-10.4007
rew	-10.4007
ID	-10.401
99	-10.4012
▁abandon	-10.4015
▁virus	-10.4026
▁season	-10.4026
▁feature	-10.4026
▁High	-10.4032
▁fiscal	-10.4033
▁Berlin	-10.4034
▁Toutes	-10.4035
▁Inde	-10.4041
▁concret	-10.4041
agne	-10.4042
▁facteur	-10.4051
▁financières	-10.4051
zen	-10.4052
▁pure	-10.4054
▁fit	-10.4056
▁Chaque	-10.4057
ffer	-10.406
igu	-10.4063
▁remove	-10.4066
▁Amsterdam	-10.4071
▁analysis	-10.4077
▁collective	-10.4081
▁faudra	-10.4092
▁wood	-10.4098
▁chaîne	-10.4099
▁frontières	-10.4099
▁meilleurs	-10.4106
▁Communauté	-10.4107
▁auxquel	-10.4107
▁condamn	-10.411
▁trou	-10.4116
▁allemand	-10.4118
▁respecter	-10.4119
▁Merci	-10.4121
▁select	-10.4123
▁pièces	-10.4124
▁forum	-10.413
OL	-10.4131
▁formulaire	-10.4132
▁CA	-10.4132
▁match	-10.4132
▁procedures	-10.4133
▁connexion	-10.4134
▁fonctionnement	-10.4134
▁useful	-10.4137
▁compose	-10.4139
▁âge	-10.4141
▁Italian	-10.4145
▁savon	-10.4149
▁prévu	-10.4151
▁juillet	-10.4153
▁committe	-10.4154
▁substances	-10.4156
▁growing	-10.4164
▁actif	-10.4168
▁district	-10.4172
65	-10.4173
▁foot	-10.4178
▁prefer	-10.4178
▁organizations	-10.4179
64	-10.4182
▁Italy	-10.4186
ó	-10.4188
▁instead	-10.4195
▁orientation	-10.4198
▁businesses	-10.4205
▁blog	-10.4206
▁farm	-10.4207
IA	-10.421
▁amis	-10.4212
▁soul	-10.4212
▁liens	-10.4215
▁director	-10.4218
▁pleased	-10.4219
▁organismes	-10.4219
▁totalement	-10.422
▁appliquer	-10.422
▁consiste	-10.4224
▁African	-10.4235
▁certainement	-10.4236
illa	-10.4249
▁lesquelles	-10.4252
▁System	-10.4254
▁constat	-10.4257
▁reading	-10.4258
▁award	-10.426
▁Spa	-10.4263
▁Quand	-10.427
cieux	-10.427
▁magnifique	-10.4272
▁enseignement	-10.4274
▁conclu	-10.4279
▁planning	-10.4282
▁naturel	-10.4284
IM	-10.4287
▁indiqué	-10.4297
▁Therefore	-10.4299
▁occupe	-10.43
▁cru	-10.4305
▁essai	-10.4311
▁populaire	-10.4319
▁replace	-10.4319
▁interne	-10.4322
▁avantages	-10.4324
▁obvious	-10.4326
▁lower	-10.4334
▁indispensable	-10.4336
ivité	-10.4339
▁modifier	-10.434
cial	-10.4341
ologique	-10.4341
ador	-10.4341
▁seem	-10.4342
▁sensible	-10.4342
▁round	-10.4344
▁retire	-10.4345
▁Spain	-10.4353
▁Board	-10.4358
▁moteur	-10.436
▁Sub	-10.4364
▁consommation	-10.4365
▁supported	-10.4366
bert	-10.4371
▁veux	-10.4374
▁coin	-10.4375
▁closed	-10.4376
•	-10.438
▁indicat	-10.4381
▁équipements	-10.4389
▁campaign	-10.439
▁allowed	-10.4391
▁matin	-10.4392
▁IT	-10.4394
gur	-10.4399
▁possibility	-10.4401
▁Even	-10.4409
▁découvert	-10.4412
▁Director	-10.4414
▁produced	-10.4423
▁While	-10.4423
▁del	-10.4424
lip	-10.4427
▁investissements	-10.4428
▁interesting	-10.4432
▁anything	-10.4432
▁conc	-10.4433
▁relating	-10.444
▁Today	-10.444
▁yeux	-10.4441
▁arrivée	-10.4442
▁Gal	-10.4443
▁operate	-10.4471
▁Pen	-10.4472
▁connaiss	-10.4473
▁clos	-10.4474
▁160	-10.4482
TO	-10.4482
С	-10.4486
▁montagne	-10.4487
▁convert	-10.4487
▁summer	-10.4489
▁mètres	-10.4492
▁electronic	-10.4494
▁Ceci	-10.4497
▁negotiat	-10.4497
▁affaire	-10.4498
▁enlargement	-10.45
▁Many	-10.4503
▁implique	-10.4504
élé	-10.4509
88	-10.4512
▁presse	-10.4516
▁sortie	-10.4517
MI	-10.4519
▁différent	-10.452
▁Ukraine	-10.4527
▁individuel	-10.4527
▁garde	-10.453
▁scale	-10.453
▁parvenir	-10.4533
▁mechanism	-10.4542
▁internationaux	-10.4548
▁Iraq	-10.4555
▁born	-10.4565
▁bear	-10.4565
itor	-10.4567
▁quiet	-10.4568
▁réuni	-10.457
▁Don	-10.4577
pho	-10.4581
▁café	-10.4587
èse	-10.4589
▁comité	-10.459
▁célèbre	-10.4591
▁supplémentaires	-10.4592
▁block	-10.4597
shed	-10.4597
MO	-10.4602
▁mine	-10.4605
▁fera	-10.4609
TS	-10.461
▁finally	-10.4615
▁Tro	-10.4615
tran	-10.4621
▁published	-10.4622
▁réel	-10.4624
▁enhance	-10.4626
▁electric	-10.4628
▁médias	-10.4629
▁Mag	-10.4631
▁boutique	-10.4635
ffi	-10.4635
▁reality	-10.4636
▁Aujourd	-10.4639
▁vertu	-10.4643
▁cho	-10.4647
▁configuration	-10.4648
▁Asia	-10.4653
▁fondamentaux	-10.4654
▁offered	-10.4655
▁waste	-10.4656
NS	-10.4658
▁esp	-10.4663
▁goes	-10.4668
▁daily	-10.4673
▁generation	-10.4673
▁réellement	-10.4674
▁trouvé	-10.4681
▁Selon	-10.4682
▁culturelle	-10.4682
▁largest	-10.4683
▁viol	-10.4684
▁voice	-10.4685
▁families	-10.4686
▁autorisé	-10.4692
tric	-10.4693
▁demonstrate	-10.4698
▁Pat	-10.4699
issez	-10.4702
▁augmenter	-10.4703
▁solidarité	-10.4703
▁More	-10.4713
▁race	-10.4723
▁conclude	-10.4725
▁avril	-10.4726
▁Cam	-10.4727
OT	-10.4727
▁morning	-10.4729
▁beyond	-10.4729
▁worth	-10.473
▁choisir	-10.4732
▁positif	-10.4733
▁Mediterranean	-10.4736
▁amend	-10.4741
▁appui	-10.4748
él	-10.4749
▁changer	-10.475
▁August	-10.4753
▁threat	-10.4753
▁journalist	-10.4754
▁ourselves	-10.4755
▁Cho	-10.4756
▁résoudre	-10.4757
▁entend	-10.476
▁lettre	-10.4763
▁Kosovo	-10.4765
ège	-10.4768
▁employés	-10.4768
▁vivre	-10.4769
.4	-10.4769
▁organis	-10.4774
▁tendance	-10.4775
▁farmer	-10.4775
▁observation	-10.4784
▁Portugal	-10.4784
▁grow	-10.4786
▁1996	-10.4793
▁Del	-10.4794
LO	-10.4794
itu	-10.4798
RS	-10.4799
▁sept	-10.4801
▁map	-10.4808
▁élève	-10.4812
▁vise	-10.4813
▁varie	-10.4826
▁passage	-10.4829
▁taxes	-10.4831
▁conformément	-10.4831
▁scientific	-10.4831
▁saying	-10.4832
▁laisser	-10.4837
▁fédéral	-10.4837
▁réservation	-10.4838
▁numérique	-10.4842
▁outil	-10.4844
▁disque	-10.4845
▁fishing	-10.4847
▁saison	-10.4848
▁shopping	-10.4852
▁considère	-10.4859
▁circulation	-10.4867
▁Spanish	-10.4868
▁listen	-10.4868
top	-10.487
NI	-10.487
▁coeur	-10.4871
▁FR	-10.4876
▁chargé	-10.4876
▁box	-10.4881
▁américaine	-10.4885
▁medium	-10.4886
▁USA	-10.4887
▁Hol	-10.4888
▁Camp	-10.4895
▁trying	-10.4896
rice	-10.4897
▁extérieure	-10.4897
▁physique	-10.4898
▁historical	-10.4905
ulaire	-10.4907
▁stability	-10.4911
▁van	-10.4911
▁permit	-10.4911
▁applied	-10.4914
▁utilisant	-10.4916
voc	-10.4917
▁wall	-10.4919
▁People	-10.4921
▁consensus	-10.4921
▁terrace	-10.4925
▁wanted	-10.4927
▁bal	-10.4939
long	-10.4941
▁diploma	-10.4941
▁cherch	-10.4943
▁maritime	-10.4952
▁selection	-10.4952
tron	-10.496
▁facilitat	-10.4962
▁considération	-10.4966
▁Organisation	-10.4973
▁strategic	-10.4973
▁culturel	-10.4978
▁exécution	-10.4992
▁Although	-10.4994
▁engagé	-10.4998
▁rise	-10.5004
▁Tur	-10.5012
▁monétaire	-10.5016
▁conscience	-10.5025
▁félicit	-10.5026
igné	-10.5031
▁fur	-10.5035
▁sometimes	-10.5036
▁feed	-10.5038
bé	-10.5049
▁claire	-10.5054
▁affiche	-10.5059
▁tab	-10.5068
referred	-10.5068
▁acteur	-10.5073
▁ministère	-10.5077
▁Imp	-10.508
FI	-10.5082
▁servir	-10.5085
▁trust	-10.5086
▁préoccupation	-10.5087
▁Each	-10.509
▁cancer	-10.5092
▁diverses	-10.5098
▁accéder	-10.51
▁connaître	-10.5104
▁immediately	-10.5106
▁brand	-10.5109
▁sufficient	-10.511
▁participate	-10.5113
▁dois	-10.5113
quoi	-10.512
▁fondamentale	-10.5121
▁Well	-10.5121
▁demain	-10.5123
▁PL	-10.5126
▁hour	-10.5129
▁desire	-10.5132
▁competitive	-10.5134
▁Agreement	-10.5141
▁feu	-10.5141
▁remember	-10.5142
▁Arab	-10.5143
▁enregistrement	-10.5144
▁repeat	-10.5146
▁ready	-10.5149
▁rester	-10.5151
▁degree	-10.5152
▁éco	-10.517
▁modifié	-10.5172
▁became	-10.5173
▁http	-10.5177
▁inscrit	-10.5183
▁République	-10.5183
▁exercise	-10.5195
▁Just	-10.5213
FA	-10.5215
▁monitoring	-10.5229
▁puissance	-10.5231
DS	-10.5232
▁Qua	-10.5232
▁bath	-10.5233
▁commencé	-10.5236
ifier	-10.5237
▁fresh	-10.5246
▁coast	-10.5248
▁exprimer	-10.5252
▁demeure	-10.5252
▁caractéristique	-10.5257
▁équilibre	-10.5257
▁voter	-10.5266
▁esca	-10.5275
▁finish	-10.5278
▁February	-10.5282
▁nouvel	-10.5284
▁doté	-10.5287
▁bedroom	-10.5295
▁drink	-10.5296
▁explore	-10.5297
▁Directive	-10.5299
▁insurance	-10.53
▁getting	-10.5302
▁window	-10.5309
▁génération	-10.5311
▁réseaux	-10.5312
▁adéquat	-10.5314
▁officielle	-10.5315
illon	-10.5319
▁Mor	-10.532
▁devra	-10.5321
mil	-10.5322
▁Red	-10.5323
gno	-10.5327
ji	-10.5329
▁chant	-10.5329
▁acceptable	-10.5332
board	-10.5333
▁solidarity	-10.5333
▁motor	-10.5338
▁espèce	-10.5338
▁thé	-10.5345
▁likely	-10.5347
▁légal	-10.5347
▁chair	-10.5352
▁Européen	-10.5353
▁delà	-10.5355
▁religion	-10.5355
▁Bre	-10.5359
kin	-10.5359
▁33	-10.5362
▁medical	-10.5365
▁watch	-10.5369
▁partout	-10.5372
▁terrorisme	-10.5373
▁Espagne	-10.5373
▁rappeler	-10.5375
▁millier	-10.5377
▁emplacement	-10.5378
view	-10.5379
CT	-10.538
▁manage	-10.5381
▁Google	-10.5381
▁sauna	-10.5389
▁decide	-10.5391
▁partner	-10.5396
▁legislative	-10.5399
EX	-10.5403
▁write	-10.5411
▁armes	-10.5423
▁carbon	-10.5425
15	-10.5433
▁puissent	-10.5434
▁quantité	-10.5434
▁veiller	-10.5435
▁scène	-10.544
▁devoir	-10.5452
▁candidate	-10.5461
hin	-10.5463
▁Work	-10.5464
▁enterprise	-10.5467
▁Direct	-10.5473
phe	-10.5475
▁restrictions	-10.5478
▁municipal	-10.5481
▁London	-10.549
▁During	-10.549
38	-10.5492
▁recognise	-10.5493
▁ajout	-10.5493
▁regime	-10.5495
39	-10.5505
▁heard	-10.5506
▁enregistré	-10.5512
▁division	-10.5521
pass	-10.5523
▁starting	-10.5523
▁01	-10.5527
▁historic	-10.5528
▁absolument	-10.553
▁retard	-10.5535
▁remind	-10.5535
ambi	-10.5536
▁suit	-10.5537
▁Royaume	-10.5539
▁audit	-10.5553
▁numerous	-10.5558
▁black	-10.5559
▁surprise	-10.5563
▁imagine	-10.5568
▁balcon	-10.557
▁ceci	-10.5571
▁séance	-10.5575
▁transparency	-10.5577
▁Policy	-10.5579
▁Amnesty	-10.5581
▁Situé	-10.5586
onné	-10.5588
▁talent	-10.5589
▁Rule	-10.5594
▁terrorism	-10.5596
▁count	-10.5597
▁structurel	-10.56
▁honour	-10.5601
▁prestation	-10.5606
▁parfait	-10.5607
▁envoyer	-10.5607
▁fear	-10.5608
▁unies	-10.5616
▁pourront	-10.5618
▁interpret	-10.5619
▁Economic	-10.5626
▁britannique	-10.5626
▁écoute	-10.5627
р	-10.563
lock	-10.5636
▁Nice	-10.5638
▁consideration	-10.5651
▁honor	-10.5654
▁happy	-10.5656
arian	-10.5656
▁repas	-10.5656
▁voulez	-10.566
▁proceed	-10.566
aria	-10.5663
▁illegal	-10.5663
▁alone	-10.5664
▁chers	-10.5667
▁déposé	-10.5668
▁Open	-10.567
▁shower	-10.5677
▁150	-10.5685
▁counter	-10.5686
▁1990	-10.5697
▁impôt	-10.5698
▁médecin	-10.5698
▁pack	-10.5705
▁collègue	-10.5721
▁Best	-10.5723
CR	-10.5724
▁directeur	-10.5726
IR	-10.5728
86	-10.5731
▁pleinement	-10.5736
BC	-10.5742
▁Groupe	-10.5753
▁Cast	-10.5758
▁approved	-10.5766
▁1995	-10.5774
▁devron	-10.5783
▁Why	-10.5785
▁Japan	-10.5786
atri	-10.5788
▁invité	-10.5789
▁reservation	-10.5798
gel	-10.5802
▁Research	-10.5803
▁Festival	-10.5812
▁gare	-10.5815
▁transfert	-10.5819
hum	-10.5822
▁spécialisé	-10.583
▁understanding	-10.5833
▁précisément	-10.5833
TR	-10.5837
▁Over	-10.5837
vic	-10.5839
▁énorme	-10.5842
▁Afghanistan	-10.5844
▁effectuer	-10.5848
▁siège	-10.5848
▁défaut	-10.5855
agon	-10.5856
▁component	-10.5857
▁provision	-10.586
▁defend	-10.586
▁refuge	-10.5864
▁jeune	-10.5864
▁error	-10.5864
▁savez	-10.5866
▁soutenu	-10.5867
plication	-10.5872
▁raised	-10.5873
49	-10.5881
▁sac	-10.5882
explo	-10.5895
▁expected	-10.5901
▁camera	-10.5902
▁establishment	-10.5902
▁white	-10.5907
с	-10.5914
▁critical	-10.5915
▁hypo	-10.5917
▁situe	-10.5937
▁flight	-10.5937
▁efficiency	-10.5937
▁précise	-10.5941
▁offrent	-10.5944
▁liberal	-10.5948
▁tranquil	-10.5949
▁Grâce	-10.5957
▁seconde	-10.5964
▁overall	-10.5965
▁wrong	-10.5969
▁exprimé	-10.5969
▁hot	-10.5973
▁Part	-10.5977
▁présentation	-10.5978
72	-10.598
▁définition	-10.5981
▁Donc	-10.5981
fon	-10.5989
▁envers	-10.5994
▁worked	-10.5997
▁évidemment	-10.5999
▁evening	-10.6002
▁lancé	-10.6004
▁seven	-10.6004
▁urge	-10.6006
▁raise	-10.6006
conf	-10.6007
▁acquis	-10.601
▁circumstances	-10.6011
68	-10.6014
▁recours	-10.6014
gène	-10.6015
ridge	-10.6017
▁évident	-10.6022
▁Any	-10.6025
▁veuill	-10.6025
90	-10.6028
VE	-10.6029
▁vaccin	-10.603
▁talking	-10.6034
▁italien	-10.6035
▁confident	-10.6035
▁contribue	-10.6038
▁implemented	-10.604
▁maintien	-10.6041
ibility	-10.6043
▁arch	-10.6044
▁exact	-10.6045
▁malgré	-10.6046
▁organize	-10.6048
▁speech	-10.6051
▁handicap	-10.6053
▁south	-10.6054
▁tomorrow	-10.6056
▁Game	-10.606
volu	-10.6063
▁surrounding	-10.6067
▁exerce	-10.6068
▁ball	-10.6069
▁février	-10.6073
▁congratulate	-10.6075
▁veulent	-10.6078
▁description	-10.6079
▁accepted	-10.6082
▁hundred	-10.6085
▁parfaitement	-10.6091
▁courage	-10.6093
▁probablement	-10.6096
AI	-10.6098
▁lost	-10.6101
▁attractions	-10.6102
▁composé	-10.6107
▁ajouté	-10.6108
▁adoptée	-10.611
▁operating	-10.6111
▁neighbour	-10.6113
▁coordonn	-10.6116
▁else	-10.6118
▁monitor	-10.6123
▁average	-10.6129
▁appuy	-10.613
▁Day	-10.6131
▁won	-10.6139
▁released	-10.6144
▁plate	-10.615
▁biais	-10.6154
▁accent	-10.6156
▁recev	-10.6158
▁resident	-10.6165
▁letter	-10.6165
▁comportement	-10.6186
▁Description	-10.6187
▁yourself	-10.6188
▁Premier	-10.6191
▁kitchen	-10.6195
▁construit	-10.6197
pel	-10.6197
ième	-10.6203
▁whom	-10.6205
▁Other	-10.6206
chan	-10.6208
▁interested	-10.6209
▁attente	-10.6213
▁Japon	-10.6213
▁learning	-10.6225
▁déterminer	-10.6225
▁fou	-10.6229
▁festival	-10.6231
▁manner	-10.6237
▁conservation	-10.6239
▁flexible	-10.6239
▁affected	-10.6242
▁comprehensive	-10.6244
▁espagnol	-10.6247
▁fournit	-10.625
ï	-10.6251
▁opening	-10.6254
▁poursuivre	-10.6257
▁capitale	-10.6258
▁compt	-10.6266
▁helpful	-10.6267
▁Quebec	-10.6267
▁certificat	-10.6271
▁extent	-10.6274
▁principalement	-10.6279
▁fuel	-10.6279
▁propriétaire	-10.6289
▁montré	-10.629
▁roman	-10.6299
▁musical	-10.6302
▁accession	-10.6302
▁associated	-10.6305
▁locaux	-10.6309
▁française	-10.6311
▁Maison	-10.6315
▁studio	-10.6318
▁THE	-10.6323
▁spread	-10.6325
ular	-10.6333
▁trouv	-10.6333
▁expressed	-10.6335
book	-10.6344
▁debt	-10.6348
▁hyper	-10.6348
▁highest	-10.6352
▁pub	-10.6356
▁dommage	-10.636
▁traiter	-10.6365
▁Mat	-10.6365
▁concrète	-10.6366
▁montrer	-10.6368
▁conforme	-10.6368
▁intended	-10.6373
fre	-10.6378
▁leadership	-10.6381
▁Israël	-10.6383
▁Même	-10.6383
▁prévention	-10.6386
stream	-10.639
▁liquid	-10.6393
▁cohésion	-10.6395
▁Utilis	-10.6397
▁clause	-10.6403
▁mérite	-10.6412
▁Justice	-10.6412
▁maxim	-10.6414
84	-10.6418
▁bag	-10.642
▁Super	-10.6425
▁amour	-10.6436
▁integrated	-10.6436
▁mentionné	-10.6464
▁suppose	-10.6469
▁sait	-10.6476
▁proposer	-10.6478
AF	-10.6479
▁consulter	-10.648
▁respective	-10.6489
vol	-10.649
▁story	-10.6491
▁envoyé	-10.6494
▁locales	-10.6497
▁fulfil	-10.65
hel	-10.6501
▁Comité	-10.6501
▁payer	-10.6504
▁entry	-10.6504
▁immédiatement	-10.6504
▁Click	-10.6507
14	-10.651
▁liées	-10.6531
▁400	-10.6533
▁heureux	-10.6535
clo	-10.6535
bsolutely	-10.654
78	-10.654
▁fabric	-10.6542
▁promise	-10.6542
▁Bel	-10.6543
▁branch	-10.6546
▁physical	-10.6555
SD	-10.6559
▁despite	-10.6564
▁Restaurant	-10.6568
▁cities	-10.6569
▁rock	-10.657
▁FAO	-10.657
▁corruption	-10.6574
CA	-10.6575
▁announced	-10.6576
bourg	-10.6578
▁ambiance	-10.658
ssel	-10.658
▁encourager	-10.6594
▁absolu	-10.6601
▁goût	-10.6603
▁organise	-10.6603
▁récente	-10.6604
▁Esp	-10.6607
▁evidence	-10.6619
▁priorities	-10.6619
GO	-10.6619
NC	-10.6619
▁visible	-10.6625
▁pollution	-10.6626
ville	-10.6639
▁avai	-10.6645
▁étroite	-10.6649
▁identify	-10.6653
▁procès	-10.6657
OC	-10.6661
▁requis	-10.6662
▁située	-10.6665
▁maintenance	-10.6666
▁confidence	-10.6668
▁Alliance	-10.6675
▁Alb	-10.6677
▁avantage	-10.6677
▁federal	-10.6677
▁tourisme	-10.6677
▁swimming	-10.6679
▁apporté	-10.6692
▁compatible	-10.67
▁Airport	-10.6703
▁Orient	-10.6705
▁Environment	-10.6707
▁running	-10.6708
aille	-10.6722
pper	-10.6724
▁arriver	-10.6735
▁Chinese	-10.6735
mmer	-10.6737
▁typical	-10.6737
▁otherwise	-10.6737
▁comporte	-10.6737
▁Royal	-10.6739
▁Première	-10.6745
▁Code	-10.6746
▁genuine	-10.6751
▁slow	-10.6757
▁suffisant	-10.6757
▁féliciter	-10.676
▁sentiment	-10.6762
euil	-10.6763
▁president	-10.6763
▁served	-10.6771
vou	-10.6785
▁database	-10.6789
▁Place	-10.6791
▁walking	-10.6798
▁Ottawa	-10.6806
▁kilo	-10.6808
▁Fra	-10.6808
▁Russian	-10.6808
▁touristique	-10.6812
▁Suite	-10.6815
▁Parc	-10.6817
▁Vol	-10.6827
▁formule	-10.6828
pit	-10.683
▁emissions	-10.6833
duct	-10.6834
▁resolve	-10.6835
▁opportunité	-10.6837
▁satisfaction	-10.6839
▁approuvé	-10.684
AU	-10.6844
IG	-10.6844
▁adjust	-10.6847
▁studies	-10.6857
ku	-10.6858
IF	-10.686
▁automobile	-10.6863
▁apparaît	-10.6864
▁department	-10.6868
ñ	-10.6873
▁worldwide	-10.6881
▁powerful	-10.6883
▁authority	-10.6884
▁Ireland	-10.6895
▁taste	-10.6897
▁innovative	-10.6899
▁hall	-10.69
crit	-10.69
▁Most	-10.6904
▁fat	-10.6906
▁Because	-10.6908
▁arrest	-10.6909
▁heat	-10.6912
▁examine	-10.6913
▁empêcher	-10.6914
▁examiner	-10.6915
▁Nu	-10.6916
▁musée	-10.6919
▁bénéficier	-10.6921
▁construct	-10.6923
▁collabora	-10.6924
▁dirigeants	-10.6929
в	-10.6931
▁Arm	-10.6932
▁procure	-10.6935
▁Market	-10.6937
▁800	-10.6939
▁composant	-10.694
▁variable	-10.6948
▁UK	-10.6948
▁faith	-10.6953
▁river	-10.6957
▁chaud	-10.6958
▁hier	-10.6959
▁PHP	-10.6963
▁agencies	-10.6967
▁tandis	-10.6968
▁transmission	-10.6971
▁prévue	-10.6976
▁Moreover	-10.6979
oxy	-10.6982
▁Brussels	-10.6983
▁signature	-10.6988
▁effectively	-10.6996
▁villa	-10.7001
▁perdu	-10.7003
▁usually	-10.7005
▁Van	-10.7005
▁shape	-10.701
▁specifically	-10.7011
▁Eco	-10.7014
▁processes	-10.7016
▁guidelines	-10.7017
ender	-10.7019
▁Once	-10.7022
▁uvre	-10.7026
▁intérieure	-10.7029
▁consacré	-10.7031
▁Regulation	-10.7034
▁accepté	-10.7039
▁ouvrir	-10.7045
▁vitesse	-10.7047
▁pur	-10.7052
▁Anti	-10.7055
▁protest	-10.7061
▁utilis	-10.7063
▁poll	-10.7064
▁révision	-10.7069
▁événement	-10.708
▁Laughter	-10.7081
▁Veuillez	-10.7087
▁traditionnelle	-10.7093
▁Global	-10.7103
▁communiquer	-10.7108
▁Trade	-10.7115
▁réglement	-10.7122
▁mid	-10.7131
▁exportation	-10.7132
▁forget	-10.7133
▁pénal	-10.7136
▁rang	-10.7138
▁globale	-10.7144
▁Sam	-10.7145
▁spoke	-10.7148
▁protégé	-10.715
craft	-10.715
79	-10.7152
▁apporte	-10.7159
▁catastrophe	-10.716
TH	-10.7162
▁monument	-10.7167
▁Shi	-10.7168
▁television	-10.717
▁consistent	-10.7173
▁began	-10.7174
chen	-10.7181
▁presence	-10.7182
▁Pan	-10.7183
▁destruction	-10.7184
▁Islam	-10.7186
▁meaning	-10.7187
▁improved	-10.7193
▁fixé	-10.7193
▁poly	-10.7193
ón	-10.7195
66	-10.7196
▁produire	-10.7202
▁urban	-10.7204
▁Great	-10.7207
▁renforcement	-10.7208
pell	-10.7219
phone	-10.7221
▁suffisamm	-10.7226
▁dynamique	-10.7235
▁magasin	-10.7244
utomatically	-10.7252
▁réparti	-10.7252
▁improving	-10.7255
▁préparation	-10.7257
▁foi	-10.7263
▁mental	-10.7266
▁generally	-10.7266
▁34	-10.7275
▁comprennent	-10.7276
▁supplémentaire	-10.7278
▁vivant	-10.7278
▁generate	-10.728
IE	-10.7289
▁Deuxième	-10.729
▁ticket	-10.729
▁élaboration	-10.7302
▁Island	-10.7304
▁Montreal	-10.7308
▁profession	-10.7309
HO	-10.731
▁citoyen	-10.7314
▁Real	-10.7322
▁douche	-10.7322
▁Pakistan	-10.7323
▁estimate	-10.7329
▁visual	-10.7334
▁selected	-10.7337
▁title	-10.7338
▁annoncé	-10.7341
87	-10.7342
▁composition	-10.7343
▁lieux	-10.7343
▁fellow	-10.7349
TC	-10.7349
▁speaking	-10.7358
▁Dar	-10.7359
▁reconnaissance	-10.7366
▁attendre	-10.7374
▁familiale	-10.7376
▁mener	-10.7377
▁Palestinian	-10.7381
▁protected	-10.7386
▁auquel	-10.7391
▁chômage	-10.7394
▁domestic	-10.7403
▁développe	-10.7404
▁Center	-10.7406
▁toilet	-10.7408
▁channel	-10.7408
▁failure	-10.7412
▁confronté	-10.7416
tell	-10.742
▁regulat	-10.7421
▁poisson	-10.7423
pending	-10.7426
▁Agency	-10.7447
▁button	-10.7447
▁Toronto	-10.7449
▁followed	-10.7459
▁reduced	-10.7462
▁gave	-10.7462
▁sitting	-10.7469
chet	-10.7475
▁humain	-10.7478
▁remise	-10.7482
▁vérifier	-10.749
ING	-10.7491
▁Guide	-10.7495
▁Ya	-10.7495
▁tirer	-10.751
▁fax	-10.7511
▁Management	-10.7513
▁provincial	-10.7514
▁convaincu	-10.7515
▁indication	-10.7516
▁becoming	-10.7517
▁Time	-10.7523
vez	-10.7524
▁armée	-10.7527
▁north	-10.753
▁managed	-10.7531
▁ressort	-10.7532
sky	-10.7534
▁fiscale	-10.7539
▁trend	-10.755
▁chinois	-10.7551
gram	-10.7554
▁1994	-10.7555
▁financing	-10.756
▁Law	-10.7562
▁technologique	-10.7566
▁faciliter	-10.7569
▁radical	-10.7573
▁appeal	-10.7576
▁girl	-10.7579
▁Front	-10.7582
▁baisse	-10.7583
▁Traité	-10.7587
▁extensive	-10.7588
▁paragraph	-10.7593
▁diversité	-10.7594
67	-10.7599
cen	-10.7599
assi	-10.7601
▁Program	-10.7604
vu	-10.7608
▁parliament	-10.7609
▁formal	-10.761
fully	-10.7613
▁édition	-10.7615
▁inspire	-10.7631
▁Madrid	-10.7635
▁Luxembourg	-10.7638
û	-10.7638
▁expert	-10.7641
▁réside	-10.7642
▁classique	-10.7644
▁2011	-10.7645
▁mémoire	-10.7648
▁structural	-10.765
▁acquisition	-10.7653
▁UNESCO	-10.7656
▁placé	-10.7656
back	-10.7658
▁Foundation	-10.7661
room	-10.7662
▁delivery	-10.7663
▁Université	-10.7665
▁patrimoine	-10.7666
▁currency	-10.7671
25	-10.7675
▁identité	-10.7676
▁signed	-10.7676
▁producteurs	-10.768
▁massive	-10.7682
▁wonderful	-10.7684
▁Votre	-10.7684
▁myself	-10.7685
▁dedicated	-10.7687
77	-10.7688
▁horizon	-10.769
▁root	-10.7695
▁assess	-10.7697
▁préalable	-10.7703
▁manager	-10.7704
▁Asie	-10.7705
▁harmonisation	-10.7709
▁COM	-10.7709
media	-10.7716
logue	-10.7727
▁sole	-10.7731
▁judiciaire	-10.7733
▁raisonnable	-10.7735
▁prospect	-10.7736
▁Indeed	-10.7738
▁bless	-10.7746
▁accueille	-10.7752
▁université	-10.7755
▁Michel	-10.7759
▁étage	-10.7761
▁peaceful	-10.7767
ieux	-10.7769
74	-10.7771
▁advice	-10.7773
▁paysage	-10.7776
▁Hong	-10.7786
OP	-10.7788
▁commerciaux	-10.779
▁alter	-10.779
▁Also	-10.7797
▁suffit	-10.7805
▁facing	-10.781
▁autorisation	-10.7812
▁square	-10.7814
▁sexual	-10.7815
▁properly	-10.7816
▁definition	-10.7819
59	-10.782
▁décrit	-10.782
▁himself	-10.7823
▁ambition	-10.7828
▁govern	-10.7831
▁progressive	-10.7832
▁promoting	-10.7837
▁âgé	-10.7837
▁visiteurs	-10.7837
▁gérer	-10.7841
▁bateau	-10.7843
▁susceptible	-10.7845
▁36	-10.7845
▁David	-10.7845
▁acheter	-10.7847
▁gratuitement	-10.7849
▁documentation	-10.785
▁vice	-10.7851
▁subvention	-10.7869
▁noir	-10.7873
▁poids	-10.788
▁complain	-10.7881
▁disaster	-10.7881
▁uniform	-10.7882
▁puissant	-10.7883
▁papier	-10.7883
▁institutional	-10.7885
▁coffee	-10.7887
▁individu	-10.789
▁explicit	-10.7892
▁implication	-10.7894
▁passenger	-10.7902
▁copy	-10.791
▁exactly	-10.7913
▁Martin	-10.7919
▁justifie	-10.7919
▁suspend	-10.7927
▁hair	-10.7933
▁complètement	-10.7934
▁apprendre	-10.7934
ôme	-10.7935
▁expand	-10.7937
▁partager	-10.7939
▁defined	-10.7939
▁belong	-10.794
▁bouton	-10.7944
point	-10.7945
▁réelle	-10.7947
▁Quelle	-10.7959
▁artistes	-10.796
▁constitute	-10.796
▁submit	-10.7964
▁africain	-10.7967
▁coffre	-10.7967
▁linked	-10.7967
▁hit	-10.7973
▁reçoi	-10.7973
▁distinct	-10.7974
▁mobilité	-10.7977
▁pot	-10.7977
▁assuré	-10.7982
▁Irlande	-10.7983
▁attract	-10.7985
▁visitors	-10.7988
▁admir	-10.7991
▁expansion	-10.7994
PR	-10.7998
▁août	-10.8
▁substantial	-10.8003
56	-10.8008
▁installé	-10.801
▁accompagne	-10.8013
▁entendre	-10.8016
▁compétitivité	-10.8016
▁incident	-10.8018
▁detailed	-10.8019
égo	-10.802
▁compensation	-10.8027
▁qualifié	-10.8029
▁Latin	-10.8029
covered	-10.8032
ordinary	-10.8032
▁humanitaire	-10.8033
▁pertinent	-10.8038
▁fabrication	-10.8038
▁discussed	-10.8044
▁Bruxelles	-10.8044
▁bodies	-10.8047
▁anyone	-10.8057
▁2020	-10.8065
▁According	-10.8067
▁automatiquement	-10.8068
MC	-10.807
▁psycho	-10.8071
54	-10.8072
▁license	-10.8074
▁cohesion	-10.8078
▁tension	-10.8082
▁prime	-10.8086
▁Middle	-10.8088
▁Photo	-10.8091
▁sight	-10.8092
▁organiser	-10.8094
▁avancée	-10.81
▁intend	-10.811
▁friend	-10.8111
▁tient	-10.8111
▁Austria	-10.8112
▁habitants	-10.8115
▁religious	-10.8115
vir	-10.8118
▁HIV	-10.8121
▁informed	-10.8125
▁Apart	-10.8139
▁Gold	-10.8143
▁poursuiv	-10.8143
▁Cliquez	-10.8144
▁registered	-10.8148
▁exclusion	-10.8149
▁Black	-10.815
▁poser	-10.8151
▁Museum	-10.8151
▁retraite	-10.8151
▁Voilà	-10.8153
▁informatique	-10.8154
▁franc	-10.8162
pend	-10.8164
▁excessive	-10.8164
▁Media	-10.8165
▁torture	-10.8166
▁Puis	-10.8168
▁Forum	-10.8169
phon	-10.8171
▁déchets	-10.8178
▁agriculteur	-10.8181
▁eaux	-10.8182
▁atmosphère	-10.8186
▁eliminat	-10.8186
▁transformation	-10.8188
▁cliquez	-10.8188
firm	-10.8189
▁auberge	-10.819
▁Rires	-10.819
▁unemployment	-10.8191
AV	-10.8191
▁except	-10.8197
▁billet	-10.8201
▁Design	-10.8204
▁Under	-10.8208
▁brief	-10.8212
bell	-10.8222
▁mère	-10.8224
▁adequate	-10.8229
▁magazine	-10.8229
▁publish	-10.8229
▁ignor	-10.8233
▁Agence	-10.8236
▁Avant	-10.8237
▁cache	-10.8237
▁malheureusement	-10.8237
▁species	-10.8238
▁eight	-10.8238
▁investigation	-10.8239
▁detail	-10.8242
▁03	-10.825
▁territorial	-10.8251
▁nécessite	-10.8254
▁minister	-10.8256
▁conjoint	-10.8265
▁bomb	-10.8272
▁outcome	-10.8272
▁installer	-10.8276
▁appreciate	-10.8277
▁brevet	-10.828
▁contradict	-10.8281
▁conscient	-10.8282
▁vingt	-10.8287
▁pouvant	-10.8289
▁révél	-10.8291
▁spacious	-10.8295
▁someone	-10.8298
▁patient	-10.8303
▁earlier	-10.8305
▁happened	-10.8308
▁Han	-10.831
▁minimal	-10.8329
▁côte	-10.833
▁Roman	-10.833
▁sérieux	-10.8333
▁élégant	-10.8338
▁exposé	-10.8344
▁centaine	-10.8348
▁compétence	-10.8348
▁Report	-10.8352
GA	-10.8355
▁représentent	-10.8356
▁rouge	-10.8356
▁Check	-10.8364
▁patent	-10.8365
▁similaire	-10.8368
ouche	-10.8371
▁contest	-10.8372
▁summit	-10.8373
▁croissant	-10.8377
▁moitié	-10.8382
▁autorité	-10.8384
▁convince	-10.8385
▁coordinate	-10.8387
LC	-10.8392
▁Roma	-10.8395
▁fenêtre	-10.8399
PP	-10.8402
▁saw	-10.8402
▁organisme	-10.841
▁évaluer	-10.8412
▁Pays	-10.8413
▁Bru	-10.8413
▁méta	-10.8415
▁formula	-10.8417
▁Entre	-10.8421
▁élu	-10.8423
▁wind	-10.8425
▁solve	-10.8429
▁aimerais	-10.8432
▁entirely	-10.8433
▁Arch	-10.8434
▁Opera	-10.8436
▁approfondi	-10.8437
▁Budget	-10.8439
▁entretien	-10.8451
▁skin	-10.8452
69	-10.8459
zza	-10.8462
▁joui	-10.8464
▁museum	-10.847
▁substance	-10.8471
▁abuse	-10.8477
▁réservé	-10.8488
▁archive	-10.8491
▁negative	-10.8497
▁abus	-10.85
▁professionnel	-10.8506
▁concurrent	-10.8508
▁master	-10.851
▁doctor	-10.8514
▁described	-10.8515
▁ACP	-10.8516
▁truth	-10.8517
▁earn	-10.8519
{	-10.8519
▁bancaire	-10.8527
▁Sun	-10.8533
▁Medi	-10.8535
work	-10.8536
▁resort	-10.8536
▁discours	-10.8538
▁Conférence	-10.8544
▁Action	-10.8547
▁dynamic	-10.8552
▁expose	-10.8554
▁constructive	-10.8554
EE	-10.8556
▁logo	-10.8558
▁bénéfice	-10.8561
CO	-10.8575
▁traditionnel	-10.8575
▁posé	-10.8577
▁sortir	-10.8578
▁interdit	-10.858
▁espoir	-10.8581
▁Home	-10.8582
▁obligatoire	-10.8583
▁privacy	-10.8585
▁navigation	-10.8587
▁pleasant	-10.8587
▁inscription	-10.859
▁cancel	-10.8593
▁earth	-10.8595
▁hôte	-10.8596
▁platform	-10.8602
▁exhibition	-10.8607
▁Class	-10.8607
cil	-10.8611
▁Beau	-10.8612
▁Cuba	-10.8613
▁hydro	-10.8616
▁persist	-10.8624
▁finalement	-10.8625
▁Costa	-10.8626
76	-10.863
▁portée	-10.863
▁adaptation	-10.8631
▁parlement	-10.8632
▁elegant	-10.8633
▁fondamental	-10.8634
ifiant	-10.8641
▁oblige	-10.8649
▁réaction	-10.8651
▁lecteur	-10.8653
▁Company	-10.8654
▁Post	-10.8657
▁Hav	-10.8659
▁Education	-10.8659
▁industrielle	-10.8675
▁prevention	-10.8676
▁électrique	-10.8677
▁luxe	-10.869
▁logement	-10.8694
▁vérité	-10.8694
duction	-10.8695
généralement	-10.8696
▁planète	-10.8699
▁privilégi	-10.8703
▁exceptional	-10.8703
reducing	-10.8705
▁trouble	-10.8708
▁recognition	-10.8709
fla	-10.8714
▁Street	-10.8716
▁législative	-10.8721
▁Suisse	-10.8726
▁Tim	-10.8733
▁pierre	-10.8734
▁defence	-10.8738
PC	-10.874
▁corporate	-10.8741
▁church	-10.8741
▁truly	-10.8746
}	-10.8749
▁mother	-10.8749
▁faisons	-10.8753
▁trafic	-10.8755
▁Applause	-10.8757
▁blood	-10.8757
▁trial	-10.8764
л	-10.8767
▁migration	-10.8773
▁éclair	-10.8773
▁Off	-10.8778
LL	-10.8779
▁somme	-10.878
▁industriel	-10.8785
▁hostel	-10.8785
▁dirige	-10.8788
▁discut	-10.879
▁Read	-10.8792
ordinat	-10.8806
▁quelqu	-10.881
▁register	-10.8813
▁Pierre	-10.8816
▁translation	-10.8821
▁fisheries	-10.8822
▁reconnaître	-10.8827
▁concentration	-10.8829
▁inflation	-10.8831
61	-10.8831
▁Power	-10.8831
▁gather	-10.8832
▁virtual	-10.8836
▁cesse	-10.8841
▁éventuelle	-10.8843
▁Applaudissement	-10.8843
▁boat	-10.8843
asso	-10.8847
▁difficulties	-10.8855
ancy	-10.8856
▁spectacle	-10.8859
▁spent	-10.8861
▁massage	-10.8861
▁suiv	-10.8865
▁hiver	-10.8865
▁constater	-10.8866
▁disponibilité	-10.8866
▁Find	-10.8871
▁livraison	-10.8878
▁alimentation	-10.8887
▁easier	-10.8892
▁Merc	-10.8893
▁employer	-10.8899
▁Breakfast	-10.8906
▁traduction	-10.8908
▁infection	-10.8909
▁membership	-10.8912
▁cool	-10.8913
▁grosse	-10.8917
▁moving	-10.8921
▁dehors	-10.8929
▁EADS	-10.8936
▁résidence	-10.8936
▁identification	-10.8938
▁souligné	-10.894
▁tourism	-10.8941
▁accueillir	-10.8945
▁spot	-10.8945
▁preparation	-10.8948
▁répét	-10.895
▁immediate	-10.8952
▁gagner	-10.8952
▁préparer	-10.8953
▁dépasse	-10.8957
TER	-10.8959
▁discipline	-10.896
▁garder	-10.8964
▁croy	-10.8965
▁sert	-10.8968
▁Where	-10.8969
\	-10.8972
▁precisely	-10.8973
▁utilisez	-10.8976
▁PPE	-10.8979
▁oublier	-10.8981
▁participe	-10.8983
▁Flo	-10.8985
▁landscape	-10.8989
▁régulièrement	-10.8992
▁réclam	-10.8992
▁Luc	-10.9003
▁journal	-10.9004
▁transit	-10.901
ía	-10.9013
▁emerge	-10.9013
▁fumeurs	-10.9013
▁monnaie	-10.9023
▁undertake	-10.9023
viens	-10.9026
▁embr	-10.9029
▁cheap	-10.9032
ographic	-10.9034
▁humanitarian	-10.9037
▁beauté	-10.9045
▁250	-10.9051
▁accroître	-10.9053
▁sérieuse	-10.9054
▁dessin	-10.9057
▁soleil	-10.9058
▁evaluation	-10.906
wan	-10.9062
▁violent	-10.9065
▁rassembl	-10.9067
▁offrant	-10.9067
▁Louis	-10.9069
▁dream	-10.907
▁équitable	-10.908
▁Kingdom	-10.908
▁Visit	-10.9082
▁lancer	-10.9088
▁moindre	-10.909
▁ultimate	-10.9096
▁middle	-10.9113
▁enrich	-10.9116
▁verre	-10.9121
▁Swiss	-10.9121
DR	-10.9122
▁Music	-10.9122
cription	-10.9126
▁subsidiarit	-10.9135
▁diffusion	-10.9136
▁Barcelona	-10.9137
▁plug	-10.9142
▁relativement	-10.9145
▁kept	-10.9147
▁competitiveness	-10.9148
▁circuit	-10.9148
▁mutual	-10.915
▁applies	-10.9153
▁interview	-10.9154
HA	-10.9156
▁arrival	-10.9156
▁salue	-10.9159
▁élargi	-10.916
institutionnel	-10.9164
▁Peter	-10.9165
▁procéder	-10.9168
к	-10.9172
▁entière	-10.9176
63	-10.9177
▁Vice	-10.9181
▁disposent	-10.9183
▁Egypt	-10.9185
▁déroule	-10.9188
▁apparent	-10.9188
▁discuter	-10.9189
▁ONU	-10.9191
▁Schengen	-10.9197
▁Prime	-10.92
▁eat	-10.9201
▁Mou	-10.9202
▁lobby	-10.9203
▁schedule	-10.9203
▁succeed	-10.9206
▁citizen	-10.921
▁Irak	-10.9214
▁assign	-10.9216
solv	-10.9218
pprovisionnement	-10.9219
RES	-10.9226
▁lourd	-10.9227
▁convenient	-10.9229
mettent	-10.9233
▁clientèle	-10.9235
▁fête	-10.9239
▁conclure	-10.924
▁accro	-10.9243
▁Pré	-10.925
▁spécifi	-10.9258
▁reasonable	-10.9259
▁partenaire	-10.9263
▁acknowledge	-10.9266
onym	-10.9266
▁père	-10.9271
▁pouvait	-10.9277
▁certification	-10.928
▁Lord	-10.9285
▁Desjardins	-10.9292
ground	-10.9294
▁signé	-10.9294
ball	-10.9295
hill	-10.93
▁sentence	-10.9305
▁bill	-10.9307
▁territory	-10.9308
▁judge	-10.9309
▁compliance	-10.9313
▁considerable	-10.9315
ATION	-10.9319
▁announce	-10.9332
▁dangerous	-10.9341
▁minorité	-10.9344
▁safeguard	-10.9345
▁movie	-10.9346
▁tourne	-10.9352
▁pick	-10.9353
▁corner	-10.9353
▁occupation	-10.9354
▁excellence	-10.9358
▁virtue	-10.9358
▁charme	-10.9359
▁presidency	-10.9373
▁lift	-10.9373
▁achiev	-10.9374
▁cheveux	-10.9384
▁arrière	-10.9386
▁ouvre	-10.9391
▁immédiat	-10.9392
▁Pendant	-10.9392
▁correctement	-10.9397
▁neuf	-10.94
▁tissu	-10.9404
▁métro	-10.9405
▁Strasbourg	-10.9407
▁woman	-10.9409
▁carefully	-10.9412
▁1992	-10.9412
▁bound	-10.9412
▁quarter	-10.9412
▁frequent	-10.9414
▁Sport	-10.9415
▁blue	-10.9421
▁étai	-10.9422
▁residence	-10.9423
▁limitation	-10.9425
▁Bern	-10.943
▁changing	-10.9437
▁réflexion	-10.9442
▁automatique	-10.9446
▁tableau	-10.9448
▁scene	-10.9449
▁délégation	-10.9449
▁séjourner	-10.9452
▁vieille	-10.9454
▁Romania	-10.9456
▁pièce	-10.9463
▁réfléchi	-10.9465
▁reveal	-10.9468
▁réussite	-10.947
▁pleasure	-10.9476
▁planification	-10.9477
▁séparé	-10.949
▁intéressé	-10.9491
58	-10.9493
▁Prix	-10.95
▁apprentissage	-10.9501
▁rêve	-10.9509
▁Foreign	-10.9512
ût	-10.9513
▁Consult	-10.9513
▁background	-10.9518
▁déclare	-10.9521
▁rail	-10.9521
ieu	-10.9523
▁compétent	-10.9525
▁Philip	-10.9525
▁Tru	-10.9531
▁gras	-10.9532
▁Men	-10.9534
▁récent	-10.9536
▁97	-10.9537
▁Good	-10.9543
▁superbe	-10.9548
▁consumption	-10.956
▁irre	-10.9563
▁George	-10.9565
▁courriel	-10.9566
▁trace	-10.9577
▁inclusion	-10.9585
▁declare	-10.9589
▁résolu	-10.959
▁Express	-10.9591
▁Food	-10.9592
CP	-10.9595
▁length	-10.9597
▁expense	-10.9598
▁hausse	-10.9598
▁Blue	-10.9598
▁withdraw	-10.9602
▁sauf	-10.9604
▁réfugiés	-10.9606
▁expenditure	-10.9608
▁construire	-10.9612
▁capture	-10.9613
▁Robert	-10.9617
DC	-10.9618
▁ignore	-10.9629
▁index	-10.963
▁dispute	-10.9631
▁Hall	-10.9637
▁relève	-10.9638
▁urbain	-10.9638
▁carrière	-10.9638
▁Financial	-10.9647
▁couche	-10.9648
▁Pack	-10.9649
▁graphique	-10.9653
▁harmonis	-10.9656
▁deposit	-10.9659
▁bloc	-10.9661
FOR	-10.9664
▁chat	-10.9664
▁stade	-10.9668
▁hébergement	-10.967
▁combination	-10.9675
▁railway	-10.9677
▁diversity	-10.9682
PO	-10.9684
▁rappel	-10.9686
▁exceptionnelle	-10.9689
▁Such	-10.9692
▁agency	-10.9693
▁registration	-10.9694
▁audience	-10.9701
édé	-10.9702
▁contemporain	-10.9703
▁Control	-10.9708
▁greatest	-10.971
▁provenant	-10.9716
▁Safety	-10.9716
▁Network	-10.9721
prés	-10.9728
▁wo	-10.973
▁rappelle	-10.9732
▁Korea	-10.9736
▁Question	-10.9737
▁Transport	-10.9739
▁flexibility	-10.974
▁condemn	-10.9741
▁appartien	-10.9742
▁primary	-10.975
▁scheme	-10.9756
▁écart	-10.9759
▁piste	-10.9765
ographie	-10.9772
▁Greece	-10.9772
responsibilities	-10.9777
▁intermédiaire	-10.9784
▁afford	-10.9786
▁metres	-10.9787
▁intelligent	-10.9788
▁contrast	-10.9792
▁Moyen	-10.9797
▁voit	-10.9799
▁Unfortunate	-10.9806
▁parliamentary	-10.9807
92	-10.9812
▁chain	-10.9815
▁ride	-10.9816
în	-10.9816
▁textile	-10.9822
▁availability	-10.9824
▁School	-10.9824
19	-10.9824
▁déterminé	-10.9825
▁contrar	-10.9828
▁Product	-10.983
▁strength	-10.9832
▁Special	-10.9837
▁inspection	-10.9843
▁fusion	-10.9844
▁néanmoins	-10.9846
▁06	-10.9847
▁espérons	-10.9857
▁Bush	-10.9868
▁elected	-10.9873
IX	-10.9874
▁temperature	-10.9874
▁navire	-10.9878
▁inférieur	-10.9887
▁introduit	-10.99
▁aircraft	-10.9903
BA	-10.9914
▁soft	-10.9917
▁contraint	-10.9919
▁Dès	-10.9923
▁Located	-10.9925
TION	-10.9926
▁handle	-10.9929
▁règle	-10.9931
▁sensitive	-10.9944
▁Four	-10.995
▁démarche	-10.9961
▁07	-10.9964
▁typique	-10.9966
▁qualification	-10.9972
▁furnished	-10.9973
▁memory	-10.9974
▁birth	-10.9975
▁conseiller	-10.9976
▁grav	-10.9976
▁Fondation	-10.9977
▁Angel	-10.9979
▁midi	-10.9983
azi	-10.9986
▁importation	-10.9986
▁optimal	-10.9988
▁casino	-10.9995
▁robot	-10.9998
▁04	-10.9998
▁governance	-11.0002
▁awareness	-11.0005
▁concours	-11.001
▁Aucun	-11.0014
▁restore	-11.0014
▁Switzerland	-11.0016
▁écologique	-11.0017
▁1993	-11.0017
cular	-11.0023
▁burden	-11.0028
▁champion	-11.0042
▁Petit	-11.0045
▁wonder	-11.0048
▁push	-11.0054
▁parvenu	-11.0055
▁intéresse	-11.0056
▁Église	-11.0057
▁economies	-11.0061
94	-11.0064
▁regulatory	-11.0064
▁circonstances	-11.007
▁identity	-11.0071
▁logique	-11.0072
▁flag	-11.0074
▁beauty	-11.0074
▁évidence	-11.0076
▁chemical	-11.0077
▁inquiétude	-11.0077
▁Balkans	-11.0078
▁tôt	-11.0079
▁personnalisé	-11.0081
▁threaten	-11.0082
▁revêt	-11.0089
▁involv	-11.009
▁russe	-11.0093
well	-11.0094
▁tombe	-11.0109
▁célébr	-11.0121
▁Science	-11.0124
▁Santa	-11.0125
▁contemporary	-11.0127
ANT	-11.0127
▁Project	-11.0131
▁fashion	-11.0131
▁football	-11.0131
▁défendre	-11.0139
▁Invest	-11.0142
▁ravi	-11.0146
▁classic	-11.0148
▁interdiction	-11.015
▁96	-11.0153
▁Protection	-11.0155
▁producers	-11.0159
▁glass	-11.016
▁PRO	-11.0161
▁Women	-11.0169
▁exactement	-11.0173
▁franchi	-11.0173
▁hauteur	-11.0176
▁renforcé	-11.0181
▁satisfait	-11.0188
▁modified	-11.0191
▁dollar	-11.0201
▁Two	-11.0204
▁River	-11.0208
▁préparé	-11.0214
▁participat	-11.0216
▁PDF	-11.0219
▁flat	-11.0233
▁bibliothèque	-11.0234
▁température	-11.0246
▁voyageurs	-11.025
▁mille	-11.0253
hotel	-11.0259
▁quotas	-11.0266
▁impliqué	-11.0267
▁Golf	-11.0267
▁enormous	-11.0272
▁législatif	-11.0272
▁Belarus	-11.0276
▁atelier	-11.0277
▁approximately	-11.0279
▁tentative	-11.0279
▁Excel	-11.0279
▁Bell	-11.0284
▁luxury	-11.0284
▁Irish	-11.0288
velopp	-11.0289
▁flux	-11.0292
▁Access	-11.0293
▁démontre	-11.0293
▁augmente	-11.0296
▁ratification	-11.0306
▁Parmi	-11.0307
emergency	-11.0308
▁gift	-11.0309
▁Take	-11.0313
▁manipul	-11.0319
▁monetar	-11.0319
▁reconstruction	-11.032
▁souci	-11.0321
▁officiel	-11.0322
▁souligne	-11.0331
▁variété	-11.0346
wood	-11.035
▁preserve	-11.035
▁fonctionnalité	-11.0357
▁amateur	-11.0358
▁Société	-11.036
▁quotidienne	-11.0363
▁Department	-11.0366
▁putting	-11.0369
OUR	-11.037
▁verbal	-11.037
unk	-11.0386
▁suitable	-11.0389
▁strategies	-11.0396
▁devait	-11.0396
▁externe	-11.0396
▁Summit	-11.04
▁Life	-11.0402
▁phénomène	-11.0403
▁derrière	-11.0403
▁Appartement	-11.0404
▁winter	-11.0406
▁nommé	-11.0408
▁encontre	-11.0411
QUE	-11.0412
▁immense	-11.0413
▁légère	-11.0417
▁cultiv	-11.0419
▁ultra	-11.0423
▁drogue	-11.0427
▁directrice	-11.0432
▁bras	-11.0438
▁imagina	-11.0439
▁radi	-11.0446
▁conviction	-11.045
▁kilomètres	-11.0451
▁Eastern	-11.0453
▁Grèce	-11.0461
▁authentic	-11.0465
▁2013	-11.0471
▁password	-11.0481
▁resource	-11.0481
▁parcours	-11.0482
▁entitled	-11.0482
▁equality	-11.0485
▁marchandises	-11.0488
▁architect	-11.0488
▁panel	-11.0488
▁aérien	-11.049
▁browser	-11.0491
▁Brazil	-11.0495
▁dress	-11.051
▁gouvernance	-11.0514
▁indépendance	-11.0514
▁terrible	-11.0516
▁Custom	-11.0516
▁magn	-11.0519
▁prohibit	-11.052
▁viande	-11.053
▁alarm	-11.0531
▁catalogue	-11.0531
▁asylum	-11.0531
▁passagers	-11.0532
▁boot	-11.0535
oï	-11.0544
▁supplier	-11.0549
▁volontaire	-11.0552
▁descend	-11.0555
▁chapitre	-11.0555
ã	-11.0558
▁décennie	-11.0559
▁Those	-11.057
▁marqué	-11.057
constitu	-11.0575
rounded	-11.0576
▁chauffage	-11.0578
▁delegation	-11.0578
▁VIH	-11.0599
▁matériaux	-11.06
MD	-11.0601
▁unacceptable	-11.0617
▁intensif	-11.0622
▁Barroso	-11.0636
▁disposal	-11.0636
▁église	-11.0638
▁feuille	-11.0642
▁mistake	-11.0647
▁sharing	-11.0648
▁représentation	-11.065
▁défend	-11.0657
▁competence	-11.0657
▁endorse	-11.0666
▁familiar	-11.067
▁déficit	-11.067
▁White	-11.0674
GI	-11.0675
▁voici	-11.0679
▁define	-11.0681
▁Malheureusem	-11.0684
▁détente	-11.0685
▁pair	-11.069
▁yesterday	-11.0695
▁wealth	-11.0696
▁advise	-11.0698
▁reflète	-11.07
▁agisse	-11.07
▁dinner	-11.0705
▁witness	-11.0708
▁revenir	-11.0714
▁voulu	-11.0721
▁distinction	-11.0722
▁boîte	-11.0724
▁Ville	-11.0726
▁essence	-11.0727
▁tennis	-11.0733
▁declaration	-11.0735
▁reproduction	-11.0738
▁commis	-11.0739
▁Another	-11.074
▁interprétation	-11.0741
▁transmis	-11.0745
▁confront	-11.0747
▁tonnes	-11.0749
▁Enterprise	-11.0754
▁heritage	-11.0755
▁miles	-11.0758
temporary	-11.0764
▁outstanding	-11.0768
▁permission	-11.077
▁frame	-11.0773
▁gold	-11.0777
▁souhaiterai	-11.0797
▁poursuite	-11.0799
▁category	-11.08
▁géographique	-11.0801
FC	-11.0818
▁palestinien	-11.082
▁salaire	-11.0821
▁souvenir	-11.0826
▁froid	-11.0839
▁rendement	-11.084
▁Canadiens	-11.0848
ITE	-11.0848
▁proud	-11.0849
▁survey	-11.0852
▁edge	-11.0853
▁student	-11.0854
▁approval	-11.0856
▁sauvegarde	-11.0858
▁combien	-11.0858
▁accompagné	-11.0859
▁father	-11.086
▁storage	-11.0861
▁Point	-11.0866
▁attractive	-11.0881
▁Chambre	-11.0893
▁élaboré	-11.0893
▁fasse	-11.0894
▁Data	-11.0897
▁implant	-11.0905
▁gender	-11.0907
▁Finland	-11.0912
▁advertising	-11.0925
pati	-11.0935
▁mène	-11.0941
м	-11.0954
▁ISO	-11.0954
▁révolution	-11.0955
▁échec	-11.096
▁acquire	-11.0963
▁default	-11.0963
▁socio	-11.0965
▁château	-11.0967
éanmoins	-11.0967
▁privat	-11.0969
▁incorporat	-11.0976
▁Mexico	-11.098
plan	-11.0981
▁satisfaire	-11.0988
▁string	-11.0991
▁Charles	-11.0994
▁dépôt	-11.0996
▁Commentaires	-11.1005
▁remarquable	-11.1008
space	-11.1014
▁Obama	-11.1022
▁felt	-11.1033
▁driving	-11.1037
▁théâtre	-11.1042
▁zu	-11.1043
▁wild	-11.1045
▁politics	-11.1048
▁aérienne	-11.1054
▁worse	-11.1064
▁Friday	-11.1064
▁réagi	-11.1078
ouille	-11.1089
▁Gall	-11.1091
▁extrême	-11.1093
ú	-11.1097
▁inclure	-11.1097
▁technological	-11.1098
▁égal	-11.1101
▁Third	-11.1102
▁arbre	-11.1105
▁artistique	-11.1106
▁detect	-11.1107
▁Facilities	-11.1107
▁Ensuite	-11.1119
▁joué	-11.112
▁Permettez	-11.1122
▁temporaire	-11.1128
▁trading	-11.1132
▁douce	-11.1138
▁Haut	-11.1148
▁libéralisation	-11.1151
▁prétend	-11.1151
▁medicine	-11.1157
▁imposé	-11.1166
▁extraordinaire	-11.117
▁émerge	-11.1172
AGE	-11.1175
▁smoking	-11.1178
▁considérer	-11.1181
▁mondialisation	-11.1181
▁élaborer	-11.1185
▁sympath	-11.1186
▁relate	-11.119
▁varié	-11.1203
▁Casino	-11.1206
▁ambitieu	-11.1206
▁Software	-11.1218
▁opérationnel	-11.1222
▁brain	-11.1225
▁sponsor	-11.1226
▁animation	-11.1226
▁vivent	-11.1227
▁WTO	-11.1236
▁inacceptable	-11.1241
▁rénové	-11.1241
▁copyright	-11.1251
▁Sunday	-11.1257
▁OECD	-11.1266
▁OMC	-11.1266
▁quotidien	-11.1267
▁mélange	-11.1271
▁Through	-11.1274
▁stabilis	-11.1275
▁Palace	-11.1277
▁Turkish	-11.1281
▁courrier	-11.1287
▁calendrier	-11.1292
▁Democrats	-11.1293
▁Enjoy	-11.1294
▁Gaza	-11.1295
▁chocolat	-11.13
▁Greek	-11.1306
▁neither	-11.1321
▁pretty	-11.1322
▁employeur	-11.1333
▁Earth	-11.1335
▁keyword	-11.1337
▁qualified	-11.1339
▁Belgium	-11.1341
▁Water	-11.1343
▁vélo	-11.1346
▁pétrole	-11.1347
▁Musée	-11.1347
▁nearby	-11.1347
▁loan	-11.1357
▁sexuelle	-11.136
▁consommateur	-11.1371
▁professeur	-11.1371
▁iron	-11.1372
▁amélioré	-11.138
▁intense	-11.138
hydr	-11.1383
▁acid	-11.1384
▁connaît	-11.1389
▁équilibré	-11.1392
▁interaction	-11.1392
▁heavy	-11.1403
▁navigateur	-11.1409
▁reproduc	-11.1417
▁terminé	-11.142
▁overlook	-11.1431
▁constitué	-11.1438
▁convergence	-11.1446
▁Before	-11.1449
mettant	-11.1458
▁leisure	-11.1459
respons	-11.1461
▁AIDS	-11.1463
▁richesse	-11.1465
▁outdoor	-11.1478
▁Dublin	-11.1491
▁prennent	-11.1516
▁renouvelable	-11.1525
▁journey	-11.1528
▁lounge	-11.1528
▁intellectual	-11.1531
crypt	-11.1536
▁vocation	-11.1541
mount	-11.1546
▁immobilier	-11.1547
▁creative	-11.1547
▁Aussi	-11.1555
GR	-11.1569
▁complémentaire	-11.1578
▁Milan	-11.1581
▁opérateur	-11.1582
▁XVI	-11.1584
▁subsequent	-11.1592
▁Finance	-11.1593
▁1991	-11.1596
▁analys	-11.1598
▁conciliation	-11.1598
▁pattern	-11.16
▁supervision	-11.1601
▁warrant	-11.1605
▁collectivité	-11.1609
▁ambitious	-11.1609
logical	-11.161
▁Czech	-11.161
▁charming	-11.1614
▁cinéma	-11.1615
▁Barcelone	-11.1618
▁avocat	-11.1619
▁rencontré	-11.162
▁bénéficia	-11.162
▁accrue	-11.1622
18	-11.1623
▁produis	-11.1628
▁méditerranéen	-11.1631
▁Nouvelle	-11.1632
▁supprimer	-11.164
ika	-11.1644
▁Garden	-11.1653
▁Nevertheless	-11.1654
▁independence	-11.1659
▁spring	-11.1664
▁scolaire	-11.1667
▁constitutionnel	-11.1676
▁Japanese	-11.1678
▁Londres	-11.168
▁exceed	-11.1684
▁dark	-11.1686
▁participé	-11.1689
▁alliance	-11.1689
▁recueilli	-11.1692
▁experiment	-11.1702
▁fitness	-11.1705
▁biggest	-11.1711
▁remote	-11.1715
▁deficit	-11.1716
▁Executive	-11.1717
▁Travel	-11.172
▁Côte	-11.1723
▁enseignant	-11.1727
▁straight	-11.1728
▁Rotary	-11.1732
▁Standard	-11.1733
▁silence	-11.1733
▁Square	-11.1738
▁ascenseur	-11.1747
▁Ouest	-11.1748
▁qualit	-11.1752
▁Corporation	-11.1762
▁Florence	-11.1762
▁Prince	-11.1767
▁domain	-11.1776
▁manuel	-11.1779
▁Energy	-11.1784
▁procédé	-11.179
▁terminer	-11.1791
▁criminel	-11.1797
▁recette	-11.18
▁celebrate	-11.1803
▁permettez	-11.1803
▁teaching	-11.1808
▁tackle	-11.1808
▁obtien	-11.181
▁supplement	-11.1811
▁bientôt	-11.1811
▁Common	-11.1816
▁perdre	-11.1816
off	-11.1824
ulate	-11.1825
▁rejoindre	-11.1829
▁Contact	-11.1829
▁Communication	-11.183
▁participant	-11.1841
▁Protocol	-11.1841
▁évoqué	-11.1843
▁retrait	-11.1849
▁Employ	-11.1853
▁deserve	-11.186
▁Agriculture	-11.1864
▁vérifi	-11.1876
Maintenant	-11.188
▁substitu	-11.1888
▁écho	-11.189
▁biodiversit	-11.1893
▁cadeau	-11.1894
▁habitude	-11.1894
▁bridge	-11.1898
▁Netherlands	-11.1899
▁Culture	-11.1906
▁ongoing	-11.1909
▁manufacturing	-11.1917
▁contenant	-11.1917
▁donnant	-11.192
▁annexe	-11.1928
▁weekend	-11.1929
▁reliable	-11.1932
▁concession	-11.1933
▁Présidence	-11.1943
▁entente	-11.1953
▁posséd	-11.1954
▁dispositif	-11.1965
▁paraît	-11.197
▁cohérent	-11.197
▁upgrade	-11.1983
▁formulé	-11.1987
▁Multi	-11.1989
▁bottom	-11.1991
▁emprunt	-11.1996
▁flexibilité	-11.1998
▁Michael	-11.2006
▁accurate	-11.2014
▁préserver	-11.203
▁exceptionnel	-11.2034
▁biologique	-11.2038
▁vendredi	-11.2043
▁exhaust	-11.205
▁score	-11.2053
▁primarily	-11.2056
▁sleep	-11.2056
▁occidental	-11.2063
▁décharge	-11.2063
▁guitar	-11.2066
▁Monday	-11.2068
▁nourriture	-11.207
▁requête	-11.2073
▁honneur	-11.2073
▁southern	-11.2073
▁retail	-11.2094
▁infraction	-11.2099
▁définitive	-11.2102
▁invitation	-11.2113
▁Belgique	-11.2129
▁sovereign	-11.2129
▁expectations	-11.2131
▁communiqué	-11.2135
aimed	-11.214
▁opposite	-11.2145
▁stimulat	-11.2154
▁dishes	-11.2157
▁repair	-11.2163
▁diminue	-11.217
▁bleu	-11.217
▁Bulgaria	-11.2173
▁renewable	-11.2183
▁électricité	-11.2183
▁Word	-11.2185
▁Chamber	-11.219
▁Personne	-11.2197
▁irlandais	-11.2198
▁Malgré	-11.2203
▁contribut	-11.2206
▁snow	-11.2207
▁naissance	-11.2226
▁broadcast	-11.2226
▁rivière	-11.2231
▁attentive	-11.2238
▁personnage	-11.2246
▁furniture	-11.2248
▁Prague	-11.2261
▁augmenté	-11.2266
▁realize	-11.2271
▁insert	-11.2274
▁gouvern	-11.2287
▁Federal	-11.2288
▁revolution	-11.2295
▁Kyoto	-11.2298
▁behaviour	-11.23
▁Assembly	-11.2305
▁merely	-11.2307
▁disposon	-11.2309
д	-11.2311
▁rythme	-11.2311
▁interior	-11.2313
▁légitime	-11.2321
▁autoroute	-11.2321
▁contribué	-11.2323
▁expensive	-11.2338
▁prévenir	-11.2338
▁physi	-11.2349
▁fréquent	-11.2353
▁soulevé	-11.2354
environnementale	-11.2357
▁communicate	-11.2367
▁ferroviaire	-11.2377
▁Washington	-11.238
▁changé	-11.2386
▁institut	-11.2389
▁statistics	-11.239
ë	-11.2397
▁nutrition	-11.2409
î	-11.2413
▁Despite	-11.2424
▁journaux	-11.2424
▁croire	-11.2427
▁Ministry	-11.2429
▁sélectionné	-11.243
▁succ	-11.2438
▁prompt	-11.2446
▁decorated	-11.2447
▁relever	-11.245
▁suspect	-11.245
▁Pologne	-11.2453
▁conversion	-11.2474
▁arabe	-11.248
flex	-11.2486
▁amazing	-11.2489
▁Dutch	-11.2503
▁vérification	-11.251
▁incentive	-11.2518
▁clinic	-11.252
▁Plusieur	-11.2523
▁severe	-11.2534
▁approbation	-11.254
▁criticism	-11.2544
▁promenade	-11.2544
▁affiché	-11.2544
▁représenté	-11.2547
▁Gentoo	-11.2551
▁détaillée	-11.2551
▁Roumanie	-11.2552
▁Rapport	-11.2554
▁intervenir	-11.2564
▁Australia	-11.2571
▁conversation	-11.2594
▁compréhension	-11.2595
▁impressive	-11.2597
▁Year	-11.2601
▁simplifie	-11.2616
▁renovated	-11.2625
▁switch	-11.2628
▁Organization	-11.2633
▁valuable	-11.2633
▁Document	-11.2635
▁évalu	-11.2638
▁ethnic	-11.2639
▁stories	-11.2646
▁Strategy	-11.2651
▁phrase	-11.2652
▁leaving	-11.2663
▁admit	-11.2668
▁suffi	-11.2676
▁Video	-11.2687
▁intensive	-11.2689
▁possibilities	-11.2694
▁nettoyage	-11.2699
▁reinforce	-11.2708
▁couvre	-11.2711
▁incidence	-11.2713
▁abroad	-11.2752
▁depth	-11.2754
▁Welcome	-11.2764
▁anniversaire	-11.2764
▁suppression	-11.2778
▁disappear	-11.2783
▁Agenda	-11.2787
▁Radio	-11.2787
employed	-11.2804
▁shift	-11.2812
▁télécommunicati	-11.2815
▁maître	-11.2819
▁partagé	-11.2821
▁extreme	-11.2833
▁Studio	-11.2836
п	-11.2845
▁Tribunal	-11.2847
▁témoin	-11.2847
sphere	-11.2849
▁possib	-11.2863
▁Private	-11.2866
▁chanson	-11.287
▁console	-11.2874
▁déplacement	-11.2884
mouth	-11.2885
▁Seigneur	-11.2888
▁Geneva	-11.2888
▁artisan	-11.2897
▁significative	-11.29
▁splendid	-11.2911
▁introduire	-11.2925
▁Meeting	-11.2925
▁Sweden	-11.2929
▁dimanche	-11.293
▁alcool	-11.2934
▁Palm	-11.2936
▁inscrire	-11.2945
▁empêche	-11.2945
▁lancement	-11.295
▁provoque	-11.2952
▁glad	-11.2955
▁affairs	-11.2955
▁immeuble	-11.2957
▁habituelle	-11.296
▁dominant	-11.2967
▁corporation	-11.2968
▁lundi	-11.2989
▁rational	-11.2998
▁allocation	-11.3002
▁incroyable	-11.3011
▁Society	-11.3015
▁confidentialité	-11.302
▁agissant	-11.3028
▁burn	-11.3029
▁configure	-11.3033
▁Regional	-11.3038
▁religieuse	-11.304
▁Saturday	-11.3042
▁résistance	-11.3047
▁pacte	-11.305
▁Personal	-11.3051
▁alert	-11.3051
▁Zimbabwe	-11.3054
▁inspiration	-11.306
▁Exchange	-11.3074
▁dîner	-11.3075
▁auparavant	-11.3076
▁modalité	-11.308
▁aviation	-11.3089
▁éthique	-11.3094
▁applicant	-11.3101
▁Secretary	-11.3105
▁steel	-11.311
▁remplacer	-11.3116
Whether	-11.312
▁wave	-11.3127
▁weather	-11.3129
▁binding	-11.3136
▁nourri	-11.314
▁terminal	-11.315
▁inutile	-11.3154
▁cocktail	-11.3176
▁Support	-11.3178
▁thorough	-11.3182
▁multinational	-11.3193
▁maîtrise	-11.3198
▁translate	-11.3199
▁Atlantic	-11.3207
▁Flash	-11.3207
▁discharge	-11.3211
▁senior	-11.3215
▁organes	-11.3224
▁rétabli	-11.3228
▁jurisdiction	-11.3229
▁retenu	-11.3229
▁mobility	-11.3231
▁intelligence	-11.3233
у	-11.3237
▁killed	-11.3237
▁opportun	-11.3238
▁settlement	-11.3259
▁répertoire	-11.3261
▁Airbus	-11.3277
▁entertainment	-11.3279
▁régler	-11.3281
▁Jésus	-11.3285
▁dirigé	-11.3285
▁remboursement	-11.3292
▁library	-11.3296
▁négatif	-11.3301
issi	-11.3302
▁capitaux	-11.3309
▁eligible	-11.3312
▁OCDE	-11.3318
▁Muslim	-11.3322
▁dédié	-11.3333
▁Affaires	-11.3348
▁producing	-11.3349
field	-11.3351
▁peinture	-11.3353
▁intitulé	-11.3361
▁japonais	-11.3379
▁génétique	-11.3383
▁parallèle	-11.3389
▁animé	-11.3389
▁milk	-11.3389
▁Manager	-11.3396
ICE	-11.3398
▁enforcement	-11.3409
▁sustain	-11.3421
▁conduire	-11.3424
▁smooth	-11.3432
▁câble	-11.3441
▁rayon	-11.3442
▁housing	-11.3445
▁éliminer	-11.3447
▁Bretagne	-11.3452
▁newspaper	-11.3452
ography	-11.3453
▁Brésil	-11.3454
▁vulnerable	-11.3465
▁wheel	-11.3467
▁Resort	-11.347
▁vallée	-11.3486
▁Minutes	-11.349
▁financé	-11.3494
▁wireless	-11.3497
▁interactive	-11.3507
▁pouvai	-11.3508
▁facility	-11.3516
▁Jacques	-11.352
▁amenities	-11.3528
▁Family	-11.3537
▁mutuelle	-11.3543
▁Champion	-11.3543
▁évolue	-11.3565
ación	-11.3595
▁worry	-11.3596
▁consomm	-11.3609
▁Méditerranée	-11.3617
▁étudier	-11.3617
▁Palais	-11.3617
▁sample	-11.3624
▁understood	-11.3631
▁investisseurs	-11.3636
▁accompanie	-11.3638
▁Eglise	-11.3642
▁spacieuse	-11.3646
▁northern	-11.3646
▁GNU	-11.365
▁laboratoire	-11.3654
▁avancé	-11.3658
▁receiving	-11.3665
▁liability	-11.3672
▁emerging	-11.368
▁promesse	-11.3684
▁pourrions	-11.3699
▁plénière	-11.3702
▁combinaison	-11.3713
▁Thursday	-11.3727
▁reconnaît	-11.3731
▁absorb	-11.3746
▁Legal	-11.3765
▁afternoon	-11.3771
▁politicians	-11.3777
▁Capital	-11.3791
▁segment	-11.3794
▁cabinet	-11.3794
▁exprime	-11.3796
▁Northern	-11.3804
truck	-11.3805
00,000	-11.3806
▁traduit	-11.3818
▁rubrique	-11.3832
▁conformité	-11.3832
▁immunit	-11.3832
▁musulman	-11.3835
▁valable	-11.3851
▁Procedure	-11.3855
▁female	-11.3863
▁langage	-11.3887
▁ruin	-11.3895
▁équivalent	-11.3896
▁ultérieur	-11.3902
▁Nigeria	-11.3912
▁racism	-11.3926
▁harmonie	-11.3934
▁dizaine	-11.394
▁voluntary	-11.3947
▁royal	-11.3958
▁Adobe	-11.3971
▁genetic	-11.3973
▁randonnée	-11.3975
▁explanation	-11.3983
▁Blanc	-11.3993
▁await	-11.4
nstead	-11.4001
▁volunteer	-11.4011
▁judicial	-11.4023
▁bienvenue	-11.4025
▁legitimate	-11.4031
mettons	-11.4031
▁Clean	-11.4053
▁Découvr	-11.4057
▁périphérique	-11.4063
▁titulaire	-11.4077
▁precise	-11.4083
▁Kenya	-11.4085
▁Immobilier	-11.4089
▁penalty	-11.4091
▁relance	-11.4095
▁ordinaire	-11.4097
nounc	-11.4105
▁séminaire	-11.4113
▁Install	-11.4115
▁strike	-11.4123
▁carburant	-11.4125
▁Autriche	-11.4133
▁Spirit	-11.4139
▁organic	-11.4143
dynami	-11.4143
▁undertaking	-11.4151
▁NATO	-11.4153
▁ressemble	-11.4156
tergovernmental	-11.4163
▁israélien	-11.4167
▁bébé	-11.4167
▁bilatéra	-11.4177
▁linguistique	-11.4183
▁admissible	-11.4185
Ç	-11.4818
ù	-11.4853
å	-11.497
я	-11.5267
ß	-11.5339
·	-11.555
з	-11.5821
ы	-11.5823
š	-11.5852
й	-11.6567
г	-11.7072
Â	-11.7184
č	-11.7186
ا	-11.7222
Ё	-11.7296
‐	-11.7399
α	-11.75
ò	-11.7576
♫	-11.7853
б	-11.8188
ь	-11.8221
¿	-11.8588
ł	-11.9399
Î	-11.9403
ل	-12.0167
ı	-12.03
ч	-12.0432
Ê	-12.0754
⁄	-12.0825
Ђ	-12.084
ι	-12.1027
̈	-12.1075
~	-12.1457
ο	-12.155
ε	-12.1716
τ	-12.1716
ć	-12.2088
È	-12.2331
ø	-12.2409
Р	-12.2586
æ	-12.2614
μ	-12.2637
£	-12.2977
Ö	-12.3482
ş	-12.3637
§	-12.3647
х	-12.3863
^	-12.4003
В	-12.4282
ж	-12.4287
ę	-12.4546
Š	-12.462
ي	-12.4959
م	-12.5019
ر	-12.5049
′	-12.5079
ì	-12.5616
ν	-12.5808
ن	-12.605
Á	-12.6197
و	-12.621
σ	-12.6258
ý	-12.6292
Ћ	-12.6658
ž	-12.6707
ń	-12.6835
ц	-12.7002
ă	-12.7185
ت	-12.7418
π	-12.761
ś	-12.7695
ρ	-12.7742
Є	-12.775
ш	-12.7893
κ	-12.8208
ą	-12.8341
Ѓ	-12.8366
ю	-12.8628
Ô	-12.8697
ð	-12.9012
λ	-12.903
ż	-12.9093
Ќ	-12.9111
õ	-12.9366
Ü	-12.9412
Å	-12.9887
η	-12.9936
ب	-12.9994
♪	-13.0488
υ	-13.0592
¬	-13.0686
±	-13.0803
ğ	-13.0867
د	-13.104
ф	-13.1249
́	-13.1305
ع	-13.135
ě	-13.1941
Ó	-13.2281
→	-13.2406
ί	-13.2531
ς	-13.2723
›	-13.2932
ř	-13.3051
щ	-13.3078
‹	-13.3363
ة	-13.3377
س	-13.3656
¡	-13.3713
¢	-13.3871
ف	-13.4061
Ä	-13.4091
×	-13.4106
Ž	-13.4121
¦	-13.4165
і	-13.4195
ك	-13.421
ά	-13.4407
ė	-13.4422
δ	-13.4514
ه	-13.4576
ő	-13.4701
ŕ	-13.486
ā	-13.5201
Љ	-13.5235
ό	-13.5368
Í	-13.5487
γ	-13.5624
э	-13.5868
‰	-13.5957
À	-13.6227
†	-13.6265
Њ	-13.6432
П	-13.6451
ή	-13.6892
İ	-13.6951
ÿ	-13.699
ъ	-13.705
έ	-13.7069
ў	-13.7129
أ	-13.7332
ґ	-13.7581
Ø	-13.7772
‡	-13.7966
θ	-13.7988
Č	-13.8142
Œ	-13.8344
Ε	-13.8344
ق	-13.855
К	-13.8831
ţ	-13.8951
ج	-13.8951
ō	-13.9096
ω	-13.9293
А	-13.9343
Н	-13.9419
Т	-13.952
ح	-13.991
χ	-13.9963
¤	-13.999
ش	-14.0288
М	-14.0371
О	-14.0426
ū	-14.0482
̧	-14.0652
ی	-14.13
Ґ	-14.1361
¥	-14.1423
Б	-14.1423
خ	-14.1609
Ï	-14.1672
−	-14.1672
ī	-14.1831
َ	-14.2026
ύ	-14.2461
Α	-14.2668
י	-14.2809
І	-14.288
ľ	-14.2915
ň	-14.2915
Γ	-14.3096
̀	-14.3467
●	-14.3467
Д	-14.3505
ů	-14.3581
¶	-14.3619
÷	-14.3658
إ	-14.3735
Ñ	-14.3774
Џ	-14.3892
β	-14.4051
И	-14.4051
þ	-14.4377
ط	-14.4502
―	-14.4757
̄	-14.493
ص	-14.493
・	-14.5107
Ð	-14.5151
،	-14.5151
น	-14.5287
่	-14.5656
า	-14.5703
ى	-14.5942
Τ	-14.5991
ض	-14.6188
ز	-14.6338
Ë	-14.6541
Ω	-14.6593
א	-14.6593
Ú	-14.6908
ו	-14.7015
φ	-14.7069
ƒ	-14.7178
đ	-14.7233
Ф	-14.7344
Е	-14.74
У	-14.74
Æ	-14.7512
Ś	-14.7569
ث	-14.7569
ї	-14.7742
Û	-14.78
Ş	-14.78
Ł	-14.8036
ē	-14.8096
ź	-14.8156
ร	-14.8463
ה	-14.8908
ר	-14.9106
■	-14.9106
ώ	-14.9307
ל	-14.9375
Ă	-14.9444
อ	-14.9444
Ο	-14.9513
ё	-14.9513
Õ	-14.9582
З	-14.9652
غ	-14.9722
Ν	-14.9722
ξ	-14.9937
Э	-15.0009
ก	-15.023
เ	-15.038
Ι	-15.0455
※	-15.0532
年	-15.0843
ذ	-15.0843
ม	-15.0843
ע	-15.0922
►	-15.1083
Ì	-15.1164
พ	-15.1164
ง	-15.1412
ั	-15.1412
Ý	-15.1496
Ò	-15.1581
ว	-15.1581
ศ	-15.184
้	-15.2016
✓	-15.2016
ť	-15.2658
ј	-15.2658
년	-15.2658
Л	-15.2754
̂	-15.285
ّ	-15.2947
中	-15.3144
ย	-15.3759
ک	-15.3866
▸	-15.3866
ِ	-15.3973
ด	-15.3973
ѕ	-15.4082
ค	-15.4082
、	-15.4192
≥	-15.4303
ล	-15.4303
Ù	-15.4415
ד	-15.4529
Ў	-15.4644
♥	-15.4644
日	-15.476
文	-15.476
ט	-15.476
ท	-15.4997
Đ	-15.5239
ُ	-15.5239
ะ	-15.5363
ี	-15.5488
บ	-15.5488
の	-15.5614
ב	-15.5743
ส	-15.5872
מ	-15.5872
。	-15.5873
ג	-15.5873
Ч	-15.6004
נ	-15.6137
ン	-15.6272
Þ	-15.6273
ת	-15.6273
ْ	-15.6273
↓	-15.641
ิ	-15.6689
Μ	-15.6832
ء	-15.6832
ң	-15.7273
פ	-15.7273
˾	-15.7425
本	-15.7425
ų	-15.7735
ئ	-15.7735
的	-15.7735
Η	-15.7894
є	-15.7894
Х	-15.7894
Ш	-15.8055
ש	-15.8055
【	-15.8055
】	-15.8055
Π	-15.8219
ˆ	-15.8386
̊	-15.8386
آ	-15.8386
Ż	-15.8555
カ	-15.8727
語	-15.8728
ű	-15.8728
ə	-15.8728
ầ	-15.8903
ル	-15.8903
一	-15.9082
い	-15.9082
ห	-15.9082
大	-15.9263
Κ	-15.9263
ק	-15.9263
ป	-15.9263
ʼ	-15.9449
แ	-15.9637
ً	-15.983
』	-15.983
ื	-15.983
ď	-16.0026
ņ	-16.0026
ם	-16.0026
Ц	-16.043
ơ	-16.043
─	-16.043
海	-16.043
ー	-16.0638
̤	-16.0638
Я	-16.0851
ŏ	-16.1068
ộ	-16.129
上	-16.129
љ	-16.129
ғ	-16.1518
←	-16.175
克	-16.175
Ж	-16.175
ა	-16.175
צ	-16.1988
ĕ	-16.1988
Δ	-16.1988
╚	-16.1988
╩	-16.1988
『	-16.1988
で	-16.2232
Ρ	-16.2232
ן	-16.2232
ต	-16.2232
ช	-16.2232
し	-16.2482
̃	-16.2482
Ј	-16.2482
∞	-16.2482
ე	-16.2482
כ	-16.2739
ข	-16.2739
ᑦ	-16.2739
ไ	-16.2739
イ	-16.3002
▪	-16.3002
ใ	-16.3272
多	-16.3272
オ	-16.355
ラ	-16.355
不	-16.355
ジ	-16.355
ư	-16.355
ζ	-16.355
≤	-16.355
★	-16.355
下	-16.3836
田	-16.3836
ế	-16.3836
♦	-16.413
һ	-16.413
ト	-16.4433
Β	-16.4433
ი	-16.4433
↑	-16.4433
图	-16.4433
り	-16.4433
Σ	-16.4745
茅	-16.4745
Ѕ	-16.4745
在	-16.4745
产	-16.5068
њ	-16.5068
ќ	-16.5068
ظ	-16.5068
็	-16.5068
ә	-16.5068
ļ	-16.5401
Ÿ	-16.5401
₤	-16.5401
山	-16.5401
物	-16.5401
จ	-16.5401
名	-16.5746
ǎ	-16.5746
̋	-16.5746
北	-16.5746
گ	-16.6103
ạ	-16.6103
√	-16.6103
う	-16.6103
リ	-16.6103
Φ	-16.6103
と	-16.6103
ま	-16.6103
ุ	-16.6473
ү	-16.6473
出	-16.6473
ŭ	-16.6473
ˈ	-16.6473
ћ	-16.6473
ח	-16.6473
ス	-16.6473
چ	-16.6473
三	-16.6858
ķ	-16.6858
̍	-16.6858
پ	-16.6858
ệ	-16.6858
◊	-16.6858
♣	-16.6858
っ	-16.6858
套	-16.6858
木	-16.6858
記	-16.6858
ヒ	-16.7258
る	-16.7258
Ō	-16.7258
☼	-16.7258
〈	-16.7258
浦	-16.7258
可	-16.7258
を	-16.7675
ψ	-16.7675
Ю	-16.7675
ረ	-16.7675
የ	-16.7675
〉	-16.7675
た	-16.7675
人	-16.7675
生	-16.7675
頂	-16.7675
和	-16.7675
な	-16.8109
宇	-16.8109
目	-16.8109
ͅ	-16.811
ϊ	-16.811
ס	-16.811
ᒪ	-16.811
Ľ	-16.811
も	-16.811
რ	-16.811
て	-16.8564
か	-16.8564
量	-16.8564
こ	-16.8564
は	-16.8564
家	-16.8564
ĝ	-16.8564
ұ	-16.8564
ๆ	-16.8564
是	-16.8564
路	-16.8564
顶	-16.8564
台	-16.8564
博	-16.8564
ノ	-16.904
加	-16.904
天	-16.904
ɔ	-16.904
ᑐ	-16.904
き	-16.904
す	-16.904
ん	-16.904
手	-16.904
月	-16.904
ო	-16.904
乐	-16.904
ֿ	-16.954
ؤ	-16.954
ṳ	-16.954
ề	-16.954
☀	-16.954
由	-16.954
道	-16.954
ს	-16.954
用	-16.954
站	-16.954
了	-17.0067
ז	-17.0067
დ	-17.0067
በ	-17.0067
‧	-17.0067
▧	-17.0067
市	-17.0067
梶	-17.0067
入	-17.0067
更	-17.0067
场	-17.0067
れ	-17.0622
レ	-17.0622
コ	-17.0622
直	-17.0622
Ć	-17.0622
į	-17.0622
ț	-17.0622
⋅	-17.0622
分	-17.0622
匿	-17.0622
十	-17.0622
来	-17.0622
正	-17.0622
ᓐ	-17.0622
ア	-17.0622
里	-17.0622
ᐅ	-17.0622
食	-17.0622
ถ	-17.121
ờ	-17.121
原	-17.121
Ř	-17.121
џ	-17.121
ᑕ	-17.121
ậ	-17.121
娜	-17.121
洲	-17.121
玩	-17.121
მ	-17.121
全	-17.121
网	-17.121
に	-17.1835
管	-17.1835
舞	-17.1835
ɛ	-17.1835
ṩ	-17.1835
地	-17.1835
ገ	-17.1835
ᒃ	-17.1835
ナ	-17.1835
语	-17.1835
ึ	-17.1835
ᖅ	-17.1835
ҡ	-17.1835
ู	-17.1835
ド	-17.1835
ლ	-17.1835
能	-17.1835
ら	-17.2502
Й	-17.2502
学	-17.2502
李	-17.2502
Ʒ	-17.2502
ș	-17.2502
̇	-17.2502
ө	-17.2502
ํ	-17.2502
≈	-17.2502
◆	-17.2502
◎	-17.2502
メ	-17.2502
合	-17.2502
啦	-17.2502
国	-17.2502
川	-17.2502
工	-17.2502
金	-17.2502
어	-17.2502
Ы	-17.2502
お	-17.2502
ク	-17.2502
农	-17.2502
გ	-17.2502
あ	-17.2502
青	-17.2502
比	-17.2502
这	-17.3216
增	-17.3216
成	-17.3216
会	-17.3216
ĺ	-17.3216
ː	-17.3216
۰	-17.3216
۱	-17.3216
์	-17.3216
↝	-17.3216
▓	-17.3216
❋	-17.3216
ひ	-17.3216
ᓂ	-17.3216
つ	-17.3216
切	-17.3216
ᑎ	-17.3216
品	-17.3216
而	-17.3216
娱	-17.3216
赌	-17.3216
โ	-17.3985
パ	-17.3986
Ę	-17.3986
ǔ	-17.3986
水	-17.3986
艳	-17.3986
ĉ	-17.3986
ҵ	-17.3986
۲	-17.3986
र	-17.3986
ผ	-17.3986
ይ	-17.3986
ṭ	-17.3986
ị	-17.3986
ụ	-17.3986
○	-17.3986
☆	-17.3986
」	-17.3986
五	-17.3986
刘	-17.3986
城	-17.3986
御	-17.3986
新	-17.3986
江	-17.3986
ᔪ	-17.3986
が	-17.3986
ッ	-17.3986
取	-17.3986
口	-17.3986
西	-17.3986
한	-17.3986
有	-17.3986
መ	-17.4819
ጨ	-17.4819
之	-17.4819
法	-17.4819
Λ	-17.4819
マ	-17.4819
二	-17.4819
剥	-17.4819
明	-17.4819
豆	-17.4819
Ĉ	-17.4819
Ť	-17.4819
̆	-17.4819
ा	-17.4819
्	-17.4819
೯	-17.4819
ณ	-17.4819
ህ	-17.4819
ም	-17.4819
ሻ	-17.4819
ቀ	-17.4819
ተ	-17.4819
አ	-17.4819
ኣ	-17.4819
እ	-17.4819
ው	-17.4819
ዓ	-17.4819
ጽ	-17.4819
፣	-17.4819
ᓄ	-17.4819
ả	-17.4819
ể	-17.4819
ố	-17.4819
▼	-17.4819
➲	-17.4819
じ	-17.4819
厂	-17.4819
寺	-17.4819
島	-17.4819
建	-17.4819
東	-17.4819
松	-17.4819
雄	-17.4819
이	-17.4819
ᐊ	-17.4819
将	-17.4819
美	-17.4819
ნ	-17.4819
テ	-17.4819
安	-17.4819
よ	-17.5728
业	-17.5728
サ	-17.5728
ـ	-17.5728
ɑ	-17.5728
Υ	-17.5728
վ	-17.5728
ớ	-17.5728
「	-17.5728
ミ	-17.5728
九	-17.5728
体	-17.5728
修	-17.5728
八	-17.5728
区	-17.5728
子	-17.5728
石	-17.5728
载	-17.5728
通	-17.5728
餅	-17.5728
국	-17.5728
チ	-17.5728
化	-17.5728
持	-17.5728
机	-17.5728
民	-17.5728
込	-17.5728
ᕐ	-17.5728
ኦ	-17.5728
容	-17.5728
思	-17.5728
さ	-17.6728
也	-17.6728
以	-17.6728
ᐃ	-17.6728
前	-17.6728
四	-17.6728
Ь	-17.6728
せ	-17.6728
第	-17.6728
ĩ	-17.6728
ĵ	-17.6728
ǐ	-17.6728
ҙ	-17.6728
ך	-17.6728
म	-17.6728
ắ	-17.6728
⇒	-17.6728
⇢	-17.6728
◙	-17.6728
京	-17.6728
去	-17.6728
宮	-17.6728
忻	-17.6728
林	-17.6728
核	-17.6728
県	-17.6728
福	-17.6728
風	-17.6728
馬	-17.6728
Ĺ	-17.6728
қ	-17.6728
ケ	-17.6728
タ	-17.6728
戴	-17.6728
王	-17.6728
腹	-17.6728
ᓯ	-17.6728
如	-17.6728
店	-17.6728
行	-17.6728
良	-17.6728
ᖏ	-17.6728
け	-17.7839
く	-17.7839
们	-17.7839
尽	-17.7839
平	-17.7839
部	-17.7839
雷	-17.7839
伊	-17.7839
回	-17.7839
步	-17.7839
ʃ	-17.7839
ʾ	-17.7839
ธ	-17.7839
‟	-17.7839
∑	-17.7839
わ	-17.7839
杨	-17.7839
此	-17.7839
音	-17.7839
﴿	-17.7839
Ė	-17.7839
Χ	-17.7839
ָ	-17.7839
შ	-17.7839
ᔾ	-17.7839
ṣ	-17.7839
余	-17.7839
到	-17.7839
越	-17.7839
フ	-17.7839
得	-17.7839
足	-17.7839
重	-17.7839
ტ	-17.7839
ᓴ	-17.7839
爱	-17.7839
种	-17.7839
球	-17.7839
相	-17.7839
但	-17.7839
ᑯ	-17.9089
関	-17.9089
降	-17.9089
Ğ	-17.9089
೦	-17.9089
ภ	-17.9089
ペ	-17.9089
力	-17.9089
庆	-17.9089
最	-17.9089
Ā	-17.9089
Ē	-17.9089
Ħ	-17.9089
Θ	-17.9089
Ϻ	-17.9089
۹	-17.9089
०	-17.9089
্	-17.9089
ღ	-17.9089
ᓇ	-17.9089
ấ	-17.9089
ở	-17.9089
亚	-17.9089
南	-17.9089
吧	-17.9089
器	-17.9089
客	-17.9089
焼	-17.9089
米	-17.9089
藤	-17.9089
辑	-17.9089
郎	-17.9089
鄉	-17.9089
风	-17.9089
デ	-17.9089
包	-17.9089
晏	-17.9089
知	-17.9089
过	-17.9089
颖	-17.9089
೧	-17.9089
ვ	-17.9089
უ	-17.9089
ᒧ	-17.9089
ゃ	-17.9089
エ	-17.9089
シ	-17.9089
ブ	-17.9089
稻	-17.9089
高	-17.9089
使	-17.9089
支	-18.0517
养	-18.0518
利	-18.0518
動	-18.0518
崎	-18.0518
标	-18.0518
迅	-18.0518
进	-18.0518
只	-18.0518
无	-18.0518
未	-18.0518
産	-18.0518
見	-18.0518
Έ	-18.0518
ợ	-18.0518
主	-18.0518
事	-18.0518
初	-18.0518
担	-18.0518
ħ	-18.0518
ɨ	-18.0518
ΰ	-18.0518
Ϣ	-18.0518
ђ	-18.0518
ѯ	-18.0518
Ҫ	-18.0518
Ԥ	-18.0518
؛	-18.0518
ہ	-18.0518
۳	-18.0518
ग	-18.0518
୨	-18.0518
ซ	-18.0518
ር	-18.0518
ቶ	-18.0518
ክ	-18.0518
ᒻ	-18.0518
ᔭ	-18.0518
ễ	-18.0518
ọ	-18.0518
✿	-18.0518
〜	-18.0518
ぐ	-18.0518
ウ	-18.0518
世	-18.0518
作	-18.0518
元	-18.0518
公	-18.0518
升	-18.0518
参	-18.0518
友	-18.0518
吗	-18.0518
変	-18.0518
小	-18.0518
座	-18.0518
泉	-18.0518
洗	-18.0518
神	-18.0518
若	-18.0518
茶	-18.0518
長	-18.0518
阪	-18.0518
에	-18.0518
﴾	-18.0518
ょ	-18.0518
ユ	-18.0518
为	-18.0518
几	-18.0518
富	-18.0518
立	-18.0518
非	-18.0518
Щ	-18.0518
ᒥ	-18.0518
場	-18.0518
だ	-18.0518
プ	-18.0518
东	-18.0518
内	-18.0518
料	-18.0518
都	-18.0518
关	-18.0518
ば	-18.2184
円	-18.2184
感	-18.2184
ᑲ	-18.2184
术	-18.2184
系	-18.2184
紧	-18.2184
კ	-18.2184
于	-18.2184
变	-18.2184
技	-18.2184
永	-18.2184
流	-18.2184
片	-18.2184
科	-18.2184
谷	-18.2184
Ą	-18.2184
ȇ	-18.2184
Ξ	-18.2184
ษ	-18.2184
ᕙ	-18.2184
後	-18.2184
心	-18.2184
稲	-18.2184
Ŕ	-18.2184
ɪ	-18.2184
ʀ	-18.2184
ʻ	-18.2184
Ҡ	-18.2184
ӱ	-18.2184
չ	-18.2184
ף	-18.2184
٭	-18.2184
त	-18.2184
न	-18.2184
े	-18.2184
୧	-18.2184
೫	-18.2184
ญ	-18.2184
ồ	-18.2184
ứ	-18.2184
⇗	-18.2184
│	-18.2184
╦	-18.2184
え	-18.2184
ど	-18.2184
み	-18.2184
ツ	-18.2184
ネ	-18.2184
动	-18.2184
呼	-18.2184
定	-18.2184
岡	-18.2184
州	-18.2184
当	-18.2184
所	-18.2184
斗	-18.2184
旗	-18.2184
歌	-18.2184
死	-18.2184
清	-18.2184
湯	-18.2184
珠	-18.2184
百	-18.2184
社	-18.2184
空	-18.2184
竹	-18.2184
素	-18.2184
者	-18.2184
获	-18.2184
赤	-18.2184
野	-18.2184
鏡	-18.2184
长	-18.2184
问	-18.2184
集	-18.2184
館	-18.2184
黄	-18.2184
기	-18.2184
는	-18.2184
다	-18.2184
시	-18.2184
영	-18.2184
우	-18.2184
의	-18.2184
하	-18.2184
Ď	-18.2184
ṇ	-18.2184
ざ	-18.2184
ニ	-18.2184
万	-18.2184
乗	-18.2184
付	-18.2184
商	-18.2184
土	-18.2184
太	-18.2184
妻	-18.2184
波	-18.2184
漫	-18.2184
理	-18.2184
画	-18.2184
界	-18.2184
老	-18.2184
见	-18.2184
言	-18.2184
邮	-18.2184
钧	-18.2184
가	-18.2184
ベ	-18.2184
卓	-18.2184
发	-18.2184
灣	-18.2184
吴	-18.2184
性	-18.2184
温	-18.2184
満	-18.2184
ィ	-18.2184
ロ	-18.2184
那	-18.2184
ქ	-18.2184
起	-18.2184
就	-18.2184
引	-18.2184
从	-18.2184
让	-18.2185
面	-18.2185
需	-18.4184
开	-18.4184
要	-18.4184
迫	-18.4184
求	-18.4184
保	-18.4184
想	-18.4184
洪	-18.4184
そ	-18.4184
や	-18.4184
个	-18.4184
效	-18.4184
每	-18.4184
气	-18.4184
着	-18.4184
许	-18.4184
際	-18.4184
ģ	-18.4184
Ό	-18.4184
Ъ	-18.4184
ᒐ	-18.4184
ム	-18.4184
仁	-18.4184
传	-18.4184
Ġ	-18.4184
へ	-18.4184
士	-18.4184
排	-18.4184
熨	-18.4184
车	-18.4184
사	-18.4184
ġ	-18.4184
Ģ	-18.4184
Ŧ	-18.4184
ȫ	-18.4184
ɶ	-18.4184
ˇ	-18.4184
̨	-18.4184
Ά	-18.4184
ΐ	-18.4184
۴	-18.4184
प	-18.4184
य	-18.4184
स	-18.4184
ि	-18.4184
୦	-18.4184
ᐱ	-18.4184
ᓗ	-18.4184
ᖃ	-18.4184
ỉ	-18.4184
ủ	-18.4184
≪	-18.4184
≫	-18.4184
む	-18.4184
ろ	-18.4184
キ	-18.4184
ゴ	-18.4184
ズ	-18.4184
ダ	-18.4184
千	-18.4184
同	-18.4184
向	-18.4184
呂	-18.4184
哈	-18.4184
外	-18.4184
女	-18.4184
屄	-18.4184
広	-18.4184
徳	-18.4184
志	-18.4184
收	-18.4184
武	-18.4184
汤	-18.4184
津	-18.4184
浜	-18.4184
煮	-18.4184
牌	-18.4184
状	-18.4184
甜	-18.4184
益	-18.4184
祝	-18.4184
紗	-18.4184
線	-18.4184
纱	-18.4184
背	-18.4184
臺	-18.4184
苏	-18.4184
草	-18.4184
超	-18.4184
車	-18.4184
静	-18.4184
题	-18.4184
성	-18.4184
장	-18.4184
지	-18.4184
ɐ	-18.4184
ᐸ	-18.4184
ᕆ	-18.4184
ぎ	-18.4184
園	-18.4184
旱	-18.4184
星	-18.4184
根	-18.4184
近	-18.4184
局	-18.4184
ᕌ	-18.4184
备	-18.4184
森	-18.4184
香	-18.4184
ᓕ	-18.4184
我	-18.4184
粮	-18.4185
他	-18.6684
对	-18.6684
护	-18.6684
其	-18.6684
些	-18.6684
バ	-18.6684
次	-18.6684
白	-18.6684
确	-18.6684
𐌰	-18.6684
𐍃	-18.6684
放	-18.6684
া	-18.6684
ᓪ	-18.6684
び	-18.6684
ビ	-18.6684
吨	-18.6684
吹	-18.6684
因	-18.6684
存	-18.6684
屋	-18.6684
源	-18.6684
為	-18.6684
献	-18.6684
签	-18.6684
统	-18.6684
送	-18.6684
ŝ	-18.6684
ฟ	-18.6684
ち	-18.6684
ピ	-18.6684
奈	-18.6684
宁	-18.6684
它	-18.6684
岩	-18.6684
揃	-18.6684
蒸	-18.6684
锋	-18.6684
라	-18.6684
자	-18.6684
ữ	-18.6684
ŵ	-18.6684
Ź	-18.6684
Ƶ	-18.6684
ǧ	-18.6684
ɹ	-18.6684
ʕ	-18.6684
ʡ	-18.6684
ʺ	-18.6684
ʿ	-18.6684
̥	-18.6684
ͨ	-18.6684
Ѷ	-18.6684
Ӣ	-18.6684
Ӫ	-18.6684
ٍ	-18.6684
ے	-18.6684
۶	-18.6684
२	-18.6684
দ	-18.6684
ರ	-18.6684
್	-18.6684
ฉ	-18.6684
ስ	-18.6684
ት	-18.6684
ᑏ	-18.6684
ẽ	-18.6684
ổ	-18.6684
ử	-18.6684
ἰ	-18.6684
∀	-18.6684
∈	-18.6684
⌘	-18.6684
░	-18.6684
▒	-18.6684
ぶ	-18.6684
め	-18.6684
ガ	-18.6684
ゲ	-18.6684
ハ	-18.6684
举	-18.6684
久	-18.6684
井	-18.6684
代	-18.6684
佐	-18.6684
俊	-18.6684
信	-18.6684
倍	-18.6684
列	-18.6684
句	-18.6684
吉	-18.6684
困	-18.6684
実	-18.6684
宿	-18.6684
寿	-18.6684
干	-18.6684
式	-18.6684
张	-18.6684
德	-18.6684
態	-18.6684
拉	-18.6684
敏	-18.6684
敷	-18.6684
易	-18.6684
書	-18.6684
条	-18.6684
板	-18.6684
枝	-18.6684
架	-18.6684
械	-18.6684
楠	-18.6684
業	-18.6684
治	-18.6684
注	-18.6684
洛	-18.6684
浅	-18.6684
港	-18.6684
然	-18.6684
特	-18.6684
琮	-18.6684
甸	-18.6684
町	-18.6684
痴	-18.6684
皇	-18.6684
眼	-18.6684
端	-18.6684
粉	-18.6684
純	-18.6684
群	-18.6684
脱	-18.6684
腰	-18.6684
茂	-18.6684
葉	-18.6684
袍	-18.6684
覇	-18.6684
角	-18.6684
设	-18.6684
贫	-18.6684
队	-18.6684
陀	-18.6684
陶	-18.6684
飼	-18.6684
駅	-18.6684
鵜	-18.6684
게	-18.6684
니	-18.6684
도	-18.6684
명	-18.6684
범	-18.6684
을	-18.6684
재	-18.6684
준	-18.6684
진	-18.6684
𐌽	-18.6684
ᖑ	-18.6684
掻	-18.6684
政	-18.6684
柳	-18.6684
自	-18.6684
구	-18.6684
대	-18.6684
ふ	-18.6684
今	-18.6684
味	-18.6684
壹	-18.6684
季	-18.6684
并	-18.6684
毛	-18.6684
浙	-18.6684
溜	-18.6684
短	-18.6684
钱	-18.6684
ბ	-18.6684
ご	-18.6684
提	-18.6684
改	-18.6684
样	-18.6684
版	-18.6684
还	-18.6684
适	-18.6684
駄	-18.6684
ხ	-18.6684
深	-18.6684
经	-18.6684
够	-18.6684
好	-18.6684
服	-18.6684
解	-18.6684
設	-18.6684
饲	-18.6685
告	-19.0017
禽	-19.0017
教	-19.0017
绪	-19.0017
造	-19.0018
遊	-19.0018
便	-19.0018
學	-19.0018
推	-19.0018
类	-19.0018
ᑭ	-19.0018
ワ	-19.0018
受	-19.0018
牛	-19.0018
组	-19.0018
花	-19.0018
落	-19.0018
春	-19.0018
習	-19.0018
ʌ	-19.0018
Ϊ	-19.0018
ह	-19.0018
ṃ	-19.0018
习	-19.0018
抜	-19.0018
施	-19.0018
組	-19.0018
遇	-19.0018
間	-19.0018
박	-19.0018
Ě	-19.0018
Ń	-19.0018
ɣ	-19.0018
ɵ	-19.0018
ɻ	-19.0018
ɽ	-19.0018
ʽ	-19.0018
̱	-19.0018
̶	-19.0018
ͬ	-19.0018
ͳ	-19.0018
Ͼ	-19.0018
؟	-19.0018
۵	-19.0018
ं	-19.0018
ी	-19.0018
ो	-19.0018
თ	-19.0018
ᓃ	-19.0018
ᕗ	-19.0018
ᖓ	-19.0018
ẩ	-19.0018
ự	-19.0018
‒	-19.0018
₫	-19.0018
↔	-19.0018
╔	-19.0018
◦	-19.0018
《	-19.0018
》	-19.0018
ぞ	-19.0018
ね	-19.0018
ほ	-19.0018
ぼ	-19.0018
ぽ	-19.0018
ァ	-19.0018
グ	-19.0018
セ	-19.0018
ヘ	-19.0018
ュ	-19.0018
ヴ	-19.0018
ㄧ	-19.0018
丹	-19.0018
云	-19.0018
仍	-19.0018
住	-19.0018
依	-19.0018
光	-19.0018
勢	-19.0018
単	-19.0018
問	-19.0018
头	-19.0018
奶	-19.0018
字	-19.0018
室	-19.0018
差	-19.0018
幌	-19.0018
幸	-19.0018
府	-19.0018
异	-19.0018
强	-19.0018
影	-19.0018
必	-19.0018
念	-19.0018
总	-19.0018
愛	-19.0018
才	-19.0018
朋	-19.0018
札	-19.0018
格	-19.0018
棋	-19.0018
橋	-19.0018
氏	-19.0018
沖	-19.0018
沢	-19.0018
消	-19.0018
涌	-19.0018
涩	-19.0018
済	-19.0018
渋	-19.0018
無	-19.0018
率	-19.0018
玲	-19.0018
番	-19.0018
異	-19.0018
紙	-19.0018
経	-19.0018
约	-19.0018
纪	-19.0018
義	-19.0018
考	-19.0018
耕	-19.0018
表	-19.0018
製	-19.0018
话	-19.0018
资	-19.0018
軍	-19.0018
郷	-19.0018
鍵	-19.0018
門	-19.0018
關	-19.0018
险	-19.0018
龙	-19.0018
고	-19.0018
관	-19.0018
김	-19.0018
로	-19.0018
마	-19.0018
서	-19.0018
스	-19.0018
역	-19.0018
연	-19.0018
옥	-19.0018
으	-19.0018
제	-19.0018
최	-19.0018
𠄲	-19.0018
Ʊ	-19.0018
情	-19.0018
ɾ	-19.0018
玉	-19.0018
網	-19.0018
英	-19.0018
铭	-19.0018
광	-19.0018
ც	-19.0018
严	-19.0018
亿	-19.0018
國	-19.0018
宝	-19.0018
朱	-19.0018
桃	-19.0018
欧	-19.0018
续	-19.0018
缺	-19.0018
입	-19.0018
席	-19.0018
庄	-19.0018
置	-19.0018
開	-19.0018
ᐳ	-19.0018
ホ	-19.0018
探	-19.0018
点	-19.0018
真	-19.0018
较	-19.0018
酒	-19.0018
ポ	-19.0018
ᕈ	-19.0018
医	-19.0018
憶	-19.0018
方	-19.0018
払	-19.5017
編	-19.5017
带	-19.5017
义	-19.5017
低	-19.5017
佳	-19.5017
候	-19.5017
妨	-19.5017
威	-19.5017
应	-19.5017
復	-19.5017
恢	-19.5017
授	-19.5017
旅	-19.5017
案	-19.5017
檔	-19.5017
活	-19.5017
溉	-19.5017
灌	-19.5017
照	-19.5017
碍	-19.5017
細	-19.5017
维	-19.5017
胁	-19.5017
藏	-19.5017
转	-19.5017
遠	-19.5017
損	-19.5017
与	-19.5018
೨	-19.5018
ᒋ	-19.5018
ᓘ	-19.5018
丸	-19.5018
巡	-19.5018
弾	-19.5018
於	-19.5018
陽	-19.5018
预	-19.5018
ट	-19.5018
ൺ	-19.5018
乏	-19.5018
交	-19.5018
伝	-19.5018
別	-19.5018
勘	-19.5018
古	-19.5018
寸	-19.5018
拼	-19.5018
指	-19.5018
援	-19.5018
泥	-19.5018
申	-19.5018
色	-19.5018
話	-19.5018
赶	-19.5018
辞	-19.5018
配	-19.5018
醍	-19.5018
醐	-19.5018
雨	-19.5018
題	-19.5018
飛	-19.5018
ԭ	-19.5018
ỳ	-19.5018
势	-19.5018
危	-19.5018
呆	-19.5018
囲	-19.5018
役	-19.5018
普	-19.5018
树	-19.5018
淹	-19.5018
皮	-19.5018
過	-19.5018
釣	-19.5018
飾	-19.5018
[	-19.5018
ĸ	-19.5018
Ļ	-19.5018
ŋ	-19.5018
ũ	-19.5018
Ǯ	-19.5018
ǰ	-19.5018
ȗ	-19.5018
Ȩ	-19.5018
ȷ	-19.5018
ɗ	-19.5018
ɳ	-19.5018
ʒ	-19.5018
˗	-19.5018
ˮ	-19.5018
˼	-19.5018
̐	-19.5018
̳	-19.5018
̵	-19.5018
̸	-19.5018
Ͷ	-19.5018
Ώ	-19.5018
ϋ	-19.5018
ҽ	-19.5018
ӵ	-19.5018
բ	-19.5018
֪	-19.5018
ַ	-19.5018
־	-19.5018
ٔ	-19.5018
ٴ	-19.5018
ژ	-19.5018
ۇ	-19.5018
ۣ	-19.5018
۷	-19.5018
ۿ	-19.5018
अ	-19.5018
छ	-19.5018
थ	-19.5018
द	-19.5018
ब	-19.5018
ल	-19.5018
ळ	-19.5018
ू	-19.5018
ै	-19.5018
४	-19.5018
५	-19.5018
ঁ	-19.5018
আ	-19.5018
ক	-19.5018
ম	-19.5018
য	-19.5018
র	-19.5018
ল	-19.5018
স	-19.5018
ু	-19.5018
ে	-19.5018
୫	-19.5018
୯	-19.5018
ಐ	-19.5018
ಯ	-19.5018
ವ	-19.5018
ಶ	-19.5018
ಾ	-19.5018
ೈ	-19.5018
೪	-19.5018
೭	-19.5018
ฃ	-19.5018
ฏ	-19.5018
ฝ	-19.5018
๊	-19.5018
๑	-19.5018
་	-19.5018
ᔮ	-19.5018
ᖕ	-19.5018
ḃ	-19.5018
Ḥ	-19.5018
ḫ	-19.5018
ẹ	-19.5018
ỗ	-19.5018
ἄ	-19.5018
ὁ	-19.5018
‖	-19.5018
∆	-19.5018
∏	-19.5018
∗	-19.5018
∙	-19.5018
∴	-19.5018
≠	-19.5018
⊕	-19.5018
⌃	-19.5018
□	-19.5018
▲	-19.5018
▷	-19.5018
◇	-19.5018
☎	-19.5018
☑	-19.5018
♀	-19.5018
♕	-19.5018
✔	-19.5018
➟	-19.5018
々	-19.5018
〔	-19.5018
〕	-19.5018
げ	-19.5018
ず	-19.5018
ぜ	-19.5018
ぬ	-19.5018
ぷ	-19.5018
べ	-19.5018
ゆ	-19.5018
ォ	-19.5018
ギ	-19.5018
ザ	-19.5018
ゼ	-19.5018
ソ	-19.5018
ゾ	-19.5018
ヌ	-19.5018
モ	-19.5018
ヤ	-19.5018
ㄣ	-19.5018
ㄤ	-19.5018
七	-19.5018
丨	-19.5018
丽	-19.5018
书	-19.5018
予	-19.5018
享	-19.5018
仙	-19.5018
件	-19.5018
份	-19.5018
伴	-19.5018
伸	-19.5018
似	-19.5018
佑	-19.5018
你	-19.5018
佰	-19.5018
倒	-19.5018
傅	-19.5018
儀	-19.5018
儒	-19.5018
児	-19.5018
共	-19.5018
兵	-19.5018
册	-19.5018
冤	-19.5018
凄	-19.5018
减	-19.5018
劇	-19.5018
功	-19.5018
劳	-19.5018
務	-19.5018
卡	-19.5018
叟	-19.5018
号	-19.5018
吊	-19.5018
响	-19.5018
唸	-19.5018
嗎	-19.5018
嘉	-19.5018
嘛	-19.5018
噌	-19.5018
団	-19.5018
囧	-19.5018
园	-19.5018
圍	-19.5018
圓	-19.5018
坂	-19.5018
均	-19.5018
坑	-19.5018
垂	-19.5018
堂	-19.5018
塾	-19.5018
壊	-19.5018
处	-19.5018
奸	-19.5018
姦	-19.5018
姫	-19.5018
婆	-19.5018
媛	-19.5018
嫁	-19.5018
官	-19.5018
宜	-19.5018
宣	-19.5018
宫	-19.5018
寄	-19.5018
實	-19.5018
対	-19.5018
少	-19.5018
尾	-19.5018
屈	-19.5018
届	-19.5018
属	-19.5018
岐	-19.5018
岛	-19.5018
岭	-19.5018
峪	-19.5018
嶺	-19.5018
巴	-19.5018
师	-19.5018
幣	-19.5018
幹	-19.5018
广	-19.5018
庁	-19.5018
庫	-19.5018
弄	-19.5018
形	-19.5018
応	-19.5018
怡	-19.5018
急	-19.5018
悠	-19.5018
悩	-19.5018
戸	-19.5018
找	-19.5018
投	-19.5018
折	-19.5018
拓	-19.5018
挡	-19.5018
挿	-19.5018
捷	-19.5018
握	-19.5018
搗	-19.5018
搞	-19.5018
摇	-19.5018
撮	-19.5018
故	-19.5018
斎	-19.5018
斤	-19.5018
时	-19.5018
時	-19.5018
智	-19.5018
曲	-19.5018
权	-19.5018
村	-19.5018
束	-19.5018
极	-19.5018
果	-19.5018
查	-19.5018
柴	-19.5018
栃	-19.5018
株	-19.5018
桓	-19.5018
桥	-19.5018
様	-19.5018
機	-19.5018
欢	-19.5018
款	-19.5018
歐	-19.5018
止	-19.5018
歩	-19.5018
殿	-19.5018
汁	-19.5018
池	-19.5018
沒	-19.5018
河	-19.5018
油	-19.5018
況	-19.5018
洋	-19.5018
洒	-19.5018
洱	-19.5018
浄	-19.5018
济	-19.5018
浴	-19.5018
游	-19.5018
溢	-19.5018
滑	-19.5018
漢	-19.5018
潜	-19.5018
激	-19.5018
火	-19.5018
焚	-19.5018
熱	-19.5018
爪	-19.5018
猛	-19.5018
琉	-19.5018
琢	-19.5018
琴	-19.5018
璐	-19.5018
甘	-19.5018
甲	-19.5018
畿	-19.5018
痛	-19.5018
看	-19.5018
瞎	-19.5018
破	-19.5018
礼	-19.5018
祖	-19.5018
祭	-19.5018
禁	-19.5018
禄	-19.5018
秉	-19.5018
秋	-19.5018
笑	-19.5018
等	-19.5018
策	-19.5018
算	-19.5018
箱	-19.5018
節	-19.5018
篆	-19.5018
簡	-19.5018
紀	-19.5018
終	-19.5018
給	-19.5018
継	-19.5018
縄	-19.5018
纷	-19.5018
纸	-19.5018
编	-19.5018
罪	-19.5018
羅	-19.5018
翁	-19.5018
翻	-19.5018
耀	-19.5018
肃	-19.5018
臂	-19.5018
致	-19.5018
船	-19.5018
节	-19.5018
茧	-19.5018
茨	-19.5018
荣	-19.5018
莹	-19.5018
营	-19.5018
萧	-19.5018
葱	-19.5018
蔓	-19.5018
蔚	-19.5018
薩	-19.5018
薬	-19.5018
蘇	-19.5018
螳	-19.5018
衣	-19.5018
衫	-19.5018
裕	-19.5018
视	-19.5018
誠	-19.5018
计	-19.5018
证	-19.5018
谐	-19.5018
象	-19.5018
豫	-19.5018
豱	-19.5018
豸	-19.5018
負	-19.5018
財	-19.5018
貢	-19.5018
賢	-19.5018
贞	-19.5018
贡	-19.5018
货	-19.5018
贱	-19.5018
赛	-19.5018
赵	-19.5018
跨	-19.5018
輿	-19.5018
辦	-19.5018
运	-19.5018
透	-19.5018
連	-19.5018
逸	-19.5018
達	-19.5018
邱	-19.5018
錦	-19.5018
钓	-19.5018
锦	-19.5018
镜	-19.5018
閥	-19.5018
门	-19.5018
阅	-19.5018
阜	-19.5018
防	-19.5018
阳	-19.5018
阿	-19.5018
陆	-19.5018
院	-19.5018
除	-19.5018
陳	-19.5018
雑	-19.5018
雛	-19.5018
雲	-19.5018
零	-19.5018
電	-19.5018
頃	-19.5018
類	-19.5018
顷	-19.5018
顾	-19.5018
飞	-19.5018
飬	-19.5018
養	-19.5018
饮	-19.5018
騜	-19.5018
骨	-19.5018
魂	-19.5018
鸣	-19.5018
黛	-19.5018
龍	-19.5018
골	-19.5018
과	-19.5018
교	-19.5018
나	-19.5018
남	-19.5018
녁	-19.5018
노	-19.5018
닉	-19.5018
당	-19.5018
뒤	-19.5018
드	-19.5018
람	-19.5018
런	-19.5018
르	-19.5018
를	-19.5018
리	-19.5018
며	-19.5018
무	-19.5018
법	-19.5018
분	-19.5018
비	-19.5018
상	-19.5018
세	-19.5018
속	-19.5018
수	-19.5018
승	-19.5018
아	-19.5018
암	-19.5018
와	-19.5018
음	-19.5018
임	-19.5018
저	-19.5018
전	-19.5018
접	-19.5018
중	-19.5018
쿤	-19.5018
택	-19.5018
합	-19.5018
해	-19.5018
현	-19.5018
호	-19.5018
황	-19.5018
𐌴	-19.5018
𐌸	-19.5018
𐌼	-19.5018
𐍉	-19.5018
ḍ	-19.5018
坐	-19.5018
惧	-19.5018
Ň	-19.5018
Ū	-19.5018
ǝ	-19.5018
Ψ	-19.5018
ӡ	-19.5018
Ա	-19.5018
ղ	-19.5018
冠	-19.5018
叫	-19.5018
圆	-19.5018
夷	-19.5018
扈	-19.5018
添	-19.5018
牙	-19.5018
舫	-19.5018
菩	-19.5018
華	-19.5018
蒋	-19.5018
逃	-19.5018
郭	-19.5018
隆	-19.5018
랑	-19.5018
프	-19.5018
跋	-19.5018
आ	-19.5018
ფ	-19.5018
ῖ	-19.5018
储	-19.5018
兰	-19.5018
华	-19.5018
即	-19.5018
咬	-19.5018
嬉	-19.5018
尔	-19.5018
巫	-19.5018
已	-19.5018
抵	-19.5018
換	-19.5018
摆	-19.5018
楽	-19.5018
親	-19.5018
迎	-19.5018
陈	-19.5018
鲁	-19.5018
렉	-19.5018
알	-19.5018
했	-19.5018
Ἀ	-19.5018
么	-19.5018
数	-19.5018
桜	-19.5018
植	-19.5018
达	-19.5018
临	-19.5018
兽	-19.5018
废	-19.5018
质	-19.5018
育	-19.5018
链	-19.5019
警	-20.5016
简	-20.5016
Ő	-20.5017
値	-20.5017
另	-20.5017
否	-20.5017
基	-20.5017
战	-20.5017
承	-20.5017
挑	-20.5017
染	-20.5017
段	-20.5017
病	-20.5017
稳	-20.5017
触	-20.5017
诺	-20.5017
负	-20.5017
两	-20.5017
孟	-20.5017
師	-20.5017
庭	-20.5017
挠	-20.5017
撒	-20.5017
溯	-20.5017
热	-20.5017
瘤	-20.5017
缩	-20.5017
范	-20.5017
蕴	-20.5017
追	-20.5017
采	-20.5017
阻	-20.5017
Қ	-20.5018
क	-20.5018
ृ	-20.5018
臓	-20.5018
记	-20.5018
Į	-20.5018
ݸ	-20.5018
ࠬ	-20.5018
ằ	-20.5018
Ế	-20.5018
帰	-20.5018
莽	-20.5018
試	-20.5018
试	-20.5018
몬	-20.5018
"	-20.5018
]	-20.5018
Ċ	-20.5018
Ķ	-20.5018
ŧ	-20.5018
Ů	-20.5018
Ɔ	-20.5018
ƣ	-20.5018
Ƴ	-20.5018
ƴ	-20.5018
Ƹ	-20.5018
ƹ	-20.5018
ƽ	-20.5018
ǒ	-20.5018
Ǵ	-20.5018
ǹ	-20.5018
Ǻ	-20.5018
Ǽ	-20.5018
ǿ	-20.5018
ȏ	-20.5018
ȭ	-20.5018
ȸ	-20.5018
ȹ	-20.5018
Ƚ	-20.5018
ɚ	-20.5018
ɜ	-20.5018
ɠ	-20.5018
ɦ	-20.5018
ɷ	-20.5018
ʁ	-20.5018
ʇ	-20.5018
ʋ	-20.5018
ʢ	-20.5018
ˊ	-20.5018
ˋ	-20.5018
˲	-20.5018
˽	-20.5018
̡	-20.5018
̣	-20.5018
͘	-20.5018
ͣ	-20.5018
ͻ	-20.5018
ͼ	-20.5018
Ή	-20.5018
Ϸ	-20.5018
ϸ	-20.5018
ѹ	-20.5018
ҏ	-20.5018
ҫ	-20.5018
Ҳ	-20.5018
Ҽ	-20.5018
Ӝ	-20.5018
ӭ	-20.5018
Ӱ	-20.5018
Ӵ	-20.5018
Ӻ	-20.5018
ӿ	-20.5018
ԁ	-20.5018
ԡ	-20.5018
Ժ	-20.5018
Լ	-20.5018
Խ	-20.5018
ձ	-20.5018
մ	-20.5018
ְ	-20.5018
ֲ	-20.5018
ִ	-20.5018
ֹ	-20.5018
ֽ	-20.5018
ׁ	-20.5018
ץ	-20.5018
װ	-20.5018
ٺ	-20.5018
ڤ	-20.5018
ڱ	-20.5018
ڶ	-20.5018
ں	-20.5018
ھ	-20.5018
ۆ	-20.5018
ۡ	-20.5018
۸	-20.5018
ۺ	-20.5018
ܡ	-20.5018
ܲ	-20.5018
ܵ	-20.5018
ݵ	-20.5018
߲	-20.5018
ߵ	-20.5018
߶	-20.5018
߷	-20.5018
߹	-20.5018
ः	-20.5018
ज	-20.5018
ड	-20.5018
ढ	-20.5018
व	-20.5018
ॐ	-20.5018
୪	-20.5018
୭	-20.5018
ം	-20.5018
മ	-20.5018
യ	-20.5018
ല	-20.5018
ള	-20.5018
ฑ	-20.5018
ฒ	-20.5018
ฯ	-20.5018
ງ	-20.5018
ນ	-20.5018
ວ	-20.5018
ັ	-20.5018
ຽ	-20.5018
།	-20.5018
ག	-20.5018
ཐ	-20.5018
ད	-20.5018
ཕ	-20.5018
བ	-20.5018
མ	-20.5018
ི	-20.5018
ུ	-20.5018
ོ	-20.5018
ྭ	-20.5018
ზ	-20.5018
პ	-20.5018
წ	-20.5018
ᄒ	-20.5018
ሜ	-20.5018
ᑉ	-20.5018
ᑖ	-20.5018
ᓚ	-20.5018
ᕋ	-20.5018
ᕕ	-20.5018
ᕝ	-20.5018
ᖁ	-20.5018
ᖢ	-20.5018
ḥ	-20.5018
ḳ	-20.5018
ḷ	-20.5018
ṛ	-20.5018
Ṭ	-20.5018
Ầ	-20.5018
ẫ	-20.5018
ẳ	-20.5018
ẻ	-20.5018
ỏ	-20.5018
ừ	-20.5018
ỹ	-20.5018
ὺ	-20.5018
‛	-20.5018
₩	-20.5018
℣	-20.5018
∶	-20.5018
⊳	-20.5018
➢	-20.5018
➥	-20.5018
⡣	-20.5018
⣬	-20.5018
ぴ	-20.5018
ゅ	-20.5018
ボ	-20.5018
ャ	-20.5018
ヨ	-20.5018
ㄅ	-20.5018
ㄊ	-20.5018
ㄕ	-20.5018
ㄞ	-20.5018
ㄟ	-20.5018
㣬	-20.5018
㵼	-20.5018
丈	-20.5018
丰	-20.5018
乌	-20.5018
买	-20.5018
价	-20.5018
休	-20.5018
优	-20.5018
佱	-20.5018
例	-20.5018
供	-20.5018
価	-20.5018
備	-20.5018
像	-20.5018
僕	-20.5018
優	-20.5018
儿	-20.5018
免	-20.5018
六	-20.5018
再	-20.5018
军	-20.5018
冲	-20.5018
决	-20.5018
冶	-20.5018
凸	-20.5018
别	-20.5018
制	-20.5018
券	-20.5018
刺	-20.5018
剃	-20.5018
則	-20.5018
剩	-20.5018
創	-20.5018
努	-20.5018
勒	-20.5018
勞	-20.5018
卫	-20.5018
反	-20.5018
収	-20.5018
各	-20.5018
后	-20.5018
吟	-20.5018
周	-20.5018
啓	-20.5018
喂	-20.5018
善	-20.5018
围	-20.5018
埕	-20.5018
埵	-20.5018
塊	-20.5018
塗	-20.5018
夠	-20.5018
奉	-20.5018
奥	-20.5018
妖	-20.5018
姆	-20.5018
始	-20.5018
宋	-20.5018
宏	-20.5018
宗	-20.5018
实	-20.5018
宾	-20.5018
尊	-20.5018
尙	-20.5018
屑	-20.5018
峒	-20.5018
峻	-20.5018
巨	-20.5018
布	-20.5018
幾	-20.5018
床	-20.5018
库	-20.5018
康	-20.5018
庸	-20.5018
录	-20.5018
循	-20.5018
微	-20.5018
忆	-20.5018
忙	-20.5018
态	-20.5018
恒	-20.5018
息	-20.5018
恵	-20.5018
惨	-20.5018
惯	-20.5018
慣	-20.5018
慶	-20.5018
戯	-20.5018
打	-20.5018
扬	-20.5018
抹	-20.5018
损	-20.5018
据	-20.5018
接	-20.5018
措	-20.5018
摩	-20.5018
播	-20.5018
操	-20.5018
擢	-20.5018
整	-20.5018
斯	-20.5018
早	-20.5018
显	-20.5018
景	-20.5018
晶	-20.5018
暂	-20.5018
會	-20.5018
朗	-20.5018
望	-20.5018
枚	-20.5018
栄	-20.5018
校	-20.5018
桢	-20.5018
梨	-20.5018
棒	-20.5018
模	-20.5018
横	-20.5018
樹	-20.5018
氧	-20.5018
氮	-20.5018
泄	-20.5018
泽	-20.5018
洁	-20.5018
派	-20.5018
浆	-20.5018
涂	-20.5018
涨	-20.5018
渐	-20.5018
渴	-20.5018
湄	-20.5018
湖	-20.5018
湘	-20.5018
湾	-20.5018
溶	-20.5018
滝	-20.5018
滩	-20.5018
潭	-20.5018
灾	-20.5018
烏	-20.5018
焦	-20.5018
熟	-20.5018
燃	-20.5018
父	-20.5018
牵	-20.5018
牽	-20.5018
狐	-20.5018
独	-20.5018
猪	-20.5018
猫	-20.5018
猿	-20.5018
獲	-20.5018
环	-20.5018
现	-20.5018
環	-20.5018
电	-20.5018
畳	-20.5018
疑	-20.5018
眞	-20.5018
瞬	-20.5018
矿	-20.5018
硢	-20.5018
硬	-20.5018
碁	-20.5018
碳	-20.5018
祸	-20.5018
祿	-20.5018
稀	-20.5018
穴	-20.5018
穷	-20.5018
突	-20.5018
窪	-20.5018
窯	-20.5018
箍	-20.5018
籠	-20.5018
粥	-20.5018
絞	-20.5018
絵	-20.5018
綴	-20.5018
縣	-20.5018
级	-20.5018
纲	-20.5018
线	-20.5018
络	-20.5018
绞	-20.5018
绰	-20.5018
缓	-20.5018
翴	-20.5018
聊	-20.5018
聖	-20.5018
聞	-20.5018
職	-20.5018
肖	-20.5018
肥	-20.5018
般	-20.5018
芋	-20.5018
荐	-20.5018
菜	-20.5018
蔵	-20.5018
薯	-20.5018
虎	-20.5018
虹	-20.5018
蝦	-20.5018
融	-20.5018
術	-20.5018
装	-20.5018
裏	-20.5018
觀	-20.5018
观	-20.5018
览	-20.5018
計	-20.5018
訪	-20.5018
許	-20.5018
詩	-20.5018
詰	-20.5018
誕	-20.5018
請	-20.5018
護	-20.5018
认	-20.5018
论	-20.5018
访	-20.5018
诘	-20.5018
该	-20.5018
说	-20.5018
豪	-20.5018
貰	-20.5018
貸	-20.5018
費	-20.5018
賃	-20.5018
贈	-20.5018
购	-20.5018
贳	-20.5018
贸	-20.5018
赖	-20.5018
赠	-20.5018
趋	-20.5018
較	-20.5018
載	-20.5018
轩	-20.5018
轻	-20.5018
远	-20.5018
连	-20.5018
逢	-20.5018
運	-20.5018
遣	-20.5018
選	-20.5018
避	-20.5018
還	-20.5018
邑	-20.5018
醋	-20.5018
鉄	-20.5018
銀	-20.5018
銘	-20.5018
鐵	-20.5018
钦	-20.5018
银	-20.5018
锚	-20.5018
閡	-20.5018
閣	-20.5018
间	-20.5018
闻	-20.5018
阴	-20.5018
限	-20.5018
陕	-20.5018
陣	-20.5018
陰	-20.5018
雁	-20.5018
靠	-20.5018
韶	-20.5018
頭	-20.5018
须	-20.5018
饭	-20.5018
饰	-20.5018
馆	-20.5018
鱲	-20.5018
鳥	-20.5018
鹺	-20.5018
鹿	-20.5018
麻	-20.5018
黎	-20.5018
黒	-20.5018
齐	-20.5018
강	-20.5018
개	-20.5018
거	-20.5018
것	-20.5018
결	-20.5018
경	-20.5018
공	-20.5018
괴	-20.5018
굴	-20.5018
규	-20.5018
금	-20.5018
끼	-20.5018
낀	-20.5018
낮	-20.5018
늘	-20.5018
님	-20.5018
던	-20.5018
둑	-20.5018
둥	-20.5018
든	-20.5018
떨	-20.5018
뜩	-20.5018
랍	-20.5018
래	-20.5018
련	-20.5018
름	-20.5018
만	-20.5018
모	-20.5018
문	-20.5018
물	-20.5018
미	-20.5018
및	-20.5018
바	-20.5018
밝	-20.5018
배	-20.5018
밴	-20.5018
번	-20.5018
변	-20.5018
Ї	-20.5018
ȃ	-20.5018
ʮ	-20.5018
ˌ	-20.5018
Ṣ	-20.5018
暫	-20.5018
皞	-20.5018
絡	-20.5018
ɡ	-20.5018
ɲ	-20.5018
ֵ	-20.5018
ण	-20.5018
ാ	-20.5018
ຈ	-20.5018
ძ	-20.5018
位	-20.5018
偶	-20.5018
则	-20.5018
址	-20.5018
塞	-20.5018
夜	-20.5018
嵐	-20.5018
廣	-20.5018
征	-20.5018
柚	-20.5018
縮	-20.5018
航	-20.5018
賴	-20.5018
극	-20.5018
ּ	-20.5018
乎	-20.5018
展	-20.5018
快	-20.5018
覧	-20.5018
速	-20.5018
估	-20.5018
偵	-20.5018
先	-20.5018
冷	-20.5018
度	-20.5018
或	-20.5018
抗	-20.5018
没	-20.5018
盐	-20.5018
虫	-20.5018
验	-20.5018
Ţ	-20.5019
务	-20.5019
磷	-20.5019
酸	-20.5019
ѓ	-20.502
°	-20.5021
互	-20.5021
任	-20.5021
何	-20.5021
复	-20.5021
忽	-20.5021
杂	-20.5021
疏	-20.5021
联	-20.5021
